[UNK]
[PAD]
[CLS]
[SEP]
[MASK]
[BOS]
[EOS]
[UNK0]
[UNK1]
[UNK2]
[UNK3]
[UNK4]
[UNK5]
[UNK6]
[UNK7]
[UNK8]
[UNK9]
[unused0]
[unused1]
[unused2]
[unused3]
[unused4]
[unused5]
[unused6]
[unused7]
[unused8]
[unused9]
[unused10]
[unused11]
[unused12]
[unused13]
[unused14]
[unused15]
[unused16]
[unused17]
[unused18]
[unused19]
[unused20]
[unused21]
[unused22]
[unused23]
[unused24]
[unused25]
[unused26]
[unused27]
[unused28]
[unused29]
[unused30]
[unused31]
[unused32]
[unused33]
[unused34]
[unused35]
[unused36]
[unused37]
[unused38]
[unused39]
[unused40]
[unused41]
[unused42]
[unused43]
[unused44]
[unused45]
[unused46]
[unused47]
[unused48]
[unused49]
[unused50]
[unused51]
[unused52]
[unused53]
[unused54]
[unused55]
[unused56]
[unused57]
[unused58]
[unused59]
[unused60]
[unused61]
[unused62]
[unused63]
[unused64]
[unused65]
[unused66]
[unused67]
[unused68]
[unused69]
[unused70]
[unused71]
[unused72]
[unused73]
[unused74]
[unused75]
[unused76]
[unused77]
[unused78]
[unused79]
[unused80]
[unused81]
[unused82]
[unused83]
[unused84]
[unused85]
[unused86]
[unused87]
[unused88]
[unused89]
[unused90]
[unused91]
[unused92]
[unused93]
[unused94]
[unused95]
[unused96]
[unused97]
[unused98]
[unused99]
[unused100]
[unused101]
[unused102]
[unused103]
[unused104]
[unused105]
[unused106]
[unused107]
[unused108]
[unused109]
[unused110]
[unused111]
[unused112]
[unused113]
[unused114]
[unused115]
[unused116]
[unused117]
[unused118]
[unused119]
[unused120]
[unused121]
[unused122]
[unused123]
[unused124]
[unused125]
[unused126]
[unused127]
[unused128]
[unused129]
[unused130]
[unused131]
[unused132]
[unused133]
[unused134]
[unused135]
[unused136]
[unused137]
[unused138]
[unused139]
[unused140]
[unused141]
[unused142]
[unused143]
[unused144]
[unused145]
[unused146]
[unused147]
[unused148]
[unused149]
[unused150]
[unused151]
[unused152]
[unused153]
[unused154]
[unused155]
[unused156]
[unused157]
[unused158]
[unused159]
[unused160]
[unused161]
[unused162]
[unused163]
[unused164]
[unused165]
[unused166]
[unused167]
[unused168]
[unused169]
[unused170]
[unused171]
[unused172]
[unused173]
[unused174]
[unused175]
[unused176]
[unused177]
[unused178]
[unused179]
[unused180]
[unused181]
[unused182]
[unused183]
[unused184]
[unused185]
[unused186]
[unused187]
[unused188]
[unused189]
[unused190]
[unused191]
[unused192]
[unused193]
[unused194]
[unused195]
[unused196]
[unused197]
[unused198]
[unused199]
!
"
#
$
%
&
'
(
)
*
+
,
-
.
/
0
1
2
3
4
5
6
7
8
9
:
;
<
=
>
?
@
A
B
C
D
E
F
G
H
I
J
K
L
M
N
O
P
Q
R
S
T
U
V
W
X
Y
Z
[
\
]
^
_
`
a
b
c
d
e
f
g
h
i
j
k
l
m
n
o
p
q
r
s
t
u
v
w
x
y
z
{
|
}
~
£
§
¨
«
®
°
±
²
³
´
µ
·
¸
¹
»
¼
½
Å
Æ
È
É
Ö
×
Þ
ß
à
á
â
ã
ä
å
æ
ç
è
é
ê
ë
ì
í
î
ï
ð
ñ
ò
ó
ô
õ
ö
÷
ø
ù
ú
ü
þ
ā
ă
ą
ć
Č
č
ē
ė
ę
ě
ğ
ħ
ĩ
ī
ı
ĵ
ł
ń
ņ
ŋ
ō
ŏ
œ
Ś
ś
ş
Š
š
ū
ŭ
ų
Ɔ
Ǝ
Ʒ
ǎ
ǐ
ǒ
ǔ
ǣ
Ǫ
ǫ
ǽ
ș
ɐ
ɑ
ɒ
ɔ
ə
ɛ
ɜ
ɡ
ɣ
ɤ
ɨ
ɪ
ɯ
ɴ
ɶ
ɸ
ɾ
ʀ
ʁ
ʃ
ʉ
ʊ
ʌ
ʒ
ʔ
ʰ
ʲ
ʹ
ʿ
˄
ˈ
ˌ
ː
˘
˙
˚
˝
ˠ
̀
́
̃
̯
Ά
Έ
Β
Γ
Δ
Ε
Ζ
Κ
Λ
Μ
Π
Σ
Φ
Ω
ά
έ
ή
ί
α
β
γ
δ
ε
η
θ
ι
κ
λ
μ
ν
ο
π
ρ
ς
σ
τ
υ
φ
χ
ψ
ω
ϊ
ό
ύ
ώ
ϓ
Ѕ
А
Б
В
Г
Д
Е
З
И
К
Л
М
Н
О
П
Р
С
Т
У
Х
Ч
Ю
а
б
в
г
д
е
ж
з
и
й
к
л
м
н
о
п
р
с
т
у
ф
х
ц
ч
ш
ъ
ы
ь
э
ю
я
ѓ
є
і
ї
ӌ
Ӥ
Վ
ի
ր
ք
ְ
ֱ
ִ
ָ
ֹ
א
ב
ג
ה
ו
ז
ח
י
ך
ל
מ
ן
ס
צ
ק
ר
ש
ا
ة
ت
ج
خ
د
ر
ز
س
ص
ع
ف
ل
م
ن
ه
و
ي
ی
ก
ร
ล
ส
ห
ะ
า
ี
เ
แ
က
င
ဉ
တ
ပ
မ
ယ
ရ
လ
သ
ာ
ိ
ု
ံ
း
္
်
ြ
Ⴒ
ა
ბ
დ
ე
ვ
თ
ი
კ
ლ
მ
ო
პ
რ
ს
ტ
უ
ქ
ც
ჭ
ᄀ
ᄁ
ᄂ
ᄃ
ᄅ
ᄆ
ᄇ
ᄈ
ᄉ
ᄊ
ᄋ
ᄌ
ᄍ
ᄎ
ᄏ
ᄐ
ᄑ
ᄒ
ᄠ
ᄡ
ᄢ
ᄣ
ᄧ
ᄩ
ᄫ
ᄭ
ᄯ
ᄲ
ᄶ
ᅀ
ᅇ
ᅌ
ᅘ
ᅟ
ᅠ
ᅡ
ᅢ
ᅣ
ᅥ
ᅦ
ᅧ
ᅨ
ᅩ
ᅪ
ᅬ
ᅭ
ᅮ
ᅯ
ᅱ
ᅲ
ᅳ
ᅴ
ᅵ
ᆈ
ᆐ
ᆔ
ᆞ
ᆡ
ᆨ
ᆫ
ᆮ
ᆯ
ᆰ
ᆲ
ᆳ
ᆶ
ᆷ
ᆸ
ᆺ
ᆻ
ᆼ
ᇂ
ᇌ
ᇙ
ᇚ
ᇝ
ᇢ
ᇫ
ᇰ
ᇹ
ᐤ
᠋
᠌
ᠠ
ᠢ
ᠣ
ᠤ
ᠥ
ᠦ
ᠧ
ᠨ
ᠩ
ᠬ
ᠭ
ᠮ
ᠯ
ᠰ
ᠲ
ᠵ
ᠶ
ᠷ
ᠸ
ᠺ
ᠻ
ᠾ
ᡀ
ᡝ
ᡠ
ᡡ
ᡤ
ᡥ
ᡧ
ᡨ
ᡩ
ᡯ
ᡳ
ᡵ
ᡶ
ᵇ
ᶜ
᷅
ḍ
ḥ
ṁ
ṃ
ṅ
ṇ
ṛ
ṣ
ṭ
ẓ
Ấ
ầ
ậ
ẹ
ễ
ệ
ố
ἀ
ἐ
ἔ
Ἑ
Ἴ
ὑ
ὒ
ὕ
ὤ
ὰ
ὶ
ᾶ
ῖ
ῶ
‑
–
—
―
‘
’
‚
“
”
„
†
•
․
‥
…
‧
‰
′
″
‴
※
⁄
⁴
⁶
⁻
₀
₁
₂
₃
₄
₅
₈
₉
₩
€
℃
℉
ℓ
№
Ω
Å
⅓
⅔
Ⅰ
Ⅱ
Ⅲ
Ⅳ
Ⅴ
Ⅵ
Ⅶ
Ⅷ
Ⅸ
Ⅹ
ⅰ
ⅱ
ⅲ
ⅳ
ⅷ
←
↑
→
↓
↔
⇒
⇔
∂
∃
∅
∑
−
∔
∙
√
∝
∞
∠
∥
∧
∨
∩
∪
∫
∼
≈
≡
≪
≫
⊏
⊐
⊓
⊙
⋅
⌜
⌟
⎕
⎾
⏌
①
②
③
④
⑤
⑥
⑦
⑧
⑨
⑩
⑪
⑫
⑬
⑭
⑮
⑯
⑰
⑱
⑲
⑳
⑴
⑵
⑶
⑷
⑸
⑹
⑺
⑻
ⓛ
─
│
┃
┌
┍
┐
┘
┛
┤
■
□
▨
▲
△
▷
◇
◉
○
◎
●
◐
◑
◯
★
☆
☉
☶
♡
♧
♩
♭
♯
➀
➁
➂
➃
➄
⢹
⦶
⧘
⨆
ⴤ
⺾
、
。
〃
々
〇
〈
〉
《
》
「
」
『
』
【
】
〔
〕
〜
〬
あ
ぃ
い
う
え
お
か
が
き
ぎ
く
ぐ
け
げ
こ
ご
さ
し
じ
す
ず
せ
そ
た
だ
ち
っ
つ
て
で
と
ど
な
に
ぬ
ね
の
は
ば
ひ
び
ふ
ぶ
へ
ほ
ぼ
ぽ
ま
み
む
め
も
ゃ
や
ゅ
ゆ
ょ
よ
ら
り
る
れ
ろ
わ
ゐ
を
ん
ァ
ア
ィ
イ
ゥ
ウ
ェ
エ
オ
カ
ガ
キ
ギ
ク
グ
ケ
コ
ゴ
サ
ザ
シ
ジ
ス
ズ
セ
ソ
タ
ダ
チ
ッ
ツ
テ
デ
ト
ド
ナ
ニ
ネ
ノ
バ
パ
ヒ
ビ
ピ
フ
ブ
プ
ヘ
ベ
ポ
マ
ミ
ム
メ
モ
ャ
ヤ
ュ
ョ
ヨ
ラ
リ
ル
レ
ロ
ワ
ヰ
ン
ヶ
・
ー
ㄇ
ㄩ
ㄱ
ㄲ
ㄳ
ㄴ
ㄵ
ㄶ
ㄷ
ㄸ
ㄹ
ㄺ
ㄻ
ㄼ
ㄽ
ㄾ
ㄿ
ㅀ
ㅁ
ㅂ
ㅃ
ㅄ
ㅅ
ㅆ
ㅇ
ㅈ
ㅉ
ㅊ
ㅋ
ㅌ
ㅍ
ㅎ
ㅏ
ㅐ
ㅑ
ㅒ
ㅓ
ㅔ
ㅕ
ㅖ
ㅗ
ㅘ
ㅙ
ㅚ
ㅛ
ㅜ
ㅝ
ㅞ
ㅟ
ㅠ
ㅡ
ㅢ
ㅣ
ㅤ
ㅥ
ㅧ
ㅨ
ㅩ
ㅪ
ㅬ
ㅭ
ㅯ
ㅰ
ㅱ
ㅲ
ㅳ
ㅴ
ㅵ
ㅶ
ㅷ
ㅸ
ㅹ
ㅺ
ㅻ
ㅼ
ㅽ
ㅾ
ㅿ
ㆀ
ㆁ
ㆄ
ㆅ
ㆆ
ㆇ
ㆈ
ㆉ
ㆊ
ㆋ
ㆌ
ㆍ
ㆎ
ㆬ
ㇼ
㈀
㈁
㈂
㈃
㈄
㈜
㉑
㉒
㉓
㉔
㉕
㉖
㉗
㉘
㉙
㉚
㉛
㉜
㉝
㉞
㉟
㉠
㉡
㉢
㉣
㉤
㉥
㉦
㉮
㉯
㉰
㉱
㉲
㉳
㉴
㉵
㉶
㉷
㊱
㊲
㊳
㊴
㊵
㊶
㊷
㊸
㊹
㊺
㊻
㊼
㊽
㎈
㎎
㎏
㎐
㎑
㎒
㎖
㎗
㎘
㎚
㎛
㎜
㎝
㎞
㎠
㎡
㎢
㎤
㎥
㎦
㎸
㎾
㎿
㏄
㏊
㏏
㏖
㐌
㙉
㙫
㝆
㝡
㝵
㣴
㥠
㦳
㭗
㵢
㶂
㷁
㺚
䓈
䢏
䢘
䰶
一
丁
七
万
丈
三
上
下
不
与
丑
且
丕
世
丘
丙
业
丞
両
两
並
丨
个
中
串
丶
丸
丹
主
丿
乂
乃
久
之
乍
乎
乖
乘
乙
九
乞
也
书
乫
乭
乱
乳
乻
乾
亀
亂
了
亇
予
争
事
二
于
云
互
五
井
些
亜
亞
亡
亢
交
亥
亦
产
亨
享
京
亭
亮
亶
人
亻
什
仁
仄
仅
仇
今
介
仍
从
仏
仔
仕
他
仗
付
仙
仝
仞
代
令
以
仰
仲
件
价
任
份
企
伉
伊
伋
伍
伎
伏
伐
休
伙
会
伝
伯
伴
伸
伺
似
伽
伾
佃
但
佇
佈
位
低
住
佐
佑
体
佔
何
佖
余
佛
作
佟
佩
佰
佳
佶
佺
佾
使
侃
來
侈
例
侍
侖
供
依
侤
侮
侯
侵
侶
便
係
促
俄
俊
俌
俎
俔
俗
俚
俛
保
俟
俠
信
修
俱
俳
俵
俸
俾
倂
倅
倉
倍
倒
候
倚
借
倡
倣
倧
倨
倪
倫
倭
倶
倹
倻
假
偈
偉
偏
停
健
偰
側
偶
偸
傀
傅
傍
傑
傒
傘
備
催
傭
傲
傳
傷
傾
僉
僊
像
僐
僑
僕
僖
僙
僚
僞
僧
僴
價
僿
儀
億
儆
儉
儒
儘
儞
償
儡
優
儲
儷
儺
儼
儿
兀
允
元
兄
充
兆
先
光
克
兌
免
兎
児
兒
兔
兜
兢
入
內
全
兩
兪
八
公
六
兮
共
关
兵
其
具
典
兼
冀
冂
内
冊
再
冑
冒
冠
冤
冥
冬
冯
冲
冶
冷
准
凉
凌
凍
减
凝
几
凡
処
凰
凱
凶
凸
凹
出
函
刀
刁
刃
分
切
刊
刑
列
初
判
別
利
刪
别
到
刱
制
刷
券
刹
刺
刻
則
剋
前
剖
剛
剡
剩
剪
副
割
創
剿
劃
劇
劉
劍
劑
劒
力
功
加
劣
助
努
劫
労
効
勃
勅
勇
勉
勒
動
勖
勘
務
勛
勝
勞
募
勢
勤
勲
勳
勸
勺
勿
包
匈
匏
化
北
匙
匠
匡
匣
匪
匱
匹
区
医
區
十
千
卄
升
午
卉
半
卌
卍
华
卑
卒
卓
協
南
単
博
卜
卞
占
卣
卦
卨
卩
卯
印
危
即
却
卵
卷
卽
卿
厄
厓
厖
厘
厚
原
厥
厨
厭
厲
厳
厶
去
厼
参
參
叅
又
叉
及
友
双
反
发
叔
取
受
叛
叟
叢
口
古
句
叩
只
召
可
台
叱
史
右
叶
号
司
吃
各
合
吉
吊
同
名
后
吏
吐
向
君
吟
否
含
吳
吸
吹
吼
吾
呂
呈
告
呑
周
呪
味
呼
命
咋
和
咎
咏
咨
咸
咽
哀
品
哈
哉
哛
員
哥
哨
哭
哱
哲
唆
唇
唊
唐
唯
唱
唵
唾
啄
商
問
啓
啞
啣
啼
喀
喃
善
喆
喉
喊
喜
喝
喣
喩
喪
喫
喬
單
喰
喻
嗎
嗜
嗣
嗺
嘆
嘉
嘏
嘐
嘔
嘲
嘿
器
噴
噶
嚕
嚴
嚼
囀
囉
囊
囍
囑
囗
四
回
因
团
団
园
困
囲
図
固
国
囿
圃
圈
國
圍
園
圓
圖
團
圜
土
在
圬
圭
地
圳
址
坂
均
坊
坎
坐
坑
坡
坤
坦
坪
坵
坼
垂
垄
垈
型
垢
垣
垸
埈
埋
城
域
埤
埰
埴
執
培
基
堀
堂
堅
堆
堉
堡
堤
堪
堯
堰
報
場
塊
塋
塑
塔
塗
塘
塚
塞
塡
塢
塤
塵
塼
塽
塾
境
墅
墉
墓
増
增
墟
墡
墨
墮
墳
墻
墾
壁
壅
壇
壘
壙
壞
壤
士
壬
壯
壹
壺
壻
壼
壽
备
変
复
夏
夕
外
多
夜
夢
大
天
太
夫
夭
央
失
夷
夾
奄
奇
奈
奉
奎
奏
契
奔
奕
套
奚
奠
奢
奥
奧
奪
奬
奭
奮
女
奴
奵
奸
好
如
妃
妄
妒
妓
妖
妙
妣
妥
妹
妻
姆
始
姐
姑
姓
委
姚
姜
姨
姪
姫
姬
姻
姿
娀
威
娑
娘
娚
娛
娥
娶
娼
婁
婆
婚
婢
婦
婿
媒
媚
媛
媤
媼
嫁
嫂
嫉
嫗
嫡
嬉
嬌
嬖
嬪
嬰
嬴
嬾
孃
子
孔
字
存
孚
孝
孟
季
孤
学
孩
孫
學
孺
孼
宅
宇
守
安
宋
完
宏
宕
宗
官
宙
定
宜
宝
実
客
宣
室
宥
宦
宮
宰
害
宴
宵
家
宸
容
宿
寂
寃
寄
寅
密
寇
富
寒
寓
寔
寗
寛
察
寡
寢
寥
實
寧
寨
審
寫
寬
寮
寰
寵
寶
寸
寺
対
封
射
将
將
專
尉
尊
尋
對
導
小
少
尒
尔
尖
尙
尤
就
尸
尹
尺
尼
尾
尿
局
居
屈
屋
屍
屎
屐
展
屛
屠
屣
層
履
屬
屯
山
屹
岐
岑
岔
岡
岨
岩
岬
岱
岳
岸
岺
岾
峙
峠
峧
峨
峯
峰
峴
島
峻
峽
峿
崇
崎
崔
崖
崗
崙
崛
嵌
嵒
嵓
嵩
嶋
嶝
嶠
嶧
嶪
嶺
嶼
嶽
巖
川
州
巡
巢
工
左
巧
巨
巫
差
己
已
巳
巴
巷
巽
巾
帀
市
布
帆
希
帒
帖
帙
帚
帛
帝
帥
師
席
帳
帶
常
帽
幀
幃
幅
幇
幕
幟
幡
幢
幣
幫
干
平
年
幷
幸
幹
幻
幼
幽
幾
庁
広
庄
庇
床
序
应
底
庖
店
庙
庚
府
度
座
庫
庭
庵
庶
康
庸
庾
廂
廈
廉
廊
廚
廛
廟
廠
廢
廣
廨
廩
廬
廳
延
廷
建
廻
廾
廿
开
弁
弄
弊
式
弑
弓
弔
引
弗
弘
弛
弟
张
弥
弦
弧
弩
弱
張
弹
强
弼
弾
彆
彈
彊
彌
当
彔
彗
彙
彛
彝
形
彦
彧
彩
彪
彫
彭
彰
影
彳
役
彼
往
征
待
律
後
徐
徑
徒
得
徙
從
御
徧
復
循
徭
微
徳
徵
德
徹
徼
徽
心
忄
必
忉
忌
忍
志
忘
応
忝
忠
快
念
忽
怖
怛
思
怠
怡
急
性
怨
怪
怯
怾
恂
恊
恋
恐
恒
恕
恤
恥
恨
恩
恭
息
恵
恶
悅
悉
悌
悔
悟
悠
患
悰
悲
悳
悶
悼
情
惑
惕
惛
惜
惟
惠
惡
惱
想
惶
惹
惺
愁
愍
意
愚
愛
感
愬
愴
愼
愾
愿
慈
態
慎
慕
慚
慢
慣
慧
慨
慮
慰
慱
慳
慵
慶
慷
慾
憂
憐
憑
憤
憧
憬
憲
憶
懈
應
懋
懌
懠
懲
懶
懷
懸
懺
懼
懽
懿
戀
戇
戈
戊
戌
戍
戎
成
我
戒
戔
或
战
戚
戡
戦
戰
戱
戲
戴
戶
戸
戾
房
所
扁
扇
扈
手
才
打
托
扦
扶
批
承
技
抄
抉
把
抑
投
抗
折
抛
披
抱
抵
抹
押
拆
拈
拉
拍
拏
拒
拓
拔
拘
拙
招
拜
拝
拠
括
拭
拯
拱
拳
拶
拷
拾
持
指
按
挑
挫
振
挹
挺
挽
挾
挿
捄
捉
捌
捍
捐
捓
捕
捧
捨
捲
捶
捷
捺
掃
授
掉
掌
排
掘
掛
掠
採
探
接
控
推
掩
揀
揅
揆
描
提
揖
揚
換
握
揭
揮
援
損
搏
搜
搢
携
摂
摘
摛
摠
摩
摭
摹
撃
撈
撍
撒
撓
撟
撤
撥
撫
播
撮
撰
撲
撻
撼
擁
擇
擊
操
擎
擔
據
擢
擣
擥
擧
擬
擲
擾
攝
攪
攬
支
攴
收
攷
改
攻
放
政
故
效
敍
敎
敏
救
敗
教
敞
敢
散
敦
敬
敲
整
敵
敷
數
斂
文
斐
斑
斗
料
斛
斜
斤
斥
斧
斫
斬
断
斯
新
斷
方
於
施
旁
旅
旋
旌
族
旕
旗
无
旣
日
旦
旧
旨
早
旬
旭
旱
旲
旺
旽
昀
昆
昇
昉
昊
昌
明
昏
昐
昑
易
昔
昕
星
映
春
昧
昨
昭
是
昱
昴
昷
晁
時
晉
晋
晏
晙
晝
晟
晦
晨
晩
普
景
晳
晴
晷
晸
智
暄
暇
暈
暉
暎
暑
暖
暗
暘
暢
暦
暫
暮
暹
暾
曁
曆
曇
曉
曔
曙
曜
曝
曠
曦
曬
曰
曲
曳
更
書
曹
曺
曼
曽
曾
替
最
會
月
有
朋
服
朔
朗
望
朝
朞
期
木
未
末
本
札
朮
术
朱
朳
朴
朽
杅
杆
杉
杌
李
杏
材
村
杓
杖
杜
杞
束
条
来
杬
杭
杯
杰
東
杵
杻
松
板
析
枕
林
枚
果
枝
枯
枳
架
枷
柄
柏
某
柑
柒
染
柔
柘
柟
柩
柬
柯
柱
柳
柴
柵
柶
査
栄
栍
栗
栞
校
栢
株
栮
核
根
格
栽
桂
桃
案
桐
桑
桓
桱
桼
桿
梁
梅
梓
條
梧
梨
梭
梯
械
梳
梵
棄
棉
棋
棒
棗
棟
棧
森
棲
棹
棺
椀
植
椒
検
椳
椽
椿
楊
楓
楔
楗
楚
楞
楠
楡
楨
楫
業
楮
楯
極
楷
楸
楼
楽
榘
榛
榜
榧
榮
榴
榻
槃
構
槍
槎
槐
様
槨
槩
槪
槯
槵
槻
槽
槿
樂
樊
樑
樓
樗
標
樞
模
樣
権
横
樫
樵
樹
樺
樽
橋
橘
橙
橛
機
橫
檀
檄
檎
檜
檢
檣
檮
櫃
櫍
櫛
櫟
權
欖
欠
次
欣
欲
欺
欽
款
歆
歉
歌
歎
歐
歟
歡
止
正
此
步
武
歲
歴
歷
歸
死
殉
殊
殖
殘
殤
殳
段
殷
殺
殼
殿
毀
毁
毅
毉
毋
毌
母
每
毒
毓
比
毖
毘
毛
毫
毬
毽
氈
氏
民
氓
気
氣
水
氵
氷
永
氾
汀
求
汎
汗
汚
汝
江
池
污
汧
汪
汭
汰
汲
決
汾
沁
沃
沆
沈
沉
沌
沐
沒
沓
沔
沖
沙
沛
沢
沫
沭
河
油
治
沼
沾
沿
況
泉
泊
泌
法
泗
泛
泠
泡
波
泣
泥
注
泯
泰
泳
洁
洋
洌
洑
洗
洙
洛
洞
津
洪
洲
洵
活
洽
派
流
济
浙
浚
浜
浦
浩
浪
浮
浴
海
浸
浻
涅
涇
消
涉
涓
涕
涙
涯
液
涵
涼
涿
淀
淄
淇
淋
淑
淘
淙
淚
淡
淨
淫
淮
深
淳
淵
混
淸
淹
淺
添
清
済
渋
渚
減
渠
渡
渤
渥
渦
温
測
渭
港
渴
游
渺
渾
湄
湊
湍
湏
湖
湘
湛
湜
湧
湯
湺
満
源
準
溝
溟
溢
溥
溪
溫
溯
溶
滂
滄
滅
滉
滋
滑
滕
滝
滨
滬
滯
滴
滸
滿
漁
漂
漆
漏
漑
演
漠
漢
漣
漪
漫
漱
漲
漸
潔
潘
潛
潟
潢
潤
潭
潮
潼
澂
澄
澈
澗
澠
澣
澤
澮
澳
澹
激
濁
濂
濉
濊
濟
濠
濡
濤
濩
濫
濬
濮
濯
濱
瀆
瀇
瀋
瀑
瀗
瀛
瀟
瀨
瀬
瀰
瀲
瀾
灌
灑
灘
灝
灞
灣
灤
火
灰
灵
灸
災
炅
炊
炎
炙
炟
炫
炬
炭
炯
炳
点
為
烈
烏
烟
烽
焉
焑
焚
焞
無
焦
焰
然
焼
煎
煕
煖
煙
煞
煥
煦
照
煩
煬
煮
熊
熔
熙
熟
熬
熱
熹
熾
燁
燃
燈
燒
燕
營
燦
燭
燮
燿
爀
爆
爐
爚
爛
爬
爭
爰
爲
爵
父
爺
爻
爾
牀
牆
片
版
牋
牌
牒
牕
牖
牘
牙
牛
牟
牡
牢
牧
物
牲
特
牽
犁
犂
犍
犖
犧
犬
犯
狀
狂
狄
狎
狐
狗
狙
狛
狡
狭
狴
狸
狹
狻
狼
猊
猗
猛
猝
猪
猫
猶
猷
猿
獄
獅
獐
獨
獬
獲
獵
獸
獺
獻
玄
玆
率
玉
王
玖
玩
环
玳
玻
珅
珊
珍
珎
珏
珓
珖
珙
珞
珠
珥
珩
珪
班
現
球
琅
理
琇
琉
琢
琦
琪
琬
琮
琰
琴
琵
琶
琿
瑀
瑁
瑄
瑑
瑕
瑚
瑛
瑜
瑞
瑟
瑠
瑣
瑤
瑩
瑪
瑬
瑯
瑺
璃
璉
璘
璙
璚
璜
璟
璡
璥
璧
璨
環
璹
璽
璿
瓊
瓓
瓔
瓘
瓚
瓜
瓠
瓣
瓦
瓮
瓷
瓿
甁
甄
甌
甑
甕
甘
甚
生
產
産
甥
用
甫
田
由
甲
申
男
甸
町
画
界
畏
畐
畓
畔
留
畜
畝
畠
畢
略
番
畫
異
畵
當
畷
畹
畿
疂
疆
疇
疊
疋
疎
疏
疑
疥
疫
疱
疲
疳
疵
疸
疹
疽
疾
痂
病
症
痘
痛
痴
痼
瘍
瘟
瘡
瘦
瘧
療
癡
癯
癸
発
登
發
白
百
皂
皃
的
皆
皇
皈
皐
皓
皮
皴
皷
皿
盂
盃
盆
盈
益
盎
盒
盖
盛
盜
盞
盟
盡
監
盤
盧
目
盲
直
相
省
眉
看
県
眞
真
眠
眷
眼
眾
着
睒
睡
督
睦
睹
睿
瞋
瞰
瞻
瞿
矗
矛
矢
矣
知
矩
短
矯
石
砂
砣
砥
砧
砲
破
硏
硝
硬
硯
碁
碍
碎
碑
碓
碗
碣
碧
碩
碭
確
碾
磁
磅
磐
磚
磧
磨
磬
磵
磻
礁
礎
礖
礪
示
礼
礽
社
祀
祁
祇
祈
祐
祔
祕
祖
祗
祚
祛
祜
祝
神
祠
祢
祥
票
祭
祺
祿
禁
禄
禅
禍
禎
福
禑
禔
禘
禛
禦
禧
禩
禪
禮
禰
禱
禳
禵
禹
禽
禾
秀
私
秉
秊
秋
科
秒
秘
租
秦
秩
移
稀
稅
程
稍
稔
稗
稙
稚
稜
稟
稠
稧
種
稱
稷
稻
稼
稽
稿
穀
穆
穉
積
穎
穗
穡
穢
穩
穫
穰
穴
究
穹
空
穿
突
窃
窒
窓
窖
窟
窩
窮
窯
窺
窿
竄
竈
立
站
竜
竝
竟
章
童
竪
端
競
竹
竺
竿
笈
笏
笑
笒
笙
笛
笞
笠
符
第
笵
筆
等
筋
筌
筏
筐
筑
筒
筓
答
策
筧
筮
筯
筵
筽
箇
箋
箏
箒
箕
算
箚
箜
管
箭
箱
箴
節
範
篅
篆
篇
築
篋
篌
篚
篤
篥
篳
簇
簑
簟
簡
簧
簪
簫
簴
簸
簾
簿
籌
籍
籒
籙
籟
籠
籤
籬
米
粉
粒
粗
粘
粟
粧
粱
粲
粳
粵
粹
精
糖
糞
糧
系
糾
紀
紂
約
紅
紋
納
紐
純
紗
紙
級
素
紡
索
紫
累
細
紱
紳
紹
紺
絁
終
絃
組
経
結
絜
絡
絢
給
統
絲
絵
絶
絹
絿
綎
綏
經
継
続
綜
綠
綬
維
綰
綱
網
綴
綵
綸
綺
綽
綾
綿
緇
緊
緋
総
緒
緖
線
締
緣
編
緩
緬
緯
練
緻
縀
縕
縣
縦
縫
縮
縱
縹
總
績
繁
繆
織
繕
繚
繡
繩
繪
繫
繭
繹
繼
纂
續
纏
纓
纖
纛
纯
纲
经
续
编
缶
缺
罅
罐
罪
置
罰
署
罷
羂
羅
羈
羊
羌
美
羘
羞
羣
群
羨
義
羯
羲
羹
羽
翁
翊
翎
習
翔
翕
翟
翠
翩
翫
翰
翻
翼
耀
老
考
者
耆
而
耐
耒
耕
耗
耘
耟
耢
耳
耶
耽
耿
聃
聊
聖
聘
聚
聞
聯
聰
聲
聴
職
聽
聾
肅
肆
肇
肉
肖
肘
肝
股
肢
肥
肯
育
肸
胃
胄
胆
背
胎
胝
胡
胤
胥
胴
能
脂
脆
脇
脈
脊
脚
脣
脫
脹
脾
腋
腑
腔
腦
腫
腰
腸
腹
腺
膁
膝
膠
膳
膺
膽
膾
臂
臍
臘
臝
臟
臣
臥
臧
臨
自
臭
至
致
臺
臼
舂
舃
舅
與
興
舊
舌
舍
舎
舒
舘
舜
舞
舟
航
般
舶
船
艦
艮
良
艱
色
艶
艸
艹
艺
艾
芈
芍
芐
芑
芒
芚
芝
芡
芥
芨
芬
芭
芮
花
芳
芸
芽
芿
苑
苔
苗
苛
苞
若
苦
苫
英
茂
范
茄
茅
茎
茗
茫
茶
荀
荃
荅
荇
草
荊
荒
荔
荷
莊
莖
莘
莞
莪
莫
莽
菁
菊
菌
菓
菜
菟
菩
華
菱
菲
菴
萃
萄
萊
萌
萍
萎
营
萬
萱
落
葆
葉
著
葛
葡
董
葩
葬
葭
葵
葺
蒙
蒲
蒹
蒼
蒿
蓀
蓂
蓆
蓉
蓋
蓍
蓑
蓬
蓮
蓼
蓾
蔑
蔓
蔘
蔚
蔞
蔡
蔣
蔬
蔭
蔵
蔽
蔿
蕃
蕆
蕉
蕙
蕤
蕩
蕷
薁
薄
薇
薈
薉
薊
薔
薛
薦
薨
薩
薪
薯
薰
薺
藁
藍
藎
藏
藕
藜
藝
藤
藥
藩
藪
藫
藷
藻
藿
蘂
蘆
蘇
蘊
蘗
蘘
蘭
蘿
虎
虐
處
虛
虜
虞
號
虫
虯
虱
虹
蚊
蚪
蛆
蛇
蛙
蛛
蛟
蛭
蜀
蜂
蜍
蜘
蜜
蜺
蝌
蝕
蝙
蝠
蝦
蝨
蝰
蝴
蝶
蝸
融
螺
螻
蟀
蟄
蟋
蟠
蟬
蟲
蟶
蟹
蟻
蟾
蠁
蠅
蠟
蠡
蠶
蠻
血
衆
行
衍
術
街
衙
衛
衝
衡
衢
衣
补
表
衫
衰
衲
衿
袁
袈
袋
袍
袖
袙
袛
袞
被
袭
袵
袷
裁
裂
装
裏
裔
裕
裘
裙
補
裝
裟
裡
裨
裰
裳
裵
製
複
褒
褘
褚
襄
襍
襟
襨
襲
襴
西
要
覃
覆
覈
見
覌
規
覓
視
覡
親
覲
観
覺
覽
觀
览
角
觜
解
觸
言
訂
訃
計
討
訒
訓
訔
訖
託
記
訟
訣
訥
訪
設
許
訴
訶
診
註
証
詁
詔
評
詖
詞
詠
試
詩
詭
詮
詰
話
該
詳
詵
詹
誅
誌
認
誓
誕
語
誠
誡
誣
誤
誥
誦
說
説
誰
課
誼
誾
調
談
請
諍
諏
論
諡
諦
諧
諫
諭
諮
諱
諲
諷
諸
諺
諾
諿
謀
謁
謂
謄
謌
謎
謏
謔
謙
謚
講
謝
謠
謨
謫
謹
謾
證
譌
譔
識
譚
譜
警
譯
議
譴
護
譽
讀
變
讌
讓
讖
讚
讞
语
误
谋
谷
谿
豁
豆
豉
豊
豎
豐
豕
豚
象
豢
豪
豫
豰
豸
豹
豻
貂
貊
貌
貝
貞
負
財
貢
貧
貨
貪
貫
責
貯
貳
貴
買
貸
費
貼
貿
賀
賁
賂
賃
資
賈
賊
賑
賓
賚
賜
賞
賡
賢
賣
賤
賦
質
賭
賴
賻
贄
贈
贊
贍
贐
贓
贖
财
资
赤
赫
走
赴
起
超
越
趙
趣
足
趺
趾
跋
跌
距
跡
跪
路
踆
踈
踊
踏
踐
踢
蹄
蹈
蹟
蹤
蹬
蹴
蹶
躍
躔
身
躬
軀
軆
車
軌
軍
軒
軟
転
軫
軸
軻
軼
軽
軾
載
輓
輔
輕
輝
輞
輟
輩
輪
輯
輸
輿
轄
轅
轉
轍
轝
轡
轩
辛
辞
辟
辦
辨
辭
辯
辰
辱
農
迂
迄
过
迎
近
返
连
迦
迪
迫
迭
述
迲
迷
迹
迺
追
退
送
逆
逍
透
逐
逑
途
逕
這
通
逞
速
造
逢
連
週
進
逸
逼
遁
遂
遇
遊
運
遍
過
遒
道
達
違
遙
遜
遞
遠
遡
遣
遥
適
遭
遮
遯
遲
遵
遷
選
遹
遺
遼
避
邀
邃
還
邇
邈
邊
邏
邑
邕
那
邦
邪
邯
邱
邳
邵
邸
郁
郊
郎
郞
郡
部
郭
郵
郷
都
鄂
鄒
鄕
鄙
鄜
鄧
鄭
酉
酌
配
酒
酬
醇
醉
醍
醐
醒
醜
醞
醢
醫
醬
醮
醴
釀
采
釈
釉
釋
里
重
野
量
釐
金
釗
釘
釜
針
釣
釰
釵
釿
鈑
鈔
鈕
鈞
鈴
鈸
鉄
鉅
鉉
鉋
鉗
鉛
鉡
鉢
鉤
鉩
鉴
鉾
銀
銃
銅
銓
銘
銜
銳
鋏
鋤
鋪
鋸
鋼
錄
錆
錐
錢
錦
錫
錯
鍊
鍛
鍤
鍮
鍼
鍾
鎌
鎔
鎖
鎚
鎣
鎧
鎬
鎭
鎮
鎰
鏃
鏖
鏜
鏞
鏡
鏤
鏴
鐏
鐘
鐙
鐫
鐵
鐶
鐺
鑄
鑑
鑒
鑛
鑢
鑰
鑱
鑴
鑷
鑽
鑿
镌
長
門
閃
閉
開
閏
閑
閒
間
閔
閡
関
閣
閤
閥
閨
閭
閱
闋
闌
闍
闔
闕
闖
闘
關
闡
闢
闥
阙
阜
阝
阪
阮
防
阿
陀
陂
附
陈
陋
陌
降
限
陛
陜
陟
院
陣
除
陪
陰
陳
陵
陶
陷
陸
陽
隃
隆
隈
隊
隋
隍
階
隔
隕
際
障
隠
隣
隧
隨
險
隱
隴
隷
隸
隻
雀
雁
雄
雅
集
雇
雉
雌
雍
雑
雕
雖
雙
雛
雜
雞
離
難
雨
雩
雪
雲
雷
電
需
震
霍
霑
霖
霜
霞
霧
露
霹
霽
靂
靈
靑
青
靖
静
靜
非
面
革
靳
靴
靵
鞋
鞍
鞠
鞦
鞫
鞭
鞱
韁
韆
韋
韓
韦
韬
音
韶
韻
響
頂
頃
項
順
須
頉
頊
頌
預
頒
頓
頖
領
頙
頡
頤
頭
頸
頻
頼
顆
題
額
顎
顒
顔
顕
願
顚
顛
類
顧
顫
顯
顰
風
颱
飛
飜
食
飡
飭
飮
飯
飼
飽
飾
餃
養
餐
餘
館
餻
饌
饍
饑
饔
饗
馓
首
香
馥
馨
馬
馭
馮
馳
馴
駁
駄
駅
駆
駐
駔
駕
駭
駱
駿
騎
騒
騭
騰
騶
騷
驄
驅
驍
驗
驚
驛
驢
驤
驥
驪
骨
髀
髏
髓
體
高
髙
髥
髦
髮
鬃
鬐
鬘
鬚
鬪
鬱
鬳
鬼
魂
魃
魄
魏
魔
魚
魨
魯
鮎
鮑
鮓
鮮
鯨
鰕
鰲
鰷
鱗
鱠
鲜
鳥
鳧
鳩
鳳
鳴
鳶
鴈
鴣
鴨
鴻
鵄
鵑
鵝
鵠
鵡
鵬
鵲
鶯
鶴
鷄
鷓
鷗
鷲
鷹
鷺
鸚
鸞
鹵
鹽
鹿
麋
麒
麓
麗
麝
麟
麤
麥
麴
麵
麻
麼
麾
黃
黄
黍
黎
黏
黑
黒
黔
默
黜
點
黨
鼄
鼈
鼎
鼓
鼠
鼻
齊
齋
齎
齒
齡
龍
龔
龕
龜
ꜭ
가
각
간
갇
갈
갉
갊
갋
감
갑
값
갓
갔
강
갖
갗
같
갚
갛
개
객
갠
갤
갬
갭
갯
갰
갱
갸
갹
걀
걋
걍
걔
거
걱
걲
건
걷
걸
검
겁
것
겄
겅
겉
겊
겋
게
겍
겐
겔
겜
겟
겠
겨
격
겪
견
겯
결
겸
겹
겻
겼
경
겿
곁
계
곗
곘
고
곡
곤
곧
골
곪
곬
곯
곰
곱
곳
공
곶
과
곽
관
괄
괌
괏
광
괘
괜
괭
괴
괵
괸
괼
굄
굇
굉
교
굣
구
국
군
굳
굴
굵
굶
굼
굽
굿
궁
궂
궅
궈
궉
권
궐
궜
궝
궤
궬
귀
귁
귄
귈
귐
귓
규
균
귤
그
극
근
귿
글
긁
긇
금
급
긋
긍
긑
긔
기
긱
긴
긷
길
김
깁
깃
깅
깊
까
깍
깎
깐
깔
깖
깜
깝
깟
깡
깢
깥
깨
깬
깰
깸
깻
깼
깽
꺄
꺠
꺼
꺽
꺾
껄
껌
껍
껏
껐
껑
께
껜
껴
껸
꼇
꼈
꼍
꼐
꼬
꼭
꼰
꼳
꼴
꼼
꼽
꼿
꽁
꽂
꽃
꽈
꽉
꽝
꽤
꽹
꾀
꾄
꾐
꾕
꾜
꾸
꾹
꾼
꿀
꿇
꿈
꿉
꿋
꿍
꿎
꿔
꿨
꿩
꿰
꿴
꿸
뀀
뀌
뀐
뀔
뀜
뀝
뀨
끄
끈
끊
끌
끎
끓
끔
끗
끙
끝
끼
끽
낀
낄
낌
낍
낑
나
낙
낚
낛
난
낟
날
낡
남
납
낫
났
낭
낮
낯
낱
낳
내
낵
낸
낼
냄
냅
냇
냈
냉
냐
냑
냔
냘
냠
냥
너
넉
넋
넌
널
넑
넒
넓
넘
넙
넛
넜
넝
넣
네
넥
넨
넬
넴
넵
넷
넸
넹
녀
녁
년
녈
념
녑
녓
녔
녕
녘
녜
녯
노
녹
논
놀
놈
놉
놋
농
높
놓
놔
놨
뇌
뇐
뇨
뇩
뇰
뇽
누
눅
눈
눋
눌
눔
눕
눗
눙
눠
눴
눼
뉘
뉜
뉠
뉨
뉴
뉵
늄
늉
느
늑
는
늘
늙
늚
늠
늣
능
늦
늪
늬
늰
늴
니
닉
닌
닐
닑
님
닙
닛
닝
닢
다
닥
닦
단
닫
달
닭
닮
닳
담
답
닷
당
닻
닿
대
댁
댄
댈
댐
댑
댓
댔
댕
댛
댜
댱
더
덕
덖
던
덛
덜
덟
덤
덥
덧
덩
덫
덭
덮
데
덱
덴
델
뎀
뎁
뎃
뎅
뎌
뎍
뎐
뎔
뎠
뎡
뎨
뎬
도
독
돈
돋
돌
돎
돐
돔
돕
돗
동
돛
돝
돠
돤
돼
됀
됏
됐
되
된
될
됨
됩
됫
됬
됭
됴
두
둑
둔
둗
둘
둠
둡
둣
둥
둬
뒀
뒈
뒤
뒬
뒷
뒹
듀
듈
듐
듕
드
득
든
듣
들
듥
듦
듬
듭
듯
등
듸
딋
디
딕
딘
딛
딜
딤
딥
딧
딨
딩
딪
딮
따
딱
딴
딸
땀
땁
땃
땄
땅
땋
때
땍
땐
땔
땜
땟
땠
땡
떄
떠
떡
떤
떨
떫
떰
떳
떴
떵
떻
떼
떽
뗀
뗄
뗌
뗏
뗐
뗑
뗗
뗬
뗸
또
똑
똘
똠
똣
똥
똬
뙈
뙤
뚜
뚝
뚠
뚤
뚫
뚬
뚱
뛰
뛴
뛸
뜀
뜨
뜩
뜬
뜯
뜰
뜸
뜹
뜻
띄
띈
띌
띔
띠
띤
띨
띳
띵
라
락
란
랃
랄
람
랍
랏
랐
랑
랒
랖
랗
래
랙
랜
랠
램
랩
랫
랬
랭
랴
략
랸
량
러
럭
런
럴
럷
럼
럽
럿
렀
렁
렇
레
렉
렌
렐
렘
렙
렛
렝
려
력
련
렬
렴
렵
렷
렸
령
례
롄
로
록
론
롤
롬
롭
롯
롱
롼
뢀
뢰
뢴
뢸
룀
룁
료
룡
루
룩
룬
룰
룸
룹
룻
룽
뤄
뤈
뤌
뤘
뤠
뤳
뤼
뤽
륀
륄
륌
류
륙
륜
률
륨
륫
륭
르
륵
른
를
름
릅
릇
릉
릎
릐
리
릭
린
릴
림
립
릿
링
마
막
만
많
맏
말
맑
맘
맙
맛
망
맞
맟
맡
맣
매
맥
맨
맬
맴
맵
맷
맸
맹
맺
맻
먀
먁
먄
먕
머
먹
먼
멀
멈
멋
멍
멎
멓
메
멕
멘
멜
멤
멥
멧
멩
며
멱
면
멷
멸
몃
몄
명
몆
몇
몌
모
목
몫
몬
몯
몰
몸
몹
못
몽
뫄
뫼
묀
묄
묏
묑
묘
묜
묠
묫
무
묵
묶
문
묻
물
묽
묾
뭄
뭇
뭉
뭍
뭐
뭔
뭘
뭡
뭣
뮈
뮌
뮐
뮝
뮤
뮨
뮬
뮴
므
믁
믄
믈
믌
믐
믓
믕
믜
미
믹
민
믽
믿
밀
밂
밈
밉
밋
밌
밍
및
밑
바
박
밖
반
받
발
밝
밞
밟
밠
밤
밥
밧
방
밪
밭
배
백
밴
밸
뱀
뱁
뱃
뱅
뱉
뱌
뱐
버
벅
번
벋
벌
범
법
벗
벙
벚
베
벡
벤
벧
벨
벰
벳
벵
벼
벽
변
볂
별
볍
볏
볐
병
볕
볘
보
복
볶
본
볼
봄
봅
봇
봉
봊
봐
봣
봤
뵈
뵌
뵐
뵙
부
북
분
붇
불
붉
붐
붑
붓
붕
붙
붚
붸
뷔
뷕
뷘
뷜
뷰
뷴
뷸
븀
브
븍
븐
블
븕
븟
븨
비
빅
빈
빋
빌
빔
빕
빗
빙
빚
빛
빝
빠
빡
빤
빧
빨
빰
빳
빴
빵
빻
빼
빽
뺀
뺄
뺌
뺏
뺐
뺑
뺨
뻐
뻑
뻔
뻗
뻘
뻣
뻤
뻥
뻬
뼈
뼉
뼘
뼛
뼝
뽀
뽈
뽐
뽑
뽕
뾰
뿌
뿍
뿐
뿔
뿜
뿡
쁘
쁜
쁠
쁨
쁩
삐
삔
삘
삠
삣
삥
사
삭
삯
산
삳
살
삵
삶
삷
삼
삽
삿
샀
상
샅
새
색
샌
샐
샘
샛
샜
생
샤
샥
샨
샬
샴
샵
샷
샹
샾
섀
섕
서
석
섞
섟
선
섣
설
섥
섧
섬
섭
섯
섰
성
섶
세
섹
센
셀
셈
셉
셋
셌
셍
셔
셕
션
셜
셟
셤
셥
셧
셨
셩
셰
셴
셸
솁
소
속
솎
손
솔
솜
솝
솟
송
솥
솨
솬
솰
솽
쇄
쇠
쇤
쇨
쇳
쇼
쇽
숀
숄
숌
숍
숏
숑
수
숙
순
숟
술
숡
숨
숩
숫
숭
숯
숱
숲
숴
쉈
쉐
쉔
쉘
쉥
쉬
쉭
쉰
쉴
쉼
쉽
쉿
슁
슈
슉
슌
슐
슘
슛
슝
스
슥
슨
슬
슭
슳
슴
습
슷
승
싀
시
식
신
싣
실
싫
심
십
싯
싱
싶
싸
싹
싼
쌀
쌈
쌉
쌌
쌍
쌓
쌔
쌕
쌘
쌤
쌩
썅
써
썩
썬
썰
썸
썹
썻
썼
썽
쎄
쎈
쎌
쏘
쏙
쏜
쏟
쏠
쏨
쏭
쏱
쏴
쐈
쐐
쐬
쐰
쑈
쑤
쑥
쑨
쑬
쑹
쒀
쒜
쒸
쓰
쓱
쓴
쓸
쓿
씀
씁
씌
씨
씩
씬
씯
씰
씸
씹
씻
씼
씽
아
악
안
앉
않
알
앎
앏
앓
암
압
앖
앗
았
앙
앝
앞
애
액
앤
앨
앰
앱
앳
앴
앵
야
약
얀
얄
얇
얉
얌
얏
양
얒
얕
얗
얘
어
억
언
얹
얻
얼
얽
엄
업
없
엇
었
엉
엊
엌
엎
에
엑
엔
엘
엠
엡
엣
엥
여
역
엮
연
열
엷
염
엽
엾
엿
였
영
옅
옆
옇
예
옌
옐
옙
옛
옜
오
옥
온
올
옭
옮
옯
옰
옳
옴
옵
옷
옹
옻
옾
와
왁
완
왇
왈
왐
왑
왓
왔
왕
왜
왠
왱
외
왼
욀
욉
욋
욍
요
욕
욘
욜
욤
욥
욧
용
우
욱
운
울
욺
욾
욿
움
웁
웃
웅
워
웍
원
월
웜
웟
웠
웡
웨
웩
웬
웰
웸
웹
웻
웽
위
윅
윈
윌
윔
윕
윗
윙
유
육
윤
율
윳
융
윷
으
윽
은
을
읊
음
읍
읏
응
읒
읓
읔
읕
읖
읗
의
읜
읠
읭
이
익
인
일
읽
잃
임
입
잇
있
잉
잊
잌
잎
자
작
잔
잖
잗
잘
잠
잡
잣
잤
장
잦
재
잭
잰
잴
잼
잽
잿
쟀
쟁
쟈
쟉
쟌
쟎
쟘
쟝
쟤
저
적
전
절
젊
젋
점
접
젓
젔
정
젖
제
젝
젠
젤
젬
젭
젯
젱
져
젹
젼
졀
졈
졉
졋
졌
졍
졔
조
족
존
졸
좀
좁
좃
종
좆
좇
좋
좌
좍
좔
좡
좨
좽
죄
죌
죗
죠
죡
죤
죵
주
죽
준
줄
줌
줍
줏
중
줘
줫
줬
줴
쥐
쥔
쥘
쥠
쥬
쥭
쥰
쥴
즁
즈
즉
즌
즐
즘
즙
즛
증
즤
지
직
진
짇
질
짊
짐
집
짓
징
짖
짗
짙
짚
짜
짝
짠
짢
짤
짧
짬
짭
짰
짱
째
짼
쨋
쨌
쨍
쨔
쨩
쨰
쩄
쩌
쩍
쩐
쩔
쩡
쩨
쪄
쪘
쪼
쪽
쫀
쫄
쫌
쫑
쫒
쫓
쫙
쬐
쬔
쭈
쭉
쭌
쭐
쭙
쭝
쭤
쮜
쮸
쯈
쯔
쯤
찌
찍
찐
찔
찜
찝
찡
찢
찧
차
착
찬
찮
찰
참
찹
찻
찼
창
찾
찿
챃
채
책
챈
챌
챔
챕
챗
챘
챙
챠
챤
챵
챽
처
척
천
철
첢
첨
첩
첫
청
첮
체
첸
첼
쳄
쳇
쳉
쳐
쳑
쳔
쳘
쳠
쳡
쳣
쳤
쳥
쳬
초
촉
촌
촐
촘
촙
촛
총
촤
촨
촬
쵀
최
쵠
쵤
쵸
추
축
춘
출
춤
춥
춧
충
춭
춰
췄
췌
취
츄
츅
츈
츌
츔
츙
츠
측
츤
츨
츩
츰
츳
층
츼
치
칙
친
칠
칡
침
칩
칫
칭
카
칵
칸
칼
캄
캅
캇
캉
캐
캔
캘
캠
캡
캣
캤
캥
캬
캰
커
컥
컨
컫
컬
컴
컵
컷
컸
컹
컽
케
켁
켄
켈
켐
켑
켓
켕
켜
켠
켤
켬
켭
켯
켰
코
콕
콘
콜
콤
콥
콧
콩
콰
콴
콸
쾅
쾌
쾡
쾨
쾰
쿄
쿠
쿡
쿤
쿨
쿰
쿱
쿵
쿼
퀀
퀄
퀘
퀴
퀵
퀸
퀼
큇
큐
큔
큘
큠
크
큰
클
큼
큽
키
킥
킨
킬
킴
킵
킷
킹
타
탁
탄
탈
탉
탐
탑
탓
탔
탕
태
택
탠
탤
탬
탭
탯
탰
탱
탸
터
턱
턴
털
텀
텁
텃
텄
텅
테
텍
텐
텔
템
텝
텟
텡
텨
텩
텬
텰
텻
텼
톄
톈
토
톡
톤
톨
톰
톱
톳
통
톺
톻
퇴
툇
투
툭
툰
툴
툼
툽
퉁
퉈
퉜
튀
튄
튈
튐
튕
튜
튝
튠
튤
튬
튱
트
특
튼
튿
틀
틄
틈
틉
틋
틑
틔
틘
티
틱
틴
틸
팀
팁
팃
팅
파
팍
팎
판
팔
팜
팝
팟
팠
팡
팥
패
팩
팬
팰
팸
팻
팼
팽
퍌
퍼
퍽
펀
펄
펌
펍
펐
펑
페
펙
펜
펠
펨
펩
펫
펭
펴
편
펼
폄
폈
평
폐
폔
포
폭
폰
폴
폼
폽
폿
퐁
푀
푄
푈
표
푯
푸
푹
푼
풀
풂
품
풉
풋
풍
풔
퓌
퓔
퓨
퓰
프
픈
플
픔
픗
픙
픠
피
픽
핀
필
핌
핍
핏
핑
하
학
한
할
핥
핧
함
합
핫
핬
항
해
핵
핸
핼
햄
햅
햇
했
행
햐
햑
햘
햝
향
헀
헁
허
헉
헌
헐
헒
험
헙
헛
헝
헤
헥
헨
헬
헴
헵
헷
헸
헹
혀
혁
현
혈
혐
협
혓
혔
형
혜
호
혹
혼
홀
홈
홉
홋
홍
홑
화
확
환
홛
활
홥
홧
황
홰
홱
횃
회
획
횐
횔
횟
횡
효
횽
후
훅
훈
훌
훑
훔
훕
훗
훙
훠
훤
훨
훼
휄
휑
휘
휜
휠
휨
휩
휫
휴
휵
휼
흄
흉
흐
흑
흔
흗
흘
흙
흠
흡
흥
흩
희
흭
흰
흿
히
힉
힌
힐
힘
힙
힛
힝
更
契
金
羅
樂
洛
落
亂
蘭
郎
來
爐
老
路
露
魯
祿
綠
錄
論
弄
雷
累
縷
凌
陵
樂
寧
異
北
便
復
參
塞
葉
辰
沈
拾
若
略
兩
良
量
呂
旅
驪
黎
聯
蓮
列
烈
廉
寧
嶺
靈
禮
了
遼
龍
柳
流
六
吏
易
李
臨
立
宅
行
見
︷
！
％
＆
（
）
＋
，
－
．
／
２
９
：
；
＜
＝
＞
？
Ｐ
［
＼
］
ｍ
～
｢
｣
･
￠
𝒙
𝒚
𝒛
𠃎
##례
##사
##우
##당
##유
##고
##스
##퍼
##드
##종
##리
##포
##닐
##망
##류
##천
##상
##업
##은
##행
##트
##쁨
##ᆞ
##ᆷ
##들
##세
##기
##가
##4
##6
##3
##소
##산
##두
##낭
##민
##석
##현
##지
##동
##록
##출
##부
##료
##뭉
##치
##5
##구
##일
##보
##월
##대
##정
##축
##자
##식
##국
##화
##령
##초
##등
##학
##교
##수
##안
##패
##총
##루
##미
##남
##도
##O
##C
##G
##속
##해
##악
##립
##공
##원
##조
##척
##중
##모
##장
##단
##질
##방
##혀
##창
##읍
##의
##이
##팝
##나
##무
##군
##락
##l
##b
##r
##a
##c
##h
##t
##둥
##길
##려
##진
##념
##성
##린
##바
##편
##e
##g
##n
##i
##s
##에
##쓰
##쟁
##평
##허
##증
##달
##으
##니
##딱
##떡
##즙
##마
##라
##팽
##개
##다
##볼
##람
##재
##영
##순
##릉
##요
##강
##꽃
##섭
##실
##농
##후
##랭
##짜
##로
##인
##서
##황
##환
##파
##형
##겹
##킹
##추
##존
##철
##택
##적
##위
##앉
##한
##림
##얼
##론
##비
##간
##청
##계
##경
##제
##시
##양
##효
##만
##노
##흥
##연
##신
##턴
##0
##7
##8
##회
##봉
##낙
##타
##L
##덕
##본
##명
##호
##1
##9
##율
##왕
##탱
##퇴
##생
##운
##쑥
##열
##문
##u
##옷
##잡
##클
##불
##심
##글
##첫
##걸
##음
##뿔
##페
##통
##담
##찰
##판
##겠
##응
##골
##태
##저
##훈
##냉
##집
##송
##절
##여
##그
##ᄅ
##ᆯ
##셰
##는
##더
##살
##색
##아
##터
##먼
##예
##과
##주
##윤
##녀
##복
##합
##먹
##량
##프
##2
##묵
##각
##접
##병
##물
##겨
##친
##품
##씨
##육
##o
##m
##온
##준
##쥐
##금
##분
##극
##향
##탕
##용
##언
##어
##탁
##을
##톨
##릭
##뜨
##렸
##삼
##야
##잘
##래
##y
##P
##E
##레
##역
##별
##및
##전
##버
##항
##렬
##줄
##오
##져
##족
##익
##직
##던
##케
##긍
##곡
##멓
##거
##감
##변
##휘
##I
##냥
##르
##메
##승
##임
##ᄫ
##할
##딧
##작
##차
##필
##냈
##췌
##펭
##틀
##암
##박
##관
##하
##굿
##게
##U
##R
##뚝
##늬
##급
##촌
##취
##헌
##쿠
##를
##슬
##납
##엄
##획
##외
##투
##d
##엘
##슨
##A
##댁
##w
##꼈
##v
##능
##갈
##희
##좌
##탄
##몬
##답
##헤
##토
##플
##티
##코
##십
##늘
##솜
##끼
##디
##객
##선
##짓
##내
##김
##워
##K
##털
##풍
##칠
##착
##괴
##목
##몽
##밀
##렴
##갓
##법
##붕
##반
##새
##붓
##북
##입
##덜
##충
##칭
##광
##옥
##함
##팔
##름
##처
##흘
##첩
##면
##난
##매
##결
##룡
##건
##표
##홍
##묘
##춘
##B
##옹
##숙
##왔
##혁
##혜
##득
##번
##누
##넣
##테
##돌
##년
##깔
##염
##멩
##k
##머
##쌍
##검
##커
##벽
##섶
##겸
##카
##ᅵ
##ᆺ
##ᄂ
##ᆫ
##백
##데
##었
##뎡
##력
##풀
##탑
##즘
##밥
##런
##히
##왜
##발
##넘
##술
##ᅲ
##ᇰ
##녕
##꺼
##체
##짐
##른
##러
##괘
##베
##닷
##근
##빈
##귀
##츌
##셔
##꾸
##와
##곰
##팡
##졸
##랜
##설
##짱
##텍
##말
##웠
##륜
##펀
##높
##딪
##힌
##혔
##p
##붙
##멸
##f
##륙
##점
##배
##し
##て
##の
##궁
##츠
##굴
##꺽
##쩔
##둔
##섹
##침
##쳐
##률
##랑
##애
##활
##융
##피
##습
##컨
##협
##찬
##받
##액
##범
##졌
##룩
##확
##채
##폭
##z
##엽
##알
##브
##첸
##돔
##벙
##권
##뽕
##흠
##W
##N
##며
##놀
##겐
##럽
##혈
##쇠
##완
##싸
##샹
##잠
##ᄐ
##x
##휴
##S
##촉
##뎨
##셩
##략
##약
##밋
##못
##참
##델
##크
##첨
##큐
##없
##즉
##키
##겁
##곤
##했
##균
##놈
##벌
##낼
##é
##밭
##닌
##까
##셨
##격
##탐
##닥
##곽
##늪
##웅
##둘
##쇄
##ᆡ
##ᆼ
##ᆨ
##규
##Q
##흔
##륵
##님
##랐
##춤
##빗
##칙
##울
##봄
##빵
##삭
##렁
##였
##쩐
##똥
##벼
##ん
##련
##폐
##독
##ð
##틴
##떼
##욱
##릴
##㈜
##뉴
##죄
##낸
##긴
##닉
##끄
##썸
##숯
##험
##퀀
##쪽
##픽
##손
##느
##맥
##탈
##란
##톤
##때
##짝
##쇼
##층
##낀
##눌
##즈
##덴
##캅
##D
##넹
##뱅
##찌
##힐
##찾
##특
##켜
##흙
##빙
##움
##듯
##네
##든
##냐
##X
##T
##앙
##혹
##럴
##겔
##ᆮ
##책
##쿄
##펜
##핀
##댕
##젓
##따
##M
##H
##슈
##봐
##F
##갑
##즁
##멍
##덩
##춧
##댐
##막
##켓
##킬
##쌀
##윗
##딸
##j
##흉
##뢰
##밤
##ᆸ
##빌
##깨
##뼈
##빠
##빅
##튼
##녹
##텔
##ᄎ
##잉
##밍
##흐
##늄
##핵
##올
##듭
##날
##젤
##맹
##웨
##씌
##뱀
##꿩
##댄
##빚
##섯
##봇
##띠
##럼
##쩍
##렐
##샬
##엑
##ε
##ρ
##α
##ς
##땐
##욕
##뇌
##최
##죽
##숭
##칼
##ᄉ
##갔
##렌
##쉐
##ü
##퀴
##있
##너
##슴
##웰
##춰
##롱
##맙
##샌
##혼
##궈
##ᅴ
##킥
##덤
##닫
##ク
##ド
##렀
##ā
##돈
##션
##된
##몰
##쭉
##똘
##룸
##ᄀ
##넬
##좋
##셀
##쾌
##씻
##じ
##ゃ
##な
##い
##よ
##씬
##엔
##덮
##딩
##Y
##V
##Z
##닛
##ṇ
##ṃ
##렛
##쳤
##섬
##링
##긋
##났
##갯
##빛
##ø
##견
##솔
##ᅳ
##툰
##윷
##냘
##픈
##깍
##뉨
##눕
##밈
##앵
##펙
##믐
##q
##렉
##ᄃ
##랄
##ᄆ
##롤
##떻
##눈
##랍
##팀
##측
##귤
##찜
##ᅡ
##콥
##깃
##잎
##틸
##궐
##징
##ᅬ
##쿨
##랫
##널
##렵
##킨
##샛
##잽
##빼
##펠
##랩
##꼬
##컵
##궤
##헨
##꽁
##ᅥ
##낫
##곶
##홈
##찍
##リ
##マ
##ダ
##ム
##컬
##쌈
##켄
##ッ
##ト
##ス
##タ
##ジ
##オ
##얄
##굽
##듦
##흡
##ï
##딘
##블
##ᅢ
##겼
##뀜
##멘
##랴
##멜
##되
##췄
##칫
##귈
##싱
##샘
##룻
##녁
##팅
##팬
##묻
##찔
##꾼
##넌
##벨
##템
##칩
##ì
##á
##ᅩ
##뎬
##봤
##み
##あ
##き
##떨
##J
##딕
##넴
##떴
##븐
##풋
##è
##맣
##뇨
##쉬
##퓰
##Æ
##맺
##끝
##넥
##룹
##횡
##잔
##뜩
##А
##П
##삐
##압
##싯
##픔
##텟
##폴
##쥘
##콩
##롭
##ᆰ
##뫼
##찻
##맞
##□
##뇩
##괄
##폄
##샤
##켈
##ö
##뤄
##젼
##흑
##и
##ӌ
##촛
##엎
##끔
##껍
##ᅀ
##■
##억
##싼
##콘
##휼
##끌
##벅
##튬
##툴
##ο
##υ
##λ
##ί
##δ
##η
##윅
##톡
##옵
##뭇
##삿
##삽
##홀
##닭
##펴
##딛
##녜
##쨍
##훕
##썩
##ᅭ
##ᇢ
##폰
##뇰
##줬
##갱
##ä
##듐
##륭
##떠
##륨
##닝
##룬
##ṭ
##ú
##벤
##젠
##엿
##ᅠ
##칸
##푸
##럭
##쓴
##ა
##ქ
##რ
##თ
##ვ
##ე
##ლ
##ო
##ს
##컴
##É
##뜻
##즌
##퓨
##ᅮ
##께
##턱
##껴
##셜
##뮤
##쿵
##겟
##ニ
##렝
##넙
##꼿
##뿌
##젝
##ᄇ
##툼
##챗
##뿐
##꼽
##랙
##냇
##핑
##롬
##ど
##か
##앓
##れ
##ぬ
##둑
##뒤
##꼭
##ᇝ
##젖
##껏
##믹
##씩
##캄
##ī
##냄
##뱃
##탔
##샜
##앞
##ぽ
##こ
##っ
##ょ
##꿉
##샷
##ᅌ
##숲
##혐
##빽
##룽
##껄
##꺾
##ḥ
##릿
##뮈
##팻
##ẓ
##릅
##낚
##덧
##콧
##잭
##틱
##ß
##뻘
##뤼
##헐
##찮
##뵈
##꿀
##끙
##텝
##ó
##잣
##밟
##핍
##뎍
##ᄯ
##윈
##ᄌ
##땅
##것
##퉁
##뎌
##쿤
##푼
##τ
##μ
##○
##뀐
##촬
##⅔
##멀
##둣
##챘
##뭍
##앗
##꾹
##뻐
##쁜
##촘
##값
##넨
##ー
##맨
##톱
##컷
##×
##므
##뎅
##굉
##텡
##ㆍ
##엌
##웃
##논
##뽀
##힘
##엇
##썹
##덱
##펄
##뛰
##탠
##곳
##쩌
##센
##꼴
##틄
##큰
##킴
##ᄒ
##뉘
##ᅨ
##섞
##촐
##텐
##쪘
##녘
##깁
##졀
##걀
##쏘
##е
##в
##с
##к
##а
##я
##콜
##둠
##훤
##ū
##끈
##톰
##빳
##팥
##딜
##빔
##컫
##듬
##β
##ω
##ν
##ᆲ
##끗
##팍
##깻
##섰
##돼
##녔
##ò
##깊
##얀
##됨
##ē
##í
##햄
##벗
##ɾ
##ˠ
##ʃ
##ə
##줘
##쭈
##째
##젯
##죠
##ɜ
##ː
##롯
##큇
##밑
##쓸
##뻔
##곱
##낮
##짚
##ᄑ
##ご
##ᆐ
##삶
##뛴
##볕
##룰
##욜
##숟
##뀌
##ł
##왈
##쪼
##р
##з
##ы
##ч
##й
##н
##о
##м
##у
##긔
##י
##ו
##ן
##뚱
##쉽
##う
##け
##ゅ
##つ
##퀘
##읏
##쬐
##굼
##ᠢ
##돋
##ô
##옻
##콤
##킷
##윙
##았
##ñ
##ョ
##ン
##ウ
##ή
##램
##엉
##ã
##졍
##듸
##걱
##걷
##쌓
##씹
##뼉
##빨
##쳥
##잇
##줌
##믜
##큼
##ג
##샐
##틈
##쿼
##됭
##ŋ
##몸
##숫
##써
##얌
##놓
##껑
##엮
##켑
##뒷
##썼
##셉
##랗
##ケ
##チ
##レ
##デ
##ה
##솥
##맛
##ᅟ
##ᅦ
##댔
##륀
##줍
##힛
##볶
##싹
##멋
##튀
##た
##겅
##랖
##뇽
##뷔
##씸
##럿
##κ
##땡
##る
##り
##헬
##켰
##튜
##썽
##슷
##깡
##녈
##윳
##훼
##∼
##⅓
##ǫ
##랬
##믈
##둬
##④
##슘
##뤠
##뷰
##렘
##될
##묶
##앤
##샅
##핏
##텁
##갖
##릐
##탤
##왱
##훑
##빡
##좁
##랏
##휵
##즐
##뎃
##ㅙ
##콸
##쾨
##훌
##톳
##꼇
##ᅧ
##텅
##シ
##텬
##뚜
##듈
##릇
##믄
##뺨
##꿔
##많
##쁘
##쾡
##웬
##펌
##볐
##サ
##カ
##흰
##벚
##뤘
##옆
##폈
##낱
##샨
##ㄴ
##ㄷ
##ㄸ
##ㄹ
##ㅁ
##ㅂ
##ㅃ
##ㅅ
##ㅆ
##ㅇ
##ㅈ
##ㅉ
##ㅊ
##ㅋ
##ㅌ
##ㅍ
##ㅎ
##잖
##촨
##콰
##빧
##엣
##몄
##엠
##늑
##눅
##캐
##덫
##앨
##웁
##꿈
##넓
##ś
##쑤
##팩
##흗
##욘
##챈
##ש
##א
##뛸
##ᄭ
##９
##コ
##챙
##さ
##냅
##넷
##뚤
##붉
##쟝
##ç
##캡
##탬
##ψ
##ι
##②
##ᅘ
##얗
##푹
##딴
##또
##꾀
##ᄋ
##뉠
##쥬
##쫓
##댜
##ᇫ
##뜰
##깬
##궜
##→
##않
##슐
##쟈
##ֱ
##ֹ
##ִ
##プ
##テ
##끊
##옴
##뢴
##렇
##ᇚ
##슉
##핸
##츨
##셋
##맴
##③
##ố
##п
##л
##뜸
##겜
##낄
##닦
##썰
##뉵
##짢
##밖
##펑
##ㅛ
##ㅜ
##ㅝ
##ㅞ
##ㅟ
##ㅠ
##ㅡ
##ㅢ
##ㅣ
##⑤
##Ⅱ
##왓
##퐁
##눙
##쑹
##핌
##ㅕ
##멕
##텼
##릎
##꿇
##듣
##벡
##꼼
##ά
##π
##т
##б
##ь
##뜬
##렷
##옌
##ㆆ
##같
##멱
##첼
##ר
##▨
##깥
##ק
##ס
##쯤
##ろ
##쭝
##뺏
##ا
##م
##ع
##ة
##멈
##ᅣ
##찼
##쁩
##땜
##쫄
##깝
##땀
##넸
##쉰
##얏
##ᄲ
##ń
##숨
##ル
##メ
##꽂
##퀸
##モ
##ǒ
##ù
##맡
##ᡝ
##ᠨ
##뺑
##だ
##が
##갬
##χ
##ツ
##펫
##ㄲ
##윽
##숍
##ア
##쥔
##ᇙ
##슌
##ō
##셤
##훠
##댓
##쌔
##벵
##돗
##켐
##⑦
##졈
##캇
##숴
##ᆔ
##솟
##뻬
##폼
##겋
##ま
##び
##듀
##훔
##홉
##귐
##짠
##낵
##떤
##ゥ
##ネ
##ㇼ
##맘
##쫑
##짬
##옇
##맷
##ャ
##읒
##놨
##쉴
##깅
##ְ
##ָ
##Ⅷ
##쫀
##ı
##덥
##캣
##띔
##괭
##닢
##옐
##죤
##쉈
##몫
##뱌
##깜
##뮬
##넵
##깎
##풂
##툭
##ș
##ņ
##뽑
##ă
##ό
##셈
##츄
##꿨
##븀
##줏
##쐐
##γ
##쿰
##밝
##ㅑ
##ɡ
##갛
##ב
##갸
##좡
##엡
##뿜
##텨
##⑥
##⑧
##⑨
##롄
##멧
##ᠠ
##ᡳ
##ᠰ
##ت
##ف
##텀
##뻗
##ᠯ
##ᡥ
##ᡨ
##᠌
##ᡶ
##왑
##뎐
##눠
##넛
##뎠
##ᠣ
##ᡵ
##ᠾ
##ᠦ
##ᠭ
##헴
##ビ
##г
##귄
##윔
##슥
##깐
##⑪
##ロ
##グ
##잿
##ბ
##ჭ
##벳
##슝
##늴
##탉
##좆
##イ
##딤
##궂
##ᆳ
##웍
##룀
##쌘
##ぐ
##낌
##ṣ
##å
##뉜
##굵
##で
##뮴
##맑
##쎄
##곬
##뢸
##キ
##짖
##듕
##떵
##뒈
##ュ
##ば
##얹
##쇳
##ж
##ю
##얘
##ل
##ص
##و
##د
##ш
##쾅
##ğ
##늠
##ᄏ
##됴
##늦
##ệ
##ɪ
##ာ
##ဉ
##်
##ㅓ
##ㅗ
##귿
##옳
##ˈ
##칵
##â
##눗
##쨌
##꿍
##ê
##に
##ほ
##젬
##뚫
##챤
##뒀
##뜯
##곁
##ᄊ
##찧
##±
##꽝
##ɨ
##ナ
##ᠺ
##ᠬ
##ᠮ
##ᠻ
##씀
##К
##Ч
##팎
##ᆈ
##늉
##숑
##셸
##얽
##æ
##컹
##짤
##볏
##쪄
##겻
##맵
##캉
##く
##ち
##へ
##お
##밴
##쳔
##챔
##뮐
##ᇌ
##밸
##þ
##띄
##낍
##È
##훨
##ǔ
##닿
##ᠩ
##ᡯ
##ᡠ
##갤
##à
##큔
##팜
##섀
##д
##칡
##꿋
##ф
##ᆶ
##퀄
##ヘ
##△
##틔
##ĵ
##ぎ
##έ
##と
##σ
##껌
##ᡡ
##ᠸ
##ᡩ
##좀
##끓
##쥰
##쏭
##î
##덟
##읗
##폿
##း
##쳇
##끽
##や
##훅
##쒜
##깽
##ḍ
##캔
##ㄳ
##팟
##놋
##왐
##콕
##뮨
##퉜
##갠
##◯
##せ
##쯔
##쉼
##갇
##ầ
##쉥
##뮌
##셴
##∅
##쏙
##앰
##볍
##낑
##す
##쭙
##엾
##좔
##틋
##셌
##ş
##닙
##킵
##즛
##곧
##쵸
##ც
##ი
##ტ
##უ
##켕
##젹
##똑
##そ
##츰
##ę
##옛
##읕
##랒
##フ
##ァ
##뻣
##ブ
##껸
##잌
##띤
##ᄡ
##녑
##ṛ
##뚠
##짇
##쿡
##セ
##윌
##퓌
##펩
##넜
##솰
##뻑
##잼
##슛
##쌌
##わ
##욤
##옙
##졔
##댑
##₀
##₂
##ᄠ
##뱐
##밧
##バ
##뵙
##잦
##쭤
##ц
##ų
##퉈
##샵
##뺀
##튿
##〇
##쨋
##묜
##컥
##젱
##ᠤ
##ィ
##ㅒ
##ㅖ
##ㅘ
##₃
##ギ
##š
##ễ
##ワ
##돕
##쁠
##솝
##ậ
##쿱
##ᆻ
##ի
##ր
##ք
##댱
##뿡
##̯
##ぼ
##뻤
##옮
##パ
##찐
##ė
##랸
##몯
##뀔
##ᅇ
##ŏ
##냑
##ر
##س
##갗
##ᇂ
##ᅪ
##늙
##ě
##꼰
##ی
##خ
##ن
##왁
##귓
##ᅱ
##셕
##ラ
##꿎
##ך
##ύ
##ᠶ
##ェ
##ポ
##ǎ
##ṅ
##죡
##섣
##⑩
##꼍
##욋
##댈
##앴
##č
##냠
##⁻
##눔
##げ
##멤
##᠋
##튱
##쓱
##뒹
##헛
##귁
##œ
##튠
##넉
##ח
##맸
##땄
##～
##∫
##홧
##퍽
##낯
##ㄱ
##က
##္
##သ
##ိ
##ု
##လ
##팸
##겿
##믌
##갰
##큘
##눴
##닻
##밌
##↓
##ז
##Κ
##Ά
##ي
##콴
##뷴
##쎌
##φ
##읽
##겊
##ᄍ
##갚
##떳
##딨
##낟
##ë
##탭
##쭐
##캠
##ṁ
##ズ
##뜀
##찡
##렙
##პ
##კ
##ガ
##놉
##넝
##も
##빴
##둡
##뱉
##빤
##ز
##좇
##툽
##⁶
##훙
##팃
##מ
##뺌
##ㅔ
##ㅚ
##돛
##ソ
##탓
##굣
##ą
##ร
##ะ
##แ
##ส
##เ
##ก
##า
##ห
##ล
##ี
##펐
##탰
##읔
##ᅯ
##ᇹ
##뿍
##Ⅰ
##헝
##쳡
##핥
##ć
##놔
##웹
##챌
##륄
##챠
##홰
##텄
##삯
##숱
##ɑ
##ヰ
##닮
##몌
##쩡
##땠
##읖
##쎈
##땁
##쥭
##슭
##좨
##뎀
##맬
##뺐
##↔
##붐
##С
##Р
##ɔ
##괵
##뺄
##읜
##ъ
##먁
##읓
##ᠷ
##ᠲ
##ᠥ
##მ
##젊
##ပ
##မ
##ြ
##င
##ံ
##ל
##몇
##̀
##ɴ
##셧
##꼐
##ぃ
##팠
##먄
##ら
##뗏
##ǐ
##ね
##õ
##ه
##ᄣ
##겉
##ϊ
##ㅐ
##ㅸ
##굄
##랠
##곯
##ώ
##①
##깟
##톈
##캥
##밉
##め
##깰
##뭄
##²
##ᡤ
##ザ
으로
에서
19
조선
한다
는데
으며
##00
시대
라고
에게
까지
된다
대한
##학교
면서
따라
고려
10
18
부터
라는
사람
다고
그러
##으며
우리
12
후기
한국
이후
나라
그리
사용
일본
이나
기록
20
함께
당시
지역
교육
그러나
16
지만
내용
다가
으나
가지
지방
로서
다는
인가
##버지
연구
서울
11
200
17
그리고
##남도
위해
사회
신라
이루
15
하나
이름
때문
간행
##북도
경우
모두
경상
198
199
또한
197
또는
중국
현재
196
14
다시
여러
역임
194
나타
아니
13
구성
였으며
활동
시작
##나무
##화재
설치
##부터
국가
만들
는가
운동
가장
195
경기
도록
위하
어서
높이
중심
수록
다른
사이
192
##나라
형태
의하
다음
이러
본관
193
대학
학교
으로서
##으나
보다
작품
아버지
설립
가운
문신
관계
위치
가운데
특히
전라
위원
중앙
이르
관한
무엇
건물
201
세기
는다
전기
##시대
위한
조직
##문화재
지정
관련
정부
부분
이상
##대학교
##머니
191
일반
정도
세계
대표
독립
문화
조사
유형
제도
같이
중요
거나
경제
들어
학자
##주의
비롯
표현
삼국
정치
관리
문제
자료
보이
도서
발전
미국
기술
이것
##인다
사실
으로써
불교
역사
어머니
##부분
과정
이용
처음
일제
아래
시기
따라서
의해
자신
아들
제작
충청
기관
주로
추정
의미
생활
한편
190
##문집
창건
시키
방법
민족
형식
많이
북한
기능
대해
새로
통일
단체
##므로
못하
인물
마을
30
유형문화재
통해
국민
구조
소장
사건
조성
기념
자연
모습
25
사업
나무
모든
경상북도
로부터
출신
각각
특별
행정
이전
규모
초기
주장
만든
발견
처럼
인데
필요
모양
전체
보인다
생산
매우
이어
군사
조각
담당
자리
생각
시도
목적
음악
대부분
개발
사상
실시
여기
알려
일부
경기도
불상
백제
##어나
전문
서문
노래
##한다
지금
영화
동안
특징
봉안
이루어
남북
##등학교
인간
편집
보물
였으나
189
전국
##아버지
참여
므로
시설
의식
국제
국립
으면
고구
운영
측면
연대
지도
사랑
나타나
대상
노동
규정
사찰
편찬
전쟁
승려
누구
머리
고구려
경상남도
그것
포함
형성
제주
부르
돌아
할아버지
이곳
최초
정책
거의
어떤
건립
##시아
명칭
산업
대통
전통
해서
보여
설명
학문
##보살
어느
다양
발표
상태
경주
##물관
대회
강원
남쪽
계속
필사
가능
문학
장식
대통령
제문
해당
삼국시대
발문
확인
원래
서로
국내
##대로
배치
소속
영향
소리
전라남도
결과
민주
양식
시문집
출토
자유
새로운
대신
##진다
졸업
##점기
변화
성격
대하
비교
나누
구분
학생
자기
수행
위원회
서원
임명
존재
부산
전하
정면
유물
마다
계획
도시
21
강화
임진
##강점기
일제강점기
걸쳐
서쪽
여성
해방
100
전개
과학
내려
보통
강원도
평양
신문
통하
발생
으로부터
기본
보호
관직
24
시켜
유적
대사
오늘
시가
동쪽
속하
증손
저술
여자
역시
개편
좌우
연결
기념물
거쳐
고자
기둥
유지
대구
주요
한다는
상대
시간
크기
개최
북쪽
결정
##역시
마련
직접
마음
광복
시켰
따르
각종
건설
보살
발달
토지
부사
소설
##리아
인정
50
22
기단
저자
변경
평가
이유
이미
이야
고분
부록
도서관
업무
으므로
##스트
산문
세워
광주
차례
바로
필사본
그런
의한
##왜란
없이
지원
현대
세력
23
##민국
동시
떨어
달리
이때
프로
이야기
더욱
임진왜란
##어난
어디
해야
행위
전해
평안
40
##소리
부인
종교
000
충청남도
오른
바탕
강조
발굴
받침
잡저
전라북도
진행
대체
발행
대한민국
약간
규장
##른다
##중앙
분야
차이
유학
상황
행장
정신
28
사적
행사
정보
건축
신앙
조정
종류
더불
어려
일정
주변
차지
이해
본래
등장
유사
공사
기간
내부
교회
너비
최고
##서원
광역시
지나
26
규장각
갖추
언제
공격
안동
자세
처리
했으며
민속
사무
방식
현상
제정
가리
비슷
권두
권말
불리
체계
그림
공동
그대로
아서
무덤
경찰
금강
어야
널리
길이
선수
출생
가로
체제
감독
먼저
석조
묘사
예술
함경
프랑
파견
외국
27
목판
과거
요구
지리
대전
전투
전주
분포
시행
문화재
부여
##문학
방송
일으
공간
개인
교수
새겨
기업
아이
소재
이론
보내
##여래
석탑
국회
가사
양성
영국
근대
반대
세웠
올라
방향
##서관
이듬
면적
옮겨
특별시
집단
설화
기원
용어
회의
그린
실제
지붕
려는
토기
시장
환경
들어가
한다고
시킨
역할
농업
분류
188
연주
선거
개칭
이듬해
국립중앙
종합
상당
활자
지대
문인
프랑스
제사
놀이
장관
공립
모아
나타내
사망
완전
후손
가르
공업
폐지
가치
실려
경전
제자
경영
##미타
##린다
황해
가진
비판
기준
문헌
찾아
나오
전면
세종
29
다르
연합
다만
당나라
##지붕
오늘날
대체로
의병
위패
##er
이사
통합
정상
의원
대동
드러
186
임시
수도
대해서
혹은
작업
언어
제외
그런데
민간
확대
세운
얼굴
개념
경성
##어났
대성
나타난
추진
부정
행하
제조
지내
정원
##운동
충청북도
대청
태조
##찰사
둘레
정리
##원군
어린
1960
가까
회사
책임
특수
거리
고등
진주
##좌상
##레이
자라
1970
가족
고등학교
공연
위해서
말기
보존
다리
시험
개정
가정
자체
구체
회장
중학교
##독교
농민
독일
사항
##지만
장소
고대
주목
청동
만주
1980
##판서
기타
제시
31
안정
훈련
선정
축조
##회사
##교육
보관
지구
중간
표기
당하
노력
##부사
##웅전
미술
##마루
해안
##국시대
장군
인천
학술
후보
교사
박물관
중수
공장
동일
임금
세우
주인
결성
1950
동물
공신
##거리
지배
따른
가슴
자본
현실
법률
##무덤
자형
대장
상징
기구
인도
대로
인해
무신
결국
출판
증가
지명
통신
묘갈
##조판서
학급
공주
재산
묘지
##석탑
목조
해석
##유고
알려져
문서
##가지
##대부
번역
작용
마루
세로
일어나
단계
도입
화엄
##의원
로써
음식
기사
주민
청년
한자
이래
목사
##림픽
공포
군수
##박물관
자주
상호
천연
하늘
물론
준다
##지막
근거
중기
기독교
60
제목
동지
한글
바닥
지급
정확
교통
국어
개성
이동
개혁
동서
남북국시대
계승
##정부
아닌
전승
지냈
관장
주식
유명
쓰이
하지만
500
무늬
원형
대웅전
이외
##위원
배향
회원
이른
##리학
편성
기초
나이
시조
그려
표시
목판본
준비
##도사
참가
한성
관심
작성
선교
대중
아미타
성장
##도서관
부대
사신
##사기
석가
서술
효과
식물
연기
절차
전시
동경
평면
##의정
매년
바뀌
지적
소개
점차
종이
아름
지휘
경사
마지막
만나
##in
현존
후반
서양
인사
문장
인식
혁명
정하
이하
##조참
둘러
나온
도로
전자
주도
보수
신설
오래
##대학
##무늬
치료
##공신
##기시대
국립중앙도서관
배우
정당
##렇게
어깨
우주
제공
헌법
능력
올림픽
려고
##층석탑
백성
##on
러시아
분리
산성
일대
지름
제주도
바꾸
복원
사당
바위
부족
1945
건너
귀국
원칙
의사
묘갈명
##an
##머지
완성
추모
성공
황제
나가
수용
##천군
나머지
대개
35
본격
밝혀
1946
신분
187
견해
비해
둘째
비하
연구소
지니
고종
주위
지장
보유
사단
향교
은행
활자본
수립
위원장
주석
출연
단위
가을
바다
지지
1920
운동가
경향
기계
##국사
개월
##산성
창립
얼마
추측
##놀이
부엌
계기
전반
지점
마치
작가
소유
재정
경계
으면서
유래
피해
##다리
무역
파악
300
취하
남자
좌상
##머리
등지
관원
전후
청주
주택
지식
신부
##아가
적극
부처
기반
협회
병원
신도
외교
추가
는지
정권
제기
보급
2009
방어
앨범
영조
유교
##사지
시즌
부모
공부
모시
상업
주름
활용
32
정조
흔히
수상
초대
했으나
70
고문
##산군
전한다
옥개
노비
신체
1990
80
전형
이런
언론
구실
대성전
그래
##기념
입장
중건
##자리
유림
확실
영산
정비
취임
구별
분명
불화
최근
관음
줄기
활약
붙여
요소
올리
모여
명나라
선조
국사
밝히
이기
적용
배경
주제
만드
장단
경상도
군대
부근
사리
장수
입학
발간
유럽
##도감
구멍
동국
문양
재판
##일보
세상
일기
집안
특성
상주
유일
아직
올려
부장
황해도
지닌
##아리
도움
인구
시집
와서
시위
특이
단순
수준
##대전
재료
조건
정의
원인
이루어진
가야
선생
양반
행동
2010
여야
창간
기법
우수
대비
고인
##아들
혼인
김정
였을
잡지
일본인
1930
전라도
수령
투쟁
인지
공산
현감
흘러
##하여
성균
철학
연화
부문
지낸
왼쪽
인하
36
유리
##ar
초등
2008
침입
글자
전설
성립
여겨
요청
2000
금융
파괴
종사
33
##무원
성균관
수학
감사
못한
1919
양쪽
1997
139
상서
일찍
판매
1996
기여
제품
그러므로
해외
의례
다섯
인민
직업
1998
살펴
##성군
조상
뿌리
사고
1948
거주
궁중
비로
왕비
집행
체육
성벽
이루어지
사자
오른쪽
다루
창작
가리키
##문관
이른바
미륵
##기념물
일종
천연기념물
국왕
단의
자금
열린
진출
한문
인쇄
자격
사립
최대
따로
##라도
계약
육군
이룬
34
서기
이끌
인용
가마
의학
전사
##위원회
##공업
김영
장기
##소설
##불교
철도
건국
발매
설정
에서부터
##연구
강릉
38
아무
연극
첫째
##en
겨울
고사
내외
성주
##조선
수출
지속
형제
정자
관서
규칙
안채
풍속
화강
표면
##반도
직후
명령
스스
우물
마리
자동
발해
교명
동양
범위
세자
##구역
어렵
만큼
상량
##리스
이승
해결
주식회사
##or
공식
기자
1973
무용
1910
왕실
##다는
금지
사례
이렇게
45
특정
스스로
가락
명문
유행
##산리
언급
이수
통한
문집
수집
시민
이성
미루
채색
수원
대좌
여름
부속
도리
근본
제한
천주
확보
장면
탑신
그리하여
고유
분석
제국
가져
반드
반드시
목표
서울대학교
동원
고인돌
대학교
문하
##산시
##울러
계통
판단
##고기
화학
이루어져
불렀
아울러
전적
수사
올린
##협회
수입
논의
태양
##그램
활발
각기
공급
농촌
생존
청자
수리
천도
##고등학교
옥개석
극락
법원
반면
내리
부른다
마당
사전
역대
아름다
관청
무기
채택
##사상
대립
##어들
부도
승리
관하
근무
듯이
바람
정사
초상
실천
왕조
##랜드
교과
둥근
보낸
개교
개선
시인
국방
가구
개국
지하
방문
흔적
2011
그래서
작자
##도리
159
1995
반영
중대
비문
학원
선언
신화
검사
개설
기존
사령
1949
이익
주거
청나라
악기
평화
만사
공개
정기
동해
1961
대문
1979
중생
교리
무렵
##he
조금
2007
연간
신축
사라
남편
확립
1962
179
개항
영역
셋째
항목
##원사
글씨
형상
수법
구역
주관
즉위
관료
##승지
##디오
상량문
숙종
영어
일어난
경험
벼슬
원리
손자
새겨져
연꽃
제일
학과
삼국사기
사우
시절
유치
비단
작전
재배
죽음
학회
지위
배출
민요
통제
대손
연안
의무
다소
짐작
##왕후
37
임무
##의회
갈라
##형문화재
프로그램
가까운
물리
밝혔
지키
##없이
기와
법인
원나라
전환
본부
수정
선현
성과
체결
판소리
바라
승격
##유사
로마
##산면
보고
확장
뚜렷
권리
1963
투자
동북
실제로
상부
75
준공
##소년
동남
세조
2012
선출
협력
##으므로
동맹
##자치
자원
관제
독자
완전히
구릉
창설
보장
##다고
읍지
태종
수호
아시아
주체
평균
1981
이정
불구
소비
사정
동아
아야
##부인
##러운
고분군
무당
1986
움직
원주
정식
##학회
강제
의견
1999
남부
사면
##향교
##화국
향상
##기둥
떠나
묘지명
##모리
1972
거두
교화
1987
다수
맞추
조화
팔작
##es
마애
정월
1988
##조합
흐르
민중
음반
김대
순천
160
받침돌
1971
한국인
##고분
제거
가입
그녀
중추
급제
문자
대형
실현
체포
관찰사
의료
상세
성곽
출입
##at
삼성
호남
받아들
선발
처방
##실록
나타난다
단어
실패
1985
대학원
마찬
140
마찬가지
도모
생기
타이
불러
중단
남녀
옛날
이이
인터
소련
논문
하여
스타
고정
통치
소나무
##가락
게임
복지
중창
불과
서북
수단
질서
##al
나주
사천
##어진
1982
계급
여래
계열
명륜
상소
##유적
##입상
군인
등록
충주
태평
깊이
단지
연맹
강하
어린이
돌방
나아가
순서
출발
결합
일원
정착
1984
생명
주자
1907
군자
동의
연도
김일
교장
나와
무대
소실
##풀이
바깥
고향
지상
팔작지붕
사회주의
##조참판
##서리
고전
머물
버리
의장
이황
1947
하여금
39
전래
집중
##회의
데뷔
달하
생물
서경
밀양
무릎
물질
오르
우선
생긴
이념
cm
네모
산신
올렸
다듬
방형
심하
1976
드라
영남
##느리
1938
금속
장서
162
으니
무리
항공
##ic
상하
동래
사설
1989
별도
유배
1968
대지
화려
42
만세
인조
조약
알려진
주인공
연세
##암사
합격
1967
그룹
성종
아내
아랫
향하
국회의원
##is
아동
이제
185
1974
명륜당
선사
지형
2005
노동자
서재
스승
인수
1992
식품
계곡
남해
보름
총회
떨어진
유통
이중
2004
전달
하천
##화경
진흥
하루
관광
삼존
안방
어떠
천주교
지시
2006
광산
느낌
보도
사지
잘못
전혀
한반도
경국
동학
신학
갖춘
상해
안쪽
연장
금동
선고
연혁
표준
##스터
##은행
168
귀중
안전
진다
1975
내지
178
아우
권력
1983
돌아가
우승
유구
보살상
남원
재단
##정사
172
들어와
못했
선전
독특
노인
1994
정규
지칭
2002
생겨
아주
일체
##독부
둥글
동생
반란
김해
2003
150
두께
장애
사장
이명
병마
남한
충청도
나왔
국기
리그
해인
경국대전
경내
근로
연속
1969
였음
회복
1940
국보
이어지
기도
조치
90
##동안
위기
1977
기재
모서리
163
장방
박사
동부
지난
참석
금강산
선택
합의
1941
보조
예산
인한
경쟁
177
서사
##대회
136
침략
발원
오히
된다고
살펴보
보건
##중추
180
청동기시대
외부
작곡
사방
의의
참고
55
당선
풀이
김종
결혼
상품
한인
##us
오히려
귀족
달러
##흥사
1908
울산
구름
1951
봉수
천장
화강암
48
강한
더라도
의해서
연세대학교
이주
##어지
부부
##대사
소년
##다란
목록
싱글
착용
##대장
강당
다스
학부
강의
성인
165
관할
송시
146
교류
그곳
봉사
##우스
가졌
전공
##장사
##여지
고쳐
의지
서식
저서
184
기대
공무원
올랐
소식
창고
##고리
1964
구축
그렇
평안북도
석불
철폐
된다는
##준다
맞배
산지
산수
조합
화가
양주
인기
드라마
복장
일치
##토기
순수
삼국유사
광배
본문
입구
##이트
그리스
1966
아미타불
전신
행적
유생
기획
앞서
주의
민주당
국문
부담
##처마
141
달성
원효
화면
간단
태극
건강
국무
속한다
박정
1978
화폐
수업
수군
음력
출전
##니아
수산
이어서
친구
1965
장방형
400
##미술
강력
거래
##레스
##란드
여인
41
밖에
지주
렀다
인류
마침
1958
그렸
비록
##초등학교
자는
학습
1925
선교사
##덕왕
상인
이원
1953
산하
편지
경지
64
고기
약사
##양군
1991
벗어나
초석
발족
##리카
##라고
##백산
161
기울
축문
시문
김성
두루
경비
동화
어려운
농사
재직
항일
1895
계층
문무
일상
##각형
##여래좌상
상단
한강
떨어져
방지
선비
52
장치
우리나라
175
1954
종로
##가사
유역
2013
대승
이인
왕자
평안남도
관등
불법
##자기
##읍지
고을
도덕
오랜
장대
1993
대책
북부
사법
##대문
기회
성리학
1937
송시열
항아리
감정
인과
장악
진사
수요
윗면
핵심
주조
##어져
제수
##구리
고려대학교
신경
종래
허리
방위
해설
1909
##중추부사
가문
공공
뛰어난
백자
사료
이순
함경남도
##너지
바이
43
교환
뒷면
단편
하사
##법원
행정구역
보통학교
1936
가곡
관해
국정
식민
거부
달려
170
53
176
1927
비중
과장
노선
염불
일어났
춘추
갈등
당초
자손
2014
스럽
1921
통해서
학명
1957
##문화
개화
##교회
1956
##모니
보유자
66
삼층석탑
유엔
종묘
풍부
타원
행해
##니다
##간다
2001
각지
농악
##호사
1922
몽고
부상
부임
이종
고려사
올라가
51
##계종
어떻
업체
1924
1926
주거지
등급
태도
날짜
부설
편입
서정
의도
1955
대왕
서구
자동차
법당
쓰여
의정부
47
국민학교
대가
##학생
##장군
교원
모셨
열매
가수
국장
의상
점령
획득
##제학
지장보살
김일성
교구
현장
우측
입상
##위기
44
당대
내린
대응
실험
183
영주
##문사
54
1923
그릇
배열
##비스
달라
시호
월드
민주주의
평안도
무장
사직
서적
단군
정해
너무
전선
질병
이룬다
가공
사헌
##설화
공통
전문학교
##수록
장구
향사
가량
감소
차원
##안군
1939
특색
##널무덤
자세히
##학자
##랑이
맞배지붕
본사
비밀
성명
##산사
##청년
##광사
하고
##이스
세대
송나라
신중
한계
균형
수습
이른다
##여자
하대
돌려
밝힌
##타령
##주사
1935
개방
##가루
도착
사원
서남
악보
인근
훼철
상당히
보였
166
171
1952
46
김상
동기
1914
능선
##제국
상류
로운
문종
변하
제향
지켜
김대중
구하
날개
번식
영의정
원산
통과
1906
##자나
##무부
174
대조
신장
가르쳤
강희
##가리
놓여
받치
화엄경
였음을
49
##상도
인상
중부
항상
##어사
석축
일컫
뒤쪽
맞이
전각
교서
산림
시킬
해도
물러
다면
김유
천지
164
궁궐
성행
시사
이민
##드리
##법인
나타낸
600
보리
종목
품계
##삼문
정지
병사
이재
청소년
다니
##엄경
1931
##승람
석가모니
검찰
불탑
석기
지석
1959
1905
1929
공민
보편
설계
심사
추구
함경도
사헌부
서해
1933
문과
센터
후대
계산
구속
브라
##니까
일으키
사물
창조
##대군
대화
몸돌
문답
왕위
일본군
권한
였으므로
학년
복합
유기
고성
관념
1932
고승
드리
신민
유성
걸친
물건
서명
1934
기생
문법
이화
건의
앞쪽
훨씬
간부
라이
의주
청구
169
때로
신하
육성
인문
최종
한성부
공양
전파
하단
환자
동굴
병자
유전
죽이
칠언
벽화
알리
1894
일찍이
실업
조선인
양상
징역
라도
인원
##천시
나요
무슨
처마
##성사
##과학
함경북도
거행
고서
도중
##생활
56
양산
유가
논란
##림사
##간지
143
미군
예수
중반
##잡이
65
99
거기
이탈
판본
1911
반복
주사
끝나
사기
분위기
자녀
##it
소금
요사
정주
판결
당한
대원군
집권
##스크
지도자
해산
미상
수신
장서각
##여지승람
여섯
##수지
경위
홍문관
자치
아름다운
고쳤
섬유
여부
진보
커다란
마주
사진
중종
통상
극단
칠성
##이지
1928
승지
위주
장사
출가
##사자
간략
태어났
근처
석등
수양
중시
해동
가계
상면
드러나
장인
182
남성
합리
##연합
2016
상륜
정교
책봉
표지
촉진
##호란
늑대
전제
주부
창녕
##바닥
극복
대대
석재
후원
에게서
건조
군정
의거
초상화
묘표
해양
영양
공작
넘어
모래
선종
요인
135
어떻게
공자
대리
의회
##문고
주재
화재
##계사
뚜껑
##le
김수
미래
비용
성적
시스
여서
167
1942
군주
몸체
소송
여진
한양
##루스
에다
모음
속도
하부
흡수
67
의병장
두어
연한
이건
청하
판사
교정
범죄
판관
##일기
##신문
복잡
애국
고리
그때
현종
내세
공정
구제
모신
복식
예능
음성
주역
혐의
##민속
181
해체
기슭
확정
127
바르
##동맹
101
145
관아
싸움
예방
판석
저항
제출
##제사
##리지
들어서
석실
교관
##사사
이승만
선원
전력
비신
창원
촬영
2015
태자
합쳐
오스트
학위
갑오
시각
자식
탄생
72
모집
부자
2017
대선
왕명
저장
조세
거듭
디자
좌측
혼란
불렸
새긴
120
부재
비율
여의
58
성분
중화
본다
서비스
쓰였
간격
영정
으려
일시
처벌
둘러싸
62
수많
왼손
존속
충분
지표
진도
남산
장례
주년
화석
##중학교
가례
동재
화성
##고분군
사유
심의
위험
태어나
130
면석
방언
일익
동작
서당
영동
윤리
절터
친족
돌아와
박정희
경연
고시
경관
관찰
문예
취급
공화국
도구
도와
레이
귀신
느냐
이경
##통일
비로소
소수
압록
전부
경작
그루
소득
여수
절구
절대
137
고용
동문
보완
신사
용도
국토
스러운
##공학
남양
명예
전략
흐름
교단
그해
##자료
계면
김제
덕행
발기
제안
차별
##공산
##조참의
나갔
변형
비상
계몽
서인
재건
마침내
결의
음양
전교
현지
개소
보상
연못
정서
제의
추천
동자
베풀
##리트
##대기
##노동
내려오
지사
부지
여행
##져서
외국인
##공원
57
도성
북위
산천
소작
써서
간주
문수
동요
망명
설비
여주
접근
화상
##보통
##메달
내각
신성
173
68
허용
감리
수명
##el
문중
실질
옮겼
판각
후자
김창
지붕돌
피하
회담
안성
임원
증거
보여준다
계절
지질
함흥
공원
미치
성당
토론
1900
자연석
1899
도량
동사
과제
회화
##ing
시스템
고도
병력
장로
함양
##신앙
대한불교
상실
토양
##호부
압록강
내렸
예조
나뉘
응용
출간
한정
오른손
도쿄
매일
방면
사범
아마
해인사
동계
해발
##무형문화재
##퓨터
중요무형문화재
구절
소멸
처분
찾아볼
천안
##불탱
철폐령
인권
일환
장편
제석
##비아
까닭
선임
세손
일자
144
식민지
교과서
대륙
새롭
툇마루
공동체
윗부분
142
왜구
##ur
빼앗
알아
연출
이광
협정
##드러
독서
보냈
사관
소형
순조
완공
프리
##갈색
1868
에너지
원자
##려서
나타났
국악
신석
신선
가까이
기리
성질
원장
호분
없애
##관찰사
광고
평등
거대
비행
허가
##정원
##속도
##어졌
신호
실록
연관
천황
주지
화산
##지도
##룡사
##BS
도망
발전소
모르
반응
집터
차관
사천왕
박근
유도
주류
정치인
구도
배웠
승인
적절
조지
업적
원종
첨차
모임
##자나불
느끼
명부
병조
시리
정성
##악산
극장
불린다
사간
정유
비서
요지
전원
컴퓨터
147
갑석
개척
비유
중문
##톨릭
고양
구미
단행
매장
누정
본존
북방
스포
천문
가담
당상
명사
살해
서부
인력
조국
대나무
목포
저지
호랑이
##난다
김동
깨끗
서리
탄압
##천사
##선생
개시
공학
뉴욕
부서
붙이
평론
성문
위협
여겨진다
나한
멸망
소지
호칭
사서
상례
소화
정선
타인
##람회
거치
드물
연희
중용
합류
126
기온
보성
쓰인다
1943
1912
보험
수직
엄격
펼쳐
공민왕
겸하
라면
장흥
지부
진리
해남
138
멀리
충렬
##천리
말미
새끼
소녀
시정
쓴다
졌으며
협의
규범
기름
세부
통도사
##국민
##총독부
조선총독부
민속자료
공의
붙잡
약속
탄핵
밀접
수여
연락
이규
어려움
봉화
플레이
해군
이순신
단장
수평
인재
개관
남겼
명성
물품
붙인
영토
이치
토대
한때
향리
가옥
관점
유학자
대원
반주
빠져
실무
통영
800
보현
63
교체
미리
복구
사제
사사
서민
오랫
직전
명확
꼬리
사위
쇠퇴
아도
언덕
적혀
##인본
가요
고령
관세
도사
원시
징수
고등보통
박근혜
고등보통학교
뮤직
대방
한다면
근래
김규
상승
선박
수송
원통
도교
실정
지향
157
국군
낙동
자문
천자
기호
모방
새겼
춘향
규제
단면
무산
새겨진
고치
노출
진상
##주군
들어오
동인
정문
출현
##아지
오랫동안
공로
공예
덮개
어업
제대로
투표
개체
효율
소요
##창군
고개
국경
법령
법제
상감
종친
한림
##해군
##독립
종로구
디자인
무속
이시
퇴적
행랑
가격
승진
중엽
혁신
##ol
마디
먹이
지혜
축소
병자호란
녹색
양자
축제
##지사
는다는
아무런
변천
폐단
일으킨
The
대종
대략
1944
드러내
국립중앙박물관
진영
94
단일
숫자
심한
전두
첨가
거문고
검토
사태
거느리
라며
##임시
계단
대의
제례
1918
85
왕세
##연히
가늘
거란
바닷
안치
파리
향토
##지방
##특별
고통
버렸
부녀
조형
주간
차트
떨어지
노무
의문
##공사
주석서
가난
데이
문재
비례
##ion
건너가
스포츠
달린
대량
연평
음운
인생
희생
km
불전
##기업
##받침
시리즈
사후
완만
##우리
##전히
양호
어도
주희
다녀
상사
왕족
의성
인공
돌방무덤
월드컵
광범
국도
세월
조달
체재
##절도사
보충
아침
앞면
##조약
##라이
과목
대외
모셔
공헌
교훈
향약
기하
단독
##악기
사대부
평야
82
깨달
논리
대우
마르
무가
석회
이란
돌출
종자
125
소매
88
박자
오언
인종
머무
비구
야구
이관
재학
주문
##두리
##러미
가톨릭
비석
옮기
증대
직무
화원
##산물
넷째
문경
주력
조리
참전
신청
##혁명
석전
시주
영천
이자
증권
철저
700
가진다
고주
따위
위반
취지
서낭
훼손
92
곡식
구전
군단
입법
중서
증보
##새김
110
당우
되게
이룩
칭하
##은사
##정음
영산회
가야금
강진
유서
입각
자진
증명
##il
멤버
비명
원수
##자원
전두환
서무
정통
철수
이조
편자
학사
기상
동방
무관
본질
분화
심판
61
비디오
영암
지류
천도교
부동
전화
##경제
국한
나란
마이
어제
형사
가하
운반
원정
반전
앞뒤
참봉
##조계종
흘러내
대한불교조계종
김기
장승
조개
선율
이병
적합
화장
돌아오
관음보살
두드러
불가
영월
대목
신고
심리
통계
##기술
이사장
교량
서화
지진
진정
비난
암석
정인
측정
##마당
158
당국
증설
##단지
인터넷
##임시정부
관습
남기
대기
동제
자루
취득
낙동강
95
부조
부활
##여서
군자금
일단
국가민속
알려졌
국가민속문화재
변동
인접
정수
확산
회계
는다고
김용
부리
장자
69
98
벌이
연보
훈민
고적
무명
암자
해주
1904
급격
물고기
베이
사냥
운행
번지
파손
##러스
##느러미
이탈리아
다룬
신인
영광
칭호
##활자
대칭
벽돌
병합
일컬
추대
항복
##비전
보고서
개량
시왕
싸우
대사헌
발휘
변호사
부과
수장
식량
어사
어휘
저작
적당
##예술
중추원
도장
수십
주둔
편의
지리산
법화경
부수
생겼
언해
예전
이조판서
총무
##명사
##줄기
한국어
교지
서산
쌓았
예정
유고
진압
##다가
대한제국
뛰어나
명명
아프
유대
춘천
##음보살
93
담장
실상
합동
추녀
학설
##연맹
##타인
덮개돌
백두
참모
체질
초하
세워진
71
개별
기지
나눌
석유
수량
평생
국내외
가르침
단층
덧붙
무형문화재
김구
모자
묘소
영상
족보
첨부
충실
합성
##무리
근원
정경
조절
호수
##서쪽
훈민정음
함락
1913
마애불
59
경복
누각
안상
여론
##곡사
내력
부흥
북경
한쪽
행성
고취
명창
장성
정립
직장
아름답
동정
받들
비정
연수
자음
축구
##훈장
방안
부위
열거
전도
##천면
허락
가루
공인
구사
백색
붕괴
설법
영원
이행
해졌
그만
사형
생원
전수
진실
도상
두꺼
맹자
선진
소학교
어미
옥신
성경
시중
시킨다
고지
기행
단원
음각
의존
1915
##무늬토기
76
개원
사액
송광사
제물
##재집
##컨대
일으켰
교황
목재
영업
오직
호소
##티나무
##선대
대항
정종
주기
태백산
시청
증상
태어난
피난
##퍼스
공해
관측
온돌
##바지
##곡리
거제
명주
수성
엿볼
접촉
정토
주교
거사
빠른
어울
자생
##as
나란히
경덕왕
모금
입적
진전
포항
한데
##좌랑
지방민
155
대접
생략
일괄
향로
1917
77
거북
문체
훈장
##아내
가르치
신도비
##이션
공산주의
스페
구원
##사관
들어갔
각국
고조
명종
부드
불사
사명
세포
아기
##선사
고산
사도
약화
촌락
##et
##라니
특별히
갈색
구성원
논쟁
용암
##ch
##봉사
다스리
매매
신자
줄어들
성균관대학교
74
건륭
관상
귀부
성씨
포로
##장단
83
김홍
법회
총장
합병
호조
##총리
1896
인정받
유인
직원
최진
협동
##상시
가죽
동포
분향
윤곽
판서
계면조
기후
명단
인격
집회
출범
154
of
가깝
분과
연호
충돌
화사
가시
광해군
상고
심상
영웅
원료
이웃
조식
탑비
풍경
이성계
노무현
보주
애사
일곱
##선왕
##BC
불경
최우
화순
단종
당했
신흥
어려서
그려져
개조
끝난
사학
예상
오리
유아
장교
체험
폐쇄
86
동종
##am
범주
궁내
김진
박영
사인
유입
중구
필수
##산업
##로왕
##문서
148
73
각자
대변
봉황
아악
은데
장원
처녀
합하
##로운
타이틀
금산
난간
대두
삼도
우조
원각
조작
증산
결구
위쪽
화기
##전투
강화도
김유신
96
건넌
마시
면모
모델
우려
증진
총재
흥선대
요사채
흥선대원군
겸임
대단
사본
##om
감찰
잠시
156
일으켜
정확히
석인본
자란
접하
정재
포도
황색
인가요
동성
원조
의심
정세
현판
김영삼
가설
만물
보안
여도
옆면
우의정
##오리
87
마산
불분
영혼
용인
신기
율시
응시
초본
초반
화랑
##디어
##간지주
금성
당사자
발음
이현
기원전
구간
동명
수인
실용
쓰인
열리
직선
향해
혁파
묘역
사행
사림
신주
여전히
잡혀
중소
출마
폴란드
행차
공기
보좌
복귀
소국
수수
신증
연재
입지
초하루
바치
생성
승정원
통화
##신교
삼존불
소박
수지
순위
정한
텔레
홍수
효자
마저
발언
왕릉
이영
청송
토성
하동
결승
나카
예비
왕건
##화당
개경
들여
부호
연령
육계
제주특별
민속문화재
##자치도
제주특별자치도
김경
본인
분량
올바
하층
##FA
이미지
밝혀졌
감각
별로
아메
온천
천태
홑처마
훌륭
##회장
걸려
구획
권상
껍질
나중
무게
부연
습격
흥미
##불화
부채
분청
소문
현행
78
구경
규명
명승
무과
병풍
뾰족
수비
시상
아라
진입
청도
팔각
포괄
책임자
경복궁
광물
농경
바른
손잡이
일관
자수
잔치
전염
천하
후면
흰색
건넌방
김시
문고
문명
보전
익공
합천
호구
##암집
117
이라고
조경
한산
협상
##파트
##운사
1916
연합회
봉행
신용
##자락
경북
알맞
이마
자산
재무
정읍
청원
활성
##덧널무덤
129
지대석
사령관
태평양
붙였
수영
심지
중세
충당
혼례
##수리
정상부
가득
권위
김인
벌였
종파
협의회
##토리
##광역시
근로자
기에
누리
대들
##re
##다니
고고
문교
비평
입양
즐기
협시
##삼존
151
기관지
착수
한자어
결사
공덕
실행
인연
종성
##무사
##ou
128
관여
피부
효종
경주시
움직임
문재인
84
광대
돼지
상록
오사
패배
##보이
거처
기성
상공
평정
호적
##친다
교생
농가
동향
연상
열렸
정진
감시
구입
긴급
더니
상임
유수
창덕
해상
행록
군기
누가
보인
사절
산재
수련
얼음
장르
주고
품종
합장
대한민국임시정부
광범위
91
극히
반야
불신
연방
채취
##프트
강희제
원내
이윤
크리스
##나리
TV
김원
불타
신당
자살
중지
창당
##방송
##평리
구비
암살
의복
최소
##살이
##퉁이
가장자리
공산당
대들보
간접
부착
예배
국권
군현
논하
단정
밀직
조명
홍보
화살
##으니
##um
공항
까치
끝내
러서
봉토
신한
전역
조카
##국어
##무지
아래쪽
김광
무너
반도
봉산
수관
신의
음절
이지
전답
좌의정
주최
대사간
찾아가
장대석
무력
원문
자락
편리
극락전
강연
드문
정화
포기
현유
##나다
받아들여
충선왕
##걸이
사경
사역
소로
전지
객관
구연
구호
명하
소방
1897
89
군부
새벽
실린
악장
양각
정동
포교
서울시
동아일보
관례
교섭
교양
동구
조항
캠퍼스
토끼
협조
##사업
##슈타인
연구원
자서
전남
주고받
겹처마
남동
대군
도선
이장
##ad
81
고급
말사
본명
분지
이내
통견
##탱화
은행나무
행랑채
로스
종전
주일
##연화경
##르트
##법연화경
1898
대공
점점
조기
두리
모순
방해
용산
최치
현령
상세히
미사
법정
부윤
##고사
##개혁
##광대
동남쪽
##공산당
국조
기운
방사
살아
상원
사무소
경치
그렇게
낙수
당악
모란
운용
차량
모은
수백
원본
유신
이번
조목
좋아
처형
##화사
나온다
거절
요약
전세
풍자
##학사
개신교
곡선
반발
울릉
존상
종가
직책
창의
##레일
내륙
반포
분열
전용
진지
폭발
##스코
##운드
교주
장비
정전
조류
하류
세워져
세워졌
관부
대관
도화
봉기
기인
색채
이리
케이
평소
하위
혼합
지방관
지방자치
고택
도식
아파트
완료
임기
잡아
총선
개간
석방
의령
정약
조처
지평
해소
##박사
##북면
출판사
금당
출목
토벌
##이어
##바라
일본어
##연구원
고금
구상
매체
무사
빠르
수문
어긋
인삼
조영
평지
##공주
##짜기
노동조합
돌아온
부동산
군중
못한다
불만
수복
시티
온도
주심
탈출
포위
##아문
구덩
넓이
양국
정밀
캐나다
희망
마무리
반하
여덟
오후
해제
들어온
창덕궁
강령
강남
굿거리
부친
상속
송조
영인
초명
풍습
연합군
구현
기우
남긴
사과
손상
##단체
##아미타
79
김장
발급
아르
안주
어간
예문관
조종
##동국
##라스
돌아왔
왕세자
관동
당간지주
무량
성지
조광
갑자기
##영화
##경기
대부
데리
만약
예속
타령
폐사
항쟁
조선조
머무르
ᄒᆞ
경력
방침
장려
호족
갈래
부각
선도
스위
용기
임용
##태자
##체육
가리킨
움직이
며느리
무시
분쟁
예의
이준
직제
##보드
##의식
새로이
이어져
전문대학
안동시
네모난
김재
라디오
삼척
시내
역학
위성
재상
지신
##대성
##속도로
느티나무
도달
돌리
발사
이의
자비
지극
창방
##우회
미술관
문묘
배제
순회
스님
재임
희귀
##로이
##os
궁내부
최치원
거창
규합
길림
체조
특유
브라질
발발
성안
수표
저녁
##라인
독립군
민족주의
고창
기부
상석
새기
심각
좌익
진공
청사
초청
##사전
##부좌
##다른
정언
정벌
조용
형조
서기전
도의
산맥
영감
육지
이덕
정체
축원
내면
명시
진화
단양
산출
일련
작물
헤이
##영산
바라보
고무
김천
자본주의
강요
수익
##정랑
##왕릉
##련사
건축물
97
견훤
경남
대금
읍성
자고
진언
활엽
##아시아
비로자나불
백두산
분청사기
농림
서예
을사
이바지
질문
편제
##공화국
##워서
이어졌
대방광
군데
물자
250
개통
공중
구례
군산
녹음
려면
소원
연회
제약
토착
##천장
꾸준
늘어
방영
서장
서방
수석
운명
조립
조차
평조
포켓
효력
##보감
##병대
이명박
최진실
금관
꾸며
노예
동무
수종
예컨대
푸른
##암리
1901
1871
낙엽
면제
부탁
진료
해운
호텔
##멘트
국무총리
간결
김연
문지
법칙
빌려
어두
휘하
청동기
공유
묘비
수확
약재
인출
채용
호주
##르크
전문가
꾀하
채록
총리
치르
##nd
사령부
노사
부회장
삼각
앙련
양면
일행
##사건
강습
고흥
승탑
안산
역설
풍류
이어받
충렬왕
신증동국
신증동국여지승람
보은
심성
정계
제천
주한
충신
##거운
들어와서
강사
물가
봉해
세분
주축
총괄
중심지
바깥쪽
김규식
교도
재래
지옥
민가
상복
자제
추세
회전
대동강
소학
수구
요동
육조
착공
##화문
##백제
곳곳
그치
손해
적색
클럽
트레이
##ac
가르쳤으나
부녀자
가스
교역
김태
매달
봉분
성현
창호
취소
##사회
##워하
105
디지
부당
유희
으리
이날
해진
121
1592
연평균
##레일리아
구석
논설
늘어나
수목
아키
향악
유치원
서남쪽
김치
내포
단청
사주
야당
학계
경의
계사
세금
정구
정변
침공
탱화
파주
##노래
문제점
세종실록
the
강도
막돌
수심
시종
연루
이문
출시
황금
##까래
2018
검거
경과
국자
몸통
상관
유민
이진
이희
익산
##어리
텔레비전
개봉
고증
리듬
밴드
손가락
스피
염색
자극
초가
추증
후지
군관
김병
일월
중성
채소
##둥이
108
얼마나
간호
구슬
독점
열반
이남
일화
저수지
소재지
간직
과세
단오
담겨
보병
북동
성취
습니다
심경
짐승
##정리
##신보
##전자
111
149
붙여진
수호신
긍정
당산
마감
비트
빠지
악학
왜적
제단
중점
특기
노론
동산
두려
사의
연해
홍콩
##민족
102
지석묘
곡물
권유
꽃잎
대마
대덕
상경
스테
일생
주주
환원
##정책
문교부
구리
생태
수료
일어
질환
##라산
153
대장군
막대
명목
무상
성서
이방
추상
친일
노동력
더욱이
병마절도사
공과
생애
성향
세습
저고리
차운
투입
퍼져
해수
서북쪽
오스트레일리아
산악
신광
음보
의혹
이만
인명
축성
후퇴
##산맥
강계
장안
피리
하와
휴전
흑색
외국어
사간원
말미암
아프리카
문관
속한
속담
연행
위생
찬양
표제
##코드
##불화엄경
납부
범종
사마
수시
유정
친목
토목
편년
품질
조선일보
연화문
강서
고르
삽입
수기
예종
이집
자율
전망
정몽
조부
##바로
900
간다
신령
연계
절벽
쳐서
총칭
최영
##뜨리
지나치
방아
비각
섬세
안마당
요리
위장
제반
즐겨
학장
##무소
##op
신문사
해안선
고수
용왕
책판
촉구
폭력
화약
관해서
돋을
든지
만슈
순교
이언
장정
희곡
소비자
남향
매화
상무
실내
큼직
##여래입상
개명
고찰
기르
동반
선산
시점
열차
유씨
전서
주술
지인
##인물
##전문
대장경
단순히
부를
수필
실기
음계
이산
지침
109
가해
부른
부원군
분배
여졌
연원
오대
포장
하계
현저
##카이
조선공산당
경기장
사라지
돋을새김
고발
뉴스
보위
분교
석탄
순절
왕후
외래
이우
##민주
##덕사
교실
기금
대도
대각
동백
밑면
스케
시범
천인
##발전
강론
내삼문
복무
살림
연설
운송
입사
정연
즉시
찬성
흔들
상당수
기기
내성
빛깔
시무
역관
옥천
##산동
바로잡
나카모리
국화
몇몇
상층
숭배
승부
육상
자취
장지
통사
##동리
##별곡
중앙부
1392
물리치
교대
대정
서까래
시신
영사
원호
축산
112
금액
남인
사육
오층석탑
의자
일까
초월
화물
지방지
동편
수조
창단
##스타
##악단
##조사
##경장
##연구회
이집트
공군
꼭대기
나비
대처
선천
소양
연유
예천
운수
재일
##크스
피해자
골짜기
대소
만일
병부
선포
신임
여건
유람
장령
회합
##대엽
##이사
##전서
##힌다
머물렀
명부전
개입
그물
서체
신탁
신학교
자국
진술
타임
풍년
##유산
##동자
##태우
##언해
조선어
뒷받침
수반
토산
한가
홈런
##사범
정약용
객사
교재
끼워
발췌
봉우리
상권
유산
의약
재실
첨지
치우
후세
##변사
107
인터뷰
가리킨다
고위
노랫
사드
통칭
##대왕
김준
든다
묘법연화경
무인
신정
전이
정려
힘썼
포켓몬
곤충
대법원
민정
박세
백운
산란
채권
평산
현손
화합
##당집
##동면
##마을
1902
FI
모으
심화
전담
청풍
취락
통로
통문
거친
금메달
박지
별명
오염
요령
이회
증조
축하
##석사
인민공화국
갑오경장
개수
게재
경로
마한
미소
장엄
타당
후학
##보전
지리지
다운
동료
박문
정방
청색
치안
폭포
##도량
##문하
통신사
동국여지승람
##여자대학교
농지
민사
번뇌
사성
압력
야간
양지
임신
줄거리
초의
함안
##마귀
내려와
논한
목장
문물
연예
옹호
한라산
행복
##소송
##어도
##닫이
124
그려진
스페인
좋아하
하와이
겨우
담배
대석
되돌
부령
불안
안타
절목
천문학
평탄
후백제
감옥
묻혀
배상
분합
산청
석굴
시비
청산
평평
기소
노조
발명
선문
수술
유약
이적
조인
철거
표방
소장본
기억
백화
벌어진
베트
비스
십자
양도
혼자
힘들
##기구
##립공원
지닌다
충분히
도전
유로
이색
##ir
##든가
가산
뒤편
무주
억제
유연
형조판서
간사
군역
규격
마땅
봉건
설득
소위
유력
의리
전차
천체
통용
김윤
돌덧널무덤
법주사
소상
시책
주연
풍물
지휘관
신석기시대
강경
공물
두르
만난
시체
정병
종지
천왕
치성
평행
하느
함유
##등록
##ter
##ed
##통신
사실상
하느님
결가
도설
시멘트
지면
##러진
131
가람
거짓
경문
내놓
다락
떠났
메이
외관
일가
집필
천리
풍수
발행인
당해
상륙
안보
은퇴
처지
흩어져
동북쪽
온돌방
논어
다이
시초
##일러
따랐
박종
분산
수혈
이본
저승
제왕
초래
표창
당상관
단단
영현
의결
청와
치마
풍기
##포시
##전쟁
##관계
기술자
석가여래
결가부좌
감염
배포
삼각형
석주
심방
악곡
123
궁극
기문
만화
산학
삼신
소경
일명
효행
##수도
##ig
##참찬
하대석
청와대
궤도
귀양
도산
병설
산간
소집
한층
화풍
##id
분명히
건륭제
굴곡
수세
연판
예언
용량
원삼
침해
호위
구부
빈번
산기
속성
어류
이태
이찬
장시
직경
추밀
통감
다며
별장
살피
서도
실력
자전
존중
함평
화승
영향력
방송국
단편소설
KBS
김우
런던
세련
조병
참의
총독
합작
##리유적
과일
관행
모색
변이
산사
예외
운문
중등
할머니
##산조
##음악
학교법인
간섭
괘불
농장
면하
아리
오목
왕국
이천
자장
재물
청량
충성
협약
효성
김석
김보
색깔
선각
야마
연습
온갖
재미
재주
죄인
타격
탐구
##살문
##ot
##사범학교
간장
광종
금고
길흉
도감
번호
아산
약물
월남
폐기
해금
##ul
##궤범
병조판서
성산
이항
자질
제언
증축
향기
둘러싼
감회
고부
과도
납작
수차
심해
쌍계사
창업
향한
106
경신
급속
김덕
외곽
유진
인심
행진
히로
##의학
##인민
##ut
석가모니불
두리기둥
서귀
악화
##부시
##재판
##워드
까마귀
마사
불려
선명
성실
수축
신명
예조판서
이끄
인형
캐릭
후진
##화상
##젝트
계룡
노반
라기
천상
##평장사
132
중심부
탑신석
악학궤범
공룡
과실
도끼
예서
정복
화문
회색
##성기
김지
민영
법맥
부진
사격
살필
상여
스튜
우편
원만
유의
유효
진단
천신
홍주
확충
103
청년회
중소기업
어긋나
꾸준히
FIFA
캐릭터
무한
불편
원당
전념
파생
형벌
화전
교육자
격파
광명
도심
박태
사재
산화
안양
영구
의관
전북
해명
##식물
들어간
이루어진다
받아들이
둘렀
똑같
묘제
사임
서자
석사
습니까
옷자락
요충
자인
정제
찌르
참판
##ay
프로젝트
진흥왕
St
가가
개축
경서
문산
법사
변모
아문
양인
##드라
##강원
지냈으며
아랫부분
관세음보살
정몽주
논술
도호부
마친
반원
법학
복수
유언
자매
제관
항구
##개발
##아래
##주식
문하시
공조
궁예
귀퉁이
돌무지
몽골
오행
울진
적응
최후
##현전
내려가
언제나
대방광불화엄경
격퇴
고장
금하
누룩
당신
명인
분할
왜군
우정
이라
절충
찹쌀
투명
동국대학교
내장
달한다
배속
본과
상의
연금
유격
적어도
증언
##의궤
118
##ent
대문간
전염병
공단
용수
진양
##문법
바닷가
디지털
개헌
고래
만장
법화
비극
은거
표출
호기
##만강
##별초
급격히
가령
기장
남방
대강
받쳐
사모
아홉
의정
##유물
가려
동궁
둔다
무예
부가
블랙
성리
안팎
어진
영해
철기시대
탈락
트레이드
가축
내시
능엄경
다포
방대
시화
왕권
요원
운전
임종
점수
혼용
후계
##해서
##시코
건전
깨닫
내왕
심장
이세
입증
재위
축대
피아
학제
1884
1882
황해북도
아름다움
문무왕
발기인
##전문학교
결론
남겨
시의
신비
심정
연등
인동
점토
풍산
##자루
##수경
152
우물마루
국방부
신민당
공법
기증
나뭇
놀라
동이
득점
베르
순종
양감
왔으며
참회
초창
감추
거울
구단
나섰
사비
손실
장경
차단
##자국
##의장
##od
##충사
아닌가
항공기
낙랑
도원
등용
상체
선보
세속
쉬운
신랑
심청
야산
연산군
진학
##사화
##구스
##평야
##니스
##재란
##제도
##극장
정유재란
다를
단식
당당
동네
매듭
반자
북청
송병
완도
이슬
칭찬
##학당
##군부
재단법인
석실분
관모
교인
구결
권수
네덜
단기
대치
부안
산정
스트
언행
여우
존경
주소
평창
필리
흉년
##모음
##니메
네덜란드
결실
공소
공전
날카
보령
빌보드
소관
안녕
어부
에피
영등
예기
월간
정국
자유당
경찰서
인천광역시
물러나
감싸
국적
돌파
모각
발효
복용
비변사
상설
수레
영덕
정간
주두
지목
##im
104
김정일
가닥
끼리
더러
두껍
따뜻
레코드
배수
삼현
시루
식사
입니까
접어들
폭넓
134
생산량
한자음
##연합회
간기
경종
공적
교유
두레
외손
진동
진관
초간
투어
##지기
##시마
##선언
연구회
1903
가면
걸리
기다리
꾸미
남포
다라니
목숨
민법
사슴
아카
양양
유자
의금
##의사
##매기
당초문
베트남
대폭
물려
별다른
악사
입체
제재
##ia
##직자
##베리아
경제학
남해안
아메리카
가상
감영
거칠
계주
롯데
멕시코
물리학
봉작
생육
순국
안창
원천
주종
초록
현금
화신
회령
##간채
##시조
##더미
##오르
경사면
담양
두만강
만경
만년
모의
선구
시립
암벽
어른
용문
의종
제방
져서
중립
채무
초조
최충
택하
##종교
##총장
##나이
##찬성
##즈음
경쾌
관문
만족
분장
빨리
선암사
안중
옥사
임하
중도
출장
충격
##곡면
그리스도
무성
범례
사양
상상
옮긴
지성
특권
파이
회관
##보부
##불좌상
##절제사
##관리
미륵불
고소
금석
남문
노르
대추
박동
발라
성숙
용두
원로
재현
취업
친척
##가요
##투스
##든지
삼국지
금강경
발원문
춘추관
붙잡혀
고루
느낀
두광
명분
우두
이식
절도사
주된
페리
화제
##대신
##전람회
##할시
산신각
평론가
노랫말
##주식회사
간혹
곳간
김응
만호
몰려
배운
사로
살인
왔으나
외형
유문
입술
풍요
한지
효시
##어스
나타낸다
길림성
감상
감로
김도
나름
나폴
만났
바퀴
벽체
부원
산조
선행
소주
손바닥
시킴
여객
종료
풀려
호국
##임관
밝혀져
생물학
떠난
목욕
배정
병행
보증
보문
복역
봉하
부유
이단
종손
주초
태실
퇴계
동화사
유전자
원통형
거점
관객
국문학
권장
꾸몄
대흥사
맥락
방리
버린
서편
암반
여운
왕래
자립
충절
치열
후궁
##황후
##경궁
113
아니하
상대방
마루방
남한산성
##미술관
가미
독창
백지
비추
양측
요새
전임
차장
현무
형편
##총통
##재문집
지식인
강수
달아
본국
영락
의인
이조참판
조문
지공
채집
포상
##철수
##태평
1000
서해안
견제
공수
긴장
누이
매월
보강
시원
영문
유포
전진
직물
취재
하구
홀로
##리포
##소드
##부리
##글랜드
##백색
교육부
활발히
석불입상
심지어
에피소드
고생
만수
수천
수컷
위임
조계
합각
광상
모스크
유화
임상
중원
창시
충효
치렀
평택
한나라
##마리
##서트
##온천
##전선
##협의회
전해진다
한나라당
도학
리얼
생전
순간
오전
잡가
하이
학파
허위
##대공
##한국
고추
늘어났
대답
반성
방주
병기
선물
시공
회고
사이트
아마도
의금부
감안
곧바로
끊임
나치
데려
분자
소론
소백산
시랑
염료
인왕
잉글랜드
정무
제어
집현전
측근
콘서트
테두리
##유집
##십자
대표작
문란
시전
유식
인체
진해
최상
축적
헌납
##우드
##천왕
##력발전
동의보감
유엔군
울릉도
강학
경부
관군
김현
몰래
문루
바지
사퇴
앞장
을지
재령
재개
쫓겨
칠정
하권
호흡
##대비
##방울
##로스
##심사
##그릇
133
가마터
개화기
광장
금제
남하
대행
디스
복음
상정
상자
생계
신속
예측
은혜
이석
장신
지각
힘쓰
##업원
##계서원
##그룹
훈련원
화엄사
러서는
고본
국유
귀속
무고
바뀐
소저
역원
원소
유실
자경
작사
철기
폭탄
황종
##보인다
##정재
##장수
122
하나님
광복군
제조업
비스듬
경산
남구
도솔
면은
배척
백관
신뢰
이혼
전등
패션
##사리
##그마
##미술전람회
원종공신
고안
과전
야기
옥고
##레기
자본금
영산회상
갑사
고방
라인
법계
불로
아스
에이
원고
익히
청장
충남
풍화
학도
항성
##트리
##정신
##비로
##병원
##암문집
미국인
김희
무지
상처
지출
투수
##행위
##성왕
대종교
대단히
김장생
경고
경도
고원
눈썹
느껴
대본
마구
밀려
배워
본성
분묘
상위
왕사
우산
이양
전복
학살
##진흥
##oc
사천왕상
오사카
공세
광양
군락
마멸
무궁
본당
양손
역량
영변
철종
충족
##아보
##플러
1883
천태종
김주
나눈
낸다
소생
시베리아
장진
페르
휴식
##나한
##바다
##ow
석조여래좌상
국수
기점
남서쪽
납치
밀교
발각
비료
섞여
송도
요건
지녔
폐허
##스턴
##리석
115
일반인
##ation
올바른
관인
나뉜
열녀
음소
짜여
친정
표고
협실
##여왕
발표회
##여자고등학교
미사일
금기
김명
동리
명기
음모
의과
창극
첫머리
초급
호종
##은이
##비고
스타일
내무부
당원
버스
신간
영흥
오락
완화
유니
재질
졌으나
허물
##문헌
각본
강변
건치
관개
나마
나서
덧널
도가
목소리
분노
어원
장여
재원
조례
종신
##iv
##노비
##삼층석탑
##레이션
5000
깨달음
관복
교향
구출
국학
금호
대만
박승
벽면
씨족
위탁
중동
책문
학력
흡사
##사령
##천동
##일고
##자나무
##용수
MBC
당진
돈녕
매입
법의
빗살
사문
서유
수륙
이계
제법
출품
품목
병마사
1356
두꺼운
난다
남사
다량
단결
대안
돌기
무녀
석곽
솜씨
암컷
양념
연이
외삼문
자아
자랑
장부
중군
차려
항의
황후
##스토
##관음
전사청
오스트리아
경학
물레
벌어지
빌리
성품
실태
입안
절반
제호
진흙
##보호
##락부
##요일
##거래
##싱턴
중국인
내려온
자란다
공조판서
과시
교차
권속
금산사
당쟁
대세
도제
밀집
사시
잘라
저축
표정
##산대
##선거
들어왔
제주시
흘러내리
고하
공경
김형
상식
선인
순흥
약탈
이목
장점
전한
청룡
항소
힘입
##ᆞᆯ
겸직
경원
경희
곁들
고속
김부
도굴
묘호
부기
수식
수면
약수
접속
짜임
찬술
채널
최익
##라는
고등교육
##연구소
가져왔
유성룡
감리교
검교
대수
독도
뛰어났
반죽
복위
상장
서신
아뢰
악지
조석
중복
칠보
팽나무
##천강
##촌리
##반정
##긴다
대한독립
다섯째
갑오개혁
광업
기물
변상도
부적
비치
시어
아궁
주선
찰방
최씨
통례
트리
파편
품관
##대표
##CA
상소문
석회암
결심
교목
기수
농산물
던지
량가
명복
사복
설과
실학자
어선
어찌
완벽
요즈음
일방
장석
장남
챔피
편액
펼쳤
##ap
##내리
과학자
대마도
가뭄
국역
김양
낭만
뒷산
아가리
정중
진성
충무
포구
하순
현전
화주
##무아문
##버들
조선인민
사범대학
조개더미
##재판소
관현
기거
도총
도금
도자기
며칠
성대
용담
위로
이속
인디
임수
전장
창제
초성
향가
##무역
##평군
##거지
고문서
수시로
기이
도청
살짝
실수
암시
여지
용언
원예
일지
정관
좌수
집약
차자
탈퇴
행렬
홍건
##우루스
##화학
노동당
가동
교포
노태우
명의
엄지
위아래
이렇
장차
첨정
##ag
##복사
##낸다
1890
소유자
결코
넘겨
놓인
모범
문단
미터
바둑
범어사
불국사
성기
시경
연변
융합
장학
총독부
파평
함대
##기름
##버트
봉수대
견문
군영
기다
대제학
던져
독재
무령
방울
병서
부패
소조
엄청
연료
원작
원년
유곽
창출
터널
##춘추
순천시
산기슭
기질
놓이
다투
라틴
맞서
민무늬토기
생일
성사
속리
신상
아시
워싱턴
중석
파종
##정변
##베트
소설가
1885
국한문
고고학
오대산
갈수록
경무
구국
누마루
도둑
마찰
사대
연봉
재생
진천
참지
탐사
황주
##사위
화강석
을사조약
검정
끌려
방편
북서쪽
선유
시선
여흥
119
언론인
경선
고조선
단조
베컴
별당
서천
서간
용화
원활
조계종
지층
질량
##고속도로
##ies
##운다
부드럽
조광조
가라
걱정
녹사
반공
부제
외환
유동
을까
자사
점유
조운
타율
판문
##농악
##봉산
세웠으며
부드러운
간석
격렬
교전
근육
널돌
도읍
뛰어
모이
벌인
사계
선호
수계
오가
유허
이휘
조수
주머니
중공
직사
출자
##우치
##신론
강구
구해
대결
덕수
소음
아사
여유
우위
우익
주춧
청화
케플러
태풍
##교리
##욕장
지방법원
주춧돌
과수
교민
끌어
무학
물산
별감
분수
산록
서류
신위
정대
지연
처하
천마
첨의
톱니
하체
호응
##인트
##un
##누스
아미타여래
##ore
모스크바
겹쳐
고운
그날
대대로
반해
삼가
서면
성능
실적
연산
연작
열전
이별
첨단
침식
##악원
##선도
영화제
훈련도감
화엄종
플레이어
첨지중추부사
후계자
가벼
명당
모형
무안
서반
성불
소정
스웨
신원
약하
얽힌
유한
인제
자의
청계
초서
통행
홍성
##소문
단행본
당부
도령
도래
둔전
방탄
법규
불단
사선
썼으며
압박
요시
윤회
이두
이효
임야
재능
홍경
##악부
##편찬
##다지
네트
도기
등재
불우
수감
수염
일선
잡직
접시
정철
줄이
취한
##타리
1880
요충지
나뉜다
결부
독경
사부
서두
승문
영세
이학
전의
중장
##제공
김정희
살펴볼
생겨나
본존불
리얼리
각도
간지
말년
버전
산소
순환
시제
심리학
야생
어우
영장
용궁
중순
중턱
집사
초점
총관
폐교
##크리트
독립협회
바이러스
개장
매개
명절
벌어졌
복제
비틀
유발
종업원
콘크리트
한탄
황태자
휴대
##리고분군
##민요
##신굿
관계없이
확실히
아우구스
넘어가
춘향전
안창호
개구리
계명
김만
나쁜
단백
대명
마라
발탁
스키
올해
입대
태안
효능
##강도
##야마
##버스
사회학
##편찬위원회
격문
관사
구두
닥터
덤벙
도당
매병
물결
별칭
사변
신봉
전소
종도리
총론
치중
침범
캘리포
환관
##례악
##지부
##구나
##에도
1018
곤란
논산
박해
빠진
사각
선무
실체
일면
조현
진한
피신
헌종
흥국사
##회담
##체스터
##러져
스위스
00
강좌
개년
검열
경호
기병
나갈
나발
높여
다름
등기
법상
부계
적자
제헌
종실
최남
친다
홍색
화자
확고
##수수
##재유고
##극단
##인민회의
가무
강점
계림
군위
권하
나간
대감
대의원
사창
생선
선법
앞두
영리
오위
원전
유영
임실
침투
후예
##ie
나타냈
3000
갈라져
757
보름날
##바라밀
감실
관립
도승지
문대
민란
민의원
서한
성황
수주
시계
요한
유려
지경
체언
친히
토광
##싸움
동아시아
창원시
##이사금
스웨덴
감동
광무
기묘
망라
무선
민심
밀가루
보석
불도
사치
삭제
수몰
안내
엔터
유길
유감
제명
팽창
폐간
학당
항만
##바위
관계자
##국민회
계보
김두
느린
단풍
달걀
마쳤
말엽
맡아보
미쳤
상제
상반
서대문
성원
시달
오스
오방
옥타
왕생
욕구
인증
임의
종보
하급
한시
1876
고성군
군량
권고
김포
단속
덩굴
도안
박인
분단
이창
이뤄
자모
접대
회수
##문기
##배우
##춤법
연꽃무늬
주심포
아키나
초창기
괴산
궁전
근간
범패
법무부
부하
사각형
수교
수로
염려
이강
자작
제비
천만
##ct
##위사
114
갈라지
두드러지
필리핀
캘리포니아
감지
굴식
김세
선대
스톤
의서
주모
합천군
##리타
##마암
##왕사
##법사
##피아
시켰으며
이슬람
유길준
경흥
기린
막론
문사
부전
비늘
석장
세제
신격
일심
입단
잔존
종중
황실
회상
##태후
##놀음
작곡가
Ch
강동
골라
공안
김이
묘향
별개
보개
사교
송정
수의
알렉
오세
옹정
위계
이서
천불
홍익
##무용
##복야
1800
걸쳐서
1466
정해진
비구니
철저히
피아노
비스듬히
모반
불량
세시
소감
수묵
안장
예부
우왕
유용
지세
진격
차차
테러
합당
##고래
##미사
##이드
지낸다
여름철
##비로자나불
단백질
관목
구족
긴밀
나물
몰락
부락
성도
아비
이완
자발
전례
정형
주어
중력
판정
필치
호부
##유록
##시왕
##데미
##렁이
연구자
중국어
1892
최고인민회의
찾아보
생겨났
김보름
독성
밑부분
상담
실직
억울
여신
원경
원광
위태
자성
전학
조복
종결
주동
중흥
즐거
하인
환영
##실기
대상자
강화군
##자원부
남조선
블라
살려
서지
소자
손님
우화
유해
이봉
재사
처용
##지보살
##방언
##ce
##역사
이어진다
겨울철
##소년단
신의주
방탄소년단
거둔
경직
관통
눈물
만시
사조
어획
연경
오동
완산
외양
용구
이질
장계
전말
주권
지체
계시
공보
교직
말뚝
못할
본받
불설
삼세
색상
수탈
스러
적성
청춘
특산
티베트
평민
회유
##세계
##원지
##무가
##바람
간도
광택
기형
뮤지
소중
안악
왕성
정호
천명
충적
탐라
표본
허목
후임
##쟁이
임진강
1308
중등교육
최익현
경은
고아
능하
단절
메기
미타
박성
발자국
부마
상장군
생강
세례
숙명
억압
유품
은사
정승
지눌
청진
힘써
##보내
##이팅
##주박물관
돌아갔
어려웠
옮겨졌
약사여래
각성
거론
걸치
남경
당간
부품
서서
성수
소아
소차
실습
액수
양기
어음
예안
위대
육체
인자
천군
동지중추부사
고유문
남양주
잡아먹
갑옷
구매
기숙
김익
나선
영수
전술
##틀러
##티나
사이다
##다리기
국사편찬위원회
교학
나옹
다년
동진
맨체스터
묘우
변호
수공업
양천
양정
예설
우세
이온
잡귀
장축
장생
정초
찬성사
철원
첨사
칠곡
파직
평주
포수
특별법
사무실
1362
명성황후
견고
금오
내전
동대문
모인
번갈
사살
성혼
송준
압도
여산
연소
영당
영입
우상
유관
이형
주해
주필
차림
트랙
특진
튼튼
한방
김종직
지켜야
장신구
아우구스투스
SBS
강신
담긴
믿음
송파
수소
수취
어영
영일
이홍
초고
치밀
할지
함부
##일랜드
##도끼
##공동
##하면
##러지
##젤레스
문학사
생겨난
행해졌
쓰여진
참지정사
관중
군신
낙선
대주
도정
문구
미만
삼한
성모
송사
신천
우연히
전집
했었
##다수
세계관
기업체
미륵보살
이규보
승문원
드나
모리
무진
박제
반달
사미
산중
세이
수분
습득
실학
안철수
업종
울리
처사
폐해
##산도
##아이
백화점
홍건적
극동
달랐
삼강
속현
안변
우라
우아
윤치
율곡
자면
장연
종종
천수
코스
평방
합창
헌병
##가야
1636
가전
갑신
그럼
남매
녹권
동헌
살아가
서상
서거
선봉
섬기
수찬
실장
의논
이은
입자
정랑
차츰
카메
탁월
##암서원
##건설
바람직
교과목
챔피언
감무
거지
경질
괘불탱
국세
그동안
깔려
누르
마포
복사
복부
용이
원하
이를
종속
직계
책머리
청정
출석
편마암
혜택
휴정
##장보살
##절요
##전도
##카락
독립선언
자연히
머리카락
선전관
장로교
장편소설
어두운
경유
공모
나루
날아
누락
두른
들이
명맥
못해
법전
비리
사다리
안면
어구
영위
우부
우거
으뜸
정묘
종단
중학
태음
하의
##성장
##반야
지하철
##과학기술
여운형
끊임없이
감자
녹봉
다녔
반역
벤허
숙청
순창
원사
재화
정광
지불
착의
참나무
측량
통솔
틀림
해저
##덕여왕
##어버
##벽화
##밟기
350
노리
돌보
동전
만성
맷돌
미니
북구
산다
삼정
신진
양어
용문사
위축
자결
주상
직각
토르
특허
후한
##og
##청년회
##드리히
덧붙여
가속
거슬
권근
금전
급증
낚시
노부
도호
목활자
법조
법관
변신
사공
솔로
식년
여학생
외면
이여
입교
한하
##장전
##방전
##시기
##금보
##작물
##워크
문화사
민속놀이
달라지
극심
남이
도인
무제
부합
선두
소고
소임
오류
위상
위촉
응하
이선
정현
침몰
태봉
통역
##이크
##러기
##NA
116
이화여자대학교
##불탱화
원자력
다녀왔
##혁명당
개천
결속
교토
국고
기로
기습
길상
면허
방과
보광
보림사
복발
부석사
애정
였으니
외성
임관
입당
입문
절기
조공
조창
지중추부사
진산
진경
진작
출납
풍수지
흔하
##남면
##조직
##검찰
어려우
어려워
국어학
995
그만큼
구덩이
스케이팅
풍수지리
LG
견지
기교
농상
바리
반기
방화
베를
부역
분기
살리
쇠고기
수월
안경
야외
어워드
오빠
일파
전보
절실
초계
투항
편수
히틀러
##왕조
##겐슈타인
남동쪽
국자감
비트겐슈타인
문산계
개석
객주
교서관
대북
도라
모체
무죄
본체
서계
숙위
슈퍼
신념
어지
옹진
이공
절단
정침
초과
편안
현황
##레타
교육청
이회창
찌르레기
대간
머슴
무료
미주
배후
불린
빈약
속대전
스티
스크
엘리
정은
존자
천의
치과
플라
##으로
##페라
##풍속
##광산
가져오
문수보살
춘향가
계룡산
##비로자나불좌상
규율
다지
단령
당연
도깨
미곡
부딪
성악
속칭
솟아
양산시
오색
정시
제영
총애
포르
홍예
##어서
##배기
##대학교박물관
석불좌상
기행문
이언적
안중근
곡명
길러
마모
문정
문목
상계
선소리
성조
소용
쇠서
약한
외무
유출
재수
재해
태사
폭로
형용
##방아
##마스
곡성
구주
바꾼
박탈
세미
실증
여겼
인장
인위
인본
투옥
##스탄
##em
##계획
##제품
##주석
##암면
##랑평장사
자유주의
##and
신중도
세시풍속
간척
도독
두부
병영
본떠
부식
분출
자갈
잡힌
재난
전당
전위
주성
주서
준하
천거
친필
허튼
형승
중대석
사라졌
강연회
교부
국호
나열
내림
되찾
마른
북서
분담
석물
설사
속해
어필
왕복
의천
종택
증세
징계
천사
총서
평원
호박
화법
##ᆞᆫ
##지느러미
##덩이
편집국
1887
경쟁력
산수화
고이
구장
낭청
도미
명신
바늘
배려
법안
분별
숭상
오브
오픈
용품
월동
잠수
전리
##리에
##길이
##계리
##판윤
##ov
##웨이
기념비
기울였
한성부판윤
알아보
프리드리히
엄청난
경인
공익
권익
김승
녹훈
뒷날
말씀
무동
물체
반사
부작
부귀
스코
어기
입국
접수
제직
촛불
탈당
폐위
##구멍
##ra
##명부
##전리
아래층
목조아미타
북동쪽
현무암
군명
내정
느낄
생사
수미
숭실
시흥
신발
온다
진위
타자
피고
횟수
##나마
##비드
##직할시
##막새
문인석
##대장경
어울려
간경
경세
고봉
광경
교감
그냥
께서
대교
반가
불꽃
브리트
서운
성정
수서
예문
이호
장만
채워
추방
칭송
태수
홍범
황성
##동유적
##투리
##홍색
대표자
민속학
동백나무
브리트니
가볍
관형
구형
바쳤
박상
북면
생리
신식
심양
역도
영험
원한
윗방
조적
홍천
##대교
##한인
##관음보살
드러난
##노동당
05
01
김순
꾸민
대인
방출
봉은사
불의
상향
시골
앞부분
역법
왕궁
웅장
위안
자행
자재
자각
잠재
제복
줄다리기
지기
한결
황남
##국립공원
##그네
##흘림
나폴레
중공군
가두
개금
공명
광학
근세
단골
당기
반환
불보살
설하
안료
애니메
엔진
최승
향촌
흥행
##성당
행정부
사적비
1886
1869
고양이
밀직부사
나폴레옹
감기
계원
교동
구로
동년
막내
배양
부류
역과
우사
재앙
전대
정공
증원
직위
탑재
펼치
##정기
##정서
##다라
##회도
##타민
##갑사
전해져
1866
으려고
베이징
##사관학교
결승전
아카데미
무궁화
갤럭
과부
급진
단자
배합
변방
변한
보일
복판
부응
선상
성년
숙소
악공
탱주
학업
해달
##의금
##진회
##성대
##협동
##센트
들어갈
여서는
고관
국물
뇌물
덮여
동력
무수
보국
블루스
상급
소극
울창
정희
진의
혜성
##지인
##나물
##ys
##맞이
차이점
1865
언어학
사범학교
선진국
기주
독송
뒤집
매수
모았
설탕
성남
연마
전우
전성기
정순
정혜
좌절
중재
항해
혈연
##상제
##이오
##강목
##본풀이
##김새
가치관
전승자
수군절도사
이건하
깨끗이
어울리
관상감
기우제
갤럭시
각급
공화당
그다지
기강
노자
대등
동과
둥지
말린
명백
무자
무공
분립
소홀
심신
옹관
원더
육영
융기
이근
제후
참선
행의
향나무
호조판서
##수산
##경사
##어트
1860
지배층
무산계
##문하성
서귀포시
묘향산
가끔
고객
관내
대다수
북송
소프트
손꼽
수렵
역모
주창
지문
표충사
행한
##은색
##읍성
##회원
##문답
##보살입상
보현보살
태백산맥
최충헌
단과
레닌
배재
번영
삼문
석비
선양
악부
역경
용지
유경
의궤
조장
중정
직속
창가
체신
한학
화해
흑인
##본부
##훈련
##섬유
조선왕조
대사성
창간호
대관령
##문헌비고
대세지보살
네트워크
서서히
강점기
넓적
대일
박용
벗겨
서학
어장
용주사
윤잉
의뢰
점치
제발
청해
청룡사
초등학교
해탈
##산서원
##정치
##원경
##연사
##온다
##권자
##규모
##앤젤레스
공업단지
청주시
재판소
남원시
그렇지만
로스앤젤레스
초간본
교의
대광
불어
성내
소사
수렴
신입
입선
잡히
전날
죽였
중량
추석
춤추
투구
한족
호의
##부모
##th
##터리
##입사
조선미술전람회
경성제국
공주시
개국공신
충주시
영산회상도
구덩식
리얼리즘
애니메이션
경성제국대학
개개
고요
공무
남서
농어
높직
답변
몸길이
민담
박진
백련사
비인
사족
새우
신조
신숙
싸웠
어릴
오경
우도
전과
주산
진평
출동
충숙
파도
풍토
화단
##도설
##바퀴
##곡집
대학생
방어사
학회지
동문선
관방
군청
금군
기용
기틀
끓이
나아
남용
단부
단국
본기
삼매
서목
서벽
쇼트
어록
영지
요양
용강
유공
정여
제철
조심
촘촘
한량
해독
##트로
##이상
202
판매량
내세우
제석천
비틀즈
블라디
카메라
베를린
그쳤
날씨
내사
도피
바디
별시
부시
삼림
성천
세도
소규모
슬픔
식당
앞바다
양전
에선
원불교
이소
인성
자이
장본
절감
제고
좌정
증인
증직
집자리
체류
출산
침체
##나스
##인자
##문왕
지리학
조지아
데이비드
불분명
연해주
조선왕조실록
간소
고립
교각
구마
권세
금정
기복
노령
도관
동참
딸린
매출
멥쌀
문간채
버드
법문
분재
브랜드
상좌
아귀
양심
옷감
왜냐
위엄
유무
윤봉
응답
이왕
장도
전권
정정
치사
카드
후불탱화
##스키
##ne
##if
국민당
돌아다니
평양시
황해남도
극도
글로
김은
끓인
나전
대령
대흥
대여
돌널무덤
되풀이
무려
삼별초
선왕
성북
솟을
습지
시국
신유
신안
신파
약칭
이괄
일주
입석
저본
전액
전란
주먹
집결
특전
현직
호법
후사
##일전쟁
##미륵
##로지
##쳐서
영산전
붙여서
1401
서식지
1413
나한전
무지개
and
구인
김사
도순
명산
무왕
문리
분비
사수
산세
생동
승하
양명
오이
왕지
위시
음역
자물
철제
체아
최신
편단
표명
훗날
##모토
##농사
한국학
기념관
1893
시켜서
최대한
이광수
가창
구워
꽃무늬
남도
미친
방치
사연
신지
아가
우유
웅진
윤상
이면
전동
축출
##가족
##동원
##동생
##국회
##시계
##신도
평양직할시
1888
360
그럼에도
##의금부사
개벽
경순
규탄
기암
꺼내
대보
명동
미세
미학
백양
베리
불복
상법
수색
식용
왕대
웃음
원외
유시
점검
춘다
행서
행주
헌신
형법
##여학교
##더스
한국은행
대승불교
추밀원
외양간
도깨비
왜냐하면
간신
녹두
돌렸
동조
동검
무거운
문짝
방목
백마
버려
본연
부실
비타민
산물
서고
수납
시나
시찰
신재
신생
영도
우스
우대
월북
이모
장명
종량
중계
채우
최경
한역
형부
##보고
##정대부
##통감
##암동
민주화
배우자
동부승지
1298
우두머리
빗살무늬토기
거슬러
충숙왕
걸음
구나
군의
납세
당일
따른다
목성
문안
보천
브루
석성
선장
선주
송이
아찬
어라
왕경
전무
조헌
좌찬성
청학
체감
태백
터전
퍼지
필자
필적
합법
##우도
##석가
찾아와
군병
목걸이
무악
박보
베스트
불공
성보
아일랜드
에스
예천군
오산
적벽
전송
정일
정운
쳐들
태인
투신
합치
화덕
히데
##생물
1881
밀양시
원각경
##경기대회
활엽수
박지원
걸린
경판
대거
도통
돋보이
부곡
불행
수운
원대
이운
조출
주임
출옥
툇간
힘든
##사람
##치기
##문회
##과이
사랑채
민간인
원산지
봉해졌
즐거움
Pr
개태
골격
공존
관람
맹세
백인
변론
사옥
서독
시리아
안토
용천
은진
적정
충북
치하
편평
##유수
##행사
##환경
##결사
##녕부사
##돈녕부사
민간신앙
인민군
반도체
각선
고교
기악
더구나
마비
마름
마리아
방풍
본향
사목
수형
승선
신흥사
실존
양곡
요법
월정사
윤증
취약
해변
화양
화답
횡포
##스팅
##마르
##요지
##청색
##금강
##팡이
구조물
제국주의
바닷물
데이터
충실히
일어날
감행
구운
군악
기한
김한
남강
내재
노장
대아
몰아내
사소
상가
선운사
속집
아닐
양수
양역
오성
원동
월성
이응
입주
지수
창경궁
총통
추위
탄소
포천
하면
화력
후천
240
칠성각
계율
관찬
교종
김선
마늘
별지
본풀이
수녀
스파
스카
여관
연강
윌리
잉어
장현
조희
차용
초빙
풍만
황산
##세시기
##진각
##니어
##재단
##왕생
##심원
##숭아
들어간다
생활상
유적지
모여서
인조반정
격식
고국
기세
기뻐
낮추
면사
상지
선승
성전
송림
수연
신보
예리
일당
잡록
전산
정감
청양
효소
##석정
##국악원
##립간
##이씨
##다보
##위영
##암산
대통령령
출입문
베이비
봉토분
사로잡
공고
굄대
기해
김봉
도적
분해
붕당
상기
세곡
세브
승상
유상
입시
자색
제전
히트
##루미
##평대군
##제례악
한문본
지극히
스튜디오
UN
감탄
구황
구룡
국산
금광
대적
덩어리
박경
반구
발의
벌여
변혁
별집
수중
수급
장가
정장
커지
필선
항마
활기
획기
##대웅전
##직물
##협력
형태소
고사리
표준어
##ingle
옥타비아
송준길
진평왕
교파
굴뚝
내걸
눌러
대역
몹시
봉래
부의장
사촌
석상
설악산
신편
아군
양동
오프
이대
이범
익혀
임경
장미
재활
전정
토관
통폐
파업
호평
##밀직
##베르
삼국통일
영암군
Re
가중
겨루
공직
단가
밀도
백만
부제학
분사
빈곤
습기
용정
이충
절약
차리
철조
추적
통리
평범
포섭
##석묘
##월일
##무관
##로기
특수학교
사리탑
##est
기숙사
##검찰청
Th
가위
가래
근사
농부
담가
메이지
무효
무오
박기
봉상시
부군
예금
온화
용사
용서
이득
인주
조음
종정
지켰
추격
피력
하회
행한다
헤아
황룡사
##사랑
##걸스
##익공
##임스
##암유고
##런히
##말로
##책판
올림픽대회
합격자
남한강
간단히
##ell
장로회
갑신정변
##조직법
통폐합
격하
겹집
냄새
두터
멈추
몸채
방직
병인
산대
산봉
상봉
신종
신전
을해
의열
임대
적석
적대
조동
조회
진달
진찬
짜리
햇볕
##사고
##들이
##동물
##희재
지나가
드러난다
근거지
1870
가야산
비행기
자진모리
오목새김
가벼운
in
각색
간본
광석
귀환
남대
넘치
노거
돌기둥
등대
로리타
말리
매각
반박
상방
성학
아티
옥수수
용신
위정
유태
이데
일신
종족
지분
진나라
총사령
코리아
탈피
풍어
해져
후서
##사우루스
##구비
##올림픽
후반기
으려는
##나이티
##력발전소
주모자
옹정제
원더걸스
개판
교방
그늘
떨쳤
란스
박수
보컬
브리
산줄기
수전
신수
싸워
양금
유나이티
이복
입수
장래
적군
좌목
집합
찍혀
최저
추산
호조참판
환곡
횡혈
##행정
##도드리
##나가
##디션
##건축
우리말
올라와
모아서
대지진
##ist
신민회
내세워
##adies
분합문
횡혈식
감축
공감
군국
기정
끼치
노루
담그
대불
도주
망자
범인
삼베
삽화
서역
성읍
세간
수은
수놓
안부
알렸
앞세
영창
외우
조천
주전
지선
체하
태토
품사
항거
##석조
##일으
##ab
##으면
##튿날
어린아이
불러일으
중문간
유허비
함부로
개업
고창군
낭장
대법
도지
면역
무구
벗어난
삼남
삼중
신동
아랍
열강
예복
오페라
은메달
이북
정직
제창
제각
좌부
천재
파시
프롤
해녀
해역
형조참판
환상
회견
##끼리
##참나무
중추원사
다녀온
메이저
토광묘
틀림없
형용사
옥타비아누스
길목
깃발
단아
방정
법명
상이
신규
양사
온라인
장병
지제
지낼
처단
출정
커서
하수
항전
호서
##OC
##항공
##베이
1500
편집인
평양성
1369
중서문하성
##ill
최남선
감수
경리
공문서
굽다리
길주
난민
내의
라스
모사
베일
복숭아
본토
부안군
수려
올린다
인플
일부분
좌랑
주세
진급
최선
치제
탈환
한일
호성
후렴
##의대부
설립자
1623
장악원
음운론
김시습
라틴어
직사각
구족계
계엄
공복
국외
김자
꼭지
모른다
반월
본선
부총
분파
선공
시카
유선
익산시
임제
정명
주나라
집착
풍천
할석
함양군
화천
##마애
##타르
##열왕
##분지
##피리
회원국
장기간
네모기둥
이제현
적절히
버드나무
04
가질
결집
목화
산내
석종
수선
여단
용역
운봉
음기
일차
장유
전방
징발
천민
추수
통보
특사
폭행
효령
##니와
##통상
##절로
교육법
불교의식
군사력
##ers
1864
진주시
개성시
연화대
가져온
보현사
##로왕도
마땅히
##춘추관
진달래
03
WW
기량
내원
널방
덕목
만남
보복
선덕여왕
세밀
양구
양계
연쇄
오륜
유족
조신
죽인
캐스팅
평하
혈통
후박
##학파
##니즘
##라기
##잡가
문화유산
210
아무리
##리스토
머물러
본다면
나한상
최소한
십자군
속리산
다년생
검증
격전
고의
김소
김옥
낭중
동벽
모친
발현
백과
북문
상응
소승
여당
예선
위만
육신
임자
제하
조서
중형
지령
친지
행상
화서
##의당
##시스
##ob
##여래삼존
##ens
증조부
영등포
강물
교외
김학
달린다
대위
박람회
보덕
비파
산술
삼지
생업
수안
수역
안현
안무
암수
앞선
여장
우참찬
의류
이부
조소
주형
추출
치소
필연
##리스트
##원종
##체계
##엽충
등장인물
학술지
명확히
날카로운
사복시
마라톤
고신
교우
기일
김안
도포
도내
둔중
목차
박공
번창
벌금
범천
사군
삼사
세탁
수치
신구
연고
이겨
입니다
재담
정과
제로
죽임
지회
집정
총수
취해
탈놀이
현역
##사키
##스테
##질러
##영정
##시지
##복스
##항아리
##광전
체육관
바이오
최우수
청도군
돌무지무덤
우라늄
베이비복스
아티스트
이데올
굄돌
기보
단성
법어
사화
살미
삼천
삼수
생가
서열
성동
성왕
소대
소외
술회
여백
원유
재차
적장
중모리
초당
타점
헛간
황폐
##고원
##지곡
##존자
##뜨려
##촌면
사랑방
##보살좌상
올라갈
1862
관음전
흘러드
지하수
여진족
경작지
안토니
이데올로기
In
가꾸
경술
계자
교세
구수
군무
군액
규약
기입
남아
농구
단축
두산
드디어
마쓰
무극
미디어
본산
서얼
선녀
속신
수온
수나라
아전
양화
양분
울음
임업
전직
좌참찬
중인
채굴
취미
평판
해리
화포
흑백
##이센
##아비
##올리
1891
떨어졌
프로이센
소작인
엄격히
기하학
서낭당
문하시중
나뭇가지
가열
고속도로
구금
남면
달렸
댄스
동상
뚫려
목격
무문
발목
보허
봉양
서강
소서
손목
수질
약자
언문
업계
연지
오해
외자
외무부
원줄기
작은
제임스
최제
태우
표상
##세보
##괘불탱
농민군
교통부
전반기
문수사
구미시
시왕상
자생지
분교장
삼세불
거쳤
견디
광개
귀꽃
기조
기독
내수
도문
동복
된장
득표
백정
별신굿
사병
상전
상원사
생식
서향
선악
신대
이한
이튿날
전속
주청
태후
하도
##소득
##보장
##ak
##웨어
영산강
관광객
용산구
의약품
아리랑
광개토
02
구명
금니
김택
김문
논산시
달래
대명사
동행
동창
무너지
봉름
사안
삼엽충
서대
수화
영안
오버
우의
임천
입히
집대성
체구
최다
폐하
행실
홍만
황갈색
##동굴
##국단
##미자
##군읍지
##인수
##경원
##시장
##시집
##연의
##어날
##버이
사회단체
1801
국무위원
여의주
시카고
FA
가신
강상
걸립
계모
구개
급식
나간다
낙안
납도리
더위
동호
두툼
승주
승전
심문
알로
어버이
여민
와중
욕망
우뚝
유두
유묵
자구
참작
쿠데
학식
한동안
해임
해진다
호석
##총동맹
##의자
##TV
##꼬리
예술가
준다는
나주시
복장유물
브라운
그만두
급속히
그간
김중
나올
능동
담보
당내
대궐
띤다
리더
맞춘
버린다
변상
비천
상납
선지
성화
성진
소모
시해
실물
암행
예절
윤보
음료
의용
제상
주시
진안
탄광
프레
항로
혼동
##례의
##증권
##덕리
##어업
##오군
##곡동
##풍류
지나친
드러났
장기하
영주시
증보문헌비고
마이크
통감부
강석
공문
김계
남대문
능묘
대용
뒤이
문비
범자
병역
병조참판
사찬
선배
소무
스탈
신극
아나
양서
여원
염원
예조참판
옷깃
왜인
외치
요직
우진각
웨스트
은둔
이스
이구
이토
전태
전탑
제휴
통나무
파라
펴낸
학무
후쿠
##도회
##공화당
##모양
##무실
##과리
##헌영
##벌레
##TA
##숭이
표기법
1776
공통점
940
케이블
사육신
윌리엄
WWE
강가
금구
기체
끼친
뇌문
드렸
마약
반남
받쳤
번성
법성
소발
오카
왕가
유계
율격
이보
이틀
일각
적십자
전함
중개
토속
한두
한식
해학
화불
##록대부
##ip
고려인
간행물
220
경사지
상주시
강릉시
생긴다
서재필
김상헌
공양왕
주재소
뮤지컬
독립선언서
사다리꼴
노거수
각출
고배
공화
국교
기적
대제
대별
덕산
마스
면포
배설
벌레
법신
소환
소통
아세
압축
에나
연길
유년
응진
장판
정음
조이
최현
치러
##트랙
##민란
##현동
##성지
##시험
##오광대
##헌집
##좌도
공사관
수도원
밝혀진
아르헨
조선인민군
쿠데타
가평
강렬
계류
끓여
끼우
노란
도합
매스
멸종
몰아
미역
미약
반점
발상
부용
북상
사가
살풀이
성직자
신돈
안의
안개
에드
예성
월경
이룰
절정
하원
하강
화첩
##유지
##정보
##진강
##마사
##요의
##근대
제작자
전주시
둘러싸여
파주시
가부
결여
곽재
구지
기년
김복
대호
배면
사내
상시
쌓여
양육
여사
여타
역전
염주
오도
오주
우국
유원
장독
전락
전향
청소
총각
추기
탄력
토의
퇴임
풍치
한진
한복
효도
후삼
##당문집
##포리
##부도
##국제
##평가
##그라
##박해
##느질
정부조직법
시가지
서술어
##ard
기와집
김성일
문무관
매일신보
특진관
피고인
자물쇠
알로사우루스
강호
개막
거창군
계비
고비
고난
공약
군포
깃털
깊숙
낙향
능히
당연히
대패
대내
맞아들
명현
모로
모티
목수
밀착
박순
방비
배급
베네
사암
상한
선동
선혜
설문
시급
양대
옻칠
용호
이빨
적갈색
정황
주례
중사
중퇴
지게
초시
탈취
통틀
협문
형무소
##로드
##철도
##문동
##각시
##our
##폭포
그려졌
##레타리아
원외랑
최제우
스탈린
강등
겨드
고상
공략
관북
궁정
금천
급여
급히
늘리
도왔
만월
메달
미추
보부
본원
부평
사채
상수
석관
선가
순경
신안군
엄밀
에워
여가
열람
옥중
유종
저절로
제지
조의
종각
중등학교
카이
카라
팔괘
평장사
평상시
행법
허약
화창
##기독교
##지악
##정전
##의례
##마크
##영상
##숭배
국립국악원
후반부
모여들
연화좌
1796
희생자
포항시
윤곽선
두려워
블랙홀
강수량
소백산맥
수륙재
시나위
가선
강세
갖가지
그레
남정
논변
능률
단락
대연
대웅
도다
도요
도드라
들려
목종
목회
문주
박연
분당
서호
석문
선돌
수창
신창
연천
오상
용화사
운서
원류
윤지
입혀
전생
초지
초각
총체
통속
하반
호장
화반
후방
##이머
##시강원
##디아
옮겨져
대동법
나와서
김해시
고양시
공산주의자
육계주
살아남
법상종
아르헨티나
논평
다툼
랭킹
맞춰
반출
범어
분급
새김
생생
세무
솔라
송환
수위
수작
양편
영모
작위
전중
조양
직면
진남
체력
코치
탁지부
팔관
팔공산
향수
##가옥
##보기
##덕면
가르쳐
서양화
갈라진
여수시
원각사
단국대학교
에나쓰
가자
가와
고경
곡류
꽹과리
내내
내린다
동메달
마하
명소
무술
미수
변성
상영
수궁
스카이
실명
양원
언양
역점
연의
예하
온양
우루
인의
진하
쪽마루
창부
풍양
한전
훈도
##업자
##총서
##올린
서울대
국민회
국제연합
방송사
동남아시아
강력히
대가야
펼쳐져
생동감
○○
강대
경매
고민
괴산군
그대
김효
노지
다케
명덕
민생
변질
북극
사동
성상
신통
양재
역서
연말
영천시
욕심
원진
장마
차출
처장
천제
춤사위
포식
포획
포격
폴링
핀다
하지
휴양
희미
##트라
##가스
##가와
##av
이어진
올라간
경영학
서양식
가져다
이원익
토론회
김홍도
되돌아
심청가
이목구비
포르투
간경도감
암행어사
06
남색
농기
농작물
라부
막부
본교
북두
분구
송화
신세
신계
어촌
왕인
위도
유향
유능
육종
잃어버
장난
종부시
중공업
즐겁
추봉
출세
취향
타일러
태화
포곡
풍조
화공
환인
황자
후신
##당유고
##st
##녹권
조선민족
고분벽화
1889
지장시왕
유대인
유로파
간첩
게다가
김화
농요
달마
로즈
문도
바느질
분박
비옥
순행
여럿
여학교
예빈
외방
위서
유례
자양
종군
주공
최항
친선
타블
한중
훌린
##학원
##타기
##19
##통령
##번에
##SP
##촬요
조사단
비해서
사역원
김연아
선구자
##스토크
##관음보살좌상
신숙주
간절
강행
걸렸
남궁
노정
누비
단소
대출
도첨
멸치
몰두
무조
병선
보육
비류
연하
오지
요하
원집
자택
정년
주본
즈음
천관
청국
초익공
출처
통할
##비어
##제비
##음화
##버섯
##칠성
대표단
450
1597
무너져
스피어스
선보였
각간
고로
골든
구산
기쁨
난징
노수
녹말
말갈
메주
문어
발포
비장
산호
새해
실로
위함
이발
자랐
재봉
전인
절제
조위
족자
직명
진무
청조
홍명
##마디
##팔경
##막이
##뿌리
고등법원
지배자
등지느러미
발매되
뚜렷이
1624
1728
##청년단
라이브
이리하여
민사소송
도제조
임수혁
DNA
IM
근교
남창
다져
면천
백작
상회
서의
순화
씨앗
아치
약혼
어민
옥구
왼편
용마루
일광
자정
자마
잠입
장주
전실
전람회
조총
주악
주전자
진설
침탈
편차
폭파
향유
호화
화초
##미널
##중경
##나비
##영사
##양성
##병희
##풍군
##광복
광주시
260
경찰관
도리어
삼성각
서사시
불가피
스피드
가맹
각주
공훈
국초
귀의
넓혀
놋쇠
다방
돌널
려던
면세
백호
승화
양평
오수
유방
일록
임영
저명
절개
지소
진부
진신
참찬
추존
한명
호군
환도
황기
효경
##도총
##이너
##강왕
##페이지
##통보
독립당
세자시강원
번식지
화사석
상록수
외래어
돈녕부
알렉산
목조아미타여래좌상
개론
결함
경시
궁녀
깃대
낱말
니콜
동대
무르
문터
바쳐
박재
배분
배역
본초
석영
실례
실리
안기
어로
얹혀
영릉
와룡
용해
우호
원상
유죄
일직
장국
전매
줄여서
중상
중산
착한
초장
치른
판목
평강
하락
##지지
##화기
##마기
##형동
##잡기
##저리
##듀서
중앙군
일제히
프로듀서
만주국
거주지
여래상
주자학
종친부
두꺼비
시상식
##민주당
간석지
제헌국회
세미나
장현광
공시
구월
구한
굴절
귀향
규방
기아
나르
널무덤
누에
능주
다카
도발
뒤따
때때
만기
맞대
메리
별세
북측
상형
세균
소산
소급
시세
식생
어리석
연명
웅천
원지
의흥
이불
자급
장고
저하
정법
제이
주어졌
중류
참사
천정
철자
최유
코끼리
퇴장
판독
평의원
험준
홈페이지
##초상
##도우
##라리
##계몽
##별감
산업단지
1391
극락보전
사라져
1604
둘러싸인
통영시
##아지에
가야금산조
아메리
으리라고
무령왕릉
아시안
체아직
라부아지에
Bo
강인
계수
균역
남벽
당파
동당
로움
말려
모를
모함
복엽
브이
사향
선후
성우
소나
승계
승객
시나리
원초
전조
정례
제중
조그
조준
좌파
좌윤
중견
지봉
지물
칸통
키우
통정대부
파장
파진
판화
판대공
퍼졌
현과
흑룡
##보상
##덕수
##뮤니
지역구
음악가
고구마
돌아보
새겨졌
사라진
화성시
소작료
해남군
합성어
아궁이
정대업
편집국장
효령대군
때때로
시나리오
거느
군제
급하
김여
김굉
내역
내밀
노고
다채
단점
도동
독무덤
마크
망하
망주석
메밀
백련
병진
서법
소령
속악
신미
실권
아연
암호
약용
열려
왜곡
이도
일조
재가
재야
조일
조교
조연
주방
청한
충정
충혜
칙령
판벽
포작
한번
함정
함량
확신
회보
##지평
##자본
##자키
##서면
##위대
##신화
##11
##뜨린
##작가
##촉지인
번역본
경사진
우물천장
받아들였
신석기
강진군
구석기시대
도원수
글로벌
항마촉지인
충혜왕
07
각시
감초
끼쳤
넘기
맥주
메시지
명제
민화
반석
반지
법흥
보답
복시
봉선
봉쇄
사구
소성
시강원
아트
여왕
외척
저격
정역
주현
카프
헌가
혜공
회양
흥보
##고루
##산고
##현리
##남북
##로움
교육학
교육인
이상정
1398
기울이
국정원
레이디
곁들여
08
UE
You
ᄉᆞ
구들
구양
귀한
납북
들판
맡기
문호
밑바닥
별제
부피
불길
비녀
서책
성운
성폭
세울
시련
신익
아담
연중
오광대
위조
이극
일러
전경
중위
직지사
질의
쪄서
출혈
파동
파병
프라
필라
해전
했으므로
협박
##기에
##치마
##자보
##바마
##마립간
##ang
1395
보낸다
1414
공예품
실상사
증산교
연예인
할지라도
정묘호란
이왕직
의열단
인플레이션
괴롭
권총
권선
기예
노회
다라
단발
목관
묘정
반격
비전
스런
신병
쓰임
양광
의화
주몽
퍼센트
함축
함안군
해평
##스티
##치산
##도서
##해사
##공장
##틀랜드
##브먼
수행자
상대편
사무총장
지휘자
1405
펼쳐진
화살촉
총선거
서장관
박세채
가라앉
전태일
지장시왕도
아메리칸
UEFA
가섭
개작
거니와
경운
계정
기전
김흥
남천
느리
대둔
라운드
말라
매몰
목탑
방조
배당
버선
북로
불명
빛나
산현
소인
수년
신년
약효
외세
월령
의빈
이헌
젊은이
조원
종대
줄어
채광
침엽
컴백
타파
튀어나
황국
황룡
##기신론
##팝나무
##판본
##하나
##하라
##김씨
1600
시켜야
철학자
##art
1593
660
비밀결사
##청년당
신중탱화
두드러진
권상하
정읍시
도화서
친일파
인디언
우루과이
건봉사
고마
공파
관식
교란
권씨
기축
꺾이
나팔
날리
남종
능인
동강
동면
마의
마오
마곡사
번디
불태
비방
삼보
생김새
수막새
신덕
실은
아님
왕도
은제
익스
작동
장산
전했
점성
조왕
종간
중독
철회
크로
패전
패러
현세
형체
##기획
##평사
##적자원부
##제일
##오행
##관광
##옹주
##탑비
##히토
##와집
##란시
노동요
사무국
음식물
1872
시위대
##all
1850
천자문
옥신석
대변인
당악정재
해수욕장
편년체
원삼국시대
양어깨
교육인적자원부
거꾸
결탁
결핵
농약
담수
당주
동등
버섯
보양
보태평
분업
상투
상궁
성재
속기
손녀
송신
습속
실재
엿보인다
움집
원망
원구
원숭이
장문
정태
종조
중고
증강
직능
진여
창사
처해
청천강
충의
태권
택지
품위
플라스
피살
학칙
홍문
황보
##드나
##미터
##ri
##어내
##전기
##버그
##럼프
유학생
동국세시기
직업훈련
가락국
영남지방
뚜껑돌
동명왕
으리라
신간회
김부식
소음인
여민락
솔라나스
##란시스코
Al
공조참의
구강
금주
기피
당면
대담
덧널무덤
등극
마천
묵서
밤나무
법무
변희재
병종
복심
복각
본디
빠졌
사분
상환
승낙
시식
쓰일
얘기
업자
이철
절제사
정릉
조산
조예
조그마
준수
최창
향후
화북
훈계
##스카
##도면
##ng
##다라니
##서당
##제자
##회통
##육각
##육나한
##묘지
##쌓기
시설물
국제법
강원도관찰사
기둥머리
약사전
여의도
지표조사
천안시
흘러내린
사절단
강습소
판문점
곽재우
강정
관속
관용
기미
남송
독주
라든가
르네
반찬
발레
뽕나무
송악
수재
숨겨
습관
양현
영재
오디션
오바마
우동
원추
원반
장터
재편
증서
지반
진휼
책자
처자
카르
퇴직
팔상
편하
품격
화염
황토
##소장
##일구
##정청
##정운
##자전
##공부
##시오
##호텔
##금속
##승선
##약사
##덩굴
신문왕
지리서
양성소
올라갔
드러낸
1867
외교관
군자감
인류학
대승기신론
영동군
소득세
영광군
보은군
산란기
경순왕
##밀직사사
거꾸로
FC
IOC
간편
간판
강역
격조
고변
곡조
근심
낙산사
남단
니체
덴마크
동영상
리라
마제
무의
민물
방학
백일
보우
사운드
산면
생모
성신
시보
안재
애용
양민
어망
엑스
옹주
용법
운항
의성군
이채
이끈
인솔
일삼
임정
재목
전법
제현
좌승지
지양
지능
친근
커뮤니
탕평
터브먼
퇴락
특파
펼친
합세
홍재
홍계
희극
##행록
##가짐
##패총
##성전
##예수
##곡서원
##탈춤
##빙고
##꿈치
중국식
생산력
보여준
자유시
동지회
사헌부지평
음양오행
봉화군
반원형
홍경래
SK
고직
공판
구할
균등
급한
내관
널길
달구
명랑
모퉁이
번조
봉천
부끄
사옹
속명
숙부
시마
안수
완주군
왜관
용재
유황
익사
일족
제차
직관
진골
초헌
칠레
패총
홍석
홍원
흥덕
##자총통
##원류
##방사
##통사
##데스
##러리
##점사
##네스코
사회과학
이루어질
받침대
1863
수용소
종사자
수산업
1613
김제시
붙잡혔
한림학사
마르크스
구석기
살림집
창시자
드나들
기뻐하
NE
관보
군선
궁방
근접
기녀
남명
당호
대산
돋보인다
등단
버들
보아지
복속
북진
사발
상도
승무
십장
약성
어요
예우
오로지
온전
이긴
인부
일사
입원
작법
재외
정창
종두
죽산
지관
치장
타락
태워
플루
합계
##유예
##일리
##보건
##쓰기
##개구리
##황색
##추어
##저고리
하나하나
자료집
230
치료제
육군사관학교
수원시
아시아경기대회
창녕군
내세웠
경북대학교
의자왕
짜임새
서거정
09
가혹
각처
경중
구세
김민
꼭두
꼽히
노라
다짐
답사
대악
로버트
리처
만국
명대
모심
문기
문왕
미생물
밋밋
붕어
사월
산실
상쇠
섞인
설한
성군
식생활
윤기
일수
젓대
정산
주봉
줄여
천성
토사
퇴치
퇴화
판윤
포지
합주
현왕
흉배
##친왕
##ph
##키아
고등여학교
전라도관찰사
1791
원주시
조합원
아마추어
마이클
언해본
영원히
화순군
신당서
산청군
이항복
오스만
블라디보
일주문
거미
과다
군비
노트
노량
능가
도고
동관
두건
뒷부분
못함
미비
바친
백암
백토
보사
복두
서흥
순응
스마
실효
싸리
악조
안강
언더
연일
예학
유네스코
장중
저수
전재
제련
지청
진군
진로
코드
토록
패턴
허균
황도
##지리지
##출판
##구락부
##장어
##에트
##봉집
##불상
##더기
##거세
##춧가루
나타날
정치학
기념일
국립경
민주공화당
찾아오
동일본
동지사
전시회
전시과
중생대
1789
1848
4000
1694
1457
밀직사
스위프트
이휘소
쳐들어
각부
각계
간수
강산
격차
고친
구가
국상
기명
대모
도체
동체
뜨거운
무반
민원
배구
부통령
북벽
비서관
성심
슬퍼
신이
신목
안산시
야사
요역
워치
윤관
인품
전근대
조언
주어진
지의
직제학
진수
차등
찬한
총지
타악기
피우
해병대
행할
휴가
##총록
##이프
##무공
##ud
##극락
##거나
##필드
##륵사
대한인
따라가
연구실
프랑스어
1390
종묘제례악
적벽가
가즈
각광
강주
결말
경수
굶주
기마
김천시
누적
등산
메인
무위
밤색
배신
사악
사귀
삼군
상산
석수
선화
스미
신시
아예
양부
울주군
원군
원명
윈도우
유혹
잉태
저주
정각
제대
주벽
중중
중경
직결
학대
한테
혈압
화훼
##일스
##일원
##재건
##형제
##그리
##어미
##오례의
##갈나무
한국사
국가보
역사학
1874
1363
울산광역시
하동군
금석문
석곽묘
프롤레타리아
국립경주박물관
Single
kg
간추
거름
격려
계량
고백
교조
군복
군산시
굵기
극대
기공
기근
김철
김관
끌어들
남평
다행
도명
막혀
명호
못지
배기
살상
상언
상점
선군
수락
신행
양장
여정
연월일
영물
예과
옛터
오랑
용연
익혔
인치
전편
정남
조령
주가
주막
중신
초안
통증
파란
품직
하룻
힙합
##트륨
##동지
##교도
##청정
##노스
##심판
##참배
##한다는
편찬자
그림자
정해져
물러났
신사참배
서산대사
정경세
달아나
앞장섰
과수원
남양주시
백과사전
보부상
고목
공평
교두
구락부
끝난다
대야
루이
마인
말단
민전
바가지
반듯
발하
방한
북간
불정
불문
빈도
사초
산인
상통
수로왕
시용
아미
양태
양복
영종
와당
원기
위사
유골
윤선도
일식
전철
정찰
정할
정취
조중
주둥
참조
판도
평상
하북면
합금
해부
허무
호형
화두
##당주
##천서원
##치아
##대총
##교통
##도경
##해전
##군정서
##성리
##음식
##데기
##네시아
관련자
조성민
담당관
노동운동
이승훈
타이어
구름무늬
태극기
지장보살상
안성시
방사선
교도소
과전법
##산대놀이
윤치호
성북구
본향당
자마자
법흥왕
고름
공백
교당
김방
날로
남만
노랑
명실
배흘림
베틀
베푼
상훈
서산시
성덕왕
세드나
속편
신공
아덴
압송
양가
어드
연인
외과
요의
용대
유마
윤석
읍내
일일
자선
절경
접합
접착
종장
좌사
중후
참상
참배
참기름
창문
커피
코미
태상
통권
투박
판중추부사
포유
폭동
형세
홍산
황희
##고적
##지황
##예지
##오염
조선문
1700
기념식
전통문화
##중앙연구원
선수단
연주자
프랑스군
갈라졌
아랫방
서정시
여섯째
소작농
장흥군
시무외
송병선
한국학중앙연구원
선혜청
포르투갈
오랑캐
코미디
강강
강목
고명
고깔
관노
길가
김약
남려
단련
도립
명필
벼루
복종
사묘
섬진강
승병
심포
십이
영고
유중
유추
은입사
인질
인경
정안
정심
정충
직함
차남
총융
추종
퇴각
패하
평창군
필명
해치
허구
화목
후생
흥해
##소통
##동기
##국가
##공단
##심히
##주택
##IN
조선문학
1400
오른편
독일군
극락왕생
정사각형
선사시대
관광지
강남구
천문학자
##igh
괘불도
스튜어트
##협동조합
대아찬
하룻밤
CD
가집
거신
게시
군민
근친
긴요
김신
낭독
당굿
라야
모태
비좌
생도
서찰
서관
성자
소현
싸이
악단
연애
영신
울타리
원회
인두
인륜
장릉
정령
제천시
종유
주파
직종
치명
행수
향시
흐른다
##종택
##리어
##천가
##가시
##ib
##한기
##경소
##uc
##헌문집
##쿠스
경제기획
행정학
음악인
선거구
제조법
가까워
독일어
전시관
둘러져
아랫면
보조국사
두루마리
자치통감
여의두
돌아와서
동성애
고흥군
포켓몬스터
부작용
장명등
보허자
주시경
팔관회
##형동검
경제기획원
가묘
경화
고식
고달
과반
관대
굴도리
금위영
려다
맞춤법
부득
비대
빅토
사민
삿갓
색소
성유
성별
송만
수난
아쉬
안락
알칼
약학
오량
원성
위층
으러
은해사
일설
자방
장재
재인
조참
진이
천진
청백
최병
트랜
포대
##척사
##요시
##계집
##항리
##벤처
독립신문
사업자
내려졌
떨어진다
가리켜
찾아내
1861
유명무실
무용가
소비에트
출입구
타이완
천주교회
비밀리
1275
형사소송
덧붙였
박영효
##로이드
삼현육각
원로원
이효리
선공감
IMF
Ladies
골자
공천
관우
관절
구내
노신
다분
단서
대열
도승
드래
뛰어들
마니
만민
만록
맥아
몽산
무서
문형
미인
발렌
배천
범람
본전
부민
선형
섭취
소망
소변
신빙
신군부
실렸
아호
악귀
엇갈
용례
유작
육도
이롭
이조참의
일깨
잡역
잣나무
전모
정미
정악
중첩
즉흥
청대
침전
포고
화개
활쏘
회군
##보험
##안전
##무기
##길도
##바탕
##씨족
##변상도
##차림
##브리
##권력
이름난
인도네시아
1873
##ica
##ich
1680
1750
달라진다
장례원
모셔져
##영산회
지공거
남사당
후박나무
활쏘기
가세
강성
겸한
경보
공방
군왕
금리
꼽힌다
난형
내주
대포
도지사
뒷벽
매도
명장
모험
목단
민도리
박춘
박헌영
변산
병조참의
보시
비기
서첩
선풍
성금
숙박
신관
어리
역본
연정
오기
옹기
우윤
운흥사
이례
장보고
재지
전결
조우
조조
조제
주진
줄곧
즉각
진연
칙임관
투기
한신
허준
현주
##상어
##지성
##창의
##바이
##마치
##라비아
##농민
##황사
##불입상
##둘기
경제협력
기능사
지도부
학생운동
고등과
동서남북
##ine
##도감의궤
남해군
이인좌
군부대
##ack
가해자
치우쳐
석굴암
똑같이
입체감
간이
간청
고집
공청
공채
과잉
그네
기발
기러기
난이
당할
당대회
동도
따온
목곽
무연
문전
문익
바꿔
법호
성형
송금
수동
식기
아편
여종
역리
예산군
오월
오복
오백
우군
은어
임연
잡혔
장벽
재벌
점복
정예
정윤
증여
진시
집계
착취
추서
카운
통달
투각
포크
합해
홍도
황진
회동
후일
##사면
##들여
##양요
##신사
##판암
##절사
##어로
##ver
##층쌓기
지장암
이주하
내세운
##노동조합
소양인
허튼층쌓기
솟을대문
기정진
가선대부
사옹원
리처드
개창
건평
고공
골고루
교열
국면
나성
낭림
늘어져
담근
답습
동주
등가
모본
보라
분실
상선
선우
성중
성호
손질
양잠
연사
연자
옥포
워드
정양
좌평
추앙
카스트
타협
파내
팔경
한꺼
한눈
행운
화소
후불
##드려
##상인
##은집
##지구
##정보부
##자문
##모란
##ry
##하트
##헌대부
##릅나무
중앙정보부
농민운동
전시실
문장가
의사소통
비로자나
바이올린
넘어서
규합총서
삼각산
어영청
##장보살도
근사록
호성공신
윤보선
한꺼번에
Kore
감로왕도
개울
거문
공제
관악기
기선
덕양
동족
딜런
떠난다
마진
문의
방패
상용
샌프
선별
설날
성가
쇼크
식구
신륵사
아부
안국사
올림
올릴
외화
우러
유부
의기
일요일
정점
중랑
증식
진심
캠프
탁자
탄산
태고
태학
페이지
하남
하편
행궁
헝겊
화룡
환율
황사
##현대
##정동
##연극
##크라
발전기
생산물
일으킬
상호군
이동하
##정부주의
관음사
1627
개화파
보성전문학교
연등천장
가면극
고추장
농어촌
백양사
통틀어
대웅보전
예빈시
일일이
샌프란시스코
가한
간호사
고모
공조참판
관지
금나라
급경사
노원
농도
다진
덕원
문성
박은
반송
블록
빈민
생장
선경
순치
양봉
오를
유색
유점사
의석
이춘
인계
정이
창달
철강
치유
타고
탐지
터득
터미널
팔부
평박
한옥
혐오
##지대
##공예
##군데
##농업
돌아간
내려왔
전해진
시험장
미술가
##ant
1879
황해도관찰사
1725
1610
##ity
케이티
수목원
순교자
화합물
도산서원
초조본
뛰어넘
어려우나
안토니우스
규방가사
플라스틱
블라디보스토크
강설
개마
과감
교무
구애
극우
남측
노릇
도표
도약
동란
둥그
매립
매주
매력
모기
묘청
바그
병과
사생
사량
산포
상국
서초
서성
수당
승군
신단
신소설
심학
십육나한
우견
을유
일산
직령
최명
토호
트위
트럼프
파트
##지르
##의부
##의사사
##로회
##철학
##적사
##ub
##오프
##테면
##받이
##참법
그러면
일본식
건축가
출판물
종사관
물리쳤
1603
임원경제
연출가
참모총장
추밀원사
덕수궁
이를테면
자이언
이괄의
면사무소
스카이라인
가파
골프
괴물
국전
권1
내무
누나
도우
동질
무등
밀리
발가락
범망
부경
비위
석부
선재
습유
시구
아끼
양관
영사관
예조참의
유병
은율
자강
자명
재조
재혼
점판암
제학
진열
철새
침구
크루
포드
포스트
한원
후속
흥분
##고택
##리오
##은편
##들리
##정언
##나불
##청자
##통제
##집성
독립운동
거쳐서
고분자
프랑크
진주성
당하관
1875
방어선
고유어
1799
##여지도
1372
빼앗기
중서시
유인석
군데군데
두려워하
사간원정언
경희대학교
시달리
후삼국
de
강해
강감
결산
경간
관성
관철
귀면
기동
노후
농서
능성
능호
달성군
댓글
도진
돋우
로드
미쓰
보낼
봄철
뿌려
상표
서안
석인
쇄신
숙빈
약품
엄구
여지도
영유
외연
우월
운룡
유세
유복
유충
이안
입직
입힌
자부
쟁기
주물
찬자
최인
충원
테니스
토로
표훈
한유
훈몽
흉내
##종합
##축제
##공연
##돌이
##같이
산업체
대사관
세워서
현대국어
충청도관찰사
주의자
두루마기
물러난
##선생묘
황남대총
임원경제지
거류
금화
기종
끊이
나인
날아가
너머
더블
돌입
동거
맞은편
박달
반상
벨기에
병리
비욘
삼진
상편
속요
숙의
승천
승무원
어학
여배우
연활자
영관
왜가리
외상
외벽
우체
유숙
윤두
이숙
인신
주동자
죽림
즐겼
증자
지유
지국
창수
창안
청약
타워
특질
파크
페이스
폭주
학관
한창
호미
활주
##유상
##장령
##계단
##신제
##타이
##덕산
##투자
##AR
##티늄
##푸스
관리자
가로막
270
1794
문경시
상공부
삼척시
개태사
대적광전
##원종공신
스마트
중중모리
YM
갑자
경축
구문
군장
그랜드
근해
내릴
내쫓
넉넉
단양군
대례
덕흥
돌담
동유
려다가
막대기
맹인
무안군
벽진
분원
비준
삼산
삼재
선체
성의
소이
숭정
시천
신약
열심히
운학
운문사
인당
인척
자강도
전도사
절의
조관
지르
지팡이
집집
천판
총제
총명
칠기
토막
필법
하드
행방
헌장
홍진
화관
##지리
##부르크
##해수
##무라
아이스
개성부
1790
1855
서사무가
기울여
대선사
거제도
예배당
고생대
대한인국민회
갈대
경자
고체
공납
관악
군웅
극작가
금령
당제
도매
명승지
목탁
물명
반감
뱅크스
벽장
변증
보습
보성군
부세
부왕
빠짐
사나
서연
서봉
설교
성덕
세트
소종
소동
손병희
수결
순사
시트
시발
암류
엄마
예시
오자
운치
은은
자르
저해
적도
적의
점포
죄수
주구
중방
진력
질소
청렴
카페
태세
폭격
히어로
##리우스
##교사
##ok
##틀리
##염불
##머스
##껍질
##께끼
운동장
사망자
건국대학교
구릉지
1361
1849
대리석
중세국어
기우만
박문수
삼신불
스크린
박보영
의화단
다분히
YMCA
감당
구기
국력
낙서
냉각
당사
당좌
댕기
망치
모드
박천
밝힐
법고
법도
수부
수만
애호
액체
에헤
예식
와세
외가
외적
요금
유록
율령
이연
이송
조업
조롱
주리
주병
중남
지치
찰스
채제공
초순
최자
치수
클래
통천
특집
판굿
합니다
향완
##트기
##심경
##담회
##ER
##옥사
북한산
국민훈장
기념행사
조각가
과학기술
석조비로자나불좌상
대청마루
자본가
1795
1792
1759
플레이오프
과도기
낭만주의
쇼트트랙
어드벤처
비욘세
와세다
US
개폐
걸어
검색
과천
구이
권신
넓히
당집
도회
도면
돌구
띠살문
말레이
망월
모욕
반정
백석
벌리
범하
복주
빨라
빨간
빼어난
세액
속초
송대
송계
순례
승통
씨름
안종
여대
연초
엿보
오줌
옥과
온대
요코
우애
원부
원성왕
윤영
이설
임나
자백
장삼
장전
잽이
적개
전봉
접해
정민
조주
책정
총본
치켜
트로
판의금부사
피침
하곡
해고
해일
현관
후금
##리사
##총화
##방위
##ain
##전위
##버드
##탄전
##손가락
205
이사회
사단법인
구연부
농림부
장안사
흔들리
나눈다
서대문구
임경업
예성강
##해수욕장
개미
개탄
계란
골드
공산군
국무원
길재
꾸밈
낭비
누워
도마
동음
동판
로이
로다
막새
멀티
명월
무소
미즈
박중
반정부
백로
보임
보광사
빌딩
삼공
상동
석촉
성체
심부
안심
암사
야스
여창
역동
예장
용뉴
웨이
유심
은하
전단
제네
좌석
주어지
중도리
직역
진법
추월
쿠바
파산
파열
한영
해조
허전
홍무
회갑
흔한
##자집
##교구
##연문
##처분
##술래
##qu
조선족
사상자
개정안
청년운동
##공업고등학교
평화통일
네모꼴
1711
이민자
중화학
서인영
계단식
세습무
1076
##관음도
도호부사
김옥균
응진전
장독대
부득이
트위터
그라
금릉
기고
기밀
도읍지
매니
무정
미흡
배율
비지
비약
사세
산양
상아
서영
성하
소행
소도
수건
스프
시라
신현
신해
신변
쌍방
약정
약초
양제
양덕
에르
여진다
완주
요점
우표
위키
이삭
인회
인목
장충
전성
제원
조익
존호
주원
죽령
지탱
지킨
특명
파사
헌정
헝가리
협판
##ik
##복지
##임당
##륜산
##밤나무
##뛰기
국립공원
외국환
성주군
태양계
1798
1689
맞배집
간략히
대리인
##선생문집
조리법
유아인
아덴하트
거든
계성
곡인
공관
공표
권농
기치
기저
농학
담임
대당
덕분
매석
미묘
발동
배타
병증
부두
부화
빌헬
산동
서너
세인트
소총
압수
오케
외계
유파
유익
이몽
잎자루
자궁
잡이
장용
절식
정회원
조어
청아
최정
추이
통산
평해
해사
형질
환기
##산림
##대첩
##국당
##다이
##요람
##각화
##각국사
##목판
##난히
##률사
경상우도
자연환경
전투기
시행령
올라오
옮겨온
경영자
영산재
부장품
수산물
1760
사헌부장령
병조좌랑
비평가
무사히
지신밟기
천마총
모티프
수궁가
무연탄
De
Me
NA
강직
고속도
곡산
군법
귀갑
노승
노벨
달했
디스크
딱딱
몰수
무라
발화
벽사
복직
사금
서동
송상
수력
승패
시일
아유
아크
안병
어학회
영성
오토
유장
이가
이필
이팝나무
잇따
잡석
장영
장복
정봉
죽여
처한
추사
친왕
큰아버지
클리
타개
포인트
품인
환생
##일록
##식품
##로우
##걸리
##작전
##칠정
##륜사
##SI
##맞춤법
사회상
조직체
사실주의
담당자
280
시킨다는
한글맞춤법
330
태종무
허리띠
한양대학교
가톨릭교회
무량사
언행록
빌헬름
mm
강우
금보
금수
기화
기갑
김호
나트륨
네이
대유
대국
더운
도민
따름
떠날
띄워
리메
무도
무방
무염
문건
변함
비탈
상평
손수
송영
시드
신종교
앙리
어의
열기
영농
오인
외조
용맹
우회
유재
이점
일리
일곽
임성
입춘
장화
전퇴
정절
존립
지어
처우
최윤
충량
카시
포개
피의자
혈액
호이
홍순
화로
화폭
회향
##리히
##상업
##세서
##가치
##진영
##영언
##전집
사회당
마을굿
기념사업
마음대로
출생지
책임지
목조건축
1878
##ess
1605
김종필
##산업단지
수수께끼
이라든지
전등사
기묘사화
##반야바라밀
법조인
알칼리
MTV
가명
가물
간관
군도
군집
극찬
기분
김득
끼웠
나그네
노스
농기구
답한
돌린
동심원
박원
박희
발톱
부뚜
북향
불씨
비음
석고
성찰
세율
소라
스탠
식읍
애초
억류
옹립
완비
원공
원순
웨일스
위문
은유
응원
이숭
자책
저화
전상
점진
접미사
조태
주무
지으
지권
척도
철산
청탁
취입
크라
타도
탄식
토우
통고
파계
판자
평리
하마
함창
헛간채
현풍
황강
흥사
##우트
##포도
##은중경
##행실
##교서
##조치
##조화
##평면
##림사지
##시형
##시설
##뜨렸
##투아
##선관
##반대
##앗간
조선노동당
남북조
문학부
내려진
아이돌
선생안
동아대학교
진사시
예조좌랑
알아볼
방사성
대각국사
계명대학교
침엽수
강강술래
KT
Ne
가도
감성
강회
격물
경산시
공상
구곡
궁실
궁핍
근년
남로
넥센
당귀
도조
동탑
면장
무척
무독
문벌
박규
발령
발병
방호
베드
복권
사철
산촌
송광
신채
약실
양로
어전
염소
예법
오정
옮길
용모
용군
용비어
원세
월대
월조
육자
윤사
이길
이달
이거
이돈
익힌
인산
임오군
조봉
주천
차기
창성
철교
체득
치적
피로
하현
한상
해병
흑갈색
흥덕왕
##사인
##리안
##포르
##현실
##대한
##미아
##도르
##장경
##군사
##농장
##시사
##저우
##피나무
##델피아
돌아올
현대식
유사시
가까우
중간본
1797
##문화사
농악대
쓰여졌
1744
국조오례의
향악정재
십자가
야마토
교향곡
충무공
청계천
교직원
스코틀랜드
김굉필
필라델피아
오백나한
용비어천가
임오군란
갱신
고졸
과연
국채
길쌈
내기
내물
노년
대남
덕성
동중
들리
등판
만포
멜로
면담
명천
모호
묘실
봉상
봉서
사흘
산골
서측
소전
소략
소닉
심원
알파
엄정
열악
오음
왕정
요컨대
울주
유석
유보
유주
음원
정평
정적
제갈
진과
철사
청어
취했
큰방
통지
판례
폴리
하정
현악기
형주
호암
효용
흘리
##퍼드
##기와
##구치
##조작
##te
##성회
##신편
##12
##더니즘
##오카
##활동
##블리
부르크
이해관계
영국인
연주회
대동여지도
사단칠정
올려놓
선언문
통치자
반란군
기대승
연평도
구례군
##ive
소프트웨어
태종무열왕
감금
경재
경승지
계유
고저
교하
김좌
농토
놓였
능통
다도
대경
도술
리드
모터
무형
문반
박유
범일
변해
상학
세모
소란
신무
여류
여닫이
영인본
우방
일연
전호
전곡
종루
즐길
직급
진짜
총국
컬러
하버드
한용
혁대
현명
홍대
환웅
회백색
휘문
흥부
##당기
##유리
##대도
##자유
##화물
##의전
##잡지
##케이션
##할아버지
##백자
##녕전
##찬성사
문화원
사상가
상당구
사단장
붙여졌
1394
생존자
##문화연구원
행해진
디자이너
##국민당
영월군
수문장
연판문
인형극
양명학
주세붕
조그만
성폭행
범망경
히어로즈
Bl
건원
게르
격상
공용
곽종
군함
극진
기풍
나당
다닌
도봉
도랑
동장
마일
만행
무경
미처
박쥐
발송
법식
베푸
변주
별자리
병화
본집
부천
상민
서석
서버
선부
세태
속사
스토리
아산시
약방
영미
영생
원용
융성
의제
이신
이징
익숙
자상
장착
쟁취
저널
점거
천변
초연
축약
춘천시
측우
패망
하행
학기
호전
##석원
##교위
##aw
##회계
##물산
##레나무
##전보
##돼지
조선혁명
고려도경
안정복
##ong
시위운동
대문채
통제사
산수도
성명서
도량형
용인시
승부조작
트리플
청해진
촘촘히
이스라
가호
개령
게끔
고는
고선
공손
관혼
권문
균열
금마
내금
농성
높였
대서
도자
도수
동식물
만석
망인
머름
무무
반일
배격
백록
버무
별좌
산원
삼청
섭정
성토
소량
송곳
수어
수박
식료
아인
여파
여권
연례
연당
영접
영선
영춘
외명부
용성
유랑
윤음
일승
정오
조두
좌대
좌선
중편
중층
최규
파랑
프랜
하리
해협
휩쓸
##유설
##석기
##동종
##출산
##교섭
##안면
##진사
##페인
##여성
##레오
##차관
##플레이
##칠기
##목조
##누트
##츠크
부산대학교
방송통신
건너편
체육회
동남향
서경덕
영남대학교
이제마
결혼식
1695
예수회
홍문관부
이광정
충렬사
퇴적층
증보산림
어사대
올바르
동아일보사
돌아온다
대법원장
출장소
우부승지
증보산림경제
ᄂᆞᆫ
갑인자
경모
고니
골방
과업
국서
군문
글귀
금사
금문
나리
다보
담양군
덕진
독려
동광
박신
벽지
본위
불감
블루
상리
술래
신방
애기
야학
양팔
양력
양양군
어문
여느
여동생
연접
영가
오현
왜란
우연
우음
원가
자처
장형
제술
진표
총섭
최재
쿰스
터키
특혜
팔꿈치
피트
학풍
한약
횃불
##세자
##소사
##산수
##일체
##대중
##공항
##ian
##비파
##10
##향나무
##플로
##네스
대한항공
대전회통
선교회
이기설
사리원
중대장
원주민
1682
1784
신사임당
정인홍
시청자
사명대사
크리스마스
무량수
지침서
거짓말
유격대
한결같이
북간도
##ight
과반수
강감찬
갈문왕
계문
고온
관학
관영
나눠
남근
노골
누명
느꼈
다문
도계
도르
동채
두류
뒤주
등사
랜드
러일전쟁
로저
말경
매사
문파
물음
바보
브래
사막
석류
선제
성터
식별
역한
영기
완수
전전
정홍
증광
지병
지전
지법
질그릇
쪼개
책상
천궁
청록
최순
침묵
코너
타마르
태을
파일
판형
폐수
험한
황새
횡단
흥원
흩어지
##령산맥
##수정
##미료
##나타
##달마
##프리카
##슬링
##외선
##AN
##면적
##와서
교육과학기술
부산시
수도회
러시아군
올려져
유치명
1407
실업학교
동자주
1389
이산가족
자전거
문하시랑평장사
채무자
흑룡강
특파원
꼭두각시
교육과학기술부
Un
경창
곰솔
광의
기병대
김남
끈다
당적
당명
동동
떠올
맡겨
박광
방물
뱅크
법장
보행
보제
보신
봉직
북벌
사류
산직
삼월
색조
서점
석각
손쉽
순안
시편
신묘
실망
어렸
어쩔
엄숙
여실
옆구리
오미자
우륵
원목
위세
윗단
유모
유흥
유튜
율동
이닝
잔류
절망
정난
주안
주경
증후
책명
체코
초엽
탐색
파급
페더
폭스
푸르
피선
하품
한수
한울
해미
협소
호로
화각
활달
회덕
효험
희사
##조리
##ld
##촌락
##셔널
조선교육
조각상
노동부
졸업식
235
경성부
정당문학
지지자
상서좌
1788
올랐으며
1660
합쳐서
장례식
향토사
화장품
충실하
스페셜
협동조합
재미있
날카롭
##관리위원회
김도화
오동나무
스티븐
옹관묘
대법관
위만조선
오카자키
단발령
익스플로
주파수
유튜브
익스플로러
Se
겸비
구토
귀왕
김완
남당
내연
노역
담채
도난
동역
동몽
떠오르
모전
목민
무복
미르
번안
비축
산리
상순
선집
선관
성삼문
소부
송순
쇠약
슈테
스리
시관
신심
양안
양조
영진
요체
용감
우찬성
워커
육전
자석
적상
전나무
정강
정본
종밀
주임관
지은이
진본
측간
팔찌
포병
향직
홍제
홍살문
화분
##질서
##만호
##연기
##클리
##송리
##승전
##브리아
청년단
정의부
1393
아름다워
연꽃잎
여래장
1858
사직단
미군정청
1811
중화민국
레이저
여주인
1388
김홍집
기성회
만경대
교향악단
나루터
기로소
대호군
##계몽운동
지봉유설
송만갑
팔부중
이스라엘
가훈
가니메
걸쳤
경명
고독
광부
권영
기제
꼬리지
꾸짖
낙양
덕종
도드리
동신
동아리
마스터
먼지
민보
민감
배추
베이스
보태
부칙
불순
붉은색
비답
삼계
생길
세수
소각
소목
숙련
순장
숟가락
슬픈
신영
애창
어법
에도
연좌
예고
왜성
우마
원생
유현
유난히
음수
이일
이간
인현
장상
전작
정숙
제신
조림
족장
주둥이
지화
창주
창법
척화
탄전
태국
테크
판교
피겨
학정
환호
회도
##은니
##조각
##개소문
##파리
##시리
##율사
##백과
##히코
##붙이
조선중앙
가지런히
생산자
자기장
부산진
주민등록
국어문법
320
생명체
1684
1650
그리스어
64괘
1644
6000
##국민회의
부호군
##체육대회
1116
##민주주의
보문각
성년자
신재효
거느린
언더우드
##씨족보
곽종석
꼬리지느러미
Br
가게
강약
고가
고영
관전
구어
굴착
길쭉
김극
김춘
나운
남조
노천
노하
논밭
대진
대원사
만연
만날
멍석
무원
무정부주의
문소
박창
방석
법부
볼록
색인
샘물
생년
설서
송학
수보
승가
실사
여긴
열사
예악
옥산
옥황
용주
운모
위항
위법
유후
윤희
이택
이견
입헌
잠정
잠깐
정우
조윤
종식
종법
지루
지맥
찰주
철화
추장
축전
킬로
태주
택일
통교
특산물
팽이
피할
하성
한마디
합본
해시계
현안
회로
##구결
##국치
##왕묘
##담집
##프리
##어류
##어진다
##헌유고
##날리
지방검찰청
지방행정
연구학교
아이폰
목조석가
관심사
1606
1851
1785
##문화제
퇴적물
##ass
차운시
시어머니
어우러져
이완용
원동력
좌부승지
바그너
빠짐없이
부뚜막
신채호
가니메데
Ar
건장
구류
궁성
기왓
김헌
꽃받침
나지막
능숙
당위
동고
따지
맞닿
명지
목과
백령
보루
사벌
서광
섬멸
소탕
속했
수포
수덕사
쌓인
연가
연향
연개소문
열도
오운
원제
원측
육수
이음
일자리
정박
중강
지례
진국
진서
참수
참된
초사
취체
친분
황정
흥왕사
##가협회
##편람
##위성
##집요
##절목
##티아
##백나무
##와라
##ST
##징어
조선대학교
문화상
어려울
부여받
수출입
아랫단
1781
다스려
1844
1832
너무나
진도군
노사나불
상무위원
이항로
수차례
돌무지덧널무덤
이라든가
##장전산고
풍수지리설
반기문
오주연문
무조건
파진찬
방조제
슬퍼하
주병진
리메이크
##행실도
오주연문장전산고
개제
곧이어
공비
광제
광선
구당
권제
금은
기만
기각
기차
내구
당의
도목
동천
리스트
망원경
미시
반부
방앗간
변계
복싱
부관
브로
사친
사빈
상왕
선창
세칙
승마
신역
연단
연질
유망
의숙
이뇨
일렬
전폐
조망
조진
종헌
창자
척사
취사
쾌자
탈해
탐욕
토리
파기
프리스
하례
한배
혜능
##동고분군
##공자
##불사
##삼매
##코올
##러워
##협정
##키와
##느티나무
##푸르트
중앙일보
소장품
특별자치
전해졌
연주문
##레이크
그래픽
생명력
1857
1637
1830
1839
라이프
1434
김창협
전남대학교
순회공연
금관가야
민정당
좌수영
농상공부
경술국치
그레고리
##관광부
자이언츠
내금위
특별자치시
감응
검은색
경음
계발
권율
김교
난초
내분
내란
덕유산
도형
돌연
동시대
마부
면복
목마
무쇠
무겁
미숙
미나리
박물
발판
밤중
방책
백장
변조
본진
본점
분양
빨치산
사록
상현
상교
생몰
선보이
세입
속간
수효
수하
숫돌
승강
승용
시유
시강
쏟아
악티늄
알선
야인
여순
여호
여져
염전
예견
오장
우암
울분
원님
응교
의창
이과
이직
이력
이벤
정석
제군
집어
찬란
채운
최세
최하
퇴보
퇴진
트인
팔목
한사
헌강왕
협간
호산
회청색
##자회
##화점
##장식
##장조
##인구
##오스
##코스
##내기
##법당
##충정
##년명
##백로
##브스
조선소
세기말
문화공
경제사
창건자
자연주의
215
현대문학
규장각도
제자리
준다고
주체사상
1681
1764
유가증권
퇴적암
시청각
돼지고기
##체육회
봉해진
서귀포
##진흥청
오위도총
관형사
##신도비
반구형
여지도서
오위도총부
감색
개풍군
게송
경진
과하
관구
기편
낙하
누군
능침
단판
당장
데모
돌도끼
동위
라마
명태
불탄
서림
석판
소반
소엽
수증
술잔
슬기
시부
식산
신촌
알코올
앞트기
약소
양질
언니
오라
오봉
우협
운율
유권자
은밀
저포
적발
적힌
정용
지킬
추리
치국
크누트
통구
파울
팔도
포착
표석
프란
해질
홍우
후배
##상스
##지로
##자재
##조림
##ly
##io
##흥창
##통고
##통제사
##BO
국가재건
군사령
보호구역
올라간다
치료법
##은행나무
1653
수군통제사
애국가
왕세손
밀직사사
천왕문
보령시
노르웨이
풀려났
정중부
##ove
소홀히
신파극
추기경
구월산
EP
Mar
가나
거목
관작
광구
궁이
귀하
규찰
김충
김찬
까다
남악
덕사
도해
도갑사
드레
등분
라이트
만인
목련
문적
민수
발단
방도
방제
배례
벌어져
보륜
사하
산해
상수리
석이
석왕사
소태
수림
심도
아헌
아랑
약점
양보
여중
연풍
오곡
오름
옥천군
외사
우울
운주
원위
월봉
유덕
유독
윤원
음향
자운
작살
장한
장성군
쟁탈
정한다
제형
조전
지은
지모
진통
징병
참소
추운
표류
해식
행인
협곡
형국
호조참의
휘모리
##대리
##정의당
##교장
##파동
##호선
##레라
##테스
##카드
아래채
민주정의당
출토품
관직명
개인전
연기자
건너갔
1683
1786
1777
##학생회
1834
수양대군
배웠으며
펼쳐지
새겼으며
한림원
7000
정인지
무너진
히로히토
견문록
단풍나무
##공동회
##수산부
남대천
제각기
삼지연
스미스
맥아더
문화공보부
앞트기식
st
to
가인
각별
간선
계지
관가
구심
국공
군공
금색
낭자
뉴질
다물
대작
돌격
득도
뚫린
로맨
롤링
마도
만리
박치
박봉
방추
배드
백낙
보하
봉오리
산둥
선묘
세공
세관
세형동검
승과
연잎
옥천사
온몸
외모
위급
유승
유하
의탁
이국
이비
자영
정열
직분
참외
첫날
청금
체인
칼리스토
태아
폭풍
하우
한기
한남
해적
행태
홍영
황석
훈고
##행성
##지역
##출토
##식론
##초문
##수찬
##수세보
##총연맹
##장이
##군악
##ran
##ear
##팽년
##재해
##적십자
##아주
##선문
##히로
##체조
##말어미
활동전위
가로질러
지지율
기계공학
집행유예
벼슬길
동의수세보
유배지
천주교인
1712
청구영언
김수항
이규경
8000
군기시
불꽃무늬
서운관
나전칠기
두터운
가부장
잃어버린
혜공왕
민물고기
십장생
이인좌의
말레이시아
뉴질랜드
동의수세보원
Com
갑산
격리
결전
겸사
공론
관정
광역
광채
국영
군서
귀걸이
균세
당과
대천
도평
맞춤
매진
맹아
머금
무단
무찌
문창
바꿀
백동
보문사
부주
삭주
상과
석남
소격
순찰
실각
쌍룡
안향
알루미
양무
연백
오징어
와트
용접
운주사
원화
윤리학
임내
전년
젓갈
정두
정했
조속
존엄
죄목
착륙
철원군
초산
총부
토축
패한
평시
프린
하역
형조참의
화회
환산
##세포
##세이
##기사
##위생
##여닫이
##삼경
##피스
##규칙
##층탑
##TS
정부인
인물화
돌아갈
212
##레이트
전반부
경계선
기와지붕
1840
1612
##가사유상
대승사
1713
1674
이시미
이조좌랑
연수원
무량수경
비로자나불상
초급대학
칠곡군
도라지
배재학당
화덕자리
사군자
줄어든
르네상스
중랑장
PC
가주
관기
관수
관경
교련
구정
군소
급료
남미
남침
뒤퇴
들였
면병
민회
방장
배달
백남
벌려
복호
불변
비비
비호
사평
사영
삼장
상어
서가
소청
소윤
숭앙
실종
씌워
앙화
앨런
약식
약주
연암
왜병
외동
유유
임화
작문
장작
적진
제보
지남
진명
청성
체로
취타
층군
태안군
통진
편저
편곡
한미
햇빛
헨리
현도
홍성군
황위
흡연
##사태
##대방
##악보
##호분
##주나무
##디움
##목원
##테리아
는다면
경제력
경제성장
기업인
환경부
공신도감
##대부인
참가자
기반암
##사지론
##아리랑
365
자격증
이수광
개항장
1859
1720
김종서
서남향
통상조약
1455
##리지석묘
신한청년당
헤이즐
안타까
앞장서
노리개
을해자
부총재
집정관
에워싸
북두칠성
프랑크푸르트
중서시랑평장사
강선
격화
고임
골판
공방전
과자
구봉
내자
노총
단구
대첩
동태
레오
마드리
물푸
벌칙
볏짚
봉군
봉암사
비자
비자나무
상행
선어
섣달
쇄국
수피
순방
스며
시재
양홍
어색
역참
열정
오관
용머리
원찰
원점
윤동
율학
을미사
읍락
일률
자력
장옷
저택
전구
접한
제가
조대
주화
증기
참새
총액
층위
탄약
포진
풍악
하우스
해짐
환국
활석
##고가
##행수
##구슬
##대상
##축산
##교향
##총연합회
##공거
##조개
##성이
##파일
##판관
##변화
##박이
##하리
##근수
##와유고
##애왕
##섬시
한국일보
##머니즘
국민정신
동지공거
드라이
1740
1824
동자상
1470
매장량
적당히
보좌관
신한국당
헤이우드
꾸며져
재래식
청량산
군량미
개개인
민도리집
이벤트
마드리드
을미사변
##교향악단
경감
교위
구와
구약
권중
귀틀
금단
기층
나일
낙성
니혼
단추
동선
두공
루이스
리버
리뷰
무이
문부
반경
방계
백상
번각
벽파
벽암
보직
본능
사종
사은사
산타령
상연
상의원
생부
생화학
서포
서용
성면
신춘
써야
안찰사
여음
영빈
영문학
예불
완형
왕희
운암
위호
윤진
의전
이교
이능
장갑
저변
전류
전일
정말
제청
조만
종기
준설
증시
지녀
지느러미
천룡
철릭
청문회
초판
초목
출력
트레
플래
할당
할망
현성
홍직
##망이
##산지
##산문
##달리
##개량
##제종교
##먼트
##언어
##코인
##데이
##배나무
##빼미
경찰청
분류법
감사원
한문소설
##end
이정구
계열사
동래부
1686
보조금
다스렸
1658
1467
1469
대왕대비
보상화문
감리회
지질학
비트코인
##도량참법
물려받
초조대장경
나폴리
쫓겨나
##ock
김은호
유태인
치제문
고경명
유향소
간송
감면
감히
개진
건져
걸작
경정
관주
구휼
군총
권기
권지
극예술
근신
근면
금줄
금산면
남병
놀음
대나마
떠돌
루스
마전
만류
목천
문간
반입
발열
발아
배쪽
백산
백신
복설
사략
산유
성묘
송강
순자
시론
싸운
안민
안식
어귀
어둡
얼룩
연적
영취
완결
요즘
우르
원양
위경
윗몸
유우
육경
윤경
일수록
장리
장항
정응
조하
주계
중령
직할시
터로
특선
파문
표주
풍장
피지
필름
한조
현등
현인
혼재
확률
회맹
##소이
##단자
##바꿈
##PC
##쿠라
##몽유록
##쩌둥
##센터
##벚나무
203
아니면
전국구
225
석조여래입상
개국원종공신
1598
1601
1856
1787
1805
이주민
거래소
1702
유가사지론
에다가
예조정랑
983
기부금
강습회
타임스
##태평양
경희궁
정여창
도순문사
전동차
진남포
##양성소
마오쩌둥
용재총화
플루토
여의두문
관혼상제
Gr
Wor
가재
각인
계축
고뇌
곡용
공황
과대
관조
구포
금산군
김무
낙천
날려
냉전
누대
누렸
다목
담화
득실
리스
맞붙
명경
모계
모피
목각
무심
무능
문덕
문선
박대
백주
변소
변환
볼모
부양
빙렬
사돈
식힌
신교
안압
앙서
영자
월광
유근
육보
윤정
은산
음사
인내
인칭
자귀
작호
재종
재결
재즈
전고
전악
정청
제압
종용
좌천
죽간
줄타기
진종
찬미
참정
천부
청일전쟁
카이사
태묘
파상
파수
판심
평한
황소
흥업
##기법
##화력발전소
##장총록
##무량
##군옥
##eg
##향약
##렬히
##누이
##베리
된다면
문학가
김정호
풍속화
세자빈
거두어들
1635
1630
##ust
가졌으며
사법부
수양버들
두드러진다
사림파
승정원일기
로스쿨
늘어놓
##사회당
일까요
폐기물
낙랑군
완도군
디스플레이
끌려가
임실군
위태천
합창단
신편제종교
개마고원
무등산
페더러
플루토늄
신편제종교장총록
SM
가느
강일
괴석
국지
귀인
금탑
김의
남장
남극
늘어진
다비
도처
돌림
두륜산
레드
메우
모교
모더니즘
반열
백발
벌채
봉정사
분가
분경
삼양
색동
서전
성역
성암
송치
수초
숙주
신교육
안도
안택
어용
연성
온건
운산
원곡
위화
육식
윤이
음영
이앙
장제
적멸
전가
절대로
정온
조칙
직인
청각
청산리
촌주
최석
추계
케이스
파격
편병
플로
한류
할까
허씨
호림
혼수
환적
흥망
흥국
##스레
##천집
##지엄
##보냈
##대청
##장성
##진보
##인사
##회관
##통편
##주국
##야식
##티푸스
##테른
아래위
연대순
미륵전
유치진
갈라져서
올렸으며
1634
1778
1804
1655
1659
520
김상용
물러가
학년도
공정거래
다녀오
아악부
영구히
내시부
사비성
페르시아
도당굿
예문춘추관
대불정
일직선
Boys
안압지
ᄌᆞ
각서
간쟁
간살
감관
거관
겉면
격언
곤장
공구
공서
관명
교제
구청
구렁이
굴복
권태
권번
귀순
규산
극소
금어
길군악
김삼
끝날
내게
냐는
니까
당한다
떠서
떠내
렌즈
몰랐
무릉
무주군
문한
미끄
반군
백악기
번개
법주
벨레스
변수
별군
보발
부소
빈객
빨래
사포
사론
산관
상생
새마을
수고
수라
수경
승방
압류
약해
양평군
오구
요나라
원보
유소
유순
을미
이오
이차
잇달
자위
자하
자아내
전립
지략
차분
착오
척추
청련
총무원
축사
캠페인
통조림
표절
한대
합한
향음
허정
허공
헌관
형방
회랑
훈구
훈령
훔쳐
희박
##민회
##나카
##나갔
##연군
##신학교
##전력
##르드
##작법
##AM
조선청년
한국불교
나무숲
가르친
움직여
가입자
호남지방
1775
550
1846
인원수
교황청
봉산탈춤
울진군
조계산
탐사선
손꼽히
정여립
한원진
상서좌복야
여주인공
An
ᄒᆡ
가늠
각사
갇혀
감흥
갔으며
강태
강백
거둥
경장
경혈
광화문
교예
국난
권공
균일
급찬
기어
기설
낙원
난대
난방
난타
납입
내진
냇가
노획
담백
도토리
드루
드린
마상
마케
만두
매치
모니
방인
보스턴
봉업
서이
서후
서시
서둘
서천군
석교
소대장
시굴
악극단
안목
안무사
억불
역마
역로
왕신
외출
원심
위배
유타
일무
잡영
조비
지우
지덕
직권
짓소리
징조
차사
차비
천호
천역
청평
추자
카를
캐시
태산
투영
판별
평했
포용
필두
하양
한화
한경
향찰
호패
##세기
##국수
##인곡
##생명
##문예
##별산대놀이
##메이
##하키
##괴석
##묘법연화경
##검사
##둔전
형태론
남북한
242
문인화
그려지
헌법재판소
성주사
문하부
불렀으며
마애여래좌상
1688
였음이
보건사회
양주별산대놀이
1618
1741
1433
##통일안
이현일
ᄒᆞᆫ
유니폼
도총섭
매출액
여원인
흥보가
##스티벌
카스트로
중화학공업
프리스틀리
승용차
카이사르
보건사회부
걸러
결하
겹치
계회도
고한
관헌
교로
남반
내영
널찍
널빤
노름
논증
농공
늘어난
덕망
덕천
뒤늦
라즈
말린다
매향
명상
박스
박차
발진
배반
백중
법치
본뜬
부름
붓다
붙인다
사체
삼화
상공업
생체
서론
서주
세가
송진
슬로
싫어
양단
양진
여고
역적
연분
염증
영서
영희
원균
월식
위력
유창
이귀
이따
인후
일품
자초
저질
적선
절도
점심
져야
조판
지네
진봉
추론
취할
친밀
칠석
테마
톈진
판상
폐소
하트
합편
호우
화현
화이트
활짝
회암사
후주
##산기
##ber
##ax
##덕랑
##왕산
##생원
##래기
##능엄경
##십이
##촉성
조선사
대한체육회
사이버
평양부
##스트라
사적지
공간포
가슴지느러미
일기체
이루어져야
일어난다
1403
금동불
1701
1432
레이블
1444
도망가
지부장
자서전
유격수
석장승
세이부
병인양요
팔상전
도체찰사
다행히
소현세자
매니저
옥황상제
홍직필
널빤지
He
PD
고춧가루
괭이
권무
그럴
난해
내일
노성
단천
당은
독촉
동여
만난다
망국
면류
면한
박혁
반동
배부
벼농사
복건
봉족
부드러
비견
비바람
빙고
사극
서윤
서병
세장
수일
시아버지
심복
싱가
안심사
안평대군
애도
액자
어물
여승
연탄
우승지
유홍
잡색
잡과
장조
장륙
장막
접목
종말
주대
주돈
질러
찬사
찬하
최동
충훈
칠장사
침수
편목
풍흉
하얼
학동
해관
해준다
행군
허수
홍사
힘차
##들러
##현면
##교원
##수원
##시성
##클럽
##야담
##감독
##촌동
##갈문왕
##너스
##흑색
204
중앙관
음악회
영화사
213
마음가짐
근대식
드러냈
수상자
동해안
갈라진다
움직일
1772
신경통
김유정
1646
1678
동자기둥
공학부
김규진
청송군
##고사우루스
스테고사우루스
히로시마
이라크
혼용체
풀려나
항소심
윤봉길
총사령관
구개음화
성유식론
한용운
싱가포르
주돈이
하얼빈
Am
PA
ᄀᆞ
강건
거액
게릭
고칠
광덕
구타
기류
끓인다
나진
나경원
다기
다각
던졌
만덕
매기
명전
모후
무슬
미혹
민진
민폐
밀정
반신
반항
방황
별곡
복간
불가사
비사
산릉
삼포
삼족
수해
순차
습성
시풍
실과
쌍벽
쓰러
에어
여군
열중
오두
온성
우제
운하
원융
윤용
은신
이권
장거리
제치
좌명
지자
진원
집게
첨절제사
태현
토석
통설
특례
파초
하생
헌병대
혜심
호두
호각
환입
활력
황교
흠모
##사스
##유취
##천도
##가마
##일치
##식지
##안법
##hy
##간본
##만록
##여름
##촌집
##짓기
##결핵
##말라
##텐츠
다시피
국민대표
보여진다
문학상
독일인
310
무신도
여겨졌
1609
1854
참석자
1461
1845
1617
김성수
661
1669
결의안
토론토
##ure
##ast
오리콘
모란봉
굿거리장단
후지와라
백운산
진양조
기다려
옹진군
헤아릴
노란색
북로군정서
스프링
가느다란
AI
Cl
IS
Sh
on
간간
검소
검역
경천
경물
구법
근기
김환
깨우
나빠
날실
노상
다층
단사
대홍
두보
두드리
로켓
만취
맡겼
매인
명은
몰리
미칠
방광
백수
백서
번잡
법랍
보감
북아
비주
비결
사질
사학자
수저
스틸
싸울
쏘나타
안드
양파
어름
연어
열성
염라
예경
예제
옥녀
외신
원령
원서
월출산
유비
윤달
이노
일문
자화상
장헌
재계
정영
정훈
정돈
제독
중외
지산
지중
찌개
찬송
총목
치병
커버
코르
클라
태어날
프레스
함선
합판
해원
해져서
호사
호방
혼서
화병
후추
##고회의
##기지
##부흥
##대포
##재산
##만행수
##문자
##임금
##객사
##김치
##밀인수
##카와
##최고회의
##믹스
이용자
의미론
자연보호
##보살만행수
건설업
##여래밀인수
선거법
동물원
대장도감
아미타경
언론사
1396
동북부
순천대학교
1629
##iss
1724
당선자
1847
1766
이화학당
동작구
목포시
정선군
1258
참모장
대도호부
수혈식
안양암
대방광불화엄경소
물리학자
##보호법
아뢰야식
위안부
심포지엄
훈몽자회
국가재건최고회의
이시미네
이따금
무슬림
##보살만행수능엄경
##여래밀인수증
ha
가덕
간담회
게이
겨레
계서
고산사
관품
광한
국운
국책
군내
권3
귀천
그믐
급수
김집
끼운
나례
낙화
낭관
내소사
노파
노송
대판
마신
망건
모였
무애
문상
민병
박팽년
백광
백옥
복통
북편
붉은
브레
사은
삼종
삼장보살도
선계
송인
송암
쉬우
시합
시부모
신태
아지
아테
아빠
앞마당
연석
연패
오하
원격
장이
장곡사
재추
재심
전할
점프
정액
조재
종과
주립
진대
청혼
체스
추풍
클로
탑지
터지
통주
파고
파인
판장
피처
하상
행각
향당
허백
호도
홍패
후유
후인
후비
흑연
##석장
##지심
##동산
##수구리
##군락
##강의
##로그
##청사
##만세
##런스
##갱이
경상좌도
경기전
조성기
사업가
228
금강저
세운다
1397
이정희
1620
1753
1765
668
실험실
이경석
1443
알아내
단오제
되돌려
##의학전문학교
관현악단
2020
##올림픽위원회
만민공동회
타고난
전봉준
위키백과
지권인
원위치
영취산
IC
Sp
갑작
갔으나
강림
겸관
고보
고착
공증
공영
과문
관민
군졸
그저
김조
낙산
냉수
누설
도박
때마
로빈
명환
모면
무비
방산
백골
벌목
보정
복자
복선
봉선사
불갑사
비취
사표
삭발
산군
서종
서생
서훈
성호사
속이
솔잎
순찰사
승자
신작
신법
십이지
암산
암술
양유
연승
용병
우봉
유집
의안
이백
임유
쟁점
저리
정군
조간
조규
주척
천경
초보
총동원
최원
축물
취한다
치세
코민
탑승
패자
표음
피폐
해구
해태
향안
호연
홍유
홍인
회소
휘장
##상감
##트릭
##기관
##방목
##제보살만행수능엄경
##EC
##KA
##궁전
사회보장
아니한
214
부여읍
##문학회
재정난
가야면
조상신
민중당
상해임시정부
1721
1415
농사일
1755
합쳐져
회화나무
##독립운동
석회동굴
거제시
구비문학
이준용
오세훈
본떠서
유시민
##춘추관사
겨드랑이
포지션
낭림산맥
누군가
나일론
때마침
성호사설
코민테른
Con
IR
가토
경륜
계회
고행
고미
관산
광사
교편
교문
교내
구자
구좌
균여
급속도
기려
기신론
김언
남상
남짓
단선
더라
도쿠
들러
때려
매미
맥그리
먹여
모토
문천
문둥이
물기
미신
박준
반민
반납
백학
백조
사생활
살포
삼부
상수도
석도
송전
수대
수진
수선사
승관
식재
실전
심우
악한
어가
어근
엔지
여말
영명
영친왕
외야
위인
은니
의대
의술
이암
입성
자태
장덕
절로
정가
정학
조력
좌안
증발
지조
지로
진천군
천천
철령
첩자
청중
체중
최수
최태
최시형
취직
컬링
코트
통덕랑
페스티벌
편중
편견
평성
하향
학병
함길도
합일
화수
화친
회지
효제
흥남
##지장보살
##페이
##먼스
##씨전
##분자
##몬드
##처럼
##테르
##높이
##배상
##펙트
들어선
선거인
찾아갔
대동군
자주독립
일대기
사리장
시집살이
명문화
화학공업
1793
금속활자
경비대
1708
1666
신민부
음성학
귀신고래
인생관
해운대
1310
부원수
말뚝이
분재기
적장자
도명존자
알루미늄
맥그리거
갈릴
감격
강자
거세
게스트
경당
구급
궁방전
극치
기영
기림사
끝맺
남계
담갔
대창
뒷전
리치
마구리
만다라
목제
문공
민자
발산
발육
밤낮
방자
방수
백사
버티
베개
병상
병용
복리
부석
북인
사택
사여
삼촌
상벌
석천
세목
소공
수자원
시늉
신불
심기
심의회
어형
어뢰
얽매
에이스
연동
염화
오시
와편
우에
우박
운각
원근
인욕
입혔
저기
정작
제과
조계사
종회
좌군
좌협
주영
중전
증득
직임
진중
참신
청군
청배
청양군
최광
추원
충전
치루
치도
칠불
타작
투사
팔뚝
퍼진
학보
화동
황초
회부
회선
흥겹
##기준
##수호
##무도
##ge
##라노
##다듬
##강서원
##신장
##불도
##집의
##오동
방법론
북한강
대한민국미술전람회
훈련소
건너간
흘러나
가마니
동양화
지하자원
1608
스타트
지상파
산신제
1651
달려가
1763
1767
평안도관찰사
정해졌
문답식
1677
해발고
빼앗긴
비행장
피난민
동편제
인왕산
당진시
분수령
오세창
중학부
태음인
이여송
엘리자
정감록
##올림픽대회
철자법
안재홍
천천히
가결
강홍
계선
구치
궁리
금품
기력
깬돌
내명부
농산
다큐
당수
당인
댓돌
더듬
동점
로봇
마누
면도
물류
물감
박병
벌써
벤처
볼륨
불자
비우
삼례
상차림
성제
소품
쇠시리
숙이
스캔
습도
승장
시방
신서
신곡
신숭
심오
아자
아웃
애인
액정
액션
언스
오계
왕호
왕버들
우당
우량
위더스
유조
음통
이존
인적
일민
일길
일념
저울
전업
접견
종선
죽산리
중풍
지에
지와
지렁이
지어서
직산
청결
커졌
쾌속
판식
포탄
표구
하야
하임
하륜
함종
합문
현물
홍정
홍양
화음
후발
힘쓸
##사이
##부위
##50
##국제공
##교수
##혀서
##환국
##저기
##돌프
##챙이
생활관
민족정신
거쳐야
시켰으나
##린다고
특수교육
기사관
나이트
그래도
상서성
직업교육
받아들인
이이첨
1783
1770
1779
작곡자
지장보살도
달라서
한계선
1710
지켜보
1697
1812
이자겸
의령군
주심도리
경문왕
폐허화
사계절
신격화
황남동
최승희
앞세우
##ensis
최현배
##출판사
피침형
모전석탑
물푸레나무
위더스푼
##국제공항
Sc
ᄃᆡ
감싼
거푸
건칠
결총
결제
고물
과중
과격
구술
그릴
극영화
남지
녹관
늘려
다닐
달여
답험
도연
도란
돈대
돈다
동회
동짓
두각
둘려
등잔
떨치
람슈타인
렀으며
로트
로프
마노
마룻
머릿
명정
목도
미완
박찬
보원
빙하
사개
사집
산국
상문
석검
성소
성충
세주
속출
속인
쇼핑
시복
신검
신칼
실차
심재
쌍성
앙양
연차
올스타
올빼미
왕수
용추
원했
이엉
입식
잠자리
제화
종학
좌도
주저
처치
청취
총신
최의
키워
탁지
태생
파르
패각
포천시
하중
하얀
학성
한얼
합친
헤매
형평
홍천군
화구
환희
흑산도
##리고분
##천하
##기온
##출목
##원각
##평화
##람쥐
##비서
##시화
##봉수
##그림
##20
##염송
사찰본
가로지르
석조보살입상
회의소
##린다는
해안가
관음상
유리왕
삼성전자
1727
1754
1709
다면서
드리워
1670
1377
1735
1472
전수학교
대장경판
이산해
법화사상
선보인
파이프
박동진
의금부도사
도솔천
짜여진
자작나무
서지학
완산구
송파구
박제상
움집터
커뮤니케이션
간추려
못지않
시무외인
대불정여래밀인수증
봉업사
BBC
NPC
간성
감찰사
개종
개주
거성
결점
고어
구서
군령
권벌
그나마
김취
노아
뇌사
답호
도립공원
띄우
레알
만회
무언
문희
문성왕
바란
받드
백출
버마
벗기
벼락
병법
보필
복신
봉림
빽빽
서품
송기
수능
식수
식욕
신흠
안국
앤드
양궁
여생
역수
영전
왜국
우후
원병
이무
일진
일간
임피
입가
잡초
장년
족손
주행
주차
지라
지엄
찬탄
총생
추국
치레
쿠퍼
폐슬
함실
함열
합덕
해충
홍가
환수
황조
회인
효수
##고려
##스톤
##기본
##산파
##미디어
##방식
##ro
##비나무
##경찰
##합편
##겨운
##메데스
##혁신
##per
##키메데스
그리워하
들어올
국민소득
장식품
부사장
반대쪽
찾아다니
이사관
고대사
이동휘
##위원장
##one
유래담
사리함
김정은
받아들일
1726
##중추원사
1464
그렸으며
교구장
비상사태
부지런히
독서회
사천왕사
라면서
빠져나가
사액서원
향로석
김인문
아르키메데스
전문대학원
현저히
장지연
누룩가루
물려주
감로도
회고록
대한독립단
성남시
유공자
신생대
스파이
우국충정
베네치아
대둔사
원추형
덕양구
원세훈
경모궁
현등사
면류관
박혁거세
Love
가경
간구
공역
관자
굉장
교자
구음
금대
기민
김평
김필
김근
낙질
낱낱
내한
노서
높낮
당송
대양
동삼
뒷방
따를
만력
맞물
목우
무실
문방
미닫이
벌인다
범한
병리학
보화
복덕
북춤
비아
사투리
삼량
삼천리
상운
생리학
서악
서풍
서소문
석학
석호
성석
식초
싸여
안승
어니
염두
영풍
영규
오영
외할아버지
원적
유개
유저
육아
은평
이심
임산
잉여
재고
재기
제당
조도
조잡
종형
준결
줄였
지동
지증
천은사
철광
철근
청개구리
최기
최악
취학
케라
테스트
테이프
통곡
파송
팔자
포폄
피나무
필드
항생
현은
호리
홍기
홍교
회피
##유공자
##동사
##축구
##수목원
##해안
##장국
##ium
##집회
##감찰
##헌납
##좌평
##체시
##찬요
사회부
자연물
보살도
지원병
233
406
미술사
수학자
형제간
1590
##부인회
데뷔작
방형주
1625
1628
1774
480
상류층
넘어갔
범죄자
천문대
1577
정수리
이현보
사마시
조선일보사
생육신
노르드
무령왕
소정방
전의감
아비달마
처용무
나아갈
##요의제보살만행수능엄경
김방경
페이스북
황교안
II
가드
강기
경론
계화
관입
국법
굴참나무
근경
금부
금선
끓여서
내보내
당황
두세
등부
렴구
로우
마가
메타
묻힌
물들
민어
민흘림
박하
범부
부총리
북분
북조선
분황사
불참
사보
사또
삭망
성관
수족
신찬
아난
아마루
암갈색
암각화
애매
야별초
여천
여선
유라
육류
육로
윤순
음가
익명
인법당
자필
자회사
장녀
장백
쟁의
전범
정설
존칭
종일
주신
진강
차양
첩보
총랑
최용
타수
탁주
태동
토이
팔리
포경
표리
하로
학인
학점
한어
호상
횡령
##세스
##일괄
##대광
##정지
##ec
##양종
##주아
##향로
##삼사사
##오층석탑
##족자치
##디스
##BA
##와문집
##애국
##꽂이
대한예수
한국전력
알려준다
자유로이
기본법
247
상대론
아이템
찾아온
만주어
교통로
교통사고
재판장
상서우
사고방식
서기관
##조선연맹
선언서
759
1402
1723
1416
속한다고
기울어져
1647
1693
서민층
고령군
부수찬
936
사명당
직선제
수수료
합장묘
조종사
이방원
대각선
긴장감
선무공신
##반야경
문정왕후
##스탄티
명백히
부총관
광개토왕
노수신
청백리
드래곤
문익점
흥사단
도르곤
엔지니어
높낮이
Te
각승
갈아
감형
강과
강압
강동면
견직물
경구
고딕
공노비
괴로움
귀감
금박
김하
깃들
끝단
납속
냐고
노농
눌지
느릅나무
늘어지
다래
답답
덩이
동모
등등
루터
말살
물의
백의
변비
변란
병신
보류
본류
부풀
북대
북계
비범
사송
사색
산령
설총
성령
송덕
송호
시취
시뮬
심혈
심층
아픔
아리스토
안건
안사랑
영노
영예
오노
오호
와이
운기
워즈
월등
유속
육부
응급
이흥
이겼
재선
접경
정렬
조한
주미
중선
증류
직립
진선
진다고
차경
천기
청신
추숭
치러진
컨셉
토머스
통풍
펴냈
편전
피터
피델
하한
학덕
허적
혼성
화암사
희롱
##례문
##동이
##OR
##무장
##에이
##랭이
##시선
##잡록
##복음
##접시
##거사
##빈객
##뱅이
1200
중앙아시아
인물상
211
내려서
기단석
사무관
아이디어
동일시
1633
1773
개화사상
달라졌
1664
1667
1719
기생충
해동악부
##사사적
병조정랑
김원봉
형조좌랑
수구파
두려움
친목회
빈번히
서도소리
부유수
장학금
외환위기
인제군
잠수함
조소앙
도드라지
균역법
빅토리아
무서운
독립운동가
폭주족
목탁수구리
멀티미디어
한글맞춤법통일안
육자배기
여실히
변계량
신숭겸
가부좌
각원
감화
건주
결단
곤궁
공회
광릉
권오
근절
기탁
길렀
김생
끝났
남학생
노적
농담
뉴캐
독어
동우회
로타르
마연
메워
멧돼지
민종
법륜
변장
변별
별석
봉당
분주
불효
비고
뽑힌
사다
산삼
살균
삼죽
상영산
서현
서일
서희
석과
성선
세출
숙성
승호
신녕
씌우
아종
악대
악생
역어
염상
영은사
오죽
외진
울려
유필
윤백
은가
의겸
인보
일용
절사
접사
접전
정덕
조방
좌표
주보
줄풍류
중매
책방
처세
칠월
토마스
투척
투철
풍랑
한도
할미
혜종
화정
황간
##종요
##상조
##민학교
##지능
##화석
##수비
##남리
##남산
##적암
##간의대부
##운기
##여움
##차기
##슬리
##묘역
##베스
##완구
지방세
국가유공자
256
전국체육대회
문학관
수행원
이야말로
종교인
학술원
동서양
나가사키
연극인
##조선족자치
정자각
중대엽
검사장
1722
근로기준
1803
1808
1831
주재료
애국계몽운동
1730
대륙붕
동인지
인공지능
이조정랑
문체론
일곱째
문고본
조용히
헤이그
연평균기온
초가지붕
중성자
##인물화
김덕령
심청전
연변조선족자치
수월관음도
수미단
영창대군
아랍어
##그라드
사분합
후불벽
박은식
물명고
도평의사사
표주박
후유증
뉴캐슬
근로기준법
연변조선족자치주
Pl
for
가풍
갑인
강필
개구
결원
결별
경현
구품
귀비
기약
길례
김육
끈질
남선
내국
네티
는바
대자
대황
덕혜
도루
독로
독널
든다고
띈다
라사
램프
렀을
만료
미스터
민호
백송
범우
변종
변용
병장
보훈
보자기
부추
부존
북단
불평
사불
사숙
사죄
상화
상성
석당
석단
선농
선서
선광
성결
소호
솟대
수국사
숭덕
시서
신궁
쌍둥이
양강도
여과
영과
예찬
외삼
왼발
우석
움츠
월간지
위수
유봉
응제
일간지
잇대
재신
정족
제구
제식
중과
지광
지돈녕부사
천추
택시
트럭
특급
파로
폐비
프랭
핑계
한참
헤르
화경
회시
##월리
##정례
##정상
##해상
##해산
##iz
##에르
##라미
##영향
##시의
##어보
##버리
##관찰
##매매
##룡포
206
중앙대학교
이상범
비교적
강화유수
245
보살계
오른발
예술단
아이비
세웠으나
안정사
##ann
경향신문
세자궁
해결책
가져가
1599
1506
1771
1410
불법행위
1761
1762
1668
1649
칠성도
1828
대리청정
모신다
서비스업
1731
부조리
아라비아
피부병
설득력
참의부
평택시
강신무
낙선재
선봉장
어지럽
무오사화
산내면
내원암
김안국
겨드랑
제중원
##반야바라밀경
박규수
김좌진
군사령관
네티즌
var
가의
가극
가객
간택
강영
객체
거간
경공업
관선
괘사
굽히
난리
노모
논문집
능지
당분
두창
라서
로워
마차
매구
매끄
모화
목중
문필
물량
박선
방역
번상
별묘
봉조
봉인
부고
비이
비참
빗물
사중
사환
삭대엽
산목
삼봉
삼승
삼군부
상보
상신
서수
석간
선초
세법
소초
송국
송림사
슬램
승경
실화
심검
영평
예물
오일
요절
으라고
은화
임병
잠실
저조
조자
주불
증유
짚신
첨성대
청초
출사
출소
측백나무
층탑
치아
콜로
타운
텃새
퉁소
특위
판삼사사
포트
포계
하주
학령
합자
허벅
호송
혼사
홍준
화령
회귀
휘두
희천
##가슴
##보리
##편수
##개골
##경비
##회색
##14
##복리
##IC
##녕대군
##융합
##럼비아
##뚜기
교육방송
사회생활
2019
출신자
여기저기
부르주아
223
정신문화연구원
환경오염
대동소이
훈련대장
올려서
직업인
체육인
가져야
370
1607
1780
1657
1705
돌려보내
사헌부감찰
1438
애국심
화장실
관습법
김인후
##ace
상관없이
초가집
삼천포
발렌슈타인
아이스하키
파열음
자책점
프랜시스
##브리아기
World
마케팅
허수아비
스캔들
LP
가평군
각층
감역
객실
견성
경이
경회
곡성군
광덕사
구송
궁을
권도
기유
남진
내실
너희
닌텐
단다
도천
도잠
독과
두들
뒷다리
레벨
말려서
메모리
몸소
몸무
문항
방약
법과
보배
보궐
분홍색
불룩
비만
빼놓
상중
상군
서부터
손기
수공
수좌
순한
숨기
스토
승차
시헌
아바
아오
약통
양다리
엄중
연모
열하
외설
외측
용녀
용선
유린
유회
유토
유풍
유목
윤택
인선
장의
재소
잿물
적조
점괘
정만
조청
지단
지영
직소
진장
진인
챈들러
천국
청천
체용
총칙
취수
측벽
칼슘
크레
태부
트로이
파가
패널
팽배
풍판
핀란드
해왔
핵융합
호환
혼전
화보
화조
화형
활인
황극
황하
횡성
효공
휴간
##우견
##드름
##미야
##ta
##쟁의
##라지
##서도
##계선
##시초
##시중
##17
##열개
##문제
##셰비
##겨서
##쿠츠크
##토성
##귀비
##pl
경기체
이르쿠츠크
관리법
303
218
224
미술품
시조집
고유명사
1594
750
스타디움
1656
##여자중학교
강희맹
소금물
1818
일으킨다
정종로
1555
##ame
명승고적
크리스토
대방광원각
9000
백운암
연예계
용문면
##공동위원회
편단우견
금광명
비천상
전인범
제네바
##교장로회
겸사복
왕희지
갑작스
일길찬
아마루베
대한예수교장로회
닌텐도
몸무게
EX
간염
강문
강전
개연
갤러리
겨자
견인
경대
경강
고광
공교육
교린
굿판
기침
나쁘
낭산
느라
다산
다졌
단연
당나
두품
레이스
로동
로키
명망
모던
문원
문토
묻혔
미야
미쳐
박계
박효
발성
발주
방서
배자
백합
변무
변영
변명
변한다
병렬
보로
보헤
복상
복령
부강
분신
뽑혔
사산
사심
산서
산스크
삼론
선로
성부
세존
숭고
스쿨
시학
실경
심법
암면
약제
양옆
연서
열대
영호
영양군
오천
오보
옥당
옥계
옥색
요업
요가
우보
우성
원역
원혼
유절
윤선거
은근
임헌
자자
자설
작중
장순
장이머
전초
전영
정포
정소
정환
조율
좨주
주살
진기
진현
진감
진피
진다는
짤막
쫓아내
찬물
참으로
처가
최적
추신
칭한
콘텐츠
텍스트
통괄
평남
포제
플랜
한효
해유
호세
혼돈
홍중
후회
##고지
##공작
##의록
##요결
##로나
##시스트
##연화
##본기
##생이
##어필
##갈이
##코프
##목도리
##입법
##싸리
조선노동
관리국
영화배우
244
243
오른팔
사무처
연합체
국어사
혁명가
성공회
380
1596
이정재
중추부
1409
동의어
1626
1852
장애인
1652
구축함
##장군묘
1665
1661
1718
1430
1820
1676
1813
지표면
김창환
이덕형
종지형
다라니경
금오산
마포구
스카우트
방정식
작은방
홍만종
조선교육령
나운규
거푸집
산스크리트
장이머우
AP
Le
가짜
강국
갤리
결재
계부
고제
골계
괴임
교묘
구파
금자
길경
꾀꼬리
낙관
남씨
냄비
넘쳐
놀리
농축
도일
도운
도투
동심
되살
디아
막강
말투
모치
무마
문맥
박이
박시
박주
반론
배접
벼랑
벽동
복색
본서
비잔
비둘기
사패
산모
산계
삼방
상모
상금
색출
석양
선한
설악
성교
셰일
소울
소독
소견
시속
신랄
쓰개
악인
엉덩이
연감
외지
용흥
우란
위지
유제
유호
융자
음주
인화
일실
임지
잘록
장천
장춘
장날
재발
저부
전압
점하
정실
제액
조모
조덕
종계
죽주
준거
지마
직영
쫓아
참위
창씨
천우
철불
초인
칠층석탑
통인
파워
판명
패용
편암
하관
학비
학통
학예
행보
현진
호놀
홍의
홍길
황윤
황무지
후설
##월령
##월회
##도전
##환입
##한집
##림리
##노루
##연장
##본다
##금니
##어나무
##야류
##하마
##취락
##투표
##법률
##벌대
##텔레스
##멘터리
##룰루
사용자
208
제작소
금강반야바라밀경
옮겨와
자주색
1877
재판부
특이점
##arl
인민위원회
체육부
340
##ory
정사공신
즉위년
세조실록
1654
1417
1704
1745
라이온
650
##공산청년회
교훈서
농경의례
결사대
이덕무
으리라는
생태학
인명록
선문염송
##irl
김윤식
사재감
부가세
부가가치
첨의평리
김두봉
아닐까
오프닝
올라갈수록
태권도
국가보안법
크루즈
이차돈
아리스토텔레스
호놀룰루
Jo
LA
가감
가히
가솔
각문
감도
개심사
갸름
격자
견주
고초
교령
교본
교법
권자본
궐내
그랑
근정
급사
기개
김숙
녹여
농후
누릴
담론
도출
두견
두문동
라든지
마운
모정
모과
모용
몸짓
몸빛
밀랍
박형
보기
본가
본조
부러
부위원장
비벼
사토
삼일
삼랑
샘프
석빙고
설인
설파
세라
세심
손진
송석
송서
시운
실버
실점
심회
아명
양극
양키
어둠
얽혀
연천군
염기
왕대비
원봉
원판
원윤
유천
은백색
이륜
이궁
이스트
입후
자호
자칭
장황
장손
제책
조보
주입
죽장
중자
즐거운
증오
지행
찔러
차질
창기
천조
천시
체내
총대
최석정
충현
타우
탁구
탁본
탐관
파헤
판전
판권
평이
폐결핵
피복
하호
합방
해박
핸드
혼천
회갈색
##고취
##고문서
##은유고
##가상
##석불
##부자
##정법
##도시
##ON
##ial
##적으로
##타운
##생가
##ue
##량면
##오롱
##거스
##감주나무
##처리
##널드
운동회
불교학
안동댐
공업용수
통신망
흘러가
가져와
농촌진흥청
물리친
동남아
나왔으며
이주한
고쳐졌
양주시
1418
1707
돌려주
칠언시
1436
예수교
1825
670
1816
1736
1420
1474
화랑도
충남대학교
유니버
관현악
도총관
숙명여자대학교
우진각지붕
한명회
깃대기둥
남만주
남사당패
다도해
식료품
증후군
그레고리오
상수리나무
간간이
아테네
다큐멘터리
시뮬레이션
Be
ch
ᄂᆞ
감원
감문
개가
갯벌
거뒀
결핍
경포
고현
골목
과보
관공
관왕묘
교복
교습
구식
구암
권주
기품
김문기
깔린
난의
눈앞
닉슨
당도
덧뵈
도살
뒤섞
로렌
로넌
마틴
맞댄
매복
면직
바오
박윤
버금
변시
봄날
봉급
분절
불천
빈대
산도
삼인
석식
선자
선방
설로
설경
성희
소의
소신
송유
수다
순무
승급
시야
식리
신충
십지
아관
암막새
애월
야금
약력
엣지
영묘
오례
오키
외직
욕계
우가
운두
원단
원앙
위토
유량
윤세
은폐
의적
의연
자객
장호
전열
제용
조짐
족두리
주치
주군
중려
중년
지날
직첩
진자
찬탈
철쭉
청문
초원
초년
컬럼비아
터커
판임관
포부
항고
해류
해이
해마
해신
행세
행원
호포
홍종
흥륜사
희종
##상부
##월드
##장관
##단위
##의용
##무스
##마니아
##노부
##LE
##걸대
##절리
##금대
##어먹
##전설
##차도
##der
##법회
##약소
##퓌스
다른데
사이드
이상재
독립단
문화부
들어열개
정치가
기관차
자연법
연대장
내려다
떨어질
경영난
음식점
이동녕
연극제
아동문학
총회장
1751
가곡원류
1768
몽고어
1746
대조전
1643
1648
중종반정
김수온
모음체계
서낭신
불가결
서화가
진정한
1589
960
전지현
수필집
수조지
미소공동위원회
함평군
시의전서
스트로
서편제
##천왕상
위정척사
강세황
가즈히코
접착제
총융청
자치통감강목
가파른
잇따라
조봉암
인현왕후
기왓골
백령도
드레퓌스
##무량수경
충훈부
대불정여래밀인수증요의제보살만행수능엄경
항생제
심검당
덧뵈기
Wh
가회
감하
개요
거상
검무
계도
교식
군호
궁술
근엄
금곡
김회
난파
날인
남효
내제
뉴런
당뇨
대련
던진
도참
돌이
돗자리
든가
디비전
때리
리틀
리투아
마술
명수
문맹
묻히
미천
미워하
바티
방원
배움
백악
법수
법집
별호
병제
본거지
부종
북창
북평
분규
비운
빙상
사예
산자
서진
석제
선암
성세
소과
소맷
수류
숙영
실지
쐐기
아낙
아픈
양공
어윤
와해
왜장
우열
유폐
육각형
윤선
융통
을수록
이탁
일구
일보
입산
잡다
전분
조구
종제
지계
지검
착안
참관
천동
청강
총상
총기
최강
최한기
출병
충목
침실
컨트리
콘스탄티
태일
퍼포
표토
표백
하안
함석
현수
혼령
홍이
홍봉
화의
황학
횡구
효사
휘종
휘말
흑자
##고시
##소나무
##구곡
##정경
##정맥
##초리
##교주
##수단
##총국
##se
##에른
##인지
##전지
##감사
##임수
##득공
##폴리스
##틱스
한국광복
중앙은행
독립성
역사관
나무껍질
사상사
강화부
공사비
예술인
지붕틀
놀이판
290
##교육원
상징물
목조보살좌상
사자상
계약서
##ata
1729
태극도설
1836
##청년동맹
홍문관교리
1821
1829
군정청
1010
720
무관학교
1583
덧붙인
776
거북선
청원서
찹쌀가루
놀라운
국유지
속리산면
이홍장
후한서
성악곡
보천교
##여래삼존좌상
영등포구
양광도
불태워
명실상부
##대방광
선어말어미
신춘문예
리투아니아
퍼포먼스
감입
강장
강순
결렬
고소설
곡면
곤룡포
공권력
관무량수경
군이
권순
금란
김공
김녕
김흠
꿈꾸
논매기
다원
단시
닫집
답안
도련
돌검
동단
드려
드림
들인
등불
떠받
램지
리아
막히
말음
목책
물길
미팅
벗어날
부묘
사할
삭과
산진
성절사
세경
속관
송편
송혜
수매
숭례문
스펙트
시판
신료
신여
심산
심취
쌍용
야로
양생
양근
여항
역질
염송
엽전
오부
옥책
완질
완강
왜선
요강
용장
우기
우파
우여
월인
위령
은일
이당
이아
일성
자적
잠업
적병
제장
조강
조충
존숭
죄상
주색
주법
준말
중유
지밀직사사
창구
처소
청허
청명
최양
춘원
칼자루
콩나물
탄화
텍사스
표선
피동
하정사
향제
협성
협률사
혜소
혜산
황달
획일
효심
흥양
##유법
##스포
##드로
##행원
##트니
##현읍지
##부군옥
##대지
##총회
##OM
##ect
##농요
##파업
##타지
##심곡
##ood
##어법
##임자
##ff
##네마
##VD
##솔리
교육정책
보호법
229
영국사
공립학교
인해서
군수리
정조대
의학부
##orn
사례편람
바라볼
동북아시아
팔작집
1462
양주동
이인로
가문비나무
1747
1645
함경도관찰사
1819
쓰였으며
김창조
1428
비서감
대원수
군단장
포도청
아라리
아라한
1170
무너졌
삼각주
산학협동
청량사
김석주
북청군
달아났
느껴진다
확고히
성황당
우거진
주상절리
불어넣
분비나무
헤아려
깊숙이
타블로이드
홍경래의
노원구
막새기와
간송미술관
구좌읍
엘리자베스
당나귀
보헤미아
사할린
스펙트럼
KBO
Sch
ᄅᆞ
가경제
강시
갖은
개운사
공출
공직자
관위
광진
광성
광평
국부
궁원
금상
금서
꺾인
내경
넓혔
노략
노여움
농수
다다
단합
대차
대면
돌산
돌계단
뗏목
만상
망상
명리
명화
목기
박두
박현
박노
박흥
박필
배나무
북돋
불기
불두
사약
서약
선적
선화당
소기
소셜
소악부
수철
스와
슬하
시추
신소
신제
아차
안진
약술
양군
여하
역승
열편
열쇠
영랑
왕골
외채
요람
원권
월산
유광
음률
의경
의암
이통
이갑
이맹
인세
임한
임계
입역
잠복
잡곡
정색
제위
조실
조반
좌승
준장
중관
지그
직교
집적
차선
처남
청연
초수
초문
촉발
촛대
취발
쾌적
토마
통문관
파티
파련
패했
편사
풍미
프라이
하산
하식
하수도
해답
험하
현신
화도
회례
휴게
흩어진
##석등
##수염
##나와
##무처
##본원경
##주서
##십리
##매김
##TC
209
지방군
문화관광부
들어섰
제작진
305
학생회
246
방송극
올라온
농업용수
대동지지
통신부
이하응
체육학
인쇄소
의학자
1591
전환점
1602
산신당
1615
일상생활
1748
##ith
공작원
1445
차관보
개척자
저지르
##oll
향토음식
##기업소
증명서
유아교육
918
민족주의자
공조좌랑
##ime
진관사
경부고속도로
어우러진
변호인
장난감
백작약
##광복회
적개공신
총본사
멜로디
생몰년
싫어하
지중해
낱낱이
범우고
우란분
ESP
Girl
IT
가우스
갑술
강유
강북
건대
격감
경련
공의회
교안
교미
교설
구천
국통
굳이
궁주
권6
권학
규곤
낙후
낚싯
널문
노끈
농정
놓아
능원
대축
동림
두텁
두개골
랭크
로스트
루트
루수
리라는
마지
마마
마그마
모재
무릅
묵인
묵죽
물줄기
미혼
민영화
발부
배터리
법첩
벽골
변사
별록
복희
본말
볼셰비
북통
불당
불이
비형
사바
사탕
살창
삼경
서설
서브
솔직
송악산
술밑
승당
시월
식지
식견
악마
안위
안렴
어항
열병
영제
영녕전
오명
용안
잔디
장강
장택
재초
전옥
종주
주향
중일
중하
중영산
증별
지워
진척
진귀
차린
총석정
최성
친군
침례
타계
통간
특무
포털
포란
풀리
핍박
한우
한단
한서
함수
함주
해송
행행
현몽
호안
화평
환갑
후견
##종이
##두루미
##화진
##수력발전소
##해튼
##모어
##ire
##재사
##서기
##경연
##신서
##신문사
##덕션
##ug
##골문
##송이
##오른
##르몬
##메리카
##김굿
##녕부
##베르트
따라야
한국산업
부인사
집단군
공업화
작업장
그려서
식물원
혁명군
신도시
이기론
이기붕
조상숭배
341
성주굿
1853
1639
인기가요
1614
행해진다
서정성
1835
판결사
1673
1453
1448
1426
프리미
비서실
천문도
1573
생원시
고조부
푸른색
세종실록지리지
북동부
유진오
전북대학교
둘렀으며
여객선
장석영
수찬관
분기점
편수관
브루노
이범석
임제종
아세아
조선민족혁명당
점성술
거신광
##가시나무
##집성방
송광면
제갈량
구당서
벽골제
안렴사
Ad
CA
SA
th
가만
갈매기
건지
걸린다
계집
관룡사
군림
굴러
규암
금양
김운
꿰매
나장
단전
단변
단맛
대이
도절제사
돈독
동결
드릴
렀으나
말세
말명
매산리
맨해튼
명료
모국
모해
목주
묘문
묵호
문회
미진
배울
번거
병정
병든
보탑
부려
사뇌
삭녕
산남
산경
산발
산마루
생약
서령
소옹
수없이
순정
순군
스텔
승소
시자
시평
심이
쓰레기
아베
안석
안마
안감
알프
알레
앞둔
야심
여제
열수
영축산
옥류
온달
외숙
요격
운세
위전
윤태
윤광
을묘
이옥
이슈
익살
인방
일렉
입신
자오
작인
저어
전령
정결
정림사지
조야
찍힌
차가
창왕
최장
충고
치미
치인
치악산
친위
칼날
클린
토제
토너
통찰
트윈
파운드
파이어
판재
팔달
편도
평서
평북
품은
핵무기
현륭
혈관
호령
회가
회자
후부
흥복사
##유허
##세영
##가타
##동포
##록색
##구조
##정소
##국집
##안사
##미래
##OP
##장구
##ae
##ii
##비상
##클린
##그래
##합성
##겨레
##향사
##케인
##IA
##토미
##SC
##맞추
##홀기
고려공산청년회
한국식
한국과학기술
가지산
일부러
편집장
돌아간다
자유민주주의
232
반대파
기원후
대동단
자라나
##ence
가락바퀴
의무교육
네모진
420
금동여래입상
1752
이인제
정지용
1692
창녕읍
후원회
혼란기
문예지
1374
1424
저지른
1575
불사리
1530
소양강
채권자
안타깝
시루떡
대추나무
짜여져
서유구
대한독립군
연작시
수감자
군위군
홍익대학교
스러움
주성분
##무관학교
##동지회
유중교
아쉬움
목곽묘
##모란문
서초구
무라타
무량수전
해발고도
##정상회담
방약합편
그랑프리
ᄉᆡ
가네
강안
개서
거룩
게이오
계청
계책
고귀
곧추
괄목
국과
궁인
궁관
권업
권능
극한
극본
금송
나부
나병
낙농
난상
남파
내동
노주
다치
대현
대파
덕산면
도암
동교
동덕
됐으며
뒷지느러미
딤미
레지
룬트
리플
마친다
만전
맥문동
메나리
모바
무병
묶여
물색
반탁
반가사유상
배불
법통
변통
본영
북풍
불조
비망
비색
빈다
사거리
살린
서우
석동
석벽
센서
소추
속악원
손소
수달
수덕
수태
시아
시독
식성
심대
악행
애환
야영
약산
어랑
엄하
엎드려
엠마
연두
예편
예약
오희
온조
요망
요긴
우미
움푹
유월
유채
은덕
음독
이담
이곡
이혜
자가
재로
적전
점법
정준
조련
존명
중광
지현
지안
질투
초주
충만
취항
친교
탄원
탄로
탄환
통수
폐출
필기
한천
한랭
한호
향청
홍승
화차
황화
황족
흘림
##당초문
##유석
##소학
##대형
##패설
##미경
##공도
##공민학교
##조성
##무강
##마켓
##시티
##주거
##량리
##어록
##어쓰기
##거진
##르기
##선전
##팔수
##춘향
##베르크
##귀감
##Hz
조선임
기록물
##주의자
정치사상
행정청
군사학
편집부
216
내려지
보통강
현대그룹
237
프로덕션
262
고등공민학교
지배인
기독교인
재판관
수출액
법인세
동맹군
##ath
##ick
동래구
1782
1631
1632
1716
유가족
수신기
김수로왕
1675
고리대
##사사업
느냐는
1371
1380
개체군
의문점
흘러내려
김기수
총무과
모자라
공해전
신기록
논설위원
경의선
신임사화
야간부
제왕운기
그리스도교
통례원
상반신
감지은니
세례명
우거져
소용돌이
개태사지
군악대
하회마을
파시즘
도드라진
총지휘
Korea
운룡문
송상현
버무려
꼭두각시놀음
지화자
윤원형
서둘러
갈아입
샘프러스
남효온
속악원보
AM
SN
com
가림
가려서
갑진
강재
거동
거진
건기
견실
고복
곡예
교시
구불
국태
귀일
근시
급기
기양
김서
김낙
남행
납품
낭도
내선
논조
농과
능한
단석
단성사
더럽
도유
도병
등나무
만유
맛있
망해
매국
물권
미끼
민권
밀어
밑술
반문
밧줄
방랑
백문
베니
보경
보첩
봉헌
부교리
불성
불릴
불태우
비즈
사호
산방
선원사
셀타
속세
송지
수암
숙식
시단
쌍분
쓰러져
아쉽
악극
안대청
암기
앞발
약전
양청
양효
양회
여전
열세
오재
오딘
왕녀
외호
우지
우창
워홀
웹툰
유몽
윤덕
은전
을과
의방
일진회
입회
자최
자그마
잔잔
저렴
전민
제강
제인
조시
존스
주워
죽절
중판
지혈
지문하
진고
진제
징세
징집
참서관
창선
천구
천존
초충
초롱
총면적
총학생회
최연
추억
축척
충담
태몽
토질
토니
토요일
토월회
퇴폐
파탄
포백
풍성
플랫
하오
한규
항렬
해삼
행형
혜근
휴한
휴머니즘
##종사
##구니
##립교향악단
##공과
##추밀
##계곡
##계문집
##시위
##16
##주례
##프로
##언스
##야승
##레마
##급식
##협상
##권번
##빨리
207
사이토
정치사
관리관
자리매김
연대기
제주마
문학예술
과학원
226
221
234
238
대전통편
대동야승
가족원
공연장
가정생활
선교양종
부모은중경
동국정운
아무것
법원장
국방상
사우스
1809
1802
학부모
1757
바이에른
이종욱
쓰여져
1640
1690
1679
1814
경연관
김창집
정성껏
1576
통계학
합성섬유
기행가사
태평양전쟁
반야경
안보리
자장율사
우편물
스트레스
대한독립촉성
기다렸
성불사
튼튼히
어영대장
촛불집회
홍범도
에드워드
대내외
구한말
쓰임새
노량진
해부학
엇갈리
목단강
거문도
쏟아져
호림박물관
향음주례
왕수인
은평구
##해상국립공원
손진태
횡구식
무릅쓰
모바일
##추밀원사
SS
가망
가천
가학
가내
강탈
게을
겸손
경첩
고토
공기업
관법
구관
국인
군적
굳건
규사
극기
급변
김달
깨뜨리
난다고
남장사
낭사
녹지
다식
단호
단련사
대롱
도산면
동한
둔화
뒤덮
리가
마법
막연
만점
명암
모성
모실
목동
무위사
문책
받친
배화
벨라
변제
병들
복명
본보기
봉림사
부단
북관
분개
비보
빌미
사판
사르
산등
삽교
상조
새천
생지황
서평
소시
시안
시문학
신일
신응
쓸모
암리
앞다리
애석
양모
어쨌
었었
연건
예맥
오려
오만
외짝
유거
육진
육박
육의전
윤필
음색
이농
이을
일례
일출
임해
입찰
자청
장선
저온
제실
조순
존양
존슨
종현
종경
주니어
줄지
중초
증면
직파
진용
진안군
질감
집무
처진
추락
춘양
치어
친림
콜레라
탐학
탕건
팔상도
패관
피츠
필로
합포
해경
향임
허황
현토
혜화
혹시
혼유석
홍역
황상
황준
##당간지주
##상공
##부기
##부동
##정집
##정토
##식주식회사
##조사사업
##척식주식회사
##이치
##평론
##요리
##양각
##연대
##봉리
##야스
##직설
##감제
##취타
##백관
##킨스
##엉이
고려말
그리움
이나마
지역민
아니한다
국민대학교
국민투표
편집자
떨어뜨리
옮겨서
찾아왔
부정형
동양극장
##ort
보장왕
1406
산신도
식품위생
1806
허리케인
1749
대조영
1698
집권자
수신사
1822
1456
합쳐진
보상금
1738
향약집성방
기상청
호조좌랑
박영희
광물질
간호학
공조정랑
아스널
다름없
이슬람교
동대문구
정순왕후
##이오스
김택영
##무공훈장
순치제
을유문화사
선재동자
우체국
집어넣
죽간자
마누라
로트너
미완성
새천년
Ac
We
et
가필드
간화
간반
갑주
개산
걸인
걸어서
검출
격분
고해
고과
교창
교계
구고
구료
군상
군직
김포시
깨지
난중
납석
납채
놓치
다의
단주
대무
도하
독학
동적
두뇌
뒤떨
로로
리비
마타
면리
모병
목공
무보
무색
무어
무찔
민유
방기
방망이
백설
별미
병산
보드
본의
봉교
부스
부이
북학
분말
비싸
사현
산법
상진
석경
선학
선림
성음
소진
송수
쇠붙이
수이
수개
수릉
숭어
승보
시술
신풍
앉히
애플
액막이
여씨
엿보이
예사
오우
요순
원색
유예
육사
윤휴
으시
은자
이타
자지
자개
잔털
재동
재회
전운
조면
조미료
죄업
주정
죽일
중치
지후
집성
찌꺼
차일
찬의
창세
창신
청운
청담
촉매
춘분
치부
칠원
칠하
칼럼
터서
토심
퇴색
티켓
파계사
페니
폐백
학승
행영
향각
허난
형광
혜민
홋소리
홍조
홍릉
환궁
후편
휘호
힘쓴
##유키
##민당
##지원
##부전
##국화
##초고
##도로
##조목
##문전
##아치
##예프
##윤리
##분별
##직원
##IS
##르타
##할머니
##외과
##선원
##선무
##표지
가지런
간행본
기관사
217
219
236
부인회
금강사
함경산맥
연합국
경성군
통신원
목조관음보살좌상
교통국
외교부
장수군
입학식
김영수
법인체
불러서
태평성대
##ise
광산구
표준말
1841
원효암
1619
475
1837
1662
유성음
1826
672
중서령
제물포
1546
자산어보
강서구
안중식
남구만
옥타브
솟아나
히데코
효소왕
앞세워
작은아버지
하반신
봉선화
거류민
스마트폰
망월사
홍무정운
##선생문집책판
게르만
피지배
유타카
덕혜옹주
탐관오리
##대방광불화엄경
송혜교
현륭원
찌꺼기
DVD
MI
Tr
각오
감은
건네
검지
계좌
계백
고두
고동
공리
관악산
광기
교가
구본
기경
김황
남공
능했
단학
단엽
당서
대영
대언
도부
도단
도창
도강
도맡
등전
로회
로큰
만자
매운
매독
메스
모노
목자
무산군
박충
뱀장어
변려
별서
별궁
병관
부파
북원
분관
비싼
뼈대
사칠
산야
살구
삼동
서늘
석담
선시
섭렵
소제
수꽃
수제자
숙원
순검
술어
시게
시폐
실생활
심통
쌓이
아수
악서
안겨
양위
어스
어순
역가
역신
역주
영속
영아
예론
온전히
왼팔
요미
우이
유체
유원지
유예지
윤자
윤효
율관
은나라
음직
이군
이환
인년
장절
장과
재연
전거
정함
조호
조별
종소리
주당
준용
증수
진포
집의
체급
총연장
충군
칼리
파면
펴내
폼페이
피선거
필체
하숙
한민
할인
해례
해면
헤라
헬기
혹독
홍언
회통
##유해
##부주
##자매
##총동원
##장정
##의병
##흥학회
##신왕
##삼각형
##항일
##하이머
##헌왕후
##쿠버
##토스
##매일
##룡리
##러브
##SA
##녹주
한국교원
관리인
북한산성
통일전선
국제기구
222
265
292
후보지
기계공업
동국이상
미륵사
사우디아
의료인
주자소
##ical
551
아미타불상
학습서
1611
430
1706
440
돌려져
번식기
보상화
김동진
김동욱
소화기
1485
응시자
수비대
농경지
##삼존도
반야바라밀
까치구멍
조부모
안양시
끊임없
경부선
신속히
도솔암
##apon
대주교
통역관
융기선
금정구
호법신
간신히
박보검
불러일으키
후쿠오카
적십자사
살풀이춤
마의태자
판도판서
진시황
카운티
##전보국단
해식애
새마을운동
좌명공신
지증왕
외삼촌
한국광복군
노략질
조선임전보국단
로큰롤
피선거권
동국이상국집
NH
Ph
가온
강윤
개역
검은
겸용
계간
공가
광목
괘서
구라
구글
군경
굿당
궐기
귀금속
규슈
금난
급성장
긍지
기현
김아
나날
냉동
노영
노숙
녹화
니시
다룰
다든가
대초
대운
대피
덕대
동민
동평
동녀
두통
둔갑
뒤지
들보
레슬링
리즈
리라고
망우
멍에
명작
명쾌
모진
모감주나무
몰라
묘목
무거
물시계
박석
반통
밝기
방손
버지
법보
베껴
별사
병란
복천
봉산군
부신
분대
비닐
빈궁
서라
서발
선회
설주
성책
성매매
세마치
심할
심광
아음
아득
안우
야전
억지로
역행
영돈녕부사
예명
오윤
외기
외침
원두
원오
위헌
응징
이월
작대기
잔인
잘려
장윤
적시
전황
전언
전멸
점자
정백
좁쌀
중구역
지카
질책
징용
차체
처첩
천현
철물
청수
추징
출제
충칭
치음
친영
친한
코오롱
크로스
타국
탐정
터진
파벌
파묻
패퇴
하서
하백
합사
해룡
현악
형산
혹평
혼백
홍윤
화계
힌두
##30
##석불좌상
##미르
##장고
##군관
##영문학
##간토기
##만고
##노소
##예진
##합일
##거름
##티움
##난고
##릴라
##즈미
##맹선
조선미술
대한통
고려조
한국교육
대학자
정부군
세계유산
255
경주인
내려다보
보호관찰
그런가
종교학
최고봉
272
올라서
##ert
가정의례
공신녹권
우주선
흘러들
336
성균관대사
미륵사지
의학박사
전사자
중대사
영어영문학
마애여래입상
##ate
1408
1621
장애물
예산안
복합어
유기물
의주군
1429
원자로
부활절
잡혀가
금관총
통사론
박세당
용담유사
원활히
슈퍼마켓
막내딸
무수히
제철소
성동구
아나키
석관묘
도요토미
신통력
타블로
홍석주
트로피
에르제
시드니
이능화
총생산
김평묵
충목왕
파련대공
토너먼트
성균관대사성
MV
ᄃᆞ
간대
갈비
거장
거경
거센
결당
결손
경미
경략
계이
고학
고갈
고결
공국
광서
굳히
굴리
권용
권희
귀얄
기의
김백
꺼리
꺼려
낙지
노진
노니
놋다리
눈동자
단수
달천
담담
대봉
동치
동파
두타
딱지
라우
레인
루타
리유
링고
마황
마그네
매번
명두
목가
바뀔
박응
반당
발한
방방
방귀
배위
베어스
변진
별초
보계
보각국사
복고
부황
부벽
분쇄
불멸
비원
비법
삼선
생포
석씨
석면
세전
소치
소교
소씨
소염
쇠가락
신칸
실향
싹트
아첨
암흑
양당
양경
어질
언저리
업보
역상
열풍
염장
오다
오리지
옥동
와카
외편
용납
운제
원우
윤종
윤황
윤병
응회
이끼
인로왕
장세
장말
저마
전군
전관
젖소
좌향
주작
주말
중로
중한
중흥사
즉사
진구
진묵
찬문
참최
천금
초벌
촉탁
총격
추록
출국
충동
치를
큰고래
태릉
탱자나무
판수
페이
포자
풍운
하차
한바탕
한겨레
해심
향례
향연
헤드
헤아리
회암
회답
후리
흘려
흙벽
##당동
##고등
##드르
##포면
##기무아문
##부여
##치사
##안도
##원수
##나루
##성단
##ix
##시고
##신중
##타고
##타라
##문록
##문안
##절벽
##아나
##아전
##주교
##복사지
##금동
##용언
##어머니
##래스카
##yl
##칠리아
##즈키
조선신
조선연극
나타낼
문화방송
생산품
전문지
국립현대
증손자
대구시
227
285
반대편
옮겨진
분류학
민간단체
대성산
고등문관
대장간
무신란
목조여래좌상
##기념관
1399
비로전
풍속도
도리천
남녀노소
금속제
1622
연장자
조치원
1460
1411
1616
김성태
이인임
1703
개화당
부상자
1714
사헌부집의
태어났으며
애국지사
느냐고
1734
주류성
##라이나
덧붙이
크리스티
못한다는
조용필
형조정랑
김연수
휴전선
강서군
##ide
내장산
나뭇잎
쫓겨난
물레방아
일지라도
청화백자
하인리히
안악군
이형상
수미산
활엽수림
통리기무아문
후쿠시마
기적비
가자미
균역청
화염문
박달나무
활주로
금령총
변증법
킬로미터
염라대왕
도쿠가와
임헌회
제용감
당뇨병
##행원품
트윈스
사우디아라비아
서라벌
오리지널
국립현대미술관
고등문관시험
It
al
ᄠᅳ
가석
가획
갈근
강창
강개
강철
격지
경군
계방
계후
고은
고운사
곤양
관저
광천
괘상
구르
군지
굴레
그레이
극성
근방
기다란
깨우치
꺾여
내통
내셔널
널려
논다
농법
다발
당형
로고
리비아
망양
모스
모찌
묵상
미녀
민비
밑둥
박명
발랐
방파
방점
배산
뱃속
버림
변례
병무
봉성
부국
비누
빈부
석함
선반
세아
소담
송경
수임
숙부인
습합
시에
쓰러지
아교
안태
약국
양녕대군
여각
연달
영중추부사
오원
오태
오채
온난
왕상
우드
우계
워크
월계
육묘
율사
음란
응고
인단
인양
임학
임면
자회
자헌대부
장렬
장덕수
재력
쟁이
전창
절첩
정극
좁혀
좌전
줄무늬
지황
지곡
지묘
진소
진취
착각
참군
창랑
채상
철분
청기
총망
총력
축관
코어
테오
토루
포화
포목
프톨
피치
피카
학행
향년
현사
호출
화토
효열
휩싸
##사원
##사성
##민턴
##지변
##부대
##부패
##부법
##군도
##ius
##으리
##순위
##만화
##운룡
##문덕
##찰음
##복령
##향악보
##삼불좌상
##외국어
##갈매기
##내면
##목어
##밀리
##검열
##폭력
##네트
##벨트
##잣밤나무
다시금
유형원
이용구
행정가
행정법
국제공항
내려갔
231
239
최고위
부정부패
대중교통
러시아어
유리구슬
판매업
사자암
김영한
##ale
출발점
##ice
연장선
보건소
고기잡이
1641
이재명
1270
1425
종친계
데이브
취지서
927
이병철
정인보
1565
상임위
이의민
스케이트
치우친
단단히
데려가
##사령부
좌수사
첨의찬성사
스러워
유관순
방풍림
수형자
반월형
괴롭히
마천령
커뮤니티
마르크스주의
신이담
시용향악보
총융사
동성애자
일깨워
공청회
윤두수
홍대용
조선혁명군
박신혜
최세진
은밀히
구심점
주계열
강일순
##진보당
향당교주
양유찬
휘두르
##레마이오스
중치막
신칸센
총망라
프톨레마이오스
DJ
EC
My
SC
TH
가소
가출
간인
감나무
감은사
갑각
결수
결본
경식
고희
고티
골각
구스타
국명
굿청
기신
남안
남다른
내민
놀란
누하
단형
단문
단애
달솔
당포
대몽
덕치
덕담
두전
들쇠
레크
리요
만조
모현
몽둥이
문동
민애왕
박학
법천사
변강
복문
본도
본적
붙들
빈농
사언
살라
상피
선덕왕
소가
스콜
시연
시녀
신집
실감
쌍봉사
아뢴
알린
앞날
애절
약리학
억양
엇모리
연담
연과
온실
외경
요로
용상
용마
울림
워낙
월정
월급
윤인
을사사
이분
인준
인평대군
일류
입향
잊혀
장회
잭슨
적지
정탁
정암사
정어리
주발
주걱
중진
지산리
진에
첩장
청원군
체온
총판
출구
층층
태장
트라
파하
펜싱
하연
하옥
학조
한음
항시
향도
향신
향회
험난
호가
호동
황장
회중
횡성군
후안
흥취
##종법
##가비
##소비
##자족
##공명
##중국
##az
##ach
##hn
##허리
##달나무
##개명
##다운
##로워
##간접
##양도
##양반
##생경
##운부군옥
##문경
##페르
##태소
##훈도
##집권
##프라
##병창
##어드
##별장
##익위사
##하이
##pt
##키스탄
##격대
##핵화
조선혁명당
그리워
서울올림픽대회
표현법
관리사
국립부여
대회장
지원자
프로모
이해조
가리온
문화재관리
놀이터
대동운부군옥
계승자
##위원부
연기설
325
거주자
동양척식주식회사
세자익위사
문하생
수리조합
재배법
사천시
390
오르내리
항공사
1685
고쳐서
530
돌려서
1742
신장상
##어사전
라이언
1437
으려면
680
김창흡
김동리
이시애
850
조형물
암석해안
관상용
하층민
박문서관
구부려
무한도전
파생어
정간보
진성여왕
부제조
고이왕
반가상
무공훈장
육영재단
남서부
이소선
정정렬
바닷물고기
총사령부
불러일으켰
##통상사
강대국
다방면
뒤따라
자급자족
신익희
패러디
홍계희
Korean
군법회의
가물치
파계승
##자유당
문소전
청련암
홍가권
독과점
근정훈장
볼셰비키
게을리
요미우리
을사사화
입향조
국립부여박물관
문화재관리국
One
가이
간과
갈기
감호
감결
강했
경소
경조
경각
계략
구재
권점
극명
금장
길놀이
김책
꿀벌
난립
난입
남작
노소
노산
누진
늘이
니켈
다거나
다람쥐
대찰
대오
덮인
도저
도독부
동악
마산면
망한
명물
모포
목간
목탄
무로
문굿
뭉치
미지
배비
배꼽
백선
버릴
벌교
보법
봉의
부의
부침
사카
산형
삼채
상거래
석권
세고
소토
수제
순음
순박
스커
슴베
시파
시효
신무용
심심
아아
안문
알현
야담
어군
어쩌
엔드
연려
영각
예겸
오로
왜소
욕실
원무
이요
이변
일변
임씨
자랄
장초
재빨리
적산
전능
정위
정옥
정처
종질
종인
좌복야
중리
중봉
증감
지폐
찬동
창평
천식
청파
체형
초공
초토
추쇄
친경
카스
크림
탄수
토벽
통장
판이
패옥
평시조
하노
하얗
해자
호르몬
황재
황철
황록색
회흑색
횡간
효부
후행
후처
##스카이
##퍼거
##리자
##두령
##보석
##월도
##대감
##정벌
##국방
##도호부
##조나무
##바키아
##개헌
##재의
##그물
##릭스
##오경
##광기
##런트
##짐승
##첨지
##독서
##릿대
한국기독교
운동자
중심인물
기술관
이용한
아래턱
생산지
목적어
남북정상회담
돌아다
민주국민당
인정전
현대시
##중앙협의회
267
##문학관
선거관리위원회
통합진보당
가까웠
화엄사상
서양인
도로망
전자계
전자공업
바위틈
가을철
소유주
병원장
장수왕
우수영
살펴본
삼성그룹
##ish
신학문
문무백관
고려사절요
512
보리수
서명응
칠성탱화
##민속박물관
##민속예술
1450
귀신사
계몽주의
신성시
1737
증거물
1447
김동인
동인도
공로상
이병기
저작물
도장방
정경부인
강화도조약
정재무도
##삼존상
긴급조치
김원행
주일학교
예문관제학
##영화제
김천일
1216
열반경
다이빙
##드라마
개헌안
외손자
아스퍼거
장진강
오위장
절실히
위안스카이
신유박해
기암괴석
히데요시
토관직
지제교
김안로
정음사
제중신편
표훈사
에헤야
흑룡강성
배드민턴
청금록
홍양호
도투마리
양키스
김아랑
버지니아
방파제
정재무도홀기
MC
가교
가릉
가했
가다듬
각석
간찰
건널
경락
고군
고열
공성
관요
그어
나사
난장
날렸
남제
남촌
넘겼
노두
노화
노바
노복
누런
눈치
뉘우치
다정
단역
대보살
대취타
더늠
덕천군
도류
독실
둥우리
마소
막걸리
망부
매호
매카
맨다
명숙
몰입
몽유록
무록
무승
무열왕
무분별
물으니
미움
반수
반제
반절
발바닥
방공
방짜
백미
벙거지
벽석
보세
보승
북천
북변
북촌
분속
불모
빙자
사나이
산파
살대
상두
상행위
생질
생황
생과
선캄
송산리
수봉
신가
심수
심주
심원사
쌍계
쓸쓸
안티
알래스카
암괴
애완
어종
어여
연임
오공
옻나무
완자
왕유
외위
외문
우곡
원면
월당
위관
음지
응양군
의역
의한다
이매
익종
임석
입면
작아
잡류
장우
적심
전연
접두
정회
중임
지보
집전
차라리
참하
채점
천보
청곡사
초두
촌의
총동맹
추도
추야
춘당
칼륨
케네
태위
터져
토크
틈새
파스
파여
펄프
편승
표문
풍광
한치
한발
할수록
함장
혁거세
협재
호랑
호란
홍삼
홍난
화요
환성
후음
휴지
흐트
흥천사
흥법사
희빈
##리우드
##구급
##국악
##수용
##평동
##니티
##라이트
##재계
##인간
##서사
##림동
##노리
##타이어
##불명
##훈대부
##송정
##그레
##터널
##별신굿
##슬레
##슬라비아
##십도
##발트
대한적십자
한국군
사회운동
아니리
작품상
나무판
##보살반
부산항
248
대구사범학교
부사직
전해온다
문헌상
##ere
부정기
재산세
기독교대한
시조창
둘러서
건국훈장
도리깨
불렀으나
무당굿
만세루
신학자
왕자의
공공복리
단편집
1838
1663
460
1642
1696
자치구
1378
수명장수
본존상
입법부
서화협회
1580
유고슬라비아
1172
못한다고
이산화
치안유지
소상히
풍수설
민영환
##개발계획
을지문덕
칠정산
장진호
페르디
##age
이뤄진
황성신문
대보름
찾아와서
브리핑
천재지변
가락국기
형사소송법
시천교
클래식
아인슈타인
중편소설
##산수화
소격서
구청장
광한루
외야수
유라시아
홍길동
바오로
콘스탄티노
##경연대회
무승부
치안유지법
FM
japon
강현
게릴라
견우
계신
고형
고심
곡옥
곤경
공초
공진
곽영
관본
광정
구화
구만
국원
군창
궁의
권응
권투
귀여
김춘추
날문
내금강
냇물
냉정
넘긴
노국
농현
늘렸
능행
단벽
대대장
도암면
독수리
동암
두드려
등고
등본
등주
래퍼
로망
루마니아
마셨
막하
매안
명산대
모독
모내기
몽유
몽금
묘도
물방울
밀수
백가
버튼
별기
병명
봉명
북정
북조
분전
붕우
빈틈
빗대
사해
사만
사온
삭탈
산적
석화
석순
선위
섬겨
세거
소래
소극장
숙인
순창군
숭인
승도
시애
시어사
시칠리아
심연
안영
안희
양해
양신
어다
여미
연곡사
연통제
열흘
영순
영실
예보
오크
옥저
와전
와일러
왜학
욕설
우통
워너
원기둥
위용
유빈
윤공
윷놀이
음복
이디
이칭
이광사
임춘
작풍
잔당
잔재
잡종
재치
전아
제동
조밀
조침
좀처럼
준칙
지교
지서
지심
지산동
진호
차세
채웠
처인구
척신
초중
총림
총묘
총영사
최덕
카툰
키스
타석
타관
탈바꿈
탐진
토굴
통시
통혼
파크스
편술
평문
푸시
피질
피워
학규
한란
합니까
향료
헤어
현각
홀기
화생
환조
황신
황련
회생
휴교
##고개
##기능
##지법
##정계
##교관
##도가
##중기
##이니
##나간
##무선
##성전투
##iel
##인력
##형태소
##비치
##제강
##양산
##15
##예문
##주제
##어물
##변이
##메랄
##김없이
##입술
##광수
##난간
##러움
##휴학
##첨절제사
##둘레
##찌개
##펜젤
##핵사
##셀로나
##견록
##잣집
지방재판소
정치권력
254
음악학
대상물
머리말
교통수단
올림픽경기
##ary
372
동맹휴학
김대건
이이명
주자어류
김일손
##회의소
보름달
642
1758
수요자
교환기
1717
유성구
홍문관수찬
바르셀로나
감리서
장로교회
1423
빼앗겼
##olog
참전하
가야금병창
1588
860
부채꼴
농가월령
늘어뜨려
유희춘
해수면
##카이도
육상경기
평탄면
귀양살이
##개발원
장경호
##한국학교
인왕상
김주원
##선거법
##화학공업
뮤지션
반역자
나아갔
아가미
양금신보
파시스트
진달래꽃
##여래삼존입상
맞아들이
에워싼
하지원
무르시
##도서주식회사
지청천
간이학교
윤두서
New
내물마립간
수어청
##교섭통상사
석남사
극예술연구회
판장문
굉장히
염상섭
추신수
가만히
스텔라
인로왕보살
페르디난
##펜젤러
GP
각수
각형
간명
간언
감마
감귤
건과
겨냥
경건
경차관
고풍
곰팡이
공후
곶감
괴이
구독
국연
굴욕
귀거래
그을
그랬
김산
껍데기
끊어진
나철
남류
내보
노사관
녹과
논공
높인
단념
달빛
대합
데일리
독소
동소
동그
동독
드럼
레스
레저
련주
막리지
모난
모조리
목청
무격
미선
미친다
밀제
밀생
반룡
발색
방콕
배소
배지느러미
백담
버나
범행
법손
별급
병석
봉어
부치
부중
부병
불쌍
불발
비핵화
빼내
뿌린
산제
상술
색감
생멸
생달나무
석창
선성
성창
성각
세마
소명
속오군
송윤
송설
수유
수채
순식
순영
시한
시말
신우
신리
실백
쓴다고
안지
암키와
압해
았었
애슬레
약장
어염
여온
열망
엿기름
완문
외로운
외목도리
용출
용양
우인
원의
위판
위선
윌슨
유음
유머
은총
을축
의구
의론
익대
인일
잊어버
자른
작년
잠기
장류
장장
장혀
전골
전량
전객
절요
접할
젓가락
정파
족제비
종명
집록
징표
차록
찬집
참패
처신
철촉
청류
초립
최호
최희
축산물
코프
태운
태고사
터주
통전
투여
튀코
팽팽
평준
포럼
허영
허여
현조
형옥
호공
호명
황동
효주
흑사
##고추
##45
##석희
##지남
##수소
##해자
##해양
##rom
##에너지
##니스트
##재비
##파이어
##청문회
##터스
##용성
##거미
##십육
##데르
##녕사
##틸렌
다가오
사이클
중앙집권
경제개발계획
사업체
249
토지신
부사과
프로세서
275
올라왔
프랑스인
드러낸다
동지돈녕부사
개성유수
인사청문회
비로봉
인쇄술
기자재
무용수
세조대
남녀공학
우승자
지난날
1807
1419
1756
하사관
라이벌
해산물
1011
1451
1471
통영오광대
사사로이
이시영
인공위성
1519
국조보감
수확량
김태희
고증학
민정중
시화호
롯데월드
관개용수
도총부
새우젓
브라운관
현왕도
한테서
부민관
도마뱀
해조류
측우기
돌연변이
방추차
##언어학
떠내려
가덕도
사리장치
황초령
노서동
##애국부인회
유필영
윤백남
EXO
갤리선
창씨개명
어쨌든
여씨향약
가석방
홍난파
노사관계
애슬레틱스
AR
BP
En
Su
가름
각료
간의
갈마
강돌
개암
건학
걸식
격변
겸했
경오
계품
고축
곽산
관도
괜찮
교만
구걸
국판
군보
권진
권면
귀두
금척
급급
기실
김훈
끝자락
남재
남발
내편
너울
넘나
녹나무
논박
농암
느슨
다마
닥나무
단명
당비파
대충
데라
도경
두목
등제
띄어쓰기
러브
마카
막아내
만선
매염
매끈
면부
명중
명량
모루
목통
못자리
무스
무쓰
무열
무아
미모
반개
반승
방부
방생
배필
법복
별단
병충
보각
복서
본각
불서
불온
비열
뽑혀
사노비
삭감
산속
산판
산곡
살충
삼태
선단
설행
성시
성병
세보
세르
소질
속옷
송달
수강
수배
순도
숭유
시고
시김새
쌍여닫이
악부시
안처
안시성
앵커
어시스트
언관
업경
없앤
에로
엘리트
연표
염분
예참
오종
오군
오묘
우복
운곡
원비
원간본
육방
율무
응신
이랑
임선
임목
작아지
장목
재보험
저소득
전석
전청
전륜
절지
제서
조록
존심
중고기
차서
차범
초감제
총살
추려
추궁
축삭
출몰
충장
친자
키로
터빈
퇴위
트림
틈타
평사
푸조나무
품앗
하일
한독
한의사
함지
형량
호인
화과
화백
히토
힘찬
##은문집
##36
##정유고
##수다라
##공제
##원부인
##무당
##순절
##실험
##파천
##론소
##호적
##운서
##불이
##아먹
##주자
##주거지
##복지부
##ment
##ym
##ET
##백가
##돈나
##렉스
시대상
고려공산당
교육감
지방의회
세계사
문제삼
기술혁신
불교가사
자연사
전문직
부산포
강화읍
현대인
세력가
286
282
연주법
만주족
학술회의
연기력
##ind
##ance
지장사
시집가
성주신
형제자매
문하평리
사라진다
밝혔으며
전환기
호남읍지
네모나
생겨서
1504
1465
1468
순수문학
농사직설
1833
강희안
라이블리
의주로
정서법
1476
평론집
분화구
세포이
호조정랑
반야심경
크리스티나
내려와서
다락집
천리마
고부조
문하시랑
합각지붕
##ational
기질지성
천마산
잡직계
한탄강
김만중
강동군
어획량
식년시
남이흥
간척지
태백시
국산화
굽다리접시
남아메리카
노수현
조교수
튀어나온
강산제
트랜스
일깨우
난이도
카운트
파트너
자부심
요코하마
심부름
크라운
측우대
무찌르
##리지석묘군
극소수
ISO
대홍수
액정국
동짓날
##기본법
가솔린
프로모션
도저히
품앗이
AT
Car
가화
간파
개회
개과
거라
거품
걸맞
경외
계첩
고라
고노
고베
곡부
관비
광활
구동
국당
궁터
귀결
근역
금갑
길일
길주군
김고
김가
나말
난전
남전
남생이
내해
냈으며
논고
논리학
농간
누스
단인
달력
당무
대림
디딜
마령
매리
면할
면직물
명안
명군
명심
모꼴
목축
몸집
몽학
무태
문충
바루
박장
박한
박격
반촌
발길
발심
밤새
밥상
범벅
법경
법흥사
벙어리
별상
병졸
보스
보경사
복도
북도
북어
분분
비관
산주
살생
서변
선의
선천군
설음
설선
성환
성직
성거
세움
세피리
소두
속주
속전
손톱
송천
승록
시냇
신갈나무
싸인
악절
안인
안흥
암소
암꽃
앞길
앞머리
어조
에인
에런
여조
여명
엽록
영건
예송
오진
오비
옥산서원
왕벚나무
외전
외반
용소
우현
월하
위업
위나라
유금
유득공
자은
자혜
자못
장모
재부
재식
전유
절급
정력
졸곡
좌창
주격
중금
중찬
증정
직공
직조
진왕
진각국사
집시
참령
창종
천적
청석탑
추성
친견
카자
콜롬
크리
탄자
태천
퇴학
특화
특효
패강
풍농
피혁
하세
하경
하키
학산
해로
행자
허사
혈족
협업
형지
형수
형전
형이상
호마
홍치
흑점
흥겨운
희로
##당겨
##포동
##민사
##남문
##도스
##OU
##장소
##이라
##성불
##달산
##순수비
##비리
##연수원
##회상도
##클스
##레스트
##오제
##져야
##탄면
##토지
##풍경
##목록
##혜왕후
##ke
##브르
##혈사
##블랜드
한다며
한국방송
운동사
문화예술
기술원
단체전
국민의당
보인다고
전국민속예술
국제통
사랑가
노동법
자유자재
토지조사사업
오른다
부여군
298
##ern
가정법원
315
지구당
이동면
전자공학
323
##ord
선발전
##ict
동학가사
1687
1365
발원지
보건복지부
##미술회
647
신경준
540
달라질
##산사고
보였으며
고성오광대
징역형
1431
해동가요
1422
국악인
##old
알려졌으며
어사대부
935
1481
동성왕
권위주의
오사모
악장가사
지방자치법
상속세
예문관검열
1217
감염병
##인민위원회
발라드
선인장
칠보산
엄지손가락
경무청
##ung
리얼리티
##무용단
신천지
안면도
플라톤
재수굿
##리에이션
싸웠으나
세도정치
버려진
성학십도
일각문
진부면
##다라니경
평상복
범람원
귀갑문
클리블랜드
##포도대장
양로원
봉상사
음수율
로맨스
드래곤볼
허벅지
연건평
MVP
연려실
##구급방
전국민속예술경연대회
ladies
single
가급
각신
간곡
간다고
감본
감산사
개표
건수
건위
격몽
견습
경암
계미
계장
고법
관촉
광흥창
괴뢰
권7
근정전
김매기
끊기
끝낸
남영
농심
농아
놓인다
답서
대범
더한
도임
독신
디오
레논
매질
매겨
모주
묘탑
무임
문두
문초
문판
미스
민부
민첩
민머리
박민
박락
배종
백구
백파
벽상
변했
부성
불국
산석
산불
산가지
서곡
선다
세세
세초
소판
소복
속설
손색
수각
시회
신천군
아쟁
아펜젤러
안라
앙부
양강
양문
에클스
영원사
완구
외벌
용적
용암사
우락
운흥
웅대
월례
유키
융화
융복
으신
은연
일임
자활
자칫
잡신
장공
장직
정천
정량
정맥
제소
조본
조응
조르
좌리
좌보
좌주
주유
죽도
중죄
지천
진두
진솔
진덕여왕
집들이
찬방
참례
청석
초학자
최문
출항
측후
칙명
카디
칼집
테일러
토하
트래
팔만
폐광
표장
표어
필립
하가
하소
하방
하르
함몰
합용
햄릿
행기
행전
협주
혼혈
황현
황원
흑단
흑선
##기록
##석리
##지장
##자수
##도절제사
##공보
##조례
##중찬
##장지
##창작
##의거
##니라
##볼라
##파니아
##비록
##비둘기
##LL
##열반
##주머니
##케이
##곡절
##ID
##게임
##토록
##묘출토
##삭대엽
##숭록대부
##렛당
##렉션
##궐기
##룻배
한국음악
교육장
신라기
중심축
조사선
통일성
국민문학
기념장
장식물
민주자유당
지원금
민속악
국회의장
가사집
양성지
환경영향
##레이드
가정폭력
318
한성준
부대원
도로는
도로변
324
연화사
##조선사
특정인
채색화
사우루스
375
충주댐
동학사
금동보살입상
554
##대사탑비
##대장도감
1843
당초무늬
663
470
밝힌다
보였으나
놓여져
집권당
진보당
1810
1274
선원록
경관직
1440
1478
사서삼경
사사로운
종친회
모셔진
김기식
1553
1550
대단위
김경수
한산주
혼례식
가득히
살아온
이덕홍
수익금
이희승
##민족행위
강계군
끼워져
농지개혁
유력자
다이아
조병옥
재물보
충성심
정국공신
가상현실
만수무강
호흡기
김희선
남사면
순흥면
도래지
남조선노동당
소중히
드나드
삼강행실도
부귀영화
정희왕후
분사대장도감
이충무공
맞춘다
##정보원
##화기금
사향노루
묘정비
##제일고등학교
음양오행설
##고적기
정충신
빅토르
마니산
과학기술처
백록담
남근석
취체역
##봉수대
맞물려
독로강
SNS
한국교원대학교
이디야
카자흐
국제통화기금
환경영향평가
Cr
JT
La
Mr
MA
TSP
re
가조
각판
간자
간독
강독
거둘
고른
공은
광둥
광견
괴목
국의
궤장
금위
김려
김매
높일
다대포
단경
단막
담비
도치
도이
도신
도선사
동류
동현
라그
론가
료의
리오
린다
마돈나
만신
만입
메트로
면학
명유
명도
몸가짐
무업
무토
미산
민치
밀고
박혀
박서
박호
박홍
박녹주
반혁명
방류
배일
백강
본령
부업
분무
비분
사섬시
삼소
삼년
상재
상명
샤이니
서익
선모
성례
세칭
소포
소천
소회
소액
속국
손예진
송당
숙직
승복
시름
시냅
식자
신활
심역
심했
씌운
악업
안당
암모
앞채
양길
어은
어패
어부사
언사
업데
에라스
역자
연제
열목어
영송
예단
오므
옥상
용동
우묵
원산시
유여
유건
육화
윤제
윤색
으레
응방
의신
이예
이브
인리
인습
일목
임창
입조
자류
자반
저당
적기
적법
절연
정거
제감
조라
종국
죽순
지변
직시
차린다
참혹
채인
척결
천한
철선
최지
추보
친잠
침상
클레
탑명
택한
통통
판옥
팔린
패주
패권
풍덕
피라미
학전
행패
화파
회기
후창
##사적
##포구
##세고
##가을
##현궁
##부미
##보국
##수영
##루트
##도원
##해방
##모스
##질토기
##che
##영당
##강리
##제철
##만호부
##13
##태도
##집행
##송사
##살촉
##겨울
##어문
##코토
##충류
##녹색
조선불교
한국고
조사당
이용우
통일안
국민부
특별활동
생산액
전쟁터
이유원
264
268
261
273
가르칠
세종대학교
경성사범학교
주목적
312
##교육회
355
모여드
군대해산
김정숙
금융조합
비로암
열린교육
가락지
1595
통제영
동북아
소비량
산신령
남한산
904
640
지장보살본원경
민주주의민족
실업가
651
정주영
1823
모음조화
선원전
1379
조국통일
1381
실무자
실정법
시왕도
의존도
영웅소설
1488
감찰어사
포도대장
들여와
이준경
##왕릉비
안산암
손해배상
창호지
대덕산
일어서
되돌아가
이태준
선각자
##ult
화문석
베르토
상상력
황종궁
##리석조
단조로운
대명률
실학파
국세청
해탈문
기보법
의용군
치러졌
본초강목
어망추
##크라테스
시발점
오케스트라
동중서
건원릉
두류산
리버풀
산유화
그믐날
##평화통일
상서우복야
차경석
설인귀
홍봉한
프리미어
비즈니스
간반통
푸시캣
앙부일구
TSPM
시냅스
업데이트
민주주의민족전선
As
DC
DE
Tour
ᄂᆡ
□□
각체
간재
갑판
강촌
거스
검단
겹겹
경승
경무사
경공장
고싸움
곡간
공병
구유
구니
국선
국대부인
근우회
긁개
금남
기른다
김식
김후
김억
내방
내의원
널판
농노
누상
눈길
능산리
달밤
담황색
답문
당론
당중앙
대릉
대엽
데타
도태
돈오
드레스
들렸
등요
등과
디프
리어
마장
마군
맏형
머문
모라
모악산
몬트리
몰딩
몸주
무릇
묵란
미호
박힌
박첨지
반장
벌린
벌어들
벼룩
붙임
비시
산부
산체
석총
선잠
성좌
소다
속장경
송산
송죽
수과
순시
술집
스폰
습독
시료
시시
식목
신립
신윤
신혼
신세계
실측
심초
아로
안자
안규
애장
어초
어골문
에는
연시조
영력
오존
옥주
완의
왕전
용운
우로
원림
원거리
유류
유이
유만
육중
읍호
의림
이등
인골
일천
일세
읽혀
임란
입소
장일
장양
재비
전강
접혀
정쟁
정차
정배
주칠
중역
진헌
집요
징관
참의원
창화
초정
초식
총궐기
추향
축선
친화
커리어
케임
콜럼
탐내
태교
택사
투전
특설
파당
파자
편경
편향
폴리에
풍금
풍천면
풍긴다
한재
한적
항문
향산
향피리
허유
허다
헤엄
호신
화부
활로
황칠
효린
후시
##우라
##유편
##고종
##퍼니
##드문
##소금
##두렁
##지세
##지석묘
##치부법
##구석
##보궁
##대언
##립박물관
##의숙
##lor
##sh
##개비
##강산
##계엄
##제법
##덕부
##운전
##육사
##ma
##전사
##전권
##감리
##감로왕도
##르도
##입문
##광선
##난공신
##올라
##삿갓
조선물산
서울역
창건주
253
특별회계
대통령상
신문고
개최지
##리아문
기업가
설화집
296
인천항
교통량
한성도서주식회사
##ina
전자기
모여든
사리병
입학생
정의당
해외건설
궁중음악
공급원
관료제
로마자
392
아우르
1412
원효대사
기울어지
떨어져서
중부방언
1691
영양소
675
1817
결의문
여행자
접근성
도망치
저지대
두드러졌
정인섭
1587
950
참모부
필수품
1569
의심나
올바로
원내대표
드문드문
진지왕
당산제
대덕구
1536
동반자
농지개량
김우옹
절충장군
호기심
만경강
용문산
몰려들
태실비
만수대
수식어
마찰음
태안사
도안화
잠재력
솟을삼문
공고히
##석조여래좌상
득표율
학무국
##요의경
진무공신
대둔산
황국협회
강정호
탕평책
직관지
재외동포
종유석
은하수
카시니
쇄국정책
스며들
적멸보궁
법치주의
슬로건
저질렀
스파이더
문방구
##시의방
##경비대
우여곡절
규곤시의방
후견인
금난전권
레크리에이션
##수다라요의경
몬트리올
BA
Ge
Sou
ᄆᆞ
간통
간다는
감퇴
강은
개부
거시
거불
거더
건실
격년
경마
경협
계교
고스
고삐
골품
굴려
권대
꽃밭
꾸려
나노
내탕
내측
내원사
노린
뇌성
눈부
능화
니라
달인
당회
대설
도공
돌살촉
동약
들쭉
떨친
라슨
라빈
로크
류준
리차
마실
마녀
만보
만병
맹주국
명관
무례
민본
반반
뱃길
베타
변칙
병아리
분홍
불인
불황
비안
비봉
비합
사농
삼릉
석정
선실
선운
설봉
속어
속히
송현
송자
송언
순금
순결
시직
신록
아폴
앉은
압운
애원
애칭
액운
양류
양통
엄금
에버
여회
역습
연조
연체
열부
영회
예인
예쁘
왕립
왕검
요정
용융
운사
운석
운도
원도
원관
윔블
유료
유령
유안
윤부
으라는
은대
음효
익선
인중
일동
임오
작두
장살
재경
전명
전랑
접객
정혼
제삼
조긍
종통
주간지
중보
증도
지요
지력
질박
창포
척박
천산
천과
철판
청안
청암
청암사
초관
총포
추첨
춘주
출근
충익
치죄
칙사
칭했
커져
컴퍼니
케인
케빈
코발트
탐방
탤런트
페루
평일
폐막
표적
풀무
피란
한솔
행함
허통
현릉
형구
혜경궁
호피
혼잡
화대
화실
화시
환두
황순
휴일
흑치
##사드
##당간
##유품
##고수
##고금
##스름
##기금
##가집
##현교회
##동묘
##치지
##보유
##령전
##GM
##속록
##방직
##진리
##진언
##후원
##환자
##비히
##경전
##시다
##운암
##저포
##예산
##각제
##병영
##거울
##차비
##RE
##선수
##새우
##혜원
##검정
##브리지
##크리
##규범
##떼기
##HO
##벨스
사용법
국가정보원
경기민요
대학사
학교급식
자료실
306
309
258
행정소송
전문부
도시계획
266
환경공학
295
대성학교
이동한
##리학회
사신도
식물학
##ons
이기영
인용문
금지령
전적지
아름다우
정기룡
동남구
올렸으나
##icus
##ism
1842
박정양
이건창
1276
촬영소
580
심의겸
도망쳐
1574
무산자
돌출부
정수사
비정규
진실로
##amp
장원서
포도주
예비군
이장하
살아나
##영화상
지신사
##ost
수석대표
##act
수심가
구리시
치우치
노랫가락
##대왕신
배상금
1232
산사태
##oth
창업자
유진산
박태환
풍산읍
오스카
알렉시
양기탁
엘리어트
레닌그라드
좌정승
진찬의궤
##스테르
조총련
만기요람
사회과학원
저수량
윤석중
행방불명
걸어가
여대생
산해관
김환기
금광명경
플랜트
혼천의
영묘사
스커트
연려실기술
윔블던
Fran
JR
가단
가오리
간서
간여
개점
개괄
개로왕
거들
건달
격심
계동
고음
고준
고함
고란
고층
곡목
관재
광교
구군
권4
권법
금방
금실
금연
기산
김길
김개
김담
김룡사
나방
낙점
남일
내루
누운
능가사
다중
단도
도도
도헌
도첩
돌스
동가
동수
동감
득세
들렀
리본
리믹스
마야
만지
말렸
메르
면밀
멸하
묘한
물걸리
뮌헨
박산
반향
발자
배영
백금
범절
벨트
별동
봉향
부결
부잣집
불쾌
불탔
빌려서
사릉
산통
삼단
색은
생문
성설
센트
소록
손등
손씨
송하
수의학
숙제
숙희
신망
신연
신돌
심슨
쌍사
썼으나
아목
아닥
암통
암송
양종
양치
없앨
역력
연식
연필
열렬
오악
오조
옥룡
온정
왕기
외도
요통
용자
우록
우림
운화
운공
운다
웅변
월야
유존
육기
육정
윤형
윤번
인문학
임고
임파
자포
자존
자획
자꾸
작부
잡아가
장창
재촉
전병
전품
전토
점필
조가비
죽계
중모음
증폭
지중추원사
지추밀원사
직금
천계
첨예
체찰사
초파일
촌장
최홍
추안
출원
치가
치석
치욕
칭한다
캐서
클레이
탄성
탈놀음
태그
태선
트여
판돌
팔렸
편한
평신
하달
합숙
해열
해법
향우
향중
허드
허종
허한
헌덕왕
헬륨
형개
호스
호선
화류
화채
황두
황경
회칙
후춧가루
훔치
##사장
##기러기
##대제학
##학리
##남동
##의료
##니시
##요연
##인협회
##황제
##노농
##신기
##호부사
##열차
##여행
##24
##27
##ox
##어학교
##전적
##관부
##RI
##슬로
##투사
##면체
##돌칼
##설이
##랑어
##협판
##브로
##규일
##탈리
##징악
##뚜껑
고려청자
나타남
위원단
중앙당
역사가
통일부
구조주의
목적물
의식요
##시아드
내려준
내려올
발달사
바탕흙
민속극
274
개인주의
이사부
311
동물담
인도주의
성장기
경사도
우주관
국사당
동국통감
366
334
서기장
동북항일
1404
서경시
1638
다스릴
1463
645
교원양성소
1743
490
1699
유전학
560
1435
수양산
1815
1459
1376
1370
비상계엄
함흥시
조지훈
1260
새끼줄
1570
1578
거문고산조
사대부가
심판관
##경제부
서화미술회
석유화학공업
일으켰으며
1541
보안법
기관지염
울릉군
지평선
##ose
이진상
담겨져
상층부
조선어학
구부러진
청량리
민영익
단기간
데려다
청장년
금호강
약수터
국역본
끌어내
끌어올
이강년
공보처
고아원
도호쿠
바리공주
북서부
아카데미상
박용만
본연지성
통리교섭통상사
공화정
관북지방
만월대
하반기
김효원
민사소송법
한명숙
굶주림
끌어들이
끌어들여
드래프트
최명길
상평통보
격물치지
사철나무
호암미술관
조두순
다보탑
브래드
브래들리
사벌주
고임돌
별군직
불가사의
강홍립
앤드류
크리스토퍼
충현서원
유니버시아드
애월읍
토마토
지문하성사
장말손
탄수화물
송윤아
순식간
관촉사
일목요연
류준열
아닥스
동북항일연군
통리교섭통상사무아문
BB
Eng
KS
ᄇᆡ
갇히
갈리
감고
감청
감복
감탕
갑산군
개복
개략
겉감
경릉
골키
공이
공탁
공설
공휴
광지
광섬유
괴벨스
구진
국위
굵직
그윽
급성
기폭
김류
김위
김항
김건
꾸리
나락
낙인
낙차
난생
남유
내건
노닐
노도
노정기
누문
달집
대검찰청
도널드
독사
돌칼
동두
동활자
두문
디딤
뜻밖
로비
로만
마대
말다
매점
메뚜기
면상
멸시
명해
목호
무송
묵재
문민
문영
문생
미드
박도
박만
발탈
법기
변인
별일
별책
볏단
보람
본론
봉호
분광
불영사
불규칙
비회
비어
빗살문
산다는
상비
선친
선근
섭외
성구
성간
세신
섹시
소하
수마
술법
스톡
습소
승정
승원
승평
시끄
식화
쓰러진
아산면
안견
어유
어수
어룡
업소
에볼라
여라
여아
여울
영부
영영
예지
옛적
온다는
와인
외쳤
운현궁
웅기
원저
월지
위천
육위
음성군
의태
이증
익선관
인순
인피
인화문
입부
잔여
잡상
장암
전농
전처
정류
정효
정노
정략
조흥
종숙
죽지사
줄인
쥐띠
쥐라기
증치
증좌
지미
직강
직설
질주
차입
착하
찬정
천문관
철인
청련사
초례
초도
초제
초여름
총파업
최이
최북
축국
측편
치뤄
친하
큰일
탄신
통형
편재
편복
폐정
풍월
하공
한삼
해지
해온
허망
현기
혜명
호호
회문
회례악
##드리아
##일사
##일승
##화산
##화복
##총력
##의동
##이승
##나부
##rop
##니츠
##마쓰
##인회
##서화
##위전
##태산
##주경
##먹이
##삼세
##목리
##함산
##BM
##번식지
##백화점
##히트
##폭스
##독본
##탈해
##댕기
##따구리
##덮깃
##푸르
##흗날
대한청년단
교육회
문화축제
보이스
국민총력
목적지
실시간
백제본기
지도층
내려갈
402
건축사
지나간
사무직
회의실
드러머
수도사
수도자
313
##교육대학교
동일인
공신전
##ond
주제가
인구수
미륵신앙
가마솥
관서지방
도리사
화학자
화학공학
화학제품
사우나
유치면
태평광기
419
지주사
514
유성준
676
##동맹회
친족관계
관찰자
1732
고도성장
알아사드
의문문
두꺼우
신흥무관학교
1484
1568
정진하
무너뜨리
정동행성
자비도량참법
1495
수시력
청풍면
장시간
길흉화복
히로부미
화전민
바뀐다
밀려나
김주희
휴식처
##ivers
잘라서
이서구
천불전
처용가
공보관
특산종
충적평야
어려우므로
대세지보살상
주산지
백마강
청학동
기악곡
성학집요
도지권
삼중대사
신동아
##통상조약
베네딕
조위총
##화기법
백련암
자명종
갑자사화
대례복
강우량
외조부
평리원
홍문관부제학
주안점
생년월일
이택근
승강장
찬송가
붉은간토기
김조순
삼죽금보
혁명가극
장택상
대한독립촉성국민회
산등성이
미선나무
은연중
광견병
어패류
리차드
골키퍼
국민총력조선연맹
AD
Best
CM
CF
Par
sp
ᄇᆞ
가실
강간
개도
검시
격군
경책
관운
관어
글러브
급선무
낙타
난제
남태
남분
녹용
담뱃
대입
더글
도톰
동업
두상
드린다
따비
떨쳐
만고
만안
말띠
명천군
몬테
묶음
뭉쳐
민지
반려
반증
반곡
반목
반엽
반쪽
발등
배틀
백기
뱃놀이
뱃노래
벚나무
변색
병동
본회
본회의
봉제
부림
부렸
북전
불운
브로드
빈전
사력
상등
생토
서단
서랍
선례
선세
설령
설천면
성비
세창
쇠뿔
슬프
신농
신효
신복
심고
쓰시마
악령
안골
안핵사
알렌
어화
어이
예관
오교
오금
오작
외구
외금강
요철
용전
용천군
우금
우전
웅주
원돈
월곡
윤시
이향
이십
이천군
인프라
잔나비
장동
재도
재간
쟁반
전야
절후
정축
정범
정련
정반대
제부
제너
조민
졸참나무
주국
주비
주판
지당
지번
처했
청실
축생
치자
치법
카피
크레타
태복
탱크
통관
통훈대부
파발
파찰음
패키
편편
평전
포쇄
한백
한해서
행초
협무
형평사
홍서
회비
후집
휘발
흩어졌
##고성
##천문
##기계
##기무처
##가해
##산집
##구국
##대책
##화인
##학우회
##도성
##도독부
##공회
##단경
##nt
##에관
##강록
##환자나무
##제르
##왕지
##판목
##EM
##레나
##오기
##관련
##쿠리
##옥저
##처벌
##괘불도
##NG
##약수
##최씨
조선독립
서울특별
사회봉사
작품집
관련지
대표부
문화어
경제학자
단체교섭
252
국립극장
계획안
결정짓
광주학생
현대어
보내온
농업교육
경성의학전문학교
사당패
수용자
345
##ene
극락암
이정표
태평소
사설시조
연세대
553
##대사탑
다스름
648
1715
산림청
드리우
해동명
1827
넘어선
1271
오스트리
##노동자
외국인투자
1739
1441
독서당
사서오경
보성강
붙잡히
데이비스
중서부
1107
원정군
흘러내렸
명주실
불사르
협동농장
1482
올바름
##ream
1517
유수부
모란꽃
좋아한다
빠르기
지신상
수표교
매화나무
1098
재일본
문물제도
외관직
원삼국
이태원
관모봉
거칠부
보증인
1330
황태자비
##역사박물관
미타신앙
충북대학교
군국기무처
지제고
김자점
고의로
승주읍
발상지
개막전
인의예지
권선징악
불태웠
신덕왕후
우러나
영유권
장충단
사금융
다닌다
지병마사
드라이브
##석장승
바란다
대방광원각수다라요의경
마운령
어윤중
파이어폭스
복천암
대한통의부
응회암
무록관
접두사
화요회
귀거래사
패키지
##에관한
FTA
가악
가처분
감명
강종
강민
강관
개띠
게으
게이트
격구
경동
경안
경적
경국사
계녀
고작
곤지
골절
과외
관문서
광원
광맥
광명사
군부인
규식
금계
급습
긍선
기라
기왕
기절
기뢰
깔끔
깜짝
꽃피
나위
남루
노나라
노산군
다장조
당직
던가
도스
도나
독락
돌대
따져
뜻있
러시
림사
마테
만대엽
망가
망어업
면접
문선왕
미원
미라
미네
민선
밑그림
박소
반세기
밥그릇
백률사
법가
별무
병조참
본처
부일
부농
부닥
분철
불청
비속
사급
산후
산비
산꼭
삼학
삼운
삼키
상극
서클
서임
선불
선염
설단
세요
소우
소연
소선
소풍
소북
속박
송원
송판
송희
수키와
숭림사
습작
시외
아달
아열
안서
안거
앙금
애착
야말로
언로
여문
연무
연줄
오룡
옥대
용진
우경
운산면
웅거
원덕
원죄
육안
육각
의릉
의녀
의물
이청
이삼
이억
익재
인록
인턴
읽히
임술
자보
저촉
절박
정교회
조유
종서
주학
주오
직통
진변
집례
징벌
참교
청헌
초경
총설
최은
최흥
친연
친권
쾌락
탐험
태보
테드
트루
특출
팔월
패랭이
폴리스
풍저
플레
하등
하겸
한종
한교
한주
해라
핵실험
향했
허실
현화사
호황
호접
홀연히
홍세
홍낙
화왕
황영
회당
##사공
##유일
##고집
##리언
##상가
##은입사
##두품
##화리
##총관부
##OK
##해야
##ll
##성악
##바르
##라브
##개벽
##다임
##서림
##형식
##비결
##양속
##흥록
##29
##man
##분류
##직해
##르바
##필수
##좌우
##티스
##내각제
##커우
##카가
##범죄
##SS
조선상
고려대장경
사회사
여러분
사업장
나무과
행정과
사랑마루
284
288
사무원
276
278
의원내각제
상징주의
이동백
##ont
그래미
가야국
인쇄물
부속품
수사법
글씨체
상부상조
##att
생물체
427
아동극
였음에도
기획사
1769
이종성
달라이
검찰청
998
중시조
해양수산부
1672
지질도
원자재
신선사상
김동원
펼쳐진다
봉화산
직전법
원시림
1572
대종회
주문모
692
시왕전
1556
1544
이웃집
1566
1560
875
수영장
포교당
##고사리
타령장단
꾸며진
김연경
어두워
시종원
스테이트
스테이션
힘썼으며
이회영
관세음보살상
초록색
시공간
재령군
도솔가
장진군
조석진
아시카가
끌어올리
오방신장
사교과
홍익인간
스러우
대주주
반달돌칼
실학사상
이은상
우부승선
체신부
정일권
화양동
김봉남
부군당
공감대
생식기
김택용
아나운서
패러다임
충의위
##행록절요
참상관
총본산
임성주
이돈우
##도르프
스토리보드
권문세
정난공신
척화비
내자시
##부흥운동
아관파천
새천년민주당
ᄠᅳᆷ
대한적십자사
백담사
김고은
탄자니아
암모니아
당중앙위원회
케임브리지
눈부신
조긍섭
신돌석
병조참지
산꼭대기
풍저창
Ab
Bab
Her
NC
Or
ᄆᆡ
가행
가발
각대
갈증
갈돌
강명
갖춰
겸대
경절
고강
고덕
공습
과의
광동
광운
광과
궁사
궁도
권필
기연
기혈
기쁘
길버트
김범
깎여
꿇어
꿈속
난류
내만
내직
내장사
노환
단언
단칸
달서
닭띠
닭고기
당성
대민
대과
대곡
도급
독단
독판
독약
돌다리
동흥
동침
두주
디젤
디트로
딸려
록과
마로
마는
말총
말러
매부
면주
목초
목본
목면
무식
무생
묵매
문위
물목
믹스
밀무역
반어
방재
방각
번번
범띠
베어
보월
보타
보머리
보길도
본이
부덕
북류
북제
분면
분견
불응
빌린
사반
산길
삼복
삼학사
상달
상추
상서원
색리
색시
생시
석봉
설해
성복
세비
소구
소림
소띠
속량
송주
송규
순전히
스터
습곡
승추
승자총통
시성
신음
신독
실형
십계
십신
씻김굿
아돌프
앤디
양세
어절
언의
에밀
역둔
연골
연곽
오양
오타
외거
요제
우재
유엽
육언
윤창
윤계
음죽
응모
의고
이생
이족
인마
일소
일베
일손
임동
임전
자시
자임
자년
잠긴
장담
재무부
전광
점지
정육
정암
조맹
조흡
주생
중히
지설
집강
차청
착실
참살
참깨
채홍
총화
총계
추강
축일
축재
출루
취고수
측선
친위대
키웠
타결
통한다
퇴량
특공
파멸
판축
패류
패소
패엽
펜실
풀잎
피장
피서
하규일
학창
합자보
행공
향현
향명
향전
헌의
호헌
홀수
홍상
홍적
홍어
홍선
화판
화방사
효우
효녀
휘어진
희소
히라
##우지
##스부르크
##리그
##상지
##상훈
##상여
##가동맹
##33
##동석
##구미
##대계
##son
##강정
##후불탱
##서절요
##계도
##문신
##und
##저장소
##집설
##는소리
##28
##me
##금석
##박씨
##취업
##투쟁
##발자국
##설음
##약국
##즉리
##벌찬
##독문학
##롱나무
##VE
##널티
대한국민
교육대학
학교장
##인다는
기관총
308
국민운동
이어주
문학사상
걸쳐진
과학사
241
503
이유태
더욱더
294
고등학생
인천시
번역극
배향공신
부엌방
양반집
공산품
해외투자
기자조선
제일은행
동북방
김대현
바깥채
네모뿔
지난다
합의부
참고서
410
보리밥
구속력
드리운
유전자원
넘어섰
1350
1359
1452
사유지
윤리관
김제남
김창룡
계절풍
1442
실록청
조지서
왕세제
향약구급방
흘러내린다
불가침
신인종
두꺼워
김경준
780
진입로
김시민
919
정화수
남동부
늘어뜨리
심성론
대정현
석주선
연등회
비변사등록
요새지
광양시
곁들인
##ction
Chr
원광대학교
불설대
힘써야
사미인곡
##건설본부
접수국
##ife
구인사
최저임금
방정환
양사언
##베이터
##베이니아
한일합
##여래삼존상
연고지
뒤따르
쳐들어오
##극락전
아미산
공백기
노신영
몽산화상
그네뛰기
중남부
가까우며
금마면
악티늄족
수증기
허백련
철광석
독어독문학
조방장
매끄럽
비잔티움
버금가
저어새
개서어나무
골각기
매카트니
케네디
농가월령가
##공제회
다이아몬드
스폰서
BBK
공휴일
정진하였
꿇어앉
디트로이트
승추부
일베저장소
펜실베이니아
MS
Mus
RA
Way
tv
가방
가관
가교사
각루
간봉
감춘
갱생
거실
거물
거둬
검속
게양
견딜
결연
계루
계락
계양
계목
고막
고혼
곡집
공창
공선
광해
괴리
괴상
괴수
교판
귀가
규례
금판
금귀
기효
기략
김국
까막
나도
난관
남중
남간
남곤
냉면
노병
노전
녹유
논개
논할
뉴턴
다자
다윈
달렉
달항아리
담팔수
당겨
대부인
더러운
데브스
둔하
땔감
레코
마조
마지기
면화
모나
무천
물어
미싱
반교
반침
발할
발돋
백철
범법
법의학
벽제
별채
보격
보조선사
복본
봉송
봉주
부편
부차
부휴
북안
분서
불보
블로그
비화
비수
비애
뻗쳐
사축
사통
산일
산만
살수
상참
서긍
석보상
석탈해
선신
설리
세원
세폐
센티
소례
송아지
수자
수첩
숙정
숙신
승직
신례
신협
실성
심희
심히
아리아
안음
애틀
양립
양응
양띠
억새
여긴다
역부
연각
염수
오석
오연
옥소
옥새
완월
완경
왕태자
요대
요왕
우크라
욱면
원평
원숙
원부사
월명
유훈
유분
유별
유혈
윤현
은주
의랑
이금
이반
이럴
인설
입방
잠상
장법
전덕
점쟁이
정찬
젖혀
제승
조색
종구
종양
좌승선
준우
지족
지괴
지났
직렬
진향
징후
차종
천석
천축
청상
체격
초동
초라
초신
촉석
촉성
총탄
최단
축복
출계
칠중
캔버스
태초
파지
평저
평원군
포대공
표범
풍모
하청
학연
합쳤
항우
항변
행시
향비파
현자
형기
호대
홍두
화담
환속
활판
황명
황백
회분
##당굿
##고인
##구시
##정화
##미인곡
##도교
##모은중경
##무더기
##니카
##존성
##적도
##노프
##연도
##70
##명전
##담문집
##태고종
##어질
##레아
##항사
##감영
##변호사
##하르
##외사
##토끼
##결연
##커스
##말본
##몰이
조선기독교
따라다니
서울청년회
사회사업
학교문법
이상설
불교도
304
307
301
머리털
자유형
광복단
광주리
금강역사
금강계단
교수법
아이콘
프랑스와
거리굿
무역학
322
상주국
여야만
364
직업병
집행부
사자춤
문하찬성사
벼슬아치
##가락도드리
동학군
##대장공주
다스린
고기압
525
우측면
544
가르쳤으며
##과학고등학교
부자연
화성암
영동지방
경작자
682
나한도
1383
1259
##혁명군
924
중서성
중서사인
1101
1582
부조묘
알려졌으나
다룬다
930
747
1567
마산합
금성산
천태산
1510
##살이터
관동별곡
교역자
매달려
신광주
자매결연
송병순
##모음화
##보부모은중경
여객기
교향악
포구락
엄청나
최남단
박제가
공모전
무제한
부딪쳐
홍예문
막내아들
별시위
철조비로자나불좌상
양구군
격전지
##ake
송환기
전중시
사분율
홍재전서
간수군
##영산회상도
탁자식
네이버
이숭인
극진히
한약재
부소산
한국불교태고종
난대림
IRB
칠불암
김취려
해왔으며
관공서
불천위
타블로이드판
광평성
스와프
아차산
한국산업인력
SATA
힌두교
##으리라
선캄브리아기
시애틀
흑사병
JTBC
디프테리아
스파이더맨
불설대보부모은중경
발돋움
석보상절
애틀랜
한국산업인력공단
AF
Day
Ed
OST
pop
가체
각류
간하
간디
감별
강봉
강아지
개전
경어법
공지
관둔전
광창
교술
국용
군마
궁륭
권경
그르
근체시
글래
급박
기할
기벽
기압
기장군
김면
꿰뚫
끔찍
나침
나탈리
낟알
내막
내섬시
노미야
농무
높임
다홍
닥치
달여서
담제
당화
대순
대계
던져서
도보
도외
독존
돌무더기
동국사
두거
등신
뚝배기
러셀
리우
리코
마필
마귀
망간
망각
맞히
맹순
명가
명진
묘당
문고리
물터
민우
민단
밀봉
바꿨
박일
박화
방북
백패
밴쿠버
본청
본시
북태평양
불허
브리지
비무장
빈혈
사스
산북면
상효
상춘
섞이
선량
선무사
성급
성탄
소보
소헌왕후
손영
손발
수타
수절
스핀
습진
시의회
심설
쌍봉
아함
안순
알바
앞방
앨리스
앵무
약관
어보
여초
연거
연날리
예림
오디오
온수
외딴
요트
우치
우자
우복야
원감
월면
위학
위무
윗사람
육주
의절
의정원
이개
인서
인덕
일습
일탈
임방울
입궐
자소
작별
잡기
재궁
재두루미
적초
절여
제유
제진
제설
주야
지학
지간
지는
직할
진회
차마
차전
착복
찬조
참식
청서
체크
초야
초승
최언
축수
축산업
춘관
출격
충지
친우회
탈곡
탑파
토함산
퇴역
투르크
트렉
팔로
패스
패물
퍼시
편종
평신도
포치
포살
포주
폰티
풍족
필담
필력
하타
학포
학소
한품
해성
핵가족
현양
혈전
혜원
홍현
화투
환부
횡대
후단
후연
훈춘
흑칠
##사부
##우후
##고니
##드레
##포드
##민안
##지형
##치오
##일엽
##대간
##정권
##화원
##화회
##초롱
##수륙
##안장
##미도
##장려
##이다
##ek
##다심경
##철교
##봉서원
##호국단
##운모
##불탁
##절차
##여사
##더지
##각사
##금고
##삼성
##곡문집
##암지
##티지
##선신
##칠층석탑
##옹집
##카스
##빈가
##피어
##델리
##TE
##럴드
##막염
##룻날
##잣나무
##○○
조선유
조선은행
사회간접
1300
중심핵
발전함
생활비
민족자
인물전설
사업소
국제올림픽위원회
장식음
내려간
평양지
현대사
가로수
제자해
경영진
경성여자
##운동장
고등어
대장전
작성자
석가탑
전시장
둘러보
러시아인
353
고문헌
활약상
뿌리깊
##조선인
정자나무
##산리유적
문하평장사
투자자
태종실록
##ics
1507
였음은
올랐으나
##미술가협회
김성원
지석영
계산법
##과학원
홍문관제학
칠성신
1358
소송법
671
1012
알아차
도망쳤
인력거
1269
장흥고
공로자
대종상
초하룻날
봉황대
신기전
예비역
모란문
여덟째
##단체총연합회
##아미타여래좌상
거창읍
이만도
살림채
평행선
1231
아산만
오행설
성리대전
학도호국단
##진흥공사
서유럽
조선인민공화국
바둑판
끌려간
전의시
주어진다
송파산대놀이
함부르크
##장전적
편안히
외무성
관형어
윤봉구
삼중대광
원유관
미추이사금
알렉산더
장산곶
처해졌
달구지
##국가산업단지
관절염
##영산회괘불탱
둥그런
시천주
속초시
알파벳
로저스
여래장사상
라이프니츠
첫날밤
조만식
금탑사
송진우
무언가
봉림대군
차가운
도병마사
변려문
반야바라밀다심경
참하관
페르디난트
에인절
격몽요결
팔만대장경
하겸진
역둔토
한일합병
마산합포구
연날리기
참식나무
사회간접자본
CO
CE
Ex
SF
YW
가승
가작
감돌
갑과
강판
개암사
건곤
검파
격동
결백
경옥
경토리
곤봉
공대
공교
공여
광문
교태
교분
군용
굽혀
권정
근위
근초고
금합
기국
기무
기요
기철
기권
김노
김전
깨소금
나고
나돌
나룻배
낙오
남두
남획
녹이
논과
놀량
다져서
단상
단검
단권
답례
대곡리
덧달
도대
도양
도배
도롱
돌날
두정
뜨겁
라자
로얄
루즈
리포
리터
마식
막힌
만호부
맛보
모지
모연
목구멍
무창
무계
무작
문극
문틀
물종
미발
민립
민방위
밀인
밀라노
바실
바쁜
박테리아
반고
반계
반닫이
반차도
발인
방탕
방백
백우
법학자
별전
보르
봉례
봉지
봉박
봉착
북채
불제자
비슬
산고
새남
색실
서회
서암
선업
선영
설움
성쇠
세의
세영산
소계
쇼군
슬레이트
승일
시소
신력
실격
심인
써준
악수
악양
안원
안과
안빈
알타이
양간
어문학
에디
역작
연병
연근
열의
염포
염세
예원
오배
오웬
옷차림
왕제
외인
용띠
우송
육촌
윤일
윤근수
이훈
이라도
일전
임사
임치
임인
잉크
자편
잠저
잡물
잡아들
장내
재용
저물
전계
전격
정내
정견
제생원
조임
종수
좌방
주좌
주검
죽산면
준법
줄일
중주
중품
지실
착색
찬선
처참
천일
청포
초구
초현실
최준
추후
춘하
취조
치졸
친우
칭칭
카지
커플
컵스
탄도
태의
태연
테르
토산물
통천군
파출
파낸
파충류
페어
편호
평단
평거
폐렴
포사
포은
하후
하코
학구
학림
함북
해풍
행했
현제
현덕
현미경
형통
호총
홍합
홍련
화운
황지
황병
효모
효명
흑요
##당상
##당산
##유서
##고치
##리다
##들레
##산문집
##석보
##지보
##지마
##부부
##구장
##자와
##도위
##co
##sk
##영사관
##순화
##철자
##청화
##타주
##본사
##18
##응교
##과도
##윤숙
##ool
##렬사
##던트
##촌주
##팔이
##흘리
##애락
##며느리
##뉴스
서울신문
다시마
생활사
251
사업비
행정안전
서로군정서
결과물
토지대장
토지개혁
토지제도
263
가로쓰기
가정학
기타리스트
##회사건
기사환국
서양철학
##산군읍지
올려진
창간사
여겨져
이수대엽
국방력
중생인
갈라서
바라밀
동맹국
소비조합
여래선
김일경
병마도절제사
기도회
이인영
서정주
한계희
다니엘
심사정
장사랑
674
중화군
이경직
소수자
570
부서지
단장면
향토문화제
마르코
소매점
마이산
1545
권상규
호구단자
1515
러서야
교섭단체
##체육관
이의방
##아시아경기대회
서예가
진료소
제천의식
재래종
간호원
표제어
전서체
국화과
육상궁
타임즈
김준연
곤충류
박종화
효성왕
창업주
홍주성
박태보
자매지
고래상어
손실보상
스트라이
무성음
파이널
아사달
##ogr
실증주의
정혜사
요양소
아가씨
산대도감
산봉우리
위정자
풍어제
연쇄점
선지식
마이크로
모티브
변성암
잃어버렸
도첨의사사
홍명희
알렉산데르
의빈계
엑스포
게시판
인두세
신단수
석인상
당사국
##투아네트
한울님
거두어들이
라즈베리
옥녀봉
오죽헌
끈질긴
송국리
손기정
사심관
다도해해상국립공원
소맷자락
국태민안
아수라
갑각류
##ology
디딜방아
박격포
패강진
##창작사
카자흐스탄
##의료원
담뱃대
불청불탁
촉석루
##변호사협회
YWCA
근초고왕
초현실주의
행정안전부
JY
RB
Time
가택
각세
간헐
갈매
갹출
거열
거역
건재
건양
검신
고산군
관훈
구구
구회
국청사
군종
그은
기방
기봉
기삼
깨어진
꼬투리
나니
내알
내남면
노걸대
논두렁
뉴델리
능이
늦추
달한
대국민
동공
동통
동갑
두드
두더지
뒷발
들깨
란슬
마고
마나
매거진
먹물
면면
명석
명품
모밀
목멱
몽리
묘법
무치
문석
문식
문득
미나
미관
미풍
바우
박애
반민족행위
발신
방종
배서
배송
배롱나무
백리
백암산
뱀띠
벅수
병세
보트
보온
볼넷
봉원사
부쳐
북괴
북사면
불암사
붙일
브룩
비워
사덕
사승
사슬
사문서
삼귀
상구
서옥
석질
선당
성총
성근
성천군
성산면
세살문
속곡
손창
수두
수모
수합
숙수
시실
시명
시탄
시렁
신만
신어
심유
심소
심미
아록
암초
앙투아네트
어량
어딘
어다가
엄장
역성
역옹
엮음
영우
영보
영대
영결
영원군
영통사
오신
옥보고
온상
올레
옴중
왕관
외아들
요도
우중
운필
웅덩이
윤행
윤신
윤문
음서
의왕
이엄
인멸
일람
임호
입보
자탄
잡문
잡목
장준
장티푸스
재액
절하
절묘
정좌
족질
종탑
주남
지통
지용
짓밟
처제
처결
철장
첨삭
체전
총집
총책
최응
춘계
출두
치폐
치솟
친숙
칼라
캄파니아
커진
코라
타래
태형
통념
투고
투병
투탄
트이
팔려
페널티
편육
폐합
포리
풍담
피어
했으니
행이
행재
행회
향락
허허
허주
헌릉
현생
형석
호정
호과
화암
화천군
회포
흐른
##사천왕상
##종가
##천일
##상서
##상회
##기원
##기탕
##두기
##지질
##자적
##화과
##초파일
##속찬
##공무원
##원자
##중승
##읍리
##무쌍
##성시
##바흐
##에스
##니치
##팽이
##서니
##양장
##덕이
##통재
##통궤
##그러
##복지사
##언정
##어영
##레도
##전동
##오지
##오륜
##내셔널
##충효
##표기법
##pr
##ps
##꺽정
##쇄신
##네이
조선농민
조선성악
연구개
전라좌도
정도전
독립사상
미국식
제작사
민족종교
개발자
국제선
머리칼
부르짖
산업자원부
대통력
289
정보국
269
277
전주대학교
근대사
그린다
291
경성방송
대성동
안정환
무신정권
지냈으나
무역업
전후좌우
언론계
331
판매고
발해사
동양철학
출입국
삼성물산
금동관음보살좌상
권력자
정규군
한인사회당
조합장
이원화
이원조
왕자군
염불암
사원전
문종대
브라우
562
후원자
1354
교정청
저항력
석실묘
명예직
함양읍
나타났으며
남겼으며
보현행원품
소매업
영월읍
982
백두대간
어울려서
1564
금성대군
이마나카
붙였으며
군기감
객관적으로
상원수
어긋난
수구문
트레이닝
이문원
1492
스테인
주주총회
연행록
용왕굿
선산읍
축산학
다운로드
스페인어
표창원
행진곡
내장원
삼현도드리
유자광
중립국
사로국
쫓겨났
불로초
##비로자나
영변군
교민단
덩굴식물
자작농
스러웠
성악가
기주관
육영수
##ney
대여음
양동마을
브리튼
김자수
동창회
간절히
주현군
연중행사
경운궁
줄어드
사월초파일
김약수
담근다
밀리언
숙빈최씨
중남미
주원료
NAKA
여닫이문
한사군
시청각교육
까다로운
귀틀집
훈구파
서후면
괭이갈매기
마신다
연석회의
경회루
로렌스
광진구
초수대엽
전옥서
클린턴
##유허비
자가용
급기야
내선일체
감은사지
폼페이우스
계이름
명산대천
하세가와
가급적
좌리공신
란슬롯
행재소
조선성악연구회
NAKAI
Go
Let
Part
m×
가노
각론
각전
갈치
갈참나무
감천
강활
거석
결송
경덕
경맥
고갯
곤여
골동
공석
공권
관옥
광화
광체
교궁
구스
구복
구임
국청
굳세
궁시
궁체
권섭
권역
귀화인
금빛
기면
꾀한
논농사
농한기
눈금
니스
니아
다변
단말
당계
대류
대렴
도봉산
독보
독음
동야
동맥
드높
드렁
뚝섬
람보
레퍼
리부
마립간
만동묘
맥류
메디
메웠
명릉
목부
몰골
무솔리
문계
물보
민무
민제
민관
밀폐
밑거름
바칠
반칙
발우
발광
변전
볍씨
보산
부방
부주석
북산
북지
분국
뺄목
산거
상우
상강
상충
상백
생후
서실
석공
세한
세차
소슬
속속
송출
송남
송익
수생
수예
수곡
수설
수뇌
순직
숭산
스로
시오
신예
십시오
아간
아늑
악법
안함
알타이어
앤더
야유
야장
야권
어정
없앴
엔딩
연음
엽형
엽경
예부시
오달
왕태
요성
요는
요란
용액
우황
우즈
원재
월랑
월악산
위진
위봉
유스
윤집
윤승
음정
음관
응접
의가
의순
이초
익찬
자웅
잠자
장끼
재림
재와
저며
전천
전출
정탐
중당
지망
지탄
찬반
참뜻
채화
책례
청고
청계사
체가
체이
최해
추미
추분
출감
치화
치매
친제
칼뱅
쾌거
크다
큰굿
태학사
통론
퇴거
파한집
판부
평음
표해
표전
플랑
플라이
학유
한준
할리우드
행례
행호
헤헤
헨리에
현혹
혈구
호류
호민
홍씨
황주군
회양군
후두
후군
후경
휘감
휘날리
흑석
##천부
##상륙
##들였
##민보
##동헌
##대구
##국적
##총영
##원론
##군주제
##ru
##재정부
##경도
##제전집
##만식
##신학
##클레스
##통해
##먼지
##과서
##주체
##친척
##육전
##금융
##어붙
##어놓
##뜨린다
##삼군부
##선군
##북동
##테이너
##말이
##닥거리
##DP
##갑당
##잔치
##팩트
조선계
대한국민회
일본서기
지역어
시작품
제도사
보이즈
제작비
민족문학
생산직
과학관
광복절
504
501
제자백가
정리자
316
대장장이
번역문학
##ana
##anc
356
밝혀내
정조사
선조실록
369
##공업대학
이승휴
##orm
가져올
태양년
이익공
전환국
병마부사
기도원
기획재정부
##미술협회
412
공공시설
바이마르
665
달라진
사직서
돌려받
463
고승전
주사위
섬유공업
한양가
673
1278
선원제전집
좌측면
나갔으며
1733
1446
신선도
1479
시정책
기호학파
바닷길
석회석
불가분
1585
관습도감
사도시
분향소
1543
생성물
들여온
785
수영야류
840
돼지띠
군기고
##바라기
##정리사업
방아타령
평탄지
조인영
##tern
일가친척
계룡면
만장일치
남겨진
공법상
국유림
광복군총영
부적합
첨의부
첨의중찬
이뤄졌
골라서
박성원
성수침
##산도립공원
안변군
안경공
어지러운
솟아오르
채워져
##한인회
기암절벽
수녀원
감탄사
익혀서
Rev
김소월
걸립패
파라오
파라과이
수창궁
상록수림
의흥삼군부
말라리아
의빈부
숨겨진
초헌관
구세군
영고탑
변산반도
사량부
유병언
은율군
로이터
산골짜기
방송통신고등학교
떠올랐
김극기
백낙준
편저자
떠돌아
발진티푸스
민진원
주차장
준결승
응제시
효공왕
미야기
오키나와
수류탄
일렉트릭
##르기니
유몽인
남공철
살충제
판옥선
애장왕
송언신
미싱노
준우승
나고야
람보르기니
무솔리니
헨리에타
선원제전집도서
Col
DS
Fre
On
Will
ㄱ자집
가은
가성
각목
각양각
간월
갈망
갈무리
감인
강항
객원
거담
걸터
경애
경드름
고석
고질
고양군
곡사
공저
공렬
과테
관망
광이
광전
광풍
교보
교신
국시
굴산사
권강
궤멸
귀납
근수
근린
금봉
금야
기득
기백
김귀
깨뜨려
꽃자루
나경
난대성
남우
남국
네오
눈초리
느라고
달거리
대망
대륜
데스
데시
도광
독법
동하
든다는
등위
떡국
뜻대로
로리
뢴트
막중
막판
망령
망루
망이
맹선
메사
메커
명례
목지
목어
묘기
무네
물주
미안
미음
민고
민기
민국
밀주
밀물
박양
발트
방령
방통
배태
백범
번철
번복
법대
변두리
별관
병고
병보석
보일러
복전
볶음
봉한
부교수
분방
분법
불심
블리자
비통
빈터
빚어진
빠진다
산개
상변
상북면
샌즈
생신
석계
선린
섬약
섬겼
성찬
세바
소니
소타
송구
송근수
수현
수탁
수거
수변
수승
수산리
숙여
순탄
순체
스무
승중
승단
승반
시지
시군
시차
신헌
심봉
악센트
안질
암브로
앵두
약포
엄벌
여시
여훈
여막
연곡
염초
예민
옛말
오뚝
옥석
옥수
옥편
온통
온타리
왕산
요세
요해
용흥사
원교
원어
원묘
월보
육바라밀
윤길
윤명
이고
이다
이합
이케
이와
익힌다
일축
일군
일과
자우
자만
자막
장량
장의사
재출
적재
전식
전몰
전횡
절일
절인
점찰
점액
정로
정론
정무원
제트
제월
제본
제생
족도
졸라
종착
주박
주점
중거
지닐
지으며
짊어지
참담
창궐
천당
천전리
청부
청교도
총사
총량
총무부
축귀
춘일
치란
켈라
탄탄
태항아리
템포
통기
투조
투약
투겁
파천
판타지
패림
풍도
피안
피역
피격
하교
하장
한승
합심
핵분
행로
허조
허경
헤어지
현리
홍복
화계사
황우
횡선
흉하
##사촌
##스러운
##가곡
##가죽
##석탄
##구불
##보국회
##정과
##정벌레
##자위
##자귀
##자연맹
##학전문학교
##수사
##장기
##창사
##창극단
##ah
##성면
##다드
##형법
##비요
##노인
##회복
##봉가
##타작
##LO
##호리
##잡고
##음전
##태실
##집록
##극사
##향완
##별행록절요
##곡유고
##하늘
##티시
##내취
##목지
##묘소
##머루
##발타라
##랜턴
##습유
##독구결
##맥상
교육구국
사회체육
사이퍼
중앙선거
전기공학
들어올리
표현주의
자신감
민족혁명당
2500
조각사
전문의
산업은행
대구부
시간대
부사어
283
전주부
##여래삼불좌상
공업화학
목조지장보살
동지의금부사
한글학회
부대시설
인사동
둘러쌓
##ans
상업주의
김정국
유리창
미륵상
자격루
의학서
동양사
국방위원회
중대백로
물리칠
바라춤
일원상
생명공학
394
393
금속공예
기도문
보조사
김종수
##대사헌
방위산업
백자청화
달려들
516
향사당
돌려보냈
날개집
검찰관
사헌부대사헌
여서도
범죄인
620
남산동
가요제
한림대학교
대종사
880
김기진
불가리아
진정서
1581
##예술대상
총무처
해졌으며
피난지
금산전투
1178
불타발타라
하위지
포위망
고무신
970
늘어서
살림살이
1068
우정승
1520
존경각
목욕탕
목욕재계
정무직
을지로
복음주의
영흥만
통례문
아사히
구두쇠
부전강
독성각
충적지
선전관청
스티브
엘리베이터
진위대
혈연관계
불어오
한족회
미세먼지
송이버섯
신구서림
중모리장단
남아프리카
리더십
엄밀히
천관사
정대업지악
조연상
진휼청
조선문학가동맹
보라색
십육나한도
##ARD
증광시
체코슬로
백상예술대상
지녀야
월광보살
모니터
판상서
노상직
선거인단
프랭크
모화관
활인서
은근히
부가가치세
김회련
법집별행록절요
일성록
비형랑
사바세계
가네코
구불구불
도단련사
까치구멍집
소교목
몽금포
비정규직
잔나비띠
광주학생운동
나침반
동국사략
각양각색
과테말라
뢴트겐
블리자드
온타리오
핵분열
교육구국운동
중앙선거관리위원회
체코슬로바키아
El
°∼
가변
각운
갇혔
갈판
감합
갑계
갑곶
강소
강풍
개안
개재
개운
겉옷
견당
결박
계해
계파
고례
고삼
관덕
광포
광희
구룡사
국빈
국혼
군전
군약
권우
권연
금환
금천군
금성사
급부
기포
기진
기함
꼬챙이
끈기
낙장
낙태
내과
너구리
노공
논사
논저
단파
담청색
대복
대졸
더덕
도학자
독본
독백
독활
동봉
동산리
땅콩
떡갈나무
락지
리자
리조
리회
마호
만발
매춘
메카
면치
명치
명찰
명반
모세
목릉
묘광
무후
무회
무함
문음
뭉툭
미미
미년
민응
밀러
박길
반봉
반모음
백고
벗어났
변정
변태
병창
병폐
보어
보처
본종
본심
봉두
부직
북새
분간
분권
불각
불충
빈공과
뽑히
사탄
삼우
상림
색이
색다른
서왕
서력
서애
석대
석연
선기
선하
설기
세인
소쩍
속아문
송세
송축
송문
송산면
수본
쉽사리
스물
스릴
신모
신평
신각
신원사
쓰촨
아성
악무
악용
알천
알라
야만
야채
양촌
얼레
엄한
에픽
여염
연오
열등
열광
열린다
영단
오클
왔으므로
외집
요식
요목
용봉
우서
우담
운계
원론
원좌
위위
위크
유응
윤수
윤도
윤장
윤흥
윤호
윤주
윤언
은의
읍내리
응상
의법
이입
이윽
인대
잠겨
장무
장타
장태
재는
재량
적유
전축
정개
정헌
정북
조미
중합
지바
지의금부사
직기
직봉
진원지
참호
창도
창성군
채보
채만식
척수
천둥
천녀
청옥
체수
초모
초복
초혼
최사
최운
추관
추배
치지
침대
컬렉션
콩과
크레이
토란
통리아문
투스
트라이
평산군
포츠
폭우
표결
필화
하전
한려
합록
항라
해낼
해바라기
향미
향좌
헌금
헐리
현석
호락
화청
환난
황비
횡행
효장
후미
후릉
훈신
흉노
희문
##사목
##고서
##상속
##은옥
##기독
##기소리
##가르드
##지광
##동화
##동문
##구려
##대가
##정당
##국전
##교론
##안목
##안지악
##루기
##미쓰
##해져
##공론
##중탕
##모당
##의문
##나식
##요절
##인가
##파이
##림면
##만금
##신선
##호구
##문감
##uch
##잡영
##불리
##심서
##심설
##주구
##프레
##oy
##mer
##금도
##언론
##EN
##오름
##익스
##차이
##하루
##엄구
##외교
##북리
##ks
##ᄂᆞᆫ
##술원
##체아
##체요절
##설직
##습지
##딸기
##렌도르프
대한변호사협회
서울아시아경기대회
신라토기
국가주의
사이언스
기술사
민족사
형식담
302
259
행정자치
인간상
산업공학
비교문학
내려앉
보살형
정보원
조정관
문화재청
가사체
293
317
해석학
세로띠
지급인
328
348
385
겨울새
##hel
인터내셔널
장애자
서사민요
1368
봉사자
순수비
전신상
기울인
방위세
532
일어났으며
513
서정쇄신
545
보리타작
신민주
실업자
합리주의
건조물
1014
태자태
합쳐져서
681
1421
1579
국경선
한림별곡
##독립단
음운학
의성어
어사중승
주둔지
생겼으며
수성구
스페이스
김진호
온천수
군현제
세워졌으며
도화원
들어온다
김재로
##대성전
황금색
단오굿
1490
스테이지
##문하평장사
히로시
찌르개
유격전
아카시아
느낀다
마구간
##own
자아낸다
김형직
곁들이
서간문
겹쳐서
김만기
광무대
홍익한
수공업자
스크랜턴
부딪치
금정산
군의관
승선원
취약점
무오정변
지켰으며
##베이거스
라스베이거스
광개토왕릉비
프레드
맞아들여
구산선문
All
##약사여래입상
군자감정
백일장
부끄럽
안강읍
##극락회상도
유마경
남려궁
증여세
재조명
최인규
파사이사금
침엽수림
권문해
##삼매경
만리장성
송치규
##스레피나무
집게손가락
##지심체요절
부석면
시헌력
핸드볼
월인석보
알프스
무찔렀
거류민단
절첩본
아뢴다
향신료
춘당대
사온서
##ield
수채화
엽록체
흑단령
아폴로
발자취
캐서린
감탕나무
육주비전
에인절스
##철자법
레퍼토리
이윽고
행정자치부
Don
IP
ML
MGM
Sw
cc
가업
가식
가함
갇힌
감해
감군
개두
개비
개산조
거병
걸림
경양
경하
경설
계피
고역
곱돌
공효
공박
과원
관안
괴원
교남
구려
궁지
권이
금와
김돈
김철수
김삿갓
깃든
깨어나
끓일
끼운다
낙시조
낯선
넘어지
노은
논지
농협
뉘우
늘씬
다인
다과
대풍
대팻
대곡사
던진다
도예
도괴
도울
독살
동녕부
딱정벌레
똑똑
똑바로
력사
루시
리트
리식
링크
망실
매창
머루
메모
메릴
명구
명회
모곡
모필
모름
묄렌도르프
묘년
무부
무에
물상
물동
뮈텔
미식
미늘
바야
박초
박의
박철
반인
반년
백희
법운
베르크
변의
별신제
병참
볼리
봉심
부천시
분도
불미
불림
불통
빗장
사별
사욕
사브르
사스레피나무
삼교
삼원
삼덕
삼봉집
상덕
새문안
서례
서녀
서언
석두
선죽
설암
성한
세악
세검정
소공동
소크라테스
손재
손순
송창
송충
숙천
숙환
숙지황
술수
숯불
스루
스맥
습자
승습
시모
식학
신군
신반
실마리
심음
아과
악성
알마
약어
양악
양순
양부인
어는
어르
언기
언도
여양
여연
여준
여닫
여준다
연미
연로
연광
영귀
옵션
왔었
외청
용장사
용연사
우니
우람
우간의대부
원안
원폭
유청
윤허
율리
율법
으라
은파
음량
읍치
이율
이뤘
익랑
인색
읽혔
임해군
자화
자순
자폐
자배기
잡병
장종
장적
장건
장책
재향
전율
전탁
제이크
졌으므로
조물
족좌
존귀
종부
종요
좌간의대부
중양
지운
지짐
지귀
질타
차정
차조
찬가
창동
책장
처인
천총
천강
철당간
청제
청전
쳐다보
총구
총합
촬요
최국
최계
춘면
출중
칙서
친서
침선
카리
카타르
타입
탈옥
탐독
탕진
태허
통째
퇴출
투석
판판
판하
평온
폐모
품성
하자
하빈
학우
한흥
한광
항간
해악
해모
해요
해골
해냈
향원
향관
허령
헤겔
현현
현경
현묘
혈암
혜통
호프
혼춘
홍국
화락
황구
황혼
후당
흐리
흐려
힘껏
##유기
##유원지
##소스
##소매
##낭자전
##석의
##동무
##출척사
##대록
##대의
##정려
##자의
##자연
##화전
##령산
##수림
##총림
##루리아
##도요지
##속기
##조상
##창단
##이언
##무대
##진도
##바야
##강개
##파도
##시옷
##회상
##봉도
##낙새
##아기
##복식
##씨삼
##ole
##야도
##필경
##박스
##급회담
##능력
##디스크
##법어
##입석
##백서
##데리우스
##애국단
##폭탄
##닌다
##링턴
##블로
##ᄒᆞ
대한올림픽위원회
구성군
경기력
기술직
이용도
이용해
257
행정관
산업기지
걸쳐져
평양신학교
보호자
보살펴
505
502
업무상
세워야
신앙심
예술제
대전시
국회도서관
297
정원용
고대인
인천국제공항
인천안목
군수품
국어사전
유명하
354
구멍무늬토기
동국지도
동국문헌비고
332
계약법
김영철
451
이수일
가져갔
극락정토
동맹회
강제집행
태평가
안방준
금동여래좌상
못했으며
지난해
경쟁자
1367
소년원
국문연구소
김성현
노선영
화엄경소
고성읍
993
김수장
예방법
585
연못가
686
사관생
화산암
도망갔
멀리서
920
회계학
석유파동
평생교육
장성택
금성면
##out
불신임
받아들여졌
남동생
관동군
관동팔경
유희요
토목공학
스케치
만일회
석굴사원
소상팔경
박종철
수혈주거
김우진
##ute
1320
감로탱화
풀려난
대종교인
청룡영화상
접속사
경무대
서두르
성황신
상반기
동진강
금오위
송준필
트랙터
개천절
초계문신
전리품
손꼽힌다
도피안사
장미과
군국주의
복숭아나무
광개토대왕
동호회
오주서
가와사키
소나타
조그맣
신미양요
프라하
튀어나오
위사공신
기발이승
회동서관
연자매
인목대비
이몽학
네이선
김득신
Univers
징병제
이앙법
불가사리
지자체
추풍령
공증인
흘러나오
지에밥
도란형
준결승전
민종식
지광국사
현진건
표선면
대동단결
비망기
간화선
추징금
실향민
##타고라스
이시애의
오로라
망부석
차범근
##호적대장
한국방송공사
비분강개
익재난고
최언위
폰티액
CEO
금합자보
하후연
역옹패설
데시데리우스
선죽교
스맥다운
해모수
And
IV
Qu
with
ᄋᆞ
가언
감신
감목
강용
검상
격목
결락
경량
계봉
고진
고왕
과열
과언
관고
관록
광평대군
교착
구설
구웠
구한다
군포시
굳혔
권성
권덕
귀리
규소
금패
금도
길잡이
김단
깨진
꼽혔
나복
나설
난호
남가
노포
눈두
니코
다든지
다나카
단신
당후
당악기
대미
대척
대요
대시
대오리
도석
도무
돌진
동령
동락
동춘
동규
뒷마당
들쥐
딸기
땅속
떠들
뛰쳐
로열
마셔
마광수
막사
막스
만언
만하
말굽
맹산
맹렬
메추
멩겔
면앙
멸실
모문
모건
모션
문후
문얼
문갑
문천군
물욕
미꾸
민공
밀성
밀림
반유
배관
뱃사공
보학
보합
보즈
보릿
본고
본업
본분
본궁
봉장
봉성사
부본
북악
분회
불거
불능
비나
비빈
사한
사감
사칭
삭스
상월
상청
서직
선용
섭리
성냥
세일
세오
세배
소스
소맥
속자
수아
수촌
숙달
순진
쉬워
습한
신실
신물
신권
심진
심계
심체
심곡사
아악기
알갱이
압량
앵글
야은
약리
약과
양백
양귀비
어중
어허
언동
여비
역인
역역
연파
연통
연복
연나라
연산면
엽서
오렌
옥순
왕손
외이
용은
용식
우시
우탁
우점
운부
원승
월평
유척
유편
유불
유백
윤락
율리우스
융희
은봉
의소
의영
의승
이열
이임
이벌찬
익실
인진
임동면
임세영
임꺽정
잎갈나무
자대
자나
잔혹
잡화
잡희
장두
장암리
잿빛
저버리
적리
조려
족제
종점
죄명
주황색
즉결
즐긴다
증장
지참
직학사
진북
진충
질정
짝수
짠다
차상
참변
채전
철전
청음
초량
추어
춘방
출강
칭해
칸막이
커리
타성
탄강
태서
테제
토해
토혈
통판
퇴로
투르
틀린
포보
포시
포터
표의
프레이
피타고라스
하조
한길
한껏
함남
합해서
행지
행처
허성
현문
협찬
혜숙
호에
화통
환가
환송
회개
훈육
휘둘
흑수
흑립
흘렀
흥리
흥성
히말라
##사론
##들인
##가톨릭
##39
##부채
##구름
##교동
##루비
##루션
##도록
##해협
##방리
##ron
##ai
##진무소
##ier
##다경
##추진회
##비평
##간호
##양명
##명창
##열사
##문적
##태영
##그러진
##과학회
##용지
##어든
##어목지
##삼사
##EL
##박달
##AC
##vent
##헤이
##토막
##티니
##반구
##처녀
##브라
##키노
##TO
##따로
##막신
조선정
조선광
그러다가
한국노
한국대중
대학신문
학교명
도서실
민족문화
통일주체
자연호
국립공주
지도력
신문학
신문관
409
부인병
공사장
민속음악
불리우
가로무늬
지대장
문헌비고
이사금
대동미
임시수도
부정굿
다리밟기
천연가스
한성사범학교
지장신앙
이기호
미륵암
342
김영하
철도청
384
학과목
이정은
불러들여
사회주의자
399
금속공학
424
지형도
공무원교육원
그리스인
수군만호
이원수
524
529
공공연
설계도
복합체
유전체
##과학관
1352
여진정벌
1454
1458
부지런
소작지
685
임원진
내렸으며
비행대
조국광복회
김동환
보험료
기름진
오언시
926
증보판
기상학
1540
최우선
1562
이영학
토끼띠
도화선
강령탈춤
김재규
위성공신
문묘제례악
수종사
요동성
1493
연원록
시무책
그물추
유연탄
구부리
##음악상
자장가
김지훈
안양사
정제두
##개발은행
송병준
배수구
보문품
늘어났으며
아스카
동리산
기다린다
끌려갔
여유당
초서체
매개체
계림유사
##바위보
거둔다
특산품
가전체
농상공
숙위학생
부딪혀
홍예교
숭실학교
대교구
계원필경
수렴청정
우도농악
자이다
노령산맥
도순찰사
에스메랄
경판본
가위바위보
두터웠
조천읍
하수오
박공지붕
윌리엄스
후삼국시대
##국제학교
통속소설
고로쇠
일광보살
참찬관
니콜라
안기부
구양수
이극로
기축옥사
복각본
독주곡
수산업협동조합
하남시
이안눌
클래스
인목왕후
장영실
##반야바라밀다경
세모꼴
적상산
베이스볼
장갑차
성암고서
Amer
윤용구
국민대표회의
북아일랜드
사개치부법
내한성
아난존자
한국전력공사
육자배기토리
서현진
당분간
홍준표
John
벨라루스
조면암
조호익
일변도
데라우치
병충해
대릉원
##감리회
제삼자
더글러스
정범조
미네르바
산비탈
Baby
방각본
비슬산
현제명
흑요석
경성방송국
##상륙작전
떠돌아다니
반봉건
난호어목지
눈두덩
문얼굴
히말라야
한국대중음악상
민족문화추진회
통일주체국민회의
에스메랄다
성암고서박물관
AS
Is
PSI
Ser
sc
가양
가통
가액
갈리아
갈고리
갑문
개나리
거수
게이지
견룡
결세
경일
경멸
계미자
고트
고화
곡창
곧장
공도
공면
과료
관변
구종
구태
굴하
궁문
규수
기꺼
김예
나자
날렵
네버
노드
농번
높다란
뇌우
능형
다사
단천군
단모음
당고
당구
대은
대퇴
대광대
도림사
독고
뒤바
떠도
떠올리
라식
리지
리서
만담
만과
말씨
매상
면목
모조
모모
모략
모리스
목질
몸매
무착
무환자나무
묵객
미제
박남
박과
반룡사
발로
발복
발맞추
방략
배연
벌일
법왕
병단
보군
보잉
보석사
복천사
볼기
봉덕사
부심
북사
불살
불좌
불선
불빛
블로
비린
비친
비술
빅뱅
뻗치
뿌린다
사대문
사카이
산미
살핀
상심
상직
상근
새싹
새만금
선릉
선희
설시
섭사
성무
성임
세벌대
셰익스
소소
소강
속할
손위
순오지
술병
슈트
슈뢰
스태
스콧
시우
시금
시댁
신승
신백
신맛
신계사
싱어
쌀알
썰물
쏟아지
아방
아저
안사
알린다
액면
야노
에프
연약
열조
염치
옛길
옛부터
오식
옥인
옥봉
온릉
왕창
외각
용골
용광
용산리
우천
우각
운운
운판
운집
월주
위례
위신
위직
위클리
유송
유숭
육례
은병
의이
이글
이겸
이무기
이출목
익룡
일경
임박
입동
입속
잎겨
자성군
장보
장파
장토
저인
전몽
절풍
젓국
정업원
조생
조곡
족하
좌산기
주수
중권
즉석
진퇴
쫓기
차수
참구
채찍
척족
천간
천억
철부
청황
초종
초암
총본부
최공
최봉
최숙
층수
치른다
친국
친절
칼데
컨테이너
클라이
탄금대
태만
통절
퇴비
퉁구스
판적사
패인
폭설
하직
학감
한당
향부자
허봉
허술
헌사
헌기
홍해
홍춘
화이
화복
화하
화성군
황용
회벽
획관
후루
후실
흥주
##스텐
##드랑이
##업주식회사
##행상
##가도
##소경
##소주
##산타령
##대좌
##정의
##교지
##모범
##단구
##의약
##ty
##성쇠
##허가
##마라
##개나무
##재그
##요르
##꽃나무
##실명
##추진
##얼리
##경험
##제례
##제부
##시보
##노조
##회전
##호제
##생가지
##ᄅᆞ
##합창단
##25
##접종
##병부사
##물고
##금제
##어두
##어낸
##오세
##메로스
##하르트
##내편
##반자
##건국
##검무
##녕군
##체자
##귀신
##귀굿
##궁주
##애기
##협약
##권씨
##참모
##벌국
##닉스
##날레
조선어사전
한다든지
대한매일
대한천일
사람됨
한국수
사용량
연구사
기념탑
나무토막
운영비
산업훈장
도시조
내려놓
내려간다
대구면
마음껏
광복회
이해찬
교회사
안동군
처리장
근대국어
옮겨간
농업협동조합
문인협회
나타난다고
고등기술
동물학
법률안
화엄일승
교통망
식물상
보수주의
얼마간
327
감사관
궁중무
창작단
창작극
가마쿠라
청자상감
검사국
물리쳐
로마인
이제신
진흥회
합의서
523
북부여
518
478
548
495
성행위
정지상
568
복식금제
예방접종
문예운동
레이다
김제군
비상시
문수산
밀접히
사후선
##라이터
머무를
신청서
원수부
조개류
정수장
베이루트
동정직
760
##ase
1551
1547
폐쇄성
폐쇄음
동성촌락
신주쿠
연령층
한산이씨
##삼존불좌상
##국어문법
토끼전
810
##르트르
방사능
이리저리
예문관대제학
이준기
##oss
늘어뜨린
평조회상
1219
사간원헌납
무인석
박문국
세련미
운문면
중소기업청
Star
베르나
부원장
암반층
만수위
데려오
유식사상
진해구
도솔산
학도병
광업소
을까요
조운선
아사미
집사부
조현명
박인로
강동구
송정동
원경왕후
청진시
각성촌락
소아과
##벽화고분
수월관음
국자감시
어지러워
솟아난
이호민
꾸민다
공명첩
분비물
브루클린
이운룡
잉어과
삼남지방
구개음
법성포
미추왕
하반부
북극성
장마철
일조각
성폭력
조왕신
##약사여래좌상
사운드트랙
거미줄
굶주리
영종도
비대칭
박춘재
안국사지
도진무
트로트
정봉주
KTX
신무왕
파랑새
로맨틱
무찌른
오구굿
쉬우므로
갈릴레이
수족관
눌지마립간
경기체가
황윤석
삼일포
이륜차
장호원
지그재그
놓아두
페니키아
고티에
변강쇠
칠정산내편
논공행상
마카오
희로애락
겹겹이
흑치상지
계루부
센티미터
초승달
JYP
기삼연
걸터앉
암브로시
사이퍼즈
스릴러
춘면곡
농번기
셰익스피어
아저씨
잎겨드랑이
좌산기상시
##실명제
대한매일신보
대한천일은행
고등기술학교
CC
Co
Har
LE
Man
ar
is
pr
ᄃᆞᆯ
가칭
각궁
각설이
갈퀴
감부
감계
감칠
강병
개천사
거유
거르
거늘
검도
격투
경례
경방
경박
경혜
계고
계상
고재
공생
공보부
관은
괴로운
교살
교와
구륵
구활자
국비
국을
군가
굴원
권호
그로
금루
길지
꽃대
꽃게
나포
나눔
남학
남변
남연군
낭송
내단
내신
내벽
노련
닛폰
다홍색
달아내
당숙
대재
덕명
덕주사
도야
돌난간
동본
돛대
두운
두둔
뒤쫓
들여서
들으면
루돌프
마드
마두
마취
만종
만어
말안장
망주
매산
맥스
맥도
맹수
맹호
멜론
면회
명원
명곡
몸담
문질러
물매
미화
미감
미련
밑바탕
바빌
바구니
박목
박력
박원종
반비
발흥
방관
배알
백질
백하
백운사
벌거
벗긴
벽산
병학
병오
복병
본뜻
볼트
부감
부내
부러지
북수
비부
비동맹
사탑
산상
산돌
삼불
삼절
삼출목
상존
상책
서불
서하
선혈
설채
세사
세정
세찬
소세
소굴
송제
송심
송어
수금
수륜
수험
수안군
숱한
슬라브
승조
시동
시온
신후
신표
신홍
쑨원
악역
안구
안명
안덕면
알콜
암울
액정서
야담집
약목
양시
양동리
어세
어모
어명
얼어붙
에트
여물
연립
열림
영공
영좌
오준
오선
오누이
옥외
완판본
왕재산
외장
외증
외판
요서
요술
우안
우신
원행
원임
원선
월사
유업
유곡
유임
육효
윤우
윤성
윤극
응이
의조
인텔
입력
자판
자릿
자줏
자외선
작지
재이
적처
전폭
전조선
절리
절부
접주
정록
정총
정물
정발
정격
제분
제우스
조열
조끼
종무
주나
줄포
중현
중학생
증심사
지종
진일
집주
징비록
짧아
차역
채종
책무
척후
천령
천읍
천선
철채
청리
청단
청봉
청평사
체성
체측
초전
총영사관
최일
춘경
춘풍
출하
카누
커넥
콜라
크롬
타오르
탁발
탈북
택견
토방
통유
통의부
파키스탄
패해
팬클럽
포미
표식
풍채
하엽
한소
행은
향소
현곡
현격
호원
호계
호반
홍귀
화장사
회경
회회
회주
흑각
흑피
흥학
히타
##유격대
##고속
##고름
##스틴
##포집
##상군
##기상시
##가례
##가래
##40
##소포
##지왕
##지문
##동패총
##부처
##안민
##도기
##도치
##공히
##공학회
##조절
##이정
##rit
##성학교
##다오
##서울
##계유고
##양기
##양전
##만리
##만상
##흥리
##신경
##명현
##생전
##통기
##통론
##집략
##더릭
##아찌
##예부
##준비
##어제
##삼천
##삼청
##야구
##버님
##메이트
##필지
##급사
##AL
##티브
##코스트
##법수
##광주박물관
##넘기
##궁이
##약조
##독떼기
##죽리
조선학생
구성비
경기만
중앙선
독립문
기술진
음악사
음악제
영화관
남북협상
국립광주박물관
자유민주
부산물
유지광
287
경전철
대동청년단
태조왕
어린잎
진주검무
천연두
국어순화
아미타삼존도
건너방
은행장
무역항
326
고문관
취임식
철학박사
장기영
우물물
무용단
평화상
태종대
김대문
##atus
서북방
바깥마당
이황의
다듬이
이중모음
귀중본
보조원
557
김종한
기획부
화폐단위
여인상
동화집
항일유격대
##문화협회
664
662
김상옥
한성부민회
655
소금강
수양론
모래층
1671
625
국토교통
보상당초문
소작쟁의
함흥부
고도이
1477
천문동
상례비요
1385
보현산
원시불교
행랑방
이관하
서낭제
서낭나무
922
마이너
김기림
1584
690
생겼으나
고지대
정토사
1554
구원관
830
신흥군
1486
1480
잡혀갔
텔레콤
이마니시
##reat
1512
열렸으며
이장곤
살아갈
살아간다
창의문
관동지방
##osa
진공관
김천택
꾸며졌
김병로
단오날
사마방목
가해진
##발전소
다이쇼
아리우스
야마우치
경신학교
1325
법화삼매
스트리트
수레바퀴
김응하
이단하
복음서
우산기상시
짜여졌
표고버섯
중동학교
뛰어났으며
부적절
이두문
이효석
상반부
감지금니
모리슨
챔피언십
날아와
노부나가
부응교
신유한
후사르
자물통
웅진도독부
사복시정
세탁기
전생서
휴양소
되돌아오
자양면
기전체
김흥락
남종화
친근감
흥덕구
국가보위
##노스케
노랑부리
명실공히
가파르
귀면문
사나운
서봉총
군법무관
안병찬
멜로드라마
봉서사
킬로그램
김헌창
쟁탈전
지모도
홍영식
정두경
플로리다
반신상
갈릴레오
얽매이
벤처기업
송덕비
합자회사
총대주교
철쭉나무
##의용대
떠받치
농수산물
팔달구
리플리
북풍회
##프로그램
삽교천
혜민서
형산강
한국교육개발원
저마다
해심밀
조선연극사
구스타브
홍길동전
등고선
차세대
동그란
콜롬비아
무임소
브로드웨이
세창서관
영결식
앤더슨
추미애
권연하
에픽하이
미꾸라지
기꺼이
구활자본
윤극영
자줏빛
자유민주연합
국토교통부
CI
Cor
GO
Night
OEC
Res
SD
Vol
as
ph
가탁
가쿠
가첩
가짐
각고
각산
간질
간평
감식
강운
거인
건괘
격돌
견본
결한
경행
경차
경아전
계본
계족
고여
고매
고학생
곡산군
과오
관향
구언
구묘
구천동
궁수
그야
그게
근화
근검
금과
급대
급전
기안
김행
까투리
끼니
남형
남복
내서
내승
내다보
냉장고
노기
녹읍
농우
능수
다구
다로
다국적
단비
닫힌
달팽이
당함
대병
덕문
덕주
도품
뒤꽂이
땔나무
뜬창
라라
라디
랴오
레즈
로구나
론도
리니
마병
만법
말법
말채
망신
망개나무
매음
맵시
메탄
메탈
명조
목깃
몽타주
묘전
문배
문밖
미행
민태
바타
반음
반딧
방군
방진
방불
방납
밭농사
백세
백흥
벌어진다
범상
병중
병방
병전
보소
복관
부루
부판
불식
불시
불하
불회사
블랑
비송
비룡
비와
비웃
빌라
사청
사봉
사손
산당
산타
삼제
삼짇
새타령
생의
서국
서형
서궁
선흘리
소미
소만
소갈
속일
송부
송재
송응
송별
쇠못
수권
숙향
순양
순무사
술년
슈트라
스턴
승속
승적
시들
시스터
식혜
신항
신필
신빈
신말
심전
쌀가루
아으
아욱
안덕
암줄
암나무
애민
양택
양병
어인
업사
여로
연월
연철
연시
염류
였으면
영경
영본
영가지
예루
예덕
예쁜
오니
오돌
옥추
온다고
완간
용원
용제
우렁
월천
위증
위턱
유미
유어
육두품
윤유
윤재
윤미래
은선
이위
인맥
일인
임장
임직원
입전
자미
자바
잔해
잡음
재명
적립
적외선
전심
전입
절강
점막
제포
조아
족친
주련
주어져
준회원
중덕
중궁
쥬얼리
지윤
직성
진교
집산지
창우
채봉
책립
처절
척독
청간
청한다
체의
초소
충순위
취두
침착
크낙새
키예프
탑리
태호
터치
토스
토가
토단
통식
퇴조
투하
특종
틈틈
파총
판밀직사사
패밀리
편익
평의회
포악
포탈
표층
풍격
피휘
필원
한암
할로
할애
합산
혈맥
형장
혜장
홋카이도
환총
회정
효정
희령
##유곡
##고승전
##민중
##동계
##동본
##일동
##자스
##미드
##ep
##sch
##니파
##개시
##다랗
##강병
##서간
##파크
##추동
##제지
##양리
##LC
##95
##문트
##심의회
##걸음
##집해
##여대
##살렘
##극렴
##레코드
##버려
##쿠르
##반죽
##표준
##테이션
##설헌
##fer
##뽕나무
##란트
##란히
##셀러
고려대
연구비
활동가
중심가
중앙지
독립투사
정치국
통일정책
국민장
자연지세
만든다고
의식주
유물론
대사자
상대등
부사관
소설사
바로크
정신병
281
신앙생활
민속춤
석조여래삼존입상
문헌정보
대청도
후보자
번역문
치료비
방어진
활용형
321
시집간
와서야
연화산
인민대중
##공업지구
철도원
386
##산리고분군
농촌활동
벼슬살이
통제력
374
동남방언
타이거
군인전
이황은
396
연장전
금동보살좌상
일체감
1364
산지기
418
643
신경행
436
이종기
1439
992
##ite
정주군
자치제
진보신
이건희
이경여
687
명부시왕
정성공
비서성
정선아리랑
한림읍
##라이어
826
822
886
가진다는
610
전화기
장승택
추녀마루
부흥부
연수구
##eth
1549
상고대
총재관
동성동본
870
향해서
김광석
봉산동
이지함
지방관제
##아미타불
늘어남
강사포
염색체
심경부주
이방실
천인합일
나비춤
병부령
고위급
구부린
변이형
야마구치
##ular
박태선
연금법
의정서
완도읍
영등신
더러움
##한국국제학교
최상수
재령강
에이리언
경도잡지
##oci
영흥군
##문헌총록
양념장
경학원
반공법
가벼워
길상면
진경지
시흥시
무자비
제후국
박진감
가창력
백인걸
방풍판
구운몽
오프셋
적석총
##석조여래입상
계엄군
김소희
단성면
법신불
몰아넣
마하연
아치형
가맹국
저명인사
최유청
##제일교회
##묘지명
양현고
미비점
굶주린
승병장
##자문회의
관악구
애호가
적개심
유심춘
박원순
방호별감
내물왕
경재소
대서양
마스터스
유망주
국민정신총동원
남병길
총무원장
카를로스
부드러우
후발해
윤순거
한효주
라이온스
박두진
강북구
오명항
어랑천
NHK
부국강병
하노버
기독교대한감리회
앉은굿
왕검성
목호룡
제너럴
##처벌법
서울특별시장
강민첨
달서구
외거노비
특공대
Music
반교문
모밀잣밤나무
##공무원법
오렌지
탈북자
뜬창방
백흥암
삼짇날
슈트라우스
예루살렘
틈틈이
문헌정보학
AKA
CP
DP
DR
Dream
OB
Pop
So
To
UP
or
갈고
값진
강단
강양
강심
강응
강복
개똥
객성
객차
거위
거침
걸사
검술
검서관
견사
결절
겸병
경교
경단
경색
경배
계인
계위
고압
골패
공무역
곽지
관천
관건
관란
광록
광도
광공업
구대
국주
군부사
권준
균전
그친
그레이트
근현대
기청
김립
김활
꿋꿋
끊어졌
낙조
난소
남수
남남
남호
남주
남감
내고
내치
낸시
노가
누드
누른
느려
니다
다이어
달이
대타
대저
대토
대묘
대백
덧대
덮이
도탄
돌궐
돌하르
동로
된소리
될지
두형
두툽
라가
로라
막료
막바지
만찬
맞먹
매니아
맹활
머턴
명재
모도
모내
문암
물대포
미션
미얀
방명
방심
방죽
배판
백영
백복령
벌판
법지
베테
변천사
별검
보본
복인
봉정
북포
북성회
분만
비국
비품
빠질
뽑아내
사춘
산본
산전
삼위
삼색
상간
서른
서빙고
석산
석지
석곡
선본
설상
설산
성회
성담
세선
섹스
소릉
소농
수택
수청
수력발전
순이
순문사
슈타인
스기
스가
시첩
실세
아다가
안공
안조
안호
알력
약기
양우
양친
언젠
에미
에세이
여리
여세
역조
연민
연군
연륙
열양
염파
염거
염습
영운
영숙
오형
오심
오응
오차
옥원
온역
완곡
왕당
왕문
외종
외다리
용부
용아
우무
우발
우뢰
운자
운강
웃방
원증
원음
월선
위봉사
육질
윤채
윤이상
율려
율곡사
은적사
읍사
응석
의업
의친왕
이원군
인승
입실
자복
작시
잡무
쟁송
적중
적격
전왕
정목
정우회
정평군
제찬
조남
조여
조과
조역
조혼
종리
좌경
주철
주혈
중천
중금속
지초
지론
지본
지져
지발
진우
진잠
집념
창진
창영
철정
철주
철야
청현
청남
초학
촌수
총람
총알
최중
충부
취성
치포
치워
치맛
칠현
침향
카로
캄보
코리
콤비
콧등
클레오
타전
탈영
태기
터리
텅스텐
토역
통근
퇴원
투시
티저
팀장
파조
파마
퍼내
페트로
편력
평형
평복
포현
포이
풍문
풍차
피정
피어나
필집
필획
핑크
학록
한스
한응
할례
합중국
합스부르크
해월
해직
향학
향한다
허천강
허덕이
헌안
헌공
헤어졌
현청
현액
혈서
호메로스
홍관
화지
화방
화용
화피
화력발전
화조화
환정
황포
황문
회재
횡적
효가
효원
후소
휘어져
휴업
흉례
흐린
흑운모
희화
##들노래
##석주
##지주
##동우회
##보육
##화음
##학술원
##악사
##공파
##중생
##단오제
##무진
##무니
##cus
##har
##ton
##바타
##na
##iam
##영양
##철광
##한지
##시나무
##양행
##양이
##75
##타바
##운대
##열전
##태권
##윤음
##각층
##병좌상
##육부
##전시
##메트
##하생경
##촌유고
##반공
##덜미
##광성
##면세
##건물
##홍련
##랑가
##녹사
##견례
##훼손
조선전
지역사회
1100
국가관
생활지도
마을신
소장파
행정심판
백제인
영화인
사찰령
전쟁시
제주대학교
문학자
여성학
결정체
대한민국학술원
금강삼매경
함경선
271
새겨서
이론가
양성면
299
이사국
정상기
세운상가
고등검찰청
개정판
인천상륙작전
지배력
기사단
아미타구
부대장
지휘부
어깨선
해외취업
자격정지
344
성주사지
수출품
명령형
동양학
455
고인돌군
근무일
가구재
개국공
유치환
수정봉
##부인과
428
아랫사람
연속극
1360
486
경비사
433
435
510
김상현
날개깃
맞이해
보리심
정주학
정주간
##사자놀음
영양사
영양학
넘어간
677
1375
명예훼손
제석굿
순조실록
1475
소지자
원통암
이시방
머무른
928
1106
1109
1102
벽돌무덤
전도부인
주기성
정토사상
구원병
유아기
일으켜서
872
현행법
전염성
정읍사
1516
1518
1281
단정히
김광수
조영석
975
김치인
1498
신광수
대도호부사
간사이
천리교
##igg
폐기장
북청사자놀음
##관리법
김응조
1135
도가니
원예학
##선도로
상담소
남조선과도
완산주
탐라국
나선다
다년초
미륵보살상
소고춤
부딪히
솟아오른
허튼타령
내림굿
구형왕
이왕가
성북동
유시진
가래나무
계엄령
소승불교
서강준
주청사
동호인
음료수
설문해자
휴양지
웅천주
권선문
이채롭
싸리나무
각계각층
기공식
아미노
굴도리집
도회소
빨간색
동음어
장화홍련
베드로
삼청동
선제골
목민심서
슈테판
조선중앙일보
##민주주의전선
실사구시
까다롭
우울증
화회문기
회맹록
PAOK
저기압
낙질본
임산부
북조선노동당
엔지니어링
오호츠크
월등히
개구부
트로이아
갑작스럽
수다사
바티칸
불기소
취발이
휴게소
직파법
##외국어대학교
가릉빈가
빈틈없이
송설체
하소연
단막극
정거장
조국통일민주주의전선
안규홍
허드슨
동두천
박도영
민족자주
모름지기
국립공주박물관
여유당전서
농상공학교
박목월
돌하르방
두툽상어
맹활약
삼위일체
열양세시기
캄보디아
헌안왕
장화홍련전
AC
AV
Fe
Gu
Life
TCA
YG
ZARD
가고
가연
가용
가배
가릴
각연
간연
갈족
감미료
강왕
개기
개그
객지
거죽
건천
격치
견록
견대
경공
고락
고랭
고충
고다이
곡리
공릉
공범
관령
광신
교배
국리
국새
군담
굳어진
궁금
권마
권람
권시
권극
귓불
규암면
그칠
그램
금분
기천
기창
기서
기시
긴박
김미
꽃병
꾀했
끝냈
끝낸다
끼어들
나기
난세
남고
내조
내아
널뛰기
넘버
노어
노박
노랗
놋그릇
니슨
다부
닥쳐
달기
담박
당골
대는
대할
대반
대반야경
더빙
덕솔
덧입
도판
도응
도침
도맥
동티
동학교
동유록
뜨거
로보
루기
루비
류인
리원
리베
말소
말나식
맨손
맹주
맹목
면소
못해서
묘주
무섭
무덕
문진
문설
물살
미개
미코토
밀사
밀약
바랐
발끝
배워서
백포
백룡
버릇
벅구
번진
번데기
변고
병존
복록
봉남
부금
부레
북해
북양
불령
비편
빙빙
빼어나
사요
사운
사저
사와
산장
산음
산역
산부인과
삼헌
삼거리
상규
서창
서바이
선남
설축
성윤
세지
세발
세션
소간
소묘
속여
송우
송라
수룡
수액
스팀
승의
시누이
식해
식장
식탁
쌍두령
쓴다는
아령
아다
아파
악정
안유
안다
앞잡이
애쓰
약서
양리
얼핏
엄수
에겐
여경
연창
열릴
영합
영탑
오물
오온
오천면
오피스
옥루
와일
완상
왕안
왕계
용천사
운당
웨슬리
위의
위독
유당
유운
윤심
윤응
윤여
윤임
율조
읍민
이애
이즈
이즈음
익지
인만
일색
임중
임방
입암
자파
자애
장희
재우
재구
재자
재시
적소
적천사
전안
전질
전어
절친
점선
정향
제니
제역
조학
조숙
존치
좌장
좌담회
주곡
죽창
중책
지노
지밀직
직부
직주
차병
찬기
참빗
책훈
천곡
천막
청빈
초려
초음
최학
최무선
추문
춘성
친환경
카터
코피
코페르
큰상
타리
타구
탈세
태워서
테이
트렌
특용
티끌
팥죽
펌프
포류
포루
포이어
품일
품평
풍우
풍유
풍신
풍산군
피자
필진
하진
하복
해초
해파리
행도
행과
향화
향합
향역
향풍
헤어진
현동
현채
혜철
화중
환급
환약
환성사
황수
회록
회진
회혼
획책
흥덕사
희릉
##사학회
##유전
##스케
##리즘
##상사
##기연
##가단
##소총
##소니
##지신
##지름
##부장
##일주
##일관
##정도감
##축전
##자비
##자탕
##식산
##초목
##안지곡
##루왕
##해살이
##공개
##중석
##장교
##나방
##cl
##ha
##성법
##ean
##ience
##증손
##니쿠스
##다락
##재기
##영가집
##존도
##한사전
##청소년
##만큼
##연서원
##신라
##낙도
##문초
##up
##불문학
##집람
##살림
##색조
##주해
##뜨릴
##르노
##코쿠
##매리
##옹유고
##염료
##백희
##히데
##러드
##베이스
##배원
##권공
##네센
##댕이
##빌리
##멘스
##빔밥
##튠즈
한다거나
시대일보
##학교육
사용료
지방도
국가원수
사이시옷
대학살
세계인
문화체육
역사책
자연재해
백제부흥운동
규정집
고구려어
여성부
보통교육
좌우명
금강문
감독관
석조대좌
문화재보호법
아이튠즈
보내왔
국회법
찾아온다
세종대왕
대동회
경성일보
나타난다는
부정자
##운동연합
농민문학
314
602
연기대상
도로시
사당리
완성도
357
지장탱화
방어력
703
관음신앙
우수리
금융업
333
335
337
성균관전
해외문학
사자관
다루가치
창작과
343
347
의학입문
387
아무개
아무르
고사촬요
무용총
무용극
경험방
사천대
고전주의
장서인
동학란
우승선
서사관
552
488
소년단
다스린다
학부대신
산수유
##레스크
약사사
538
개화정책
종묘제례
541
498
##어사대사
보리사
검찰소
공민학교
이화여대
654
군정장관
해양경찰
모래밭
선종영가집
군주제
1273
723
고용주
회화사
보냈으며
국악사
비행사
성문법
소지왕
1382
이규환
고령지
기호흥학회
혁신단
858
노무라
820
827
828
동방삭
958
1483
감찰대부
포도당
잡혀간
폴란드인
1176
한산도
벌였으며
고고학자
1514
신한민주당
김광섭
891
동구릉
정약전
어긋난다
자비심
수표법
축원문
토착민
김태준
이날치
수심방
1539
최영경
임신부
청산별곡
조인규
강경파
천왕봉
해금강
상여소리
심장병
1522
홀로코스트
최상위
작사가
김명순
도가사상
내려온다
여지승람
반공주의
선호도
태안반도
단속사
보림사사천왕상
숭실대학교
단골판
우사간
불어불문학
글로브
행주산성
납세자
기세배
눌러서
철조여래좌상
병인박해
이복동생
감수국사
##도회군
유년기
용호영
대출금
와룡면
누에고치
괴롭혔
구세주
안강망
교두보
좌사간
조선문단
숙박업
우월성
성덕대왕신
시트콤
USS
장용영
장복추
##상업은행
스탠드
##반대운동
고니시
등사판
김춘택
백장암
돌격대
유유자적
문간방
위화도회군
매향비
북아프리카
총목록
십이지상
서악동
성선설
임병찬
열하일기
북돋우
이맹전
낚싯대
초충도
##상공회의소
헤라클레스
워크숍
암괴류
귀여운
넘나들
성거산
금위대장
황순원
식화지
##에관한법률
금귀걸이
##고인돌
수타사
춘하추동
브라우저
송익필
황비홍
메릴랜드
보즈네센
감칠맛
OECD
김활란
언젠가
TCAS
권마성
코페르니쿠스
포이어바흐
문화체육관광부
보림사사천왕상복
성덕대왕신종
보즈네센스키
BE
Gl
Hot
an
가쓰
가할
가이드
감주
감투
검안
격자문
경봉
경애왕
계경
계체
곡주
곧잘
공허
공재
공목
과천시
곽란
교임
구교
구씨
국구
궁합
권일
귀산
귀경
귀주
귀기둥
긴염불
길사
김직
김채
김균
깎이
깨끼
꺼렸
꽂혀
끼워서
난자
날조
남김없이
내취
내설
너그
네스
노쇠
녹도
농포
농수산부
니키
다색
단음
담판
당실
당색
당번
대니
대낮
덕화
돌장
동철
동떨
되새
될까
띄운
럭키
로베르
링컨
마칠
망향
매가
맹산군
맺힌
메아리
면책
명왕
명활
모판
목항아리
몰린
몽환
무망
무더기
문현
문치
문복
문견
미끈
밀산
밀본
바나
바짝
바코드
박천군
반청
반설음
발설
방바닥
버그
범해
벽송사
별영
병우
병식
병환
보디
봉투
부음
부랑
부승지
부엉이
북행
불임
불어나
비조
비탄
사궁
사괴석
산행
삼밀
삼법
상악
상습
서에
서각
서태후
석보
선바위
성고
성민
성달
속보
손중
손탁
송명
수옥
술상
숭문
숭정전
승수
시령
신량
신촌리
실에
실연
심온
쌍영
썰매
악구
안축
안남
알영
알베르
애수
애써
양토
양말
어거
여보
여학
여묘
역산
역술
연교
연면
열주
염사
염정
염이
영시
오소
오즈
옥련
완본
왕청
요록
용의자
우역
우크
우간다
운선
웃옷
원간
원충
원손
육당
육가
육운
윤의
윤익
윤규
율자보
은장
음장
응집
의동
의발
의생활
이긍
이륙
이교도
인편
인극
인면
일로
일약
임서
잇꽃
잔칫
잡찬
장길
장위
장봉
재적
재독
적임자
전법사
절파
접장
정단
정분
정춘
제령
제릉
제택
제회
제1
제막
조택
존비
종반
죄악
주음
준호구
중미
중병
지이
직행
진계
진노
진채
집장
집서
찬품
참성단
천초
철봉
철퇴
첨서
청우
청유
청보
초선
초입
촌리
추파
추붕
충사
친권자
컨벤
콧날
탁한
탈선
태원
택호
토건
퇴간
투과
판유리
패사
편락
평천
평측
표했
풀밭
풍겨
학적
한석
항저우
해트
해머
현정
현송
협공
호아
호국사
혼탁
홍희
화척
확연
활판본
황천
황백색
후치
후작
희구
히스
##사금
##우사
##트롤
##38
##현경
##구이
##대승
##등면
##장애
##방조
##창리
##의서
##무보
##ric
##바리
##net
##iqu
##평원
##다식
##비녀
##계정
##효사
##연석
##신여
##타임
##문호
##ual
##불성
##음사
##응보
##절구
##여관
##살풀이
##프레스
##oS
##ous
##준경
##용원
##어른
##버러
##줄풍류
##직성
##변두
##변무
##하우스
##RC
##토쿠
##법화
##덜이
##팔양
##돌리
##백호
##왜변
##침례
##애나
##습소
##쇄본
##똥나무
##손익
##빙기
##막집
##텔레
##펠러
조선노농
한다든가
##0000
따라갔
그러니까
교육사
연구가
사회교육
신라촌락
관계사
중앙인민위원회
이상히
조사관
불교미술
기관장
생활필수
보인다는
백제토기
노래기
머리모양
문학회
대통령비서
보살사
보살피
종교운동
유학승
교회당
공동생활
가로지
석조보살좌상
외국문학
279
전투력
공업국
찾아낸
세종로
대동계
부정합
태조실록
가까울
특수전
고대소설
선정비
나이다
그려진다
지휘권
329
노비안
장단군
김정문
금융기관
명령서
우물가
456
가락덜이
극락세계
부른다고
지하실
이정암
정착민
주자서절요
아랫배
정규직
이주해
기획처
416
413
526
인과응보
향사례
499
이민정
브라이언
중종실록
해동문헌총록
이건명
727
589
레이더
여행기
김창숙
내렸으나
전원생활
비유법
명사형
부서진
1268
보성중학교
진상품
연평해전
925
김기덕
일단락
693
695
698
명명덕
대항해
740
가시나무
730
737
##ome
수인선
아라가야
벌였으나
##바라지
사과나무
##단체협의회
성안의
고창읍
을사오
이어졌으며
채용신
이희조
1087
##스타일
조선어문법
신정왕후
1313
메이커
예언자
세련되
##ution
적응증
시화총림
신비주의
나뭇결
##니스탄
진동수
아카마쓰
박동실
박동량
국문학사
전임자
시공관
##진흥원
##대표제
낭만파
신상옥
사계축
어우야담
범패승
긴밀히
손님굿
서상일
문정인
태사국
요양원
장본인
좌정언
멥쌀가루
명동성당
최경회
보천보
관람객
실존주의
This
예선전
마쓰에
내수사
납도리집
프레임
양서류
에드거
구지봉
김복진
가져다주
출세간
재봉틀
계수관
튀어나와
보태평지악
속기사
능가경
시용무보
허무주의
보라매
우러러
도매상
주원장
외계인
아크레
클리닉
변함없이
하마비
박유전
나당전쟁
홍문관부수찬
떠올라
동몽교관
경명왕
테크노
위항문학
한배검
관형사형
산둥반도
원양어업
유순정
조선청년총동맹
이노우
암술대
삼부경
도연명
문희옥
끈질기
움츠린
능지처
오일영
전영택
좌승상
회례연
한국과학기술원
메나리토리
피츠버그
백설기
동치미
마그네슘
ECW
고희동
japonica
##어물전
형이상학
디오니
라그나
조선물산장려
센트럴
내려올수록
최북단
한백겸
오양선
홍두깨
각세도
아록전
멩겔레
슈뢰더
에트루리아
말채나무
사춘기
손중돈
쌍영총
우크라이나
제1차
컨벤션
조선노농총동맹
신라촌락문서
생활필수품
대통령비서실
EBS
No
Pet
WHO
ᄅᆞᆯ
ᄯᅡ
가첨
각관
간년
감미
강준
강박
건도
격주
격멸
결선
경면
계천
계간지
고평
고간
고든
곱은옥
공위
공금
공암
공학회
과로
관류
교잡
구루
구워서
국휼
군진
궁장
권행
권5
권재
극력
금식
기제사
기네스
길거리
김휘
깡패
깨치
꺼지
끝마
끼쳐
끼얹
난사
난항
날라
남화
남무
내년
내무아문
넘친다
누린
늘여
단옷
대업
대독
대란
대머리
대혁명
델라
도현
도방
도용
도곡
도편수
동예
동량
동각
동냥
동명사
동그라
두량
두말
뒷소리
듀얼
디디
로군
뤄양
리모
리강
리스크
마패
마무
만가
만송
만듦
망대
망할
맹금
메소포
모녀
모하
목침
목덜미
못가
무념
무순
무차
묵살
문일
문풍
미동
미투리
민의
민백
바비
박운
박건
발림
발굽
방일
배지
배천군
배극렴
백병
백목
버클리
번민
범접
베버
변할
병탄
보한집
복거
볼티
봉과
부러진
부총장
분투
불완
브렐
비갈
비목
사굴
산산
산로
산랑
산책
삼라
삼막
삼화사
상판
샤를
서려
설중
성저
성법
세견
소은
소일
소성왕
소쿠리
손아래
솔개
솔거
솔루션
송인수
수척
수방
수오
수와
순라
순과
시양
시생
시준
시혜
신월
신본
신과
신노스케
심야
써레
아요
아막
알츠
앞가슴
애니
양발
양쯔
어감
어변
어혈
엄히
여드
여소
여공
여력
역정
역변
역암
연악
엽병
영봉
오삼
오갈
와우
왕토
요패
요크
워터
원흥
원력
원한다
월일
위자료
유위
유윤
유착
육근
윤해
은지
은닉
이로
인행
인파
인흥
인빈
인화기법
일쑤
입건
자긍
자크
잔액
잡업
장학생
재첩
재팬
저급
전택
전책
전교회
점잖
정송
제패
조파
조타
조분
종축
좌고
주왕산
죽지
죽림사
즙액
지움
진덕
진접
진폭
짐대
차천
찬시
채석
처부
천행
철변두
첩지
청절
청규
쳐내
초제공
총록
축연
출어
측지
칠장
캠벨
코다
타향
테라
테레
테런스
통공
통분
파보
팔조
퍼스
평점
포덕
포즈
표하
표피
푸닥거리
풍각
풍혈
피플
피에르
픽업
하윤
하프
학안
학질
학맥
한라
함의
함주군
합명
해령
헌선도
헛된
현의
현삼
호모
호경
혼약
홈자귀
홍포
홍구
홍여
화루
확연히
황태후
회남
회헌
후덕
후각
흉상
흑산면
흥녕
희우
희랑
희강왕
##사당
##종개
##류왕
##상규
##기호
##석부
##부원군
##부엉이
##정본
##도선
##GO
##모자
##질체
##의총
##무상
##성비
##증도가
##니에
##순보
##한족
##비명
##간첩
##연화당
##타미아
##명왕
##불감
##통례
##아프리카
##병입
##분방
##삼신
##삼품
##전국
##오가해
##직제학
##차지
##관묘
##쿠니
##AT
##입국
##매장
##건비
##번스
##머님
##카타
##백선
##첨사
##네이션
##죽문
##죽나무
##측정법
##숫대
##셉트
대한상공회의소
신라어
국가안전
이상호
이상향
정치범
발전량
민족진영
행정처분
군사정전
강원대학교
자유분방
건설부
509
405
진행자
발행자
신앙인
현상계
방송인
새겨지
환경청
찾아간
연합기업소
정원수
시험소
가정집
가정과
훈련장
인천부
개성상인
이동식
나이츠
한성기
한성순보
도로공사
지름길
358
351
전후퇴
705
신체시
국사봉
장수산
유리이사금
338
조상경
자격법
346
연극배우
##eng
성주풀이
이성구
이성질체
가져다가
판단력
개교식
소비세
원주형
중추부사
명륜동
오르내
영남대
항공우
동래야류
423
425
429
아랫입술
동학운동
906
산수인물화
원효사
국무부
기울어진
##가사리
536
염불당
이종일
점령지
이재민
565
569
판결문
마주치
678
1277
화석산지
1309
절대자
동자석
산천초목
문수암
1473
1387
630
위반자
921
929
부동사
마이너스
김기창
수십만
##명사전
피난처
정토왕생
주교회의
향로봉
아기장수
용암류
용암대지
관상수
1489
정재규
841
신당동
상원암
창의록
폭발물
잡아매
구상권
수문전
조영하
평지성
##사회주의
당산나무
1314
심해졌
광명시
사임당
진흥왕순수비
Str
몽골어
가려내
이세영
점토질
부안읍
필리프
가상히
미륵불상
금석학
용두산
영락제
충효동
앞장선
이석기
자경전
충무무공훈장
태안읍
이창배
수묵화
중력식
사미니
삼강오륜
플라토
자유주의자
김순애
##yst
정혜공주
농어민
오경석
에스파
데이터베이스
봉래산
성읍국가
고신왕지
안토니오
낙안읍성
##시험장
사가독서
대연림
다케모토
천제연
##ave
농기계
달마산
##도총제부
알렉산드리아
무르익
거느렸
주방문
해평면
정태화
홍문록
대승기신론소
삼군도총제부
선화공주
거름기
상훈법
재인청
화개면
포크볼
동유럽
경자자
정민철
양덕군
비탈면
원순모음화
폴리비
도봉구
목민관
불순물
명지대학교
휘모리잡가
참정권
장제스
흥망성쇠
영희전
오하이오
교자상
성석린
사불산
인선왕후
라이온즈
삼랑진
뒤섞여
숙영낭자전
온조왕
베니테스
대롱옥
수이전
허난설헌
오태석
피카레스크
부병제
석창포
##십육지
조록나무
김가기
##비리국
삼년상
고스란히
송자대전
우림위
말다툼
내려갈수록
청실배나무
조맹부
루즈벨트
미풍양속
한승호
University
고로쇠나무
암브로시우스
그야말로
##태권도
아미노산
특용작물
단옷날
동그라미
메소포타미아
볼티모어
불완전
삼라만상
알츠하이머
##병입사기
군사정전위원회
Ag
ABC
Cal
EU
IG
Rob
gr
가피
가얏
각재
각명
각하
각연사
간음
간토
간의대부
감잡이
강무
개사
건다
겉표지
게리
게오르
격증
격음
결행
경합
계초
계측
고송
고맙
곡우
과태
관역
관설
관욕
광자
광촉
광합성
교합
구민
구령
구덕
구선
구산리
국행
굳어지
권보
궐문
귀진
규중
금일
금모
급보
급감
기별
끝없이
나귀
난정
남은
납일
내탁
노문
논함
논죄
닥친
단야
단거리
달콤
당지
도남
도법
도유사
독감
돈화
동식
동환
동오
동변
동차
동토
두석
두곡
들끓
등정
뜬다
띠고리
럭비
로웠
리호
마쳐
마천면
만파
만만
만덕산
말타기
망어
매단
매겼
맹렬히
멘델
면민
면수
무석
무모
무영
무변
무풍
무쳐
묵직
문효
문살
밀어내
밑변
바쁘
바른다
박우
박열
반암
방경
방곡
방애
배현경
백유
백악산
벗삼
변국
변체
별고
병주
보가
보금
보덕사
보스토크
본지
봉축
봉제사
부교
부견
부부인
분정
분조
분제
불결
블레이크
비현
빈소
빈한
사석
사녀
사들여
산시
살렸
살릴
삼업
삼환
삼전
샘굿
샘플
생소
생필
샤머니즘
서행
서린
서선
서슴
석우
석쇠
선덕
선술
설대
성만
성어
성변
성빈
소축
소택
소곡
소렴
손우
송동
송일
송담
송흥록
쇠락
수어사
숙모
숭록대부
슈팅
시력
신산
신할
신건
신광사
실탄
심종
심동
심순
심훈
심술
십정
쌍화점
씩씩
아구
아웅
안주군
암각
압착
앞산
앞사람
애틋
야드
야망
야수
약체
양개
양란
어대
어마
언지
언진
에우
엠블
여근
역박사
연엽
예주
옛집
오미
오마
오승
오펜
오독떼기
옥관
옷고름
와이드
왕모
요와
요한다
용학
우등
울부
울퉁
웅치
원뿔
원술
원체
월리
월화
위짝
유나
유급
유옥
유닛
유백색
육추
육갑
율문
응지
의부
의박사
의형제
이빈
익조
인절
인역
임재
입항
자망
자표
자네
전습
젊음
점술
정편
정판
젝스키
조로
조흘
조난
족당
존망
졸본
주실
주범
주약
죽인다
준왕
중농
지고
지린
지저
진각
질곡
집설
짜인
찍개
찐다
차인
차곡
차나무
창군
채반
천서
천희
천첩
천혜
천년
천수경
철성
청림
청통
체기
체납
초유
초행
초적
초저
총감
최한
최전
춘궁
출진
충직
치정
치질
침방
캄브리아기
캔자스
코카
타사
타살
태대
태능
택리지
토용
퇴선
판주
폐업
풍파
플립
하퍼
학실
한구
한필
한희
한북
항행
항주
해킹
헌작
현일
형명
호당
호지
호제
홍철
홍시
화국
화왕산
황인
회심곡
후송
후릿
흐를
흑유
흙바닥
희양산
히가시
##사항
##우당
##당리
##리츠
##리어스
##닐라
##천뢰
##세츠
##기단
##기문
##기언
##43
##현악단
##월간
##대동
##자갈
##자산성
##화가
##화학교
##초록
##속고
##속선
##공양
##조정
##척면
##중개
##중공업
##질소리
##방문
##이동
##이용
##나기
##land
##au
##aul
##tle
##성신
##린지
##바나
##바른
##바겐
##마요르
##요초
##로니아
##추세츠
##적색
##비평사
##계회도
##경록
##제이
##제한
##제과
##양서원
##노이
##연가
##운략
##불퉁
##통록
##여음
##그루
##아궁이
##22
##온방
##금지
##분야
##오계
##직업
##메니아
##관식
##관현악단
##하치
##UN
##갈퀴
##좌씨전
##토르
##티넨
##팔상
##팔각
##춘다
##설법
##애문집
##란도
##푸른
##뎅이
한국청년
한국여성
교육대
교육평가
일반직
세계일보
세계보건
보이콧
이용객
생활고
국민주
만든다
##보살계
보호구
408
바탕색
신앙촌
민속학회
가리켰
지붕면
공업지구
찾아간다
부정행위
가정부
##독교청년회
##교육학회
동물상
##거리나무
번역자
개혁파
한성재판소
동경잡기
##inn
##ins
##inal
추모비
##기념사업
동국여지
시위군
인지도
368
미륵하생경
사립학교
따로따로
김영기
강릉단오제
명령법
이승상
기자단
458
개선책
376
378
바라지
보고회
755
이정영
소비재
떠나가
김대성
395
서경별곡
##스터스
1505
이명희
동부여
김종인
성인병
양주군
이원론
기울기
522
도덕경
사법연수원
531
667
448
달라붙
사헌대
##청년총동맹
균형발전
김상덕
놓여진
492
산림경제
물러날
나타낸다고
대대감
공작대
넘어간다
음성기호
여주군
도망친
스포일러
봉화대
정문부
제례악
음운변화
서낭굿
해주시
기지촌
덧붙여서
고취악
생원진사
##퍼스타
1557
835
838
839
1487
##삼존불상
신의왕후
소방관
살아왔
상원계
고금도
조영복
상속인
아르메니아
늘어선
묘비명
고흥반도
풍류객
김병기
일월성신
당산굿
이만수
축성법
동백꽃
흔들림
서도잡가
월남사지
불려왔
천상계
원만히
우정언
연금술
결론지
1527
1047
1343
##의사당
임하면
김도연
매월당
##리석불입상
박승희
남사고
##거래소
사시나무
고속버스
##app
여지전도
이휘령
구두점
선무랑
유영경
수교훈장
김세종
윤치영
장연군
기로회
보국훈장
주먹코
호법선신
##미륵불
기해박해
겨루기
영창서관
오페라단
모른다는
삼지창
낙안면
당내친
매스게임
가부키
박연폭포
서호수
창부타령
오지호
평강군
충정왕
불명확
송신영
부끄러워
김민희
대야성
##영산회상
정양사
둥그스름
매립지
창수면
과학기술부
안종화
박중빈
##대첩비
##상업학교
노년기
매사추세츠
파일럿
보제루
정난종
폭스바겐
도드리장단
브로커
프란츠
각별히
박봉술
Comm
정응민
강태공
강태홍
조선노동공제회
벽동군
지마는
송석하
김흠운
신소재
우란분재
우미량
포백척
난중일기
오윤겸
아나키즘
아나키스트
경각심
소토마요르
분무공신
피라미드
의림지
어수선
해라체
Christ
초신성
퍼시픽
문극겸
안빈낙도
태의감
오달제
대팻날
선희궁
이글스
계족산
국민정신총동원조선연맹
베테랑
##보육학교
아미타구존도
고랭지
와일드
내설악
어거스터스
가얏고
광촉매
보금자리
울부짖
울퉁불퉁
젝스키스
세계보건기구
##기념사업회
생원진사시
6매
AU
Gen
Mc
Min
NBA
ROM
Sl
UC
Your
from
가보
가거
가필
각장
각섬
간옹
갈도
강위
강타
갖출
개당
개신
거머
건릉
검약
검험
격어
경골
경훈
경찬
계의
계관
고실
고연
고담
고야
고약
곡진
공봉
공거
과소
광수
광군
광탄면
구야
구데
구렁
구서당
구층탑
군항
굳혀
굴립
굴불사
권동
권양
권돈
귀엽
금시
금한다
기식
기학
기훤
김맹
꼬임
꿀물
나찰
나반
날뛰
남접
남곡
낭천
내사령
냉이
네이션
넬슨
노구
노점
농화학
니케
니즘
님의
다와
단심
담회
당세
당금
당근
당률
대권
대쪽
도영
도작
도항리
동우
동법
동묘
두락
득남
득오
든든
똬리
띄운다
러일
련대
마린
마삭
마닐라
만곡
만폭
말장
망태
매어
맹사성
멋진
메라
멘토
멸악산
모역
목공예
목둘레
문우
문병
문권
물화
물새
미자
미얄
민암
민들레
바름
바뀜
박송
박통사
발제
발호
밝힘
방전
배교
백민
버락
번져
법구
벼과
변절
보례
보당
보림
보협
복당
볼턴
봉오동
부회
부러져
북악산
분극
불굴
비오
비양도
사파
사르트르
산송
삼관
상쾌
상무사
상약국
새정치
서교
서항
서보장
석진
석련
선위사
설월
성패
성절
성혈
속수
속임수
송운
송석원
송라이터
쇄마
수훈
순릉
순천군
숭릉
숭늉
슈퍼스타
스즈키
승양
시봉
시묘
식혀
식염
식설
신포
신희
심왕
쌓였
아청
아타
아하
아까
아버님
알릴
암문
암회색
압연
앞소리
애족
애덤
야소
약조
양산면
양북면
어포
어희
얼른
엄선
여상
여량
역장
영달
영통
영하
예화
올챙이
와가
용림
우영
운전자
원일
원곡면
월영
월파
웨스턴
위산
유양
유헌
유밀
유휴
은정
은공
음조
음나무
읍장
의현
의외
의군부
이게
이약
익성
인석
인영
인봉
인걸
인전
일요
일견
임차
입무
입타령
입문서
자조
자족
작황
작과
작약
작센
잠명
잡의
장검
장력
장발
적서
전첨
접안
정척
정표
제마
제경
조근
조대비
주이
주금
주객
주옥
죽헌
중여음
쥐똥나무
즐긴
증평
지가
지두
지척
지비
지친
지토
직류
진적
진병
진덕수
찬영
채란
천원
천전
철편
철불좌상
추동
춘삼
측은
치술
치룬
침잠
칸트
캐치
커질
컨트롤
코일
코리안
키운
타제
타카
태의원
택정
택할
토층
토륨
트론
판다
판금
판중추원사
패트리
퍼져서
편파
평년
폐과
폐습
포스터
폭정
푸념
품행
필첩
하물
하워드
학봉
학내
학우회
한증
한청
한숙
함인
해선
행악
향장
허진
허로
허헌
허생전
헤어져
혁혁
현욱
혜정
혼기
홍법
화집
화선
환퇴
활옷
황선
황쏘
효의
후록
훈독
흑비둘기
흰빛
히네
##우록
##당의
##당일고
##리나
##상호
##기물
##지스터
##동고분
##부용
##치성
##자동
##화비
##초경
##총각
##OS
##의복
##의어
##이기
##진성
##성산
##성결
##성룡
##바시
##증식
##달이
##니즈
##딱따구리
##마누
##농가
##적비
##시효
##효방
##LA
##왕국
##음증
##집주
##그러지
##합부
##묵서
##oid
##역전
##전교
##전함
##항섭
##오사
##오페라
##작통
##차례
##슬러
##투명
##탄강
##디언
##법계도
##법학전문학교
##새끼
##팔트
##ker
##쌍수
##왜가리
##귀족
##침박달
##범종
##덩어리
##엔젤레스
##압박
##샤바
##촬영
조선식산
대한국
고려시대
한국농
교육국
내용물
지방사
서울신문사
사회규범
조직법
이상주의
불교인
민족독립운동
국민회의
생각나
경주동
국내법
임명장
임진록
프로테
프로그래
401
현상윤
세종문화
##erg
대동문화연구원
대동시선
경성법학전문학교
대성암
둘레돌
가정교육
가정대부
청동은입사
공주대학교
자주포
동지춘추관사
아닌데
우주전함
##ane
경계인
추가령
영조척
그래프
영산면
철학사
361
##are
여겨서
뿌리줄기
##공업지역
장기면
건국기
381
정자형
시민운동
수원부
여름새
근본주의
천주가사
태양력
방문단
연안항
움직인다
타이탄
정착지
391
생긴다고
네모지
상해한인
재단법
병마절제사
484
414
644
김성민
527
528
감정인
수요일
하사품
가곡집
535
행해져
477
469
맞이굿
물러서
청소년기
대화체
청구야담
유전공학
해동고승전
##연합기업소
넘어오
대리점
미래불
바르샤바
선원보
거듭나
587
고시관
임원십육지
대륙법
1427
##urg
주지주의
634
대방군
이시발
##olf
단일팀
모셔졌
마르코스
887
야구장
가진다고
장승업
980
934
719
직장인
오리온
아악서
결승선
1280
돼지머리
기성복
김원룡
신한촌
892
##ade
818
로스엔젤레스
잡아당기
희망자
왕세자빈
매달리
수료자
1537
장안면
전망대
##ops
사성통해
의리선
외관상
야마가타
1061
후진국
김지남
이루어진다고
대강면
배수로
임하댐
발라서
보증금
광복군사령부
백관수
신뢰도
아스팔트
김명원
##스토폴
오가작통
홍경모
덩굴무늬
이뤄지
공보실
충적토
반달형
날아다니
스코어
서운암
보국안민
신입생
##미륵보살반
최경식
도통사
상지은니
이대봉
비파형동검
삼수군
Intern
양화진
열람실
송화강
예빈성
비류왕
주악상
저격수
이헌구
마천령산맥
서흥군
경수로
수락산
근친혼
오량집
트랜지스터
포고문
흉내내
##종합대학
하드웨어
반감기
구기자
도회지
그라운드
최정식
이숭녕
##전보총국
덕진구
만경대구역
송학동
브로더릭
수림대
관경변상도
현도군
개국원종공신녹권
계축옥사
인내천
전악서
흥국생명
문한서
사포서
모니카
##berg
깨우쳐
더듬이
복신미륵
오영진
역어유해
크레인
진감선사
급사중
모과나무
경포대
돌이켜
박현준
루트비히
만전춘
리비트
세마치장단
부벽루
콘스탄티노폴리스
최덕지
불쌍히
용양위
잊어버리
비열홀
오군영
승록사
협주곡
만안구
보리밥나무
몽산화상법어
tvN
사축서
아함경
앵무새
팔로군
관훈동
내알사
어딘가
한준겸
세바스토폴
오클랜드
삼원보
송충이
수아레스
유척기
한국노총
화엄일승법계도
바빌로니아
자릿수
미얀마
조택원
가로지른
이노우에
디오니소스
여드렛당
오삼계
진접읍
차천로
과태료
생필품
후릿그물
새정치국민회의
황쏘가리
히네노
조선식산은행
3대
CBS
Do
DT
Fr
LI
MHz
각질
각황
감필
갓끈
건하
건반
건더기
겸영
경한
경풍
계조
계연
고순
고품
고된
고미술
고바야
과주
관각
관력
광량
교상
교호
교활
구소
구보
구순
구박
궤짝
근저
금학
길복
김흔
깃들여
꽃가루
꽈리
나만
나암
나환자
낙방
난삼
남치
남관
낭지
낭군
내산
낸다는
냉대
노경
노면
니르
다크
단삼
단목
단번에
담금
당재
대납
대암산
덕현
도세
도료
독기
독지
독축
돈나무
돋아나
돌린다
동월
동촌
됐으나
두도
두벌
둔덕
뒷길
뒷동산
드니
땅바닥
떳떳
라로
로사
로울
로이드
루이지
르노
리암
리히
리델
마자
마력
마법사
만개
만흥
만항
만복사지
망종
망와
맞잡
먹인
명일
명과
모어
묘하
무재
무전
묵중
미하
민통
민여
민용
민촌
밀기
바꿈
박안
박미
박헌
발리
방회
백부
백월
백반
백년
버벌
버블
범중
법요
변재
별선
병농
보간
보응
보검
복토
본대
봉대
봉승
봉암
봉녕사
부어
부검
불갑
붉가시나무
붓대
브러
비철
비춰
비엔
비껴
비뚤
비암사
비금속
빗천장
사려
사열
사탁
사멸
사륙
산시성
살육
삼미
상락
상온
상작
서증
석현
석투
선약
선국사
설렁
섬돌
성이
성성
성여
성녀
성준
성첩
성내리
세척
세친
소마
소영
소책
속아
손잡
솔기
송풍
송중기
수줄
수풍
수참
수칙
수뢰
순상
순명
순변사
술밥
시교
시법
식히
신개
실크
심당
심적사
심석희
심덕부
아취
안응
안집
앉혔
알고리
앙드레
야광
양영
양익
언락
언간
엄흥
업장
엉뚱
엎드
엑소
여척
연복사
열무
엽맥
영령
영이
영환
영명사
예당
오페
오산리
옥정
완제
완역
외롭
외로움
외공장
외여닫이
용정리
우소
운혜
원방
원접
월터
윗대
윤방
으랴
응종
응수
의당
의송
익위
일석
일맥상
임소
임산물
입하
자당
자토
잘린
장염
저희
적료
적국
적몰
전홍
절수
접지
정업
정담
정득
제2
제때
조안
조감
조탑
존폐
종영
종적
종시
종횡
좌위
좌씨전
주포
준천사
중연
중거리
지촌
지쿠
지피
지군사
직절
직언
진문
진찰
진홍
질산
차령산맥
찬수
찬장
책략
처할
천세
천교
천봉
청호
청천면
체대
초자
초이
추복
치닫
친가
침강
침술
카트
캐럴
커져서
코우
콜린
쿠니
큐브
키네마
타상
타출
타방
탄층
탈자
탑호
택해
테리
토포
토적
토담
통학
통서
튜브
트임
팔조목
패도
퍼부
페드로
포산
폴타바
풍선
플러스
피운
피검
피습
피막
하당
하대로
한확
해간
해왕
해란
행문
향덕
향발
화본
확증
황당
황군
황태
회절
회춘
훈호
휴의
흑화
흔드
흡곡
흥청
희천군
흰옷
##사진
##사르
##고물
##고궁
##스퍼드
##천문집
##천견록
##상정소
##행기
##행장
##세유
##가수
##35
##부수
##일집
##대작
##대주의
##국악단
##화폐
##교과서
##수첩
##루가
##도모
##도론
##OD
##조복
##질의
##의상
##이불
##이하
##군다
##군국사
##by
##rich
##tr
##성휘
##니언
##마르크
##영어학교
##순환
##요간
##랭크
##서양
##파람
##시인
##노걸대
##흥면
##연표
##명신
##불수
##불변
##찰출척사
##저지
##저수지
##아티아
##mp
##용어
##삼봉
##yr
##PS
##역대
##버렸
##버스터
##곡곡
##메리
##승회
##승자총통
##할미
##필더
##US
##좌위
##착오
##반찬
##누르
##테스트
##백중
##둔다
##샤르
##낚시
##논쟁
##쩌귀
##갖춤
신라고분
여러해살이
전라우도
세계지도
발전사
불교설화
자연관
이어질
이루어짐
보물고
국제간
국립고궁
규정지
산업대학
국내선
자유무역
자유민주당
부산대학교박물관
계획법
여성주의
1009
신문화
대사례
좌우위
유지비
마음속
전해온
안동도호부
가리킬
과거사
전투함
시행착오
아이즈
국회의사당
공립협회
공업진흥청
문헌학
언어학자
경성고등
대성구역
진주사
319
지구대
도입부
하늘색
604
이동해
동서쪽
경사져
나온다는
건너온
##아가리
경상도속찬
김정남
수학여행
조상기
조상굿
뿌리치
미륵리
이룬다는
##공업전문학교
##조선노동
452
수입품
752
바깥벽
지상군
금속기
대지주
연장체
예산회계
481
이주자
##대장군
태극도
수업료
농사철
주조법
염불회
443
대응책
신중히
이른다고
##제국주의
브라만
창조파
유기음
561
예수재
994
1355
1279
예방의학
부자유
588
영동읍
부지밀직사사
소지인
보험업
명성왕후
대원칙
636
639
821
마르세유
889
1104
612
이병도
두드러져
서화연구회
당국자
김용준
어휘집
합동통신
합성수지
가죽신
신흥우
##ames
김진규
장원삼
권상로
수비수
1174
호적부
##uman
반포면
고금소총
위성방송
지신풀이
조용호
대금산조
늘어뜨렸
꾸며서
단오절
1494
산악숭배
장안구
휴전회담
외국어교육
##oph
희곡집
1094
1095
운송업
신정회
1243
불안감
불려진
베르가
장경왕후
양양가
옮긴다
금강경오가해
몰려가
이석용
황종척
경고문
배워야
지녔으며
##산대첩
약수암
접속문
조선인민당
미터법
용화회
조수삼
물결무늬
다름없이
시달린
석장리
청춘좌
예안면
플라티니
공익사업
왕궁리
육영공원
이근안
벗겨지
고요히
남서향
오경박사
도관찰출척사
윤상현
불행히
마름모
차용어
성전암
통리군국사
담가서
집합체
거쳤으며
배설물
김복한
시급히
선가귀감
카이퍼
전중성
달마대사
도첨의부
임영신
Young
월령체
크로아티아
우동주
무의미
윤기섭
백암군
흥해읍
고달사
##노동조합연맹
올림피아
유복자
넉넉히
꾸밈새
동음집
로이킴
계성학교
오케이
최규하
매사냥
보신각
북벌계획
스티븐스
영진군
홍제동
기왓장
서광범
상교정본
임화수
플래시
온건파
수라상
오구라
조선청년연합회
특례법
백광훈
사리장엄구
신불출
정감록신앙
구치소
성소부부
함실아궁이
눌지왕
선농단
김숙자
비벼서
파헤쳐
성희안
윤세복
위정척사사상
아낙네
함석헌
휘말려
ᄅᆞᆷ
탄원서
감지은니묘법연화경
굳건히
부이사관
수개월
칠원성군
무거워
방방곡곡
불발기
격변기
절지동물
대범천
습독관
신윤복
디딤돌
뜻밖에
문민정부
미드필더
법기보살
인피니티
탄신일
반려암
도나우
마테오
아열대
요제프
교태전
면면히
목멱산
북지장사
서왕모
신민주공화당
반유대주의
본고장
즉결심판
스태프
영탑사
창작과비평사
성달생
가첨석
자긍심
3대혁명
원접사
일맥상통
국립고궁박물관
경성고등상업학교
경상도속찬지리지
예산회계법
통리군국사무아문
성소부부고
Air
Ca
Can
Dr
Fame
GN
Lit
LNG
Rain
Sk
be
en
가터
가냘
가압
가침박달
각화사
간식
간악
간공
간만
간병
갈천
갈림
강이
강토
개각
개건
객석
거타지
걸릴
겁탈
격일
격쟁
견학
경가
경민
경원군
계리
계행
계응
고깃
고모음
곡지
곡장
공언
관시
괴정동
구계
구시
구변
구했
군서면
궁구
권구
권곡
규봉
근거리
글리
금원
금형
금했
금요일
급주
기비
기솔리
김몽
깨져
끼여
나흗날
남록
남초
남순
납공
납폐
내상
노젓
노블
녹갈색
놀랍
농군
누린다
다습
단월
단방
달도
대송
대말
더그
데카
도농
도메
도핑
독역
독차지
동축
동탁
두원
두서
뒷간
뒷머리
등관
따오기
뗀석기
롤러
루키
리사
리바
리프
리디
마츠
막간
맞선
맡긴
매곡
맹원
맹장지
먹중
멜라
면해
명언
모일
목전
목은집
몽수
몽중
무숙
문보
물린
물림
물물
뮐러
민구
민인
밀화
밀개
바싹
바친다
박대성
반파
반짝
발지
발치
방임
방첩
배동
백현
백이
버트
법언
베스
베다
벽성군
병해
보빙
복분자
봉부
봉모당
부등
부론
부곽
분황
불석
불입
비양
비면
빗금
빗자루
빠뜨리
뿔잔
사노
사근
사혼
산초
산채
산뜻
산나물
살문
살판
삼황
삼합
삼봉산
상박
새장
생칠
샤먼
샤프
서제
서아프리카
석편
석마
선과
설부
성업
성해
성론
성골
성광
셰퍼드
소군
소한
속미인곡
손대
손주
손칼
솔가지
송내
쇄환
수풀
수압
순지
순주
숭모
숭선군
스칸
스텐
시진
시격
식고
식스
식이
신회
신지도
실황
쌍사자
쏘가리
아모
아길
아병
아란
아카이
악질
안세
안길
안분
안광
안배
암태도
애련
액세스
야자키
양철
어해
어말어미
엄나무
에른
연리
연나부
열량
영소
예총
옐로
오퍼
오간
오제
오수리
온성군
온대성
옹성
와도
완연
완사면
왕고
왕십리
외재
외워
요산
요결
용고
용력
우거지
운산군
울금
울거미
원불
원귀
월담
유준
육구
음부
음미
음인
응축
의취
의붓
의학교
이포
이축
이감
인먼
인감
임규
입멸
입맛
입암산
자민
자간
자카
자규
잡식
장포
재행
저령
적문
접동
정행
정학교
정헌대부
제초
제금
젠더
조통
조승
조엄
조묘
조폐
조어업
조도면
존대
존무사
종향
주월
주만
주승
주홍
중조
중철
중론
즐비
지음
직이
직하
직숙
진례
진황
진광
질녀
찔레
차렸
창연
창녀
창곡
창면
책보
척하
천학
철망
철갑
청병
청했
체직
초출
초화
초산군
최린
최로
추화
출상
충재
충민사
취산
치종
치산
치환
치목
친소
칠봉
캐피
커크
쾌윤
쿼드
타력
탑동
텍스
통발
파서
팔모
펑크
편포
편모
평기
평삼
평천장
포스
포틀랜드
표형
표신
품의
풍주
풍작
풍헌
피웠
피쳐
하석
하림
하태
하녀
하바로
학재
한금
한센
한학자
함풍
해년
해상도
향낭
현원
현달
현서
현철
현량
현준
현충사
혜초
혜민국
혼연
홍자
화곡
환승
환란
황덕
효유
효창
후위
훔친
휘파람
흉한
흔치
흥정
희경
##유가
##행진
##세존
##기성
##가산
##가니스탄
##48
##소성
##산유적
##두스
##치과
##일월
##일면
##자경
##국도
##초기
##총사
##총목
##도보통
##도심설
##중흥
##모프
##이부
##성서
##성경
##재일
##서례
##서목
##파진
##경쟁
##제문
##만장
##노사
##신방
##문수
##심결
##페스트
##통공
##그믐
##프스크
##병사
##물림
##온공주
##삼동
##IV
##플렉스
##선교
##내티
##풍아
##충원
##홍보
##춘선
##카시
##풀과
##와일
##랑카
##애미
##놀로지
##책략
##빌라이
##흐로
##궤도
##푸아
고려기
고려악
다가가
경기자
대학로
가운뎃
조직원
지정사
지정학
독립국
중요시
나무라
이어짓기
알려준
참여연대
산업통상
부산대
여성국
신문소설
보살행
도서관학
407
종교계
안동현
교수진
수도권
장군봉
화엄신중
청년층
기독교회
##공신교서
복원궁
지장경
706
유리잔
살펴서
사자기
인쇄인
가락동
무기질
방문자
평화시장
즉위식
수정안
이정규
##향교대성전
의료진
의료법
삼성동
사천감
397
다듬기
426
이중섭
금동미륵보살반
555
천장부
##대사전
소년회
거래법
인류학자
약사암
대승경
가문소설
종묘서
515
479
445
466
462
물러갔
천지인
문법형태소
공양전
658
대리암
김수환
##동맹단
저항권
탄생지
725
불렸으나
여의치
중화전
음양설
동사록
동사강목
세손빈
##urn
보냈으나
연락선
이규영
김규항
도교서
1571
상감모란문
##독립당
비례대표제
조리사
##ilis
마이애미
사냥개
어휘형태소
아프가니스탄
마애불상군
연수생
성경학교
태어난다
1552
아기씨
심상정
풍경화
동명성왕
홍수조절
주최자
개신교도
잡아맨
정약종
포위전
희귀종
노사협의회
안산선
김병학
독점권
1029
1022
1535
신광한
강계시
위생국
사마광
친목도모
매화타령
예천읍
유람단
양지머리
1245
비스마르크
성산읍
심해져
인심도심설
1030
화전놀이
도심지
산화철
##식물원
Ste
유언비어
무예도보통
인동문
원천석
회령군
풍요속선
치렀으며
데려와
인왕경
1339
생계비
에이즈
열녀전
허물어져
서간도
005
김두종
묘향산맥
위계질서
삼한공신
삼강령
누르하치
진작의궤
##조직지심체요절
시흥군
심양왕
##관음보살입상
015
최승로
박용철
남용익
내사문하성
전권대신
우대언
양수장
장가든
오프라인
두터워
자진모리장단
불러일으킨
모른다고
추수감사
연쇄극
수질오염
들려주
세무서
양원제
태화강
도동서원
필라멘트
익스프레스
##전기회사
안재환
가즈토
신시내티
양장본
정남희
파란색
둥그렇
##ubl
덕흥군
서연관
지치주의
노벨상
지으려
프랜차이
방송통신대학
산리쿠
스리랑카
낙양춘
Brit
조윤제
목조석가여래삼불좌상
Art
원제목
방추형
##ears
조속히
제보자
섣달그믐
차사원
##십이장경
##감독원
만취당
천경자
영명학교
민자당
일민주의
##사이클
드리워져
들어올려
금부도사
엄중히
갑작스런
부러졌
백악관
완강히
통문관지
불이문
대이리
사뇌가
감지은니대방광불화엄경
혜화동
##요리제법
두타산
정극인
수제천
호랑가시나무
##수용소
##열반경
에라스무스
저당권
클레멘스
동중서문하평장사
내탕금
양통집
연체동물
개복치
적초의
도롱뇽
방종현
##복지사업
메커니즘
금와왕
새문안교회
메추라기
홍춘경
만어산
커넥션
능수버들
비송사건
읍사례
민족자주연맹
고다이고
보림사사천왕상복장
김채만
삼막사
시생대
양쯔강
합명회사
에스파냐
구데리안
접동새
하바로프스크
한센병
산업통상자원부
금동미륵보살반가사유상
무예도보통지
추수감사절
프랜차이즈
Act
Eur
OSS
Raw
Si
Up
la
pp
ᄋᆡ
ᄌᆡ
가분
가렸
간엽
간호부
갈항사
감모
감음
감저
강증
강노
강익
강반
개보
개자
개모
개고기
개원사
건넜
건져서
검진
검붉
격침
격동기
결격
경패
경개
경역
경칩
계종
고읍
곤괘
공히
과두
관권
교룡
구읍
구의
구배
군세
군파
굴지
굴피
권인
귀당
귀래
글라스
급작
기림
기덕
기즈
기쁜
김통
김붕
껴묻
나들
나남
나제
나토
나솔
남길
났으나
내뿜
노계
노덕
녹청
늘어졌
늙은이
늦가을
단각
달달
담연
담홍색
당헌
당권
당피리
대삼
대발
데르
데쳐
데크
도비
돈황
돌상
동글
두른다
등성
디렉
떠돌이
라파
러닝
로리스
로터리
리프트
린턴
만공
말발
말썽
망념
망덕사
매회
매관
매죽
머니
면지
명연
모식
모관
모윤숙
목도리
목요일
무적
무직
무뢰
무도회
묵암
미연
민찬
민병대
박약
밥알
방촌
방건
방술
배고
배식
배중
배명
배전
배럴
백통
백면
백저포
범음
베토
베른
변발
별정
병작
병약
보단
보운
보익
보약
보탬
복룡
복술
복날
봉동
봉도
봉진
부다
분책
불지
불출
불면
비루
비금
비래
비족
비격
비뇨
사출
사순
사율
사익
사잇
사하라
삭주군
산식
산예
산탄
산다고
살폈
삼대
삼면
상노
색장
서록
서릉
서숙
서봉사
서어나무
선소
설공
성월
성천강
성진회
세무사
소출
소암
속환
속죄
솔성
쇠도끼
쇳물
수병
수혜
순원
순인
술라
술실
술맛
숭정대부
승가사
시형
시납
식영정
신언
신득
신북면
십념
써왔
아단
아날
악산
악덕
안계
안회
안테
안성군
애리
애통
애벌레
야음
약지
약호
언명
언뜻
얻어먹
여며
역세
역군
역명
연비
연귀
열행
열꽃
염출
염흥
영휘
영녕
오학
오적
오찬
와질토기
완급
외제
외용
외피
외할머니
요부
요호
우모
우단
우롱
운구
운궁
울라
원창
원영
원혜
위나
위금
위차
위덕왕
윗목
유카
육해
육탄
윤대
윤비
윤전
윤하
융릉
은천
읍선생
응화
의생
이에
이각
인촌
임주
임광
임견
입비
입궁
잎사
자현
자실
자의식
자민당
잔다
잔영산
잡술
잣가루
장효
장음
장하
장풍
장홍
장번
장백산
장타령
장렬히
재갈
저우
전가사
접종
접힌
정고
정모
정생
정말로
제웅
조당
조니
조철
조휘
조법
족부
주호
죽사
중증
중탕
중어
증액
지직
지성사
진재
진릉
질긴
집자
집수
짜여지
차근
착금
찬불
찰리사
참장
참법
참동계
창빈
채이
천생
천심
철륭
첨설직
청회색
초한
총령
총참모
최산
최옥
추일
추경
출타
출륙
취구
층계
치즈
친조
커비
커짐
커튼
커진다
코노
타행
타일
타진
탄현
탄일
토스카
특지
파우
편구
편법
평석
평촌리
폐회
포전
포토
폭락
품삯
플리
플로지
피노
피곤
하치
한없이
함성
합보
향축
향인
허당
허지
헤쳐
현학
현군
현시
현양성
협성회
형설
혜산군
호곡
혼작
혼선
홍단
홍연
화진
환대
환주
황호
회칠
회계사
흉작
흥기
흥선
힘줄
##사철
##사찰
##유주
##유묵
##포로
##행동
##67
##현호적대장
##동요
##동네
##부림
##구품
##일무
##월보
##대금
##수교
##안주
##미리
##립국악단
##공영
##모로
##장나무
##방망이
##이산
##락치
##요해
##인권
##서사건
##파니
##청동
##시피
##연정
##글씨
##통치
##태종
##훈처
##절교위
##여도
##예비
##23
##21
##뜨기
##삼산
##래나무
##ya
##별전
##별신제
##휘사
##차곡
##하철
##하시
##슬란드
##능선
##티넘
##선택
##내동
##갓집
##반듯
##멩이
##pp
##울타리
##힐부
##따라기
##견사
##롤라이나
##넌트
##억령
##퀘어
##또기
##솟음
따라오
한국문학
한국예술
한국독립운동
한국외국어대학교
중앙교회
세계무역
경제인
기술력
국민보
주장자
주장군
모양새
남북적십자
인간사
노동관계
산업재해
강원감영
구분전
좌우익
507
404
유학사
감독상
##문학사
아이슬란드
올라온다
지붕마루
고등고시
제시카
##교육대학
무신정변
묘지기
##inus
문장력
##공신녹권
올림픽공원
의사당
피해야
좌상시
지식경제부
702
신체검사
804
재료공학
367
사고전서
자금우
육군대학
388
##enn
상량대
##org
##ors
공급자
무기고
부도덕
신축성
바라문
이정신
영남학파
무리지
이중환
##스터리츠
아우스터리츠
1366
487
##대사간
415
649
김성진
이순지
438
431
춘추좌씨전
이종상
476
473
447
467
원산항
원산노동
대조사
493
종목별
계산기
신민요
해양법
1357
여진학
애국정신
624
가례도감
가례원류
##통일원
국토통일원
비상국민회의
##노동요
에너지원
국악기
신석정
정유길
구미위원부
1384
붙잡힌
수송량
기호지방
##지방회
음운체계
마르쿠스
입법권
심판원
614
대기오염
장자연
일컬으며
총무국
영업전
1558
748
최진립
가시리
상고사
상고심
오리나무
868
869
봉황문
965
직선거리
나카무라
##회장저고리
아라곤
유수사
소방상
창의사
창의력
794
790
ᄒᆞ니
ᄒᆞᆯ
ᄒᆞ야
정벌군
풍류방
장안성
사간원대사간
사마천
##조사위원회
산화물
고래자리
베르뇌
##ode
##ody
선보여
그리스도인
몰려와
자경문
오사카부
허물어진
##aph
관현방
독재자
간석기
##다지소리
결부법
이학규
중장비
경호원
시달렸
오방진
박인량
우화소설
##cept
실습실
영수사
첨사부
사미계
세이프
우거왕
으뜸가
바꾼다
자갈돌
구로다
박진영
용강군
양수기
사로잡혀
공직선거법
박기홍
종정경
박수근
신규식
세밀히
삼사좌
이겨야
목격자
신대륙
김계휘
중개인
아세안
고상주거
순경음
영모재
다케유키
##198
호화선
최창익
종두법
제련소
국가보훈처
계량기
조선문인협회
정안국
##주택공사
아쉬운
목곽분
노원리
중서시랑
백석산
##ike
이가원
이가환
일리노이
##조치법
무척추
##대도호부
영춘면
다보사
도계읍
정홍명
육전조례
적상산성
구어체
입헌주의
중앙일보사
여호와
목련경
백동화
평시서
플래티넘
우르스
문덕전
자하문
내영도
클로버
평성시
##수호통상조약
동짓달
탁지아문
미닫이문
원적산
건주위
정환직
비잔틴
의연금
덧뵈기춤
도참사상
소맷부리
심산유곡
School
청연각
열병식
부단히
대무신왕
고두밥
파묻혀
보리수나무
어여머리
##보살반가상
매염제
ATP
시냇물
헤엄치
농지개량조합
골품제
환두대도
태그팀
합숙소
불규칙용언
의태어
하공진
해동명적
망가니즈
번번이
향현사
차전놀이
##지질도
법집별행록절요병입사기
여염집
연오랑
바야흐로
볼리비아
감목관
비술나무
청황종
왕안석
##텔레비전
조선물산장려회
세견선
차곡차곡
청통면
##티넨탈
한청문감
##자동차
##촬영소
각황전
소책자
아길레라
나들목
베토벤
순원왕후
임견미
잎사귀
총참모장
플로지스톤
현양성교론
남북적십자회담
원산노동연합회
Aw
Bi
Ele
Ind
LO
MP
MB
NBC
Pol
Ro
un
vs
가달
간조
간극
간선도로
갈명
감악산
강빈
강현면
개리
개학
개찰
거구
거질
거서간
검인
격고
견줄
겸할
계라
계금
계정사
고우
고한다
고원군
곡령
공한
공터
관창
관봉
관불
관물
광정원
괘릉
괘불화
구우
구용
구폐
군학
귀고리
규문
그친다
금유
금공
금조
금물
급재
급파
기흥
기를
김알
깡통
나막신
난동
난도
난점
남달리
내야
내보냈
내버려
너도
네드
노이
녹패
녹각
농락
누렇
눈매
눌려
느니
능금
다드
다뉴
다도면
단숨
답교
당여
당목
대고
대궁
대밭
대화재
대산면
던질
데릴
데쳐서
도려
도항
돌발
동미
동곡
동천왕
될수록
둥덩
뒷문
뒷목
뒷바라지
따먹
레일
렸으나
령사
로베르트
루지
마그
마티
마선
만우
만한
명고
모락
목인
목양
목향
목발
목제품
몸싸움
몽진
무근
묵시
문패
문조
문백
물금
물받이
민유지
밀파
밀성군
밑동
바사
바윗
박멸
반직
반제국주의
발작
배색
배주
백봉
백곡
밸리
범본
변개
변설
병문
보포
보명
본영산
봉영사
부질
부챗
부푼
부봉사
북미
분하
분설
분대장
붙박이
브레이크
비손
비꼬
사음
사문학
산위
산품
산자락
살코
살찐
삼석
상종
상천
색계
서축
석명
선취
설씨
섭이
섭생
섭씨
성단
성글
성욕
세네
셔틀
소운
소채
소위원회
속지
속격
송장
쇄설
수충
순리
술지
슬피
시로
시덕
식례
식도
식단
식전
신드
신국
신갈
신생활
신평리
실소
실루
실의
실어
실권자
심수경
십경
아역
안홍
야트
약탕
양록
양방
양의
양법
양푼
어긴
어머님
억눌
언부
엄형
엄씨
엄항섭
업신여
엘런
엥겔
여구
여간
여직
연역
연면적
염법
엽기
영직
영설
예념
오디
오광
옥스퍼드
와기
완호
완숙
왕통
왕규
외친
욕지
욕탕
우언
우레
우하
울프
웃기
워진
월매
위트
위중
유철
유습
유규
육회
윤충
으깨
의민
이류
이낙
이판
이혁
이긴다
일만
임질
임회
임해전
입북
자술
잠종
잠두
잡령
장평
장육
장곡
장혼
재중
재송
재복
적송
적관
적셔
전평
전존
절과
점원
점친다
정근
정빈
제행
제계
제삿
조나
종위
종남산
주단
주덕
주암
주촌면
죽책
준위
준제
중윤
중암
중급
중련
증주
지감
지쳐
직녀
직사관
짝사랑
쫓아가
차년
착상
참서
채팅
책실
척식
척주
천단
천흥
천내
천착
철통
철책
청심
청죽
체임
초이스
촉지인
총후
최효
추축
치상
치원
칠조
카바
캔디
콧구멍
크랜
타가
탄복
탄닌
탈속
태천군
터무니
텃세
텃밭
테이트
토시
통명
통운
통첩
투탁
트램
파월
파루
판병부사
팔레스
편람
편서
평장
포피
폭도
표한
표충
풍암
프렌
피륙
피어스
필통
하악
하슬
하북
한공
한빛
한낱
합좌
합죽
합섬
해장국
행색
향정
허훈
험악
헬렌
현부
혈청
형정
형이하
홍지
홍원군
홑집
화식
화명
황여
황궁
회명
흉악
흘렸
흥화진
##사실
##사변
##사이트
##유래
##스럽
##퍼런스
##리삼층석탑
##리마애
##행궁
##세공
##세무사
##기아
##기략
##가공
##가면
##가곡집
##산법
##두식
##낭청
##부조
##부적
##치인
##보현
##보문
##보낸
##정자
##정이
##정난
##정우회
##등산
##도관
##속집
##해저
##해송
##공관
##원왕
##중보
##중도
##중선
##장승
##이중탕
##군경
##cy
##개미
##개론
##후서
##후생
##서까래
##철화
##비구
##비소리
##효전
##효황후
##노라
##연원
##연꽃
##연집
##타로
##왕경
##생긴
##운학
##불망
##음기
##여갑당
##는점
##아트
##복고
##합작
##프롤
##분계선
##어남
##어냈
##야서
##야면
##yn
##레미
##전환
##버니
##오입
##거부
##필원
##필적
##굿둑
##헌법
##외면
##ve
##탄소
##선열
##팔찌
##매병
##테일
##히드
##멸죄
##약록
##DM
##막리지
##죽지
##ᄉᆞ
##곶면
##윈터
조선귀족
조선책략
조선프롤
대한기독교
대한광복회
교육열
지방산
경상대학교
국가배상
국가공무원법
경기잡가
문화제
들어맞
발전상
이용후생
제작법
기능주의
구조선
이어져서
군사분계선
목적의식
돌아앉
경주황
경주남산
문학비평
보통명사
건설사
##스트리트
광주부
평안계
##중앙박물관
사무장
예술품
올라타
집단생활
가르친다
대성산성
정원본
회사채
청동방울
훈련대
중간파
자주국방
대중음악
대중가요
서양사
인사말
이하윤
수용성
359
밝혀진다
은행법
경향신문사
기계체조
##국사비
방어전
수상기
관음굴
이기주의
상주권공
인구어
조건부
정의현
대비심
사고력
궁중음식
전사본
김영일
김영환
겨울잠
명문가
유행병
수원성
가져간
태양인
아름다워서
정사인
악기조성
공개경쟁
동해시
다소간
기와밟기
751
호남선
서북구
##alis
으니까
못했으나
김해식
1508
##uss
양주방
전신선
수산제
기울었
두루미
방지법
사법관
신경향
달려와
##문화원
446
당대척
단군교
가공품
461
김상기
497
보리암
공민권
드리웠
유성원
##과학대학교
##ition
영양가
주재자
김수증
창원대학교
경연강의
레이건
레이크
1373
579
구절초
제석거리
사천왕문
나한재
사서인
플레이스
635
사사오입
동인제
법제처
이시이
안치한
향토색
석회질
주문진
613
장자못
##예술동맹
939
768
수성금
거북바위
사명감
##선사유적
갈색토
유인원
1542
봉황음
우조가락도드리
보안림
보안면
실용화
들여왔
들여놓
김경신
1173
893
유신정우회
조목조목
이의현
이덕수
정계비
내포제
##정리유적
스테이
스테레오
퍼져나갔
수기치인
연설회
승부차기
화물선
소양면
##태우기
한가위
백운대
간사장
삼신산
##ign
자인면
1185
1180
1181
남겨둔
1344
의종손익
노르만
부유층
1136
공수전
하이브리
##한국당
페르소
##ower
박승종
석곽분
관현맹
아시모프
경무국
서간집
용화산
유한준
청계산
##민요집
오스틴
덩굴성
중력장
이봉상
신의주시
회유책
구매자
기로연
도미니카
예문지
가두시위
정희량
혜성가
수렵도
베스트셀러
스파르타
고국원왕
구룡포
박경신
봉상시정
조천록
경리청
수안보
적십자병원
매스컴
살풀이장단
맞아들였
##레타리아예술동맹
영모화
조양호
오지그릇
니콜라이
##ange
마천목
쳐들어와
삼군진무소
##일원론
엇갈려
과감히
군웅굿
주리론
상동교회
웨이브
장충동
지킨다
NASA
무방비
상평청
최윤덕
##상업고등학교
한상경
만포선
계유정난
영미법
멍석말이
무정부주의자
유후조
목조석가여래삼존좌상
미시시피
오장환
관구검
자영농
황석우
십장생도
프린트
실종자
안타까움
윤동주
판심제
거두어들인
반신불수
삼포왜란
Club
낙화암
화수분
##지장보살좌상
머릿기름
빙하기
삼량집
조한영
노적봉
경현당
선광장
프랭클린
박효관
삼론종
천우희
##의용군
태일전
최양업
미혼모
돈독히
산경표
##조성도감
한규설
나날이
심광세
야전군
스콜스
##재의찬요
권응수
저소득층
시냇가
형지안
황칠나무
점필재
베네딕도
##유일당
네모뿔대
기효신서
애틀랜타
등신대
오웬스
파출소
윤행임
총책임자
우즈베
재출발
목조지장보살삼존상
관덕정
유응부
장타율
우니쉬
면앙정
의영고
##가톨릭대학교
네버윈터
리지웨이
유숭조
칼데라
벌거벗
서불한
소세양
한소끔
신말주
오돌또기
관천대
원증국사
동떨어진
##방조제
오펜하이머
초저녁
서항석
##오페라단
##왜가리번식지
몽산화상법어약록
송내희
육구연
세계무역기구
무척추동물
단숨에
데릴사위
부챗살
##유래담
조선프롤레타리아예술동맹
상주권공재
악기조성청
하이브리드
BO
Born
Dav
HM
Just
Miss
NTS
Pe
PL
Rock
TOP
le
von
가봉
가왕
가렴
가새
가브리
각법
간정
간미
감포
갑종
강천
강음
개의
개평
개강
거국
건드
걸이
결미
경탄
계립
계합
고랑
곤욕
공갈
공음전
곽준
관유
광야
괘도
교비
교첩
구담
구충
구면
구층석탑
국창
국신
군조
군통
굳힌
굳어져
권철
귀포
근연
근위대
금명
금잔
기석
기내
기표
기혼
길장
길다란
김강
김갑
깁슨
꼼꼼
꽃봉
끝동
난산
날기
날씬
남군
남신
낭인
내료
내인
내간
내어
내삼청
내급사
넘어져
네거리
노군
노옹
노약
녹인
논자
논거
농청
누려
누층
누워서
능역
다례
다우
다회
다움
단궁
담아내
당항
대함
대혜
대완구
도파
독상
돈암
돌멩이
동운
동불
두엄
두릅
두릅나무
들노래
들기름
떨기
라산
라몬
람사르
레리
로버
로펌
루가
류머
마트
마초
마적
만복사
말문
맞췄
맥박
맹약
명보
명과학
모나리
몽어
무패
문언
문곡
물속
물든
물갈퀴
미들
미용
미뤄
바덴
반변
반남면
반투명
배석
배뱅이
백혈
뱅어
버라이어
벌휴
범수
법위
변역
변변
별유
별안
보쌈
보원사
보은사
보니파
복성
복야
봉한다
북접
분소
비소
비등
비할
비쳐
빈례
빈발
빙판
빨강
빨갛
뿌림
사곡
사권
사곡면
사들이
산이
삼망
삼패
삼익
상쇄
새보
새삼
생수
생인
서조
석괴
선파
선목
선입
성순
성철
성동리
세컨
세벌
소해
소뇌
소노부
송성
송절
송관
송징
쇠똥
쇼토쿠
수졸
수나무
숙공
순제
순전
스틱
스퀘어
슬라이
신철
신열
신족
신암리
실책
심금
십전
쌍선
써도
씌웠
아씨
아케
아틀
악신
악취
안학
안선
안협
앉혀
암사지
압구
앙심
액화
야류
약령
양남
양규
어산
엉켜
에큐
엘리스
여계
여심
역병
연청
연전
열읍
열연
염과
영림
오강
오더
오탁
오례의
옥화
옥경
옹종
옹고집
와사
완쾌
왕순
외산면
요르
욕지도
우트
우공
우디
운남
운림
울렸
움라
월상
위덕
위략
위압
유항
유권
유제품
유운룡
육우
육왕
윤득
음고
음즙
음경
응봉
의위
의문사
이트
이칙
이욱
익모
일우
일국
임당동
입정
입도
입추
입관
자타
자심
작정
잠들
잠식
장림
장응
장아찌
재검
적어지
전비
전칭
전객사
점탈
접어든
정곡
정갈
제제
제프
조온
좁히
주왕
죽동
죽부인
중교
중의
중승
중의원
중궁전
증이
지재
지브리
지춘추관사
진린
진량
쪽지
찰리
참리
창암
철모
철군
첩문
청령
청순
청태
청미래
청난공신
초효
초판본
총점
총인구
춘산
춘파
치외
친다고
카톨릭
카타리
코파
콘셉트
쾌감
타자기
탁류
탈춤
태정
통어
트릭
트윗
트러스
특대
파국
파양
판종
팔당
팔다리
팔색조
패스트
페인
페인트
평롱
품아문
풍아
피바
필지
하책
한설
한몫
함박
해몽
허하
혜림
호걸
홍척
화교
화태
화암서원
환시
환하
황봉
황옥
황경원
후문
후쇄본
휴즈
흑도
히메
##당실기
##유씨
##고위
##세지
##49
##소록
##산제
##산신
##산수도
##두레
##낭중
##지천
##지리아
##동정
##자음
##교의
##도비
##해부
##해관
##모전
##모함
##이십
##나비아
##ca
##진트
##진천뢰
##성어
##성공회
##바둑
##에서
##평의회
##마리아
##개서
##영도
##요기
##강요
##실총
##농서
##로도
##인문
##서포
##형토기
##론고적기
##청각
##제석
##양목
##신곡
##본말
##호우
##왕검
##퇴직
##생지
##음질
##통문
##저스
##훈랑
##아악
##아르
##아웃
##윤리학
##합루
##금문
##향제
##용천부
##언행록
##어짐
##뜨물
##별기
##전면
##전신선
##버린
##감호
##휘집
##RA
##급수
##디나비아
##풍루
##법권
##법주사
##광록대부
##베가스
##귀일
##설기
##협조
##DA
##네시
##네프
##칼슘
##쾌히
##씻이
##견문
##폴리
##밟이
조선의용대
한국교
한국연극
다가올
서울역사박물관
다시래기
대학연의
위원군
중앙동
독립지사
문화훈장
민족통일
형식주의
국민윤리학
행정직
군사영어학교
남북통일
남북고위
연대측정법
머리장식
제주방언
학생극
부산광역시
내려뜨린
보호석
부사정
떨어뜨려
프로축구
교회법
2600
민속학자
가리개
아이젠
아이파크
옮겨오
시킨다고
다르푸르
##eration
대동공보
대동금석
수도승
추진력
정원사
보관소
중간부
해안사
나이지리아
서술자
##inensis
둘러앉
둘러쳐
전자파
고종실록
기계설
##산성지
재정경제
주름살
704
707
붙여져
이기세
잡지사
362
금융실명제
사자놀이
382
454
수원지
태양신
수리사업
마당밟이
758
움직였
강제성
호남평야
불러오
스타리그
계급문학
항공모함
조약문
아랫목
이명기
보건부
가졌으나
태극무늬
이인직
불법연구회
방위비
434
432
##문화단체총연합회
444
449
단군왕검
균형감
##가리타
보리고래
고성현
간부진
라이더
##과학연구소
양산도
652
사기업
태어났으나
후원금
모래사장
1351
##ley
여진어
레이터
국토개발
남양만
도성암
함흥평야
식민지화
주지사
1386
시정기
기름기
보충군
마르가리타
비구승
서낭대
이병모
이병연
대목구
김용진
714
710
590
부흥회
764
호소력
수성지
주교좌
836
1548
봉황도
보안사
자수정
누리꾼
1511
##ound
1282
이윤재
러서도
890
서울시립
의령읍
토벌군
노동조합법
강남스타일
##아미타여래
795
예의판서
시내버스
희귀본
공중위생
녹음기
금관조복
스피어
1114
두려운
1023
대마초
상경용천부
일어남
산악회
이만규
실내악
오대진언
##산동고분군
1127
공군사관학교
대소변
토산품
고위직
신정환
양지바른
1248
기소유예
김윤경
굴곡진
1031
Stud
내시령
심청굿
김응서
배운다
위임장
##장수멸죄
김부필
##천강지곡
부적당
기거사인
1196
요시미쓰
이두현
서두수
대명회전
시달려
오방신
Charl
사교춤
모반인
불설장수멸죄
구매력
수취인
송사소설
코스닥
하의어
정광필
결속력
경인선
시흥종
왕궁면
구로구
정혜쌍수
창가집
대광보국
구인회
돌렸으며
우스꽝
수운판관
Pro
실존주
재활의학
이복남
삼중당
라스베가스
수선전도
보덕국
##스테인
두산그룹
##어업협정
우국지사
용호군
##철도주식회사
유종원
종부시정
홍명구
가맹점
와룡산
중견수
##치산자
재편집
카르스트
재외공관
##극락보전
정남향
배흘림기둥
태상왕
허구성
##uck
고달사지
발렌시아
태고암
황사영
을유자
미쓰히데
지국장
회갑연
헌정회
아크릴
대유행
조태억
오백나한재
모터사이클
하버드대학
송곳니
Unit
주안상
오운개서
광제원
조전원수
전년도
외동읍
안타까운
곡용어미
낙천정
정청래
천부경
호우총
조선사편수
기다려야
조재현
임유무
기영회
보원사지
이무영
두들겨
##공작대
파헤치
식리총
##전지공작대
월인천강지곡
##스포츠
Girls
마지못
ᄉᆡᆼ
레지던트
고리대금
오재순
윤필상
패관잡기
식품위생법
MIT
홍윤성
와카야마
윤병구
월계동
THE
잊혀져
초토사
돌아다녔
소극장운동
심연원
##정계비
8601
다마소
자은종
폴리에틸렌
노린재
비합리
양류관음도
자존심
독락당
시외버스
하타노
골동품
부직장
보리타작소리
##호제동자
해심밀경
순이익
서바이벌
을사오적
능지처참
아웅산
인절미
한국청년전지공작대
만폭동
석련지
유밀과
치술령
##성결교회
버벌진트
알고리즘
스칸디나비아
김통정
껴묻거리
말발굽
비격진천뢰
염흥방
이에야스
너도밤나무
신경향파
가렴주구
가브리엘
간미연
계립령
꽃봉오리
모나리자
배뱅이굿
버라이어티
세컨드
움라우트
재검토
청미래덩굴
치외법권
남북고위급회담
재정경제원
불설장수멸죄호제동자
오운개서조
조선사편수회
DD
EM
Gb
HL
Human
IW
Kn
KI
Med
More
Mnet
RE
SP
Song
Ver
WC
War
des
net
pH
tr
you
ᄋᆞᆯ
가레
가좌
가채
가린다
가산리
가라산
각파
감람
강교
강중
개문
개찬
개천군
개천면
개루왕
거족
건시
건드리
검률
결장
결로
겸양
경석
경함
경궁
계례
계당
계하
계성사
고들
고파
고욤
곡동
공검
공맹
관곽
관솔
괄호
괴로
괴테
구영
구궁
국둔전
군속
군군
군무부
군대부인
굴거리나무
굽이
궁산
권해
귤나무
그랜
극작
근력
근덕면
근흥면
금할
금년
금곡리
금남면
금곡동
긍양
김오
김함
김팔
꽃나무
끊긴
나흘
나크
난고
난국
난계
난다는
남령
남계서원
내화
냉장
넙치
노구치
노히트
녹동
녹명
녹청색
논매
농회
눈병
뉘른
능소
다각형
다갈색
다랑어
단간
단천시
달해
담사
담글
대월
대읍
대나
대평
대필
대암
덕석
덴리
도질토기
독진
독회
독거
돈화문
돋보
돋운다
돌풍
돌부처
동석
동합
들메
들으며
등롱
디킨스
따왔
떠놓
또렷
라바
라듐
레온
루소
리언
리우스
릴리
마세
마태
마위전
만부
만어사
말뜻
말제르
맞섰
매시
면방
명자
모종
모른
모듈
모기둥
모국어
모멘트
모직물
목리
무은
무하
무외
문세
문연
문홍
문숙
문턱
문방사
물그릇
물들이
물동이
미려
미결
밀란
반우
반종
반해서
반양장
방망
방축
방신
방선
배따라기
백종
백업
백대
백경
밸러리
버팀
법석
법서
법무아문
별공
보교
보성사
복이
복족
봉록
봉공
봉덕리
봐야
부공
북지리
분상
불력
비념
비제
비켜
사국
사어
사괘
사졸
삭고
삭방
삭직
산약
삼상
삼간
삼룡
삼전도
상촌
상침
상애
색도
샌드
생김
서출
석포
선연
섭식
성루
성낙
성량
성곡
세필
세븐
센스
소와
소손
손석희
솔트
쇠뇌
쇠고리
수묘
수발
수란
수의사
술서
쉼터
스란
스몰
슴새
승사
승기
시당
시노
시약
시동생
시네마
식힌다
신나
신사상
신대왕
실추
심약
심즉리
십수
십선
쓰라
아국
아계
아밀
아사리
악습
안일
안나
안색
안용
안익
안반
앉힌
알자
애당
애독
야단
야운
양한
양여
양선
양부모
어루
얹히
엄주
업과
에티
여분
여필
여짐
역계
역삼각형
연포
연다
였었
였으리라
영애
옆줄
옛일
오병
오익
오소리
옥형
옥호
옥갑
옥천면
와야
왓슨
왕재
왜왕
외식
외협
외견
요기
용무늬
우포
우식
우덕
우문
우메
운향
울체
움막
월성군
월광사
위고
위리안
윗입술
유천리
윤구
윤옥
윤홍
윤활
윤곤
윤웅
윤돈
율부
은성
은광
응결
의중
이드
이니
이파
이탄
이함
이즘
익재집
인분
일등
일재
임당
임숙
임백
입고
입창
자축
잡설
장각
장옥
재석
재의
재거
적설
적막
적복령
전음
전변
전근
전우치
절화
점촌
점쳐
정필
정습
정연히
젤리
조완구
족인
종도
종별
종아리
주강
죽전
준평원
중절
줘야
증편
증표
지호
지송
지절
지복
지승
지으면
지어사대사
직방
진복
진면
진동면
질권
집류
집물
차녀
차갑
찬모
찰밥
창살
채동
채식
채묘
채스테인
천덕
청라
청과
체징
초분
초암사
촉각
총전교
총세무사
최루
최만
추부
축서사
충간
충찬
취진
치의학
칠서
카니
컨퍼런스
코사
코자
코시
쾰른
쿠루
쿠빌라이
타마
타르
탄다
탐하
태가
태반
토트
토산리
톨스토
통정
특강
파래
파선
패닌
퍼뜨리
평공
평활
폐가
포옹
포충사
표착
품팔이
피드
필터
하국
하비
하운
하피
함차
합부
합참
항이
해행
해프
행단
행간
향산군
향악기
허자
헌수
헤치
현당
현록
현암
현자총통
혜현
혜영
호학
호감
홍이상
화리
화악
황유
회식
회신
후수
흉흉
흔쾌히
희원
희방사
##사무
##사직
##사거리
##스틱
##망울
##60
##지휘
##동산성
##동삼층석탑
##록암
##부락
##치용
##일가
##보증
##대안
##정문집
##자도
##교환
##루크
##도비스
##OL
##원가
##원정
##조문
##방위대
##이방
##이원론
##나큰
##무력
##락원
##les
##진주박물관
##마지
##라트
##다처
##다발
##다랑어
##영역
##인의
##서스
##서인
##위탕
##림서원
##비언
##간부
##경제사
##제군
##제약
##만두
##만국
##만필
##본관
##운산
##문해
##심방
##태수
##주부
##주집
##녀자
##용신
##삼릉
##레인
##전심
##전랑
##줄다리기
##족류
##차차
##박람회
##급부
##납작
##목적
##광학교
##묘비
##춘천
##테인
##백전
##발설
##애집
##놀드
##까치
##쇄록
##갑산
##맹학교
##널스
##빼기
##벨라
는데도
##000
대한석탄
가지가지
지방분
사회의식
사회대중
기술학교
통일당
통일체
나무아미타불
일부다처
백제악
백제어
남북국
국립진주박물관
지도책
장식화
과학부
발생지
좌우합작
건설비
유사점
안동김씨
권두경
대전차
전주성
교수관
반대급부
##미타도량참법
찾아냈
드러날
청동북
통신공학
천연물
608
국어과
이동성
한성은행
부대사업
동경용원
지휘사
##int
둘러진
전자출판
##공신도비
정권진
805
이기이원론
장단점
여겨왔
339
상서호부
창작집
자금난
가마귀
건국신화
아무튼
459
수집가
천주사
이루어져서
수입원
청자유
377
바라본
창설자
아시아인
이정기
이정립
민중불교
의료비
호남고속도로
스타키
태평통재
오르도비스
항공대
성종실록
아랫도리
관광학
금동약사여래입상
침략자
483
485
소년부
소식지
국무회의
417
지주회사
김성기
이인수
이인복
도덕관
춘추대의
464
468
496
이민서
브라더스
유기체
996
990
991
수신제
수양자
장인환
영양읍
성적도
1016
722
1202
쓰였으나
방언학
문예부
이경윤
이경준
##통일론
발기회
화상찬
689
감리사
##ely
도망간
개척촌
명사십리
목포대학교
김동삼
소녀상
봉화읍
사제단
꼬리덮깃
관세법
원시인
원통사
검토관
상사별곡
##조약사
825
829
888
이자현
1108
김기춘
699
985
대칭형
수장고
718
정경태
##aster
770
771
779
745
기후변화
오리엔
865
1563
정세운
실용주의
들여다
권상익
익공집
1171
광대뼈
밀직제학
신의군
897
군부판서
남동구
용산서원
대부도
경남대학교
김연실
교도관
요동반도
적색토
아키라
염색법
일월회
일월조상
1083
1491
요리법
용왕제
가해졌
스케일
1126
1120
대처승
묘법연화경권
부령군
묻혀서
함유량
상륙작전
조병덕
조병규
고부군
광명농악
임종궁
이세화
이세필
1525
민법전
전진한
데려다가
바지락
경산부
청장관
##진흥재단
반죽동
칠보면
##베트남
경무관
톱니바퀴
무선국
수로부인
김이안
어획물
연경당
오동진
나옹화상
다년간
이형태
초고왕
우부대언
가속기
왕복서
목조아미타여래삼존좌상
경세치용
최승우
매수인
레닌주의
금군별장
나아간
쇼트프로그램
블라디미르
이소저
백마고지
이모작
합법화
조희룡
장가들
대역죄
이범윤
교방고
이복형
대법회
정과정
삼수대엽
무극대도
언문철자법
삼세불상
급식소
##증권㈜
중개업
미역국
강호동
카이두
전중감
포식자
신세타령
##stit
천관산
이발사
화초사거리
바쳐야
Boy
조일선관
조연현
고마움
법무법인
소득세법
부끄러움
합주곡
연인원
코미디언
매도인
진연의궤
##농민조합
십육나한상
골프장
주물러
##원종공신녹권
도매업
오케레코드
장용위
##SIRE
박희도
하현도드리
왕정복고
이징옥
좌대언
방송통신위원회
청록색
박광우
팔부중상
주민등록증
입헌군주제
오라비
정용기
만인소
사하구
산둥성
폭풍우
##rans
연백군
프린스턴
교련관
미끄러
미끄러지
부드러워
은신처
매인심방
비주류
열성병
중외일보
송인명
표음문자
백학도
마룻대
계화도
삭망월
상서우승
북대서양
와이파이
##사사적비
대자대비
유토피아
정만조
고광순
해신당
바티스타
지그시
알프레
을묘왜변
후부고취
이혜구
##춘향가
양청도드리
민유중
집성촌
암흑기
병무청
##운룡문
스콜라
무로마치
배비장전
황재균
황철나무
임석재
도리깨질
업경대
무태장어
카디널스
DESIRE
벌어들인
개부의동
비합법
##열차분야
공설운동장
조흥은행
별무반
삼운성휘
권문세가
무작위
응접실
Colle
투겁창
백고좌
조선광문회
이기호발설
홍해성
##경험방
한국수자원
인텔리
홍귀달
흑각대
예덕나무
필원잡기
외다리방아
치맛바람
한응인
군담소설
대반열반경
장희빈
지노귀굿
##법화종
엠블럼
나반존자
International
제2차
코우즈키
##버스터미널
보빙사
에른스트
강증산
실루엣
야트막
예념미타도량참법
팔레스타인
페르소나
안학궁
뉘른베르크
말제르브
수묘인
위리안치
충찬위
톨스토이
대한석탄공사
사회대중당
좌우합작위원회
동경용원부
오르도비스기
조일선관도
개부의동삼사
##열차분야지도
AA
Cat
DB
Ever
GDP
KB
Op
PS
PSC
Sal
cl
con
pl
ㅁ자집
가목
갈탄
강고
개상
개현
개답
갱정
건진
건흥
게오
견직
겸애
경저
계우
고밀
고지도
고공사
곡량
과학교육
곽향
광중
광통신
광덕리
괴한
구직
국모
국성
군례
군권
귀착
귀솟음
규석
근동
근왕
근생
금납
금욕
금수산
급등
기색
기변
길달
길인
길한
깎아지
꺾어지
꾸지
끈끈
나세
낙죽
난모
난로
낮잠
내던
낸다고
너른
노형
노작
노런
논시
누름
눈꼬리
니노
다공
다슬
단실
담기
대윤
대건
대격
대뇌
대반야바라밀다경
더미
도탕
도취
독무
독후
동승
두로
두근
뒤엎
뒤뜰
듀크
드름
들린다
떠오른
또래
련석
례문
리의
리티
리브
리키
마동
마정
말본
말똥
말끔
말갖춤
망덕
메일
메츠
면내
명정전
모량
목불
목극
몰아가
묘상
문섬
물개
물야면
미후
미황사
박증
박금
방시
방금
배유
백순
백승
백규
백용성
버려서
번다
범문
범과
법랑
벽감
벽옥
변광성
변관식
별가
별식
별주
병치
병후
보균
보냄
볼링
봄여름
봉합
봉납
봉함
봉국사
북소리
북학파
분발
불망
비담
빛낸
빠져서
빨아먹
뻗친
사쓰
사준
사오
사쿠
사납
사십
살색
살촉
삼기
생진
서소
서공
서프
서헌
서킷
석하
석좌
선평
선심
선처
설도
설송
성효
성교육
세어
소당
소싸움
소혜왕후
속방
솔방울
수편
수론
수간
수통
수향
순심
순군옥
숨진
숨겼
스팍
슬리
승산
승형
승녕부
시류
시바
시타
시승
신양
신아
신북
신면
신덕왕
심발
쌀뜨물
아포
아류
아꼈
아놀드
악가
악도
악명
악영향
안파
알류
암굴
압제
앞당겨
애공
야화
얄팍
양연화
어메이
언약
업력
에릭
여여
여용
여격
역해
역제
연후
염하
영은
영중
영의
영강
영파
영언
영매
예심
오치
오회
옥문
옥판
온당
온산
올드
와라
완이
왜사
외당
외보
외과학
용만
우환
우태
우둔
운회
운임
운수리
운흥창
원신
위부
유릉
유담
유합
유찬
육관
윤년
은교
은적암
음형
음담
응전
의혼
의로운
이림
이저
이웅
이쪽
이즈미
이육사
익주
인릉
인건비
임효
임희재
자도
작례
잡세
장후
재당
재보
적실
전현
전갈
전운사
절편
접선
정추
정엽
제리
제망
제염
제첨
제빵
제민요
조고
조찬
조력발전
족적
종창
종옥
종정부
좌변
좌통례
주라
죽서
중모
중영
지온
지킴
진품
진역
진통제
집체
징치
쪼갠
차액
참당
채붕
챌린지
처량
처능
척불
척준경
천해
천책
철리
청공
체면
초발
촉망
총보
총지사
최보
최찬
추곡
축식
출수
치양
치문
코러스
코다이
콩도르
쿠라
크나큰
키보드
타스
타선
탕정
태환
터놓
테스
테일
통칙
트와일
판고
팔음
패거리
페스트
편간
평동
폐현
폐장
폐왕
포군
포메
포박
포뮬
포스코
품대
풍란
프티
핀치
필봉
하삼
하갈
한동
한언
항장
핵연
행선
향병
향규
허기
허루
헌주
헐뜯
헐버트
헬레
현소
현방
현영
현란
협률
혜감
호색
호별
혼입
홀쭉
홍은
홍초
홍다
홍화문
화환
화적
화근
화도면
환구
황열
획정
효현
후선
훈사
휴스턴
흉부
흥경
희석
##사유
##사법
##당유집
##유도
##유희
##고비
##류정
##기니
##가미
##소부
##소녀
##민스터
##현상
##현비
##지무
##동아
##동초등학교
##동교회
##구주
##자성
##화정
##수이
##수아
##수필
##악장
##립무용단
##공덕
##공유고
##모시
##장상
##la
##길상
##바이트
##eet
##달성
##마니
##라잇
##개석
##다람쥐
##적장
##한십
##림왕
##비츠
##간장
##제교
##노지
##신조
##신저
##회맹
##회계사
##호프
##잡저
##글리
##집단
##녀회
##병단
##품관
##육상
##금석원
##용암
##삼선
##ES
##역어
##전승
##전습소
##필담
##관법
##촌문집
##선녀
##선습
##목회
##반닫이
##충렬
##팔선
##면서도
##결의
##혜정
##득기
##발원
##form
##크로
##까리
##네스크
##갑자
##갑옷
##꼭지
##뮈스
##뚱이
대한유
대한국민당
한국해양
교육비
여러모로
대학가
이상혁
독립관
민족정기
기능공
마을회관
자연산
특징지
국립학교
노동청
양식장
부산일보
유물층
임진란
해방병단
내려야
평양교구
시간표
프로세스
불리웠
가로줄
파견국
전주이씨
부여정
분류사
사망률
경전선
경영인
연합신문
연합통신
통합교육
수도암
작업자
대성당
제조소
##레이터
현실주의
주민세
아닌지
##ink
나온다고
보수당
복원사업
##anth
##놀이굿
외교통상
보급품
고문단
809
구실잣밤나무
줄기세포
동국제강
올려졌
시위자
상서도성
인민무력
349
389
세자부
극락구품
무기력
##원사간
연안군
연안파
371
로마네스크
확장팩
준공식
이정청
어린이집
오르도스
네모반듯
장서기
422
아동기
식품공업
남해도
남해고속도로
이중철
병마우후
근로감독
901
보조기관
침략군
김종태
482
이주환
성인봉
부담자
약사경
약사신앙
김성탁
이인성
오랜만
몽고족
이종우
이종린
서정리
546
543
사직동
보리밭
유가종
정주시
진보주의
해동금석원
복식부기
싸움터
728
729
저장법
여의사
627
1307
소수림왕
683
##elf
세손강서원
연출자
##지도소
사간원사간
천문단위
조국평화통일
호칭어
수직선
##국민운동
보현암
632
아도르노
이시명
##olution
향토예비
의문법
인공호
마르틴
이자성
어제시
장승제
회계국
부수상
938
설법상
763
대항면
피난길
관측소
수성동
주교사
774
고산동
833
당했으며
토성리
유수관
914
신한당
신한민보
소방서
898
819
방해석
살아난
정전제
798
##경기연맹
선도교
축원굿
늘어날
1053
1211
사주인
초가을
일월산
대덕면
1531
이방간
1090
대각간
신임장
치우담
철거민
김윤덕
풍물패
다이노스
산학박사
효행설화
구부러져
이태영
실력자
이천기
##부시사
불려졌
이루어진다는
절충주의
만장굴
가려져
피아니스트
세속오계
돌파구
1348
순국선열
담양읍
성숙기
명분론
김응원
몰려오
살인죄
퇴계집
독창회
김현성
원고지
김주영
허물어졌
박승임
김형욱
경원선
경희대
대수학
행렬도
사대주의
진천읍
가라국
무안면
보개산
수의과
##무용협회
아비담
후임자
천군소설
김익겸
무진주
코스프레
종속절
틀림없이
맷돌노래
솔로대첩
길상사
어려워졌
전보사
문수보살상
부작위
불꽃놀이
홍범구주
보국숭록대부
관내도
식당작법
양심수
주먹도끼
김사미
버려야
불공정
히데키
획기적으로
용정촌
이충원
교방가요
앞세운
도지휘사
호서지방
모사본
전방후원
임자도
집정자
취해진
서강대학교
이한응
웨스트민스터
이보흠
공화주의
월경지
오도일
한진그룹
카이로
진하사
타블라리
남궁억
임영대군
니콜라스
맞대결
이불병좌상
최유공
소나기
반지름
구양순
남종선
황토색
정창손
대악서
해부루
갈라졌으며
박춘경
##리오층석탑
노후화
지국천왕
덕흥리
폭격기
정민시
오토모
정봉수
하버드대
Black
약방문
최재서
원생대
김극일
박물학
프란치
군사령부
소태나무
존엄성
극예술협회
육경합부
파상풍
육식성
규산염
번개무늬
부소산성
강백년
마상재
영서지방
오두인
단사선문
비주얼
클라크
쉬우나
체스보드
호연지기
관산읍
하야오
쌍성총관부
형평운동
파로호
실경산수화
하안단구
권순명
옥책문
완질본
우란분경
낚싯줄
사탕수수
일렉트로
자오선
매국노
물권법
무찔러
원두표
휩싸였
덕치주의
태장계
배비장
어쩌면
적심석
곽영욱
의구심
명안공주
명심보감
중죄인
##케이블
에라스뮈스
최지우
충익부
폐막식
수심가토리
임고면
임고서원
끌어올려
##대책위원회
경절문
십신사지
홍적세
대한국민의회
소례복
글래스
사스래나무
반민족행위처벌법
시명지보
의왕시
고갯길
동야휘집
플랑크
##신학대학교
포츠담
물동량
연광정
홍국영
김단야
도석인물화
떠들썩
##명창대회
비린내
위례성
권호문
일인칭
관란정
##면세전
뜨거워
깨끼춤
명활산성
플라토노프
IGN
만파식
경골어류
패트리어트
하물며
세종문화회관
나만갑
범중엄
지쿠호
GNP
한금신보
애리조
김알지
제삿날
반변천
기계설계
해프닝
게오르크
깎아지른
다슬기
어메이징
제민요술
콩도르세
트와일라잇
포뮬러
핵연료
홍다구
외교통상부
인민무력부
근로감독관
조국평화통일위원회
향토예비군
전방후원분
타블라리디스
DID
Get
IN
Jack
PP
Red
Sm
ST
Soci
Tim
TEM
Wil
WBC
dhar
ex
fl
it
kore
sh
가린
각상
각저
감물
값싼
강효
개면
객토
거조
건안
건비
걸걸
결포
겸허
겹아가리
경루
경허
경숙
경솔
경효전
고단
고량
고각
고병
고와
고궁
곡례
곡풍
골편
공옥
곽여
관소
관능
광우
광국
광나무
광문사
광저우
괴질
교권
구방
구아
구암사
국간
국익
국체
군번
궁상
권9
그제
그걸
그름
그쳐
금표
급류
급사면
기허
기음
기른
길동
길마
김령
김질
김저
김반
김혁
꽂힌
끄리
끌리
나미
나후
남위
남벌
납득
내우
내비
내훈
내복
내항
내몰
냉담
네요
년경
노방
노재
노백
노협
녹차
논산군
농잠
누벨
눈먼
느니라
다대
다툰
다뤄
단망
달관
달맞이
당리
당본
덕업
덕은
덕지
덕천리
도초
도복
도검
도전자
독수
독선
독룡
돈의문
돌릴
돌끌
동발
동촉
돼서
됩니까
두벌대
둔탁
뒤꼍
등한
등짐
디스코
따내
띠무늬
람스테
레몬
련사
롤리타
루보
루머
마경
마키
마스크
마드라
막혔
만당
만횡
맞출
매지
매이
매실
매통
맹서
맹꽁
머신
메건
명주군
모을
모인다
몽계
묘조
묘명
묵적
문등
문채
물망
물계
미성
미색
미온
미워
바트
바쿠
박타령
발랄
방증
방사상
방심곡
밭작물
백도
백아
백거
벌꿀
법동
법공
벙커
베순
별례
별실
별거
별무사
병굿
보해
보모
보천군
본피
봉세
봉산면
봉천동
봉림사지
부순
북남
북녘
분뇨
불연
불윤
불륜
뷰티
비가
비차
비짐
빈청
빌리지
빚어지
빛내
사증
사아
사배
사견
산읍
삼창
삼로
삼선관
상일
상건
상번
색주
색법
서천왕
석의
석독구결
섞여서
선국
선굿
설두
설식
성개
세지보살
소절
소첩
소피
소가야
속고
속력
손익
손괘
송종
수가
수회
순성
술안주
스펜
스킬
스톰
슬래
승석
승안
승공
시황
신귀
신천리
심현
심일
심영
십바라밀
쌍구
쓸데
아조
아집
아어
아즈
아닙
아신왕
악상
안평
안벽
안차비
암정
암주
애썼
야대
야시
야쿠
야욕
얀마
양중
양이
양헌
양검
어숙
억지
업그
에케
에버그
여식
여몽
여숙
역졸
역노비
역삼동
연연
연옥
염제
염문
염직
영허
영심
영응
영선사
오유
오서
오숙
오얏
온주
왕좌
왕륜사
외통
외향
외아전
요행
용검
용약
우강
우홍
울결
웃어른
웅어
원금
웹진
위락
윗돌
유단
은솔
음높이
응보
이배
이휴
이렛당
익위사
인들
인평
인시
인어
인곡
일모
일채
일산동
임천면
임존성
입금
입번
잔가지
잡체시
장물
장품
장마루
재공
재협상
쟁쟁
저상
저속
적삼
절간
절운
절골
점철
점쳤
정답
정궁
정나라
조해
조무
존성
존승
종성군
좌완
죄책
주통
주천면
죽천
죽담
준치
줄리
중호
중묘
즉심
지긋
직문하
진번
진서면
집기
집산
집달
짜맞추
차명
차르
차첩
차왜
차륜
차대왕
찰흙
참화
참요
창리
창악
책동
처칠
천남
천영
천매
철옹
청교
청좌
체적
첼시
최송
추제
추담
축음기
충도
취주
취리히
치리
치달
친속
친형
친동생
칠사
침법
칼빈
커브
코믹
크라이
키프
타박
탁잔
탐진강
탕감
태중
태영
태상시
텐데
토정
토요
토신
토카
통이
퇴사
퇴성
트롤
틀렸
파적
파넨
판공
팔리어
패륜
팬터
편삼
폄하
평직
평천하
포석
포라
풍정
풍서
피했
피렌
필부
하디
하멜
학궁
학성군
한철
한직
한잔
합회
항법
해칠
해로운
핵폭탄
향군
향내
향목
허형
헛되
헬싱
헹구
현숙
현곡면
현모양
혈기
협종
협연
호혜
혼효
홀아비
홍타
홍살
홍백
홍채
화설
화란
황민
황급
황성기
황산대첩
회강
회연
회충
회현동
효고
효봉
후장
후벽
흑구
흘린
흥아
흥법
흥학당
히브리
##사십이장경
##사교의
##우편
##당인
##고무
##스문트
##포트
##천수
##상거래
##세우
##기봉
##3호분
##소장전적
##두부
##지정
##출입
##구지
##구제
##보법
##대요
##안인
##미성
##미즘
##도덕
##CK
##속편
##해례
##척화비
##모습
##단추
##창생
##이엇
##무정부주의
##군정
##군인회
##성세
##성곡
##바인
##니우스
##마비
##마음
##다녔
##람도
##재고택
##강연
##후면
##경수
##경영
##제조
##제승
##시키
##양수륙
##신부
##명령
##명양수륙
##생성
##열성
##뿔이
##담비
##냉이
##집중
##집터
##송읍
##더스트
##아난
##아졌
##윤씨
##씨름
##ook
##어마
##역훈
##버선
##항쟁
##오례
##변정도감
##IT
##필기
##하천
##하도
##디우스
##내륙
##풍형
##몽룡
##입지
##난도
##난방
##돌널무덤
##커리
##커녕
##벽당
##놀림
##균등
##딩스
##견문록
##킨슨
##흑산도
##껍데기
##홀름
##논변
##튜니티
##괭이
조선시
한국통신
그리운
연구지
서울국제
경우궁
사이먼
조사료
들어야
들어차
정치부
기술인
민족유일당
국민방위
사업주
백제기
인간관
지도서
노동신문
양식업
대사전
여자신
상대역
부인과
발행소
##중앙초등학교
유사종교
금강암
가로놓
석조아미타
근대극
올라앉
옮겨가
집단주의
연주가
##era
경성공업전문학교
시험관
주인집
공신당
상징어
청년학원
603
605
한성전기회사
##inc
전자상거래
##onder
출연료
경향문학
기계식
개월법
창립자
소유지
주택지
유교경
전형필
선조성
이기택
구멍무늬
동국역
문양전
일기장
상주사
시위패
양반전
우수사
유리제
상서령
집행정지
사자도
계약금
서기보
마리우스
동양방송
##리스마
이승엽
##ork
기자실
기자헌
457
4500
제국신문
수사학
마당놀이
아름다웠
국방군
사령장
민요풍
법인격
동남방
사정거리
##ated
삼성혈
타이거스
주자가례
영남루
영남읍지
유배형
대지도론
천주교도
금동불입상
905
동부동
489
다스린다고
이원구
646
진사과
달려서
몽고메리
이종인
이종찬
517
서정원
법당주
474
472
김일성종합대학
441
달라져
신장염
천지명양수륙
정지운
주사보
1353
##let
한양대
부자간
1203
621
진도아리랑
1301
관찰력
이경손
지질학자
매일신문
##ural
알아듣
이광좌
프리킥
신호위
화산서원
전원책
김동준
부서져
보험법
해남읍
빠져나
관세사
동인회
동인시화
공예태후
투표자
퇴적토
943
마르셀
1257
취지문
615
통계청
김용환
987
981
무명지
그만둔
진실주집
##곡리유적
합병증
867
861
862
739
732
968
동명왕릉
효자동
들여다보
천태사교의
훌륭히
1179
신용협동조합
신용카드
김인준
1285
848
상록구
김광진
이지영
군부대신
조기준
국조오례
살아오
수백만
곡선미
케이크
도식화
잡아오
아르바이트
좌익공신
이덕성
군산항
김연국
구석구석
향악잡영
연루자
이남규
1496
1028
지석묘군
1534
위생학
대정읍
1125
이집트인
운수암
신임옥사
발명품
베트콩
천왕사
의결권
풍기읍
만화가
이천보
마사토
불려진다
신명균
과실주
점토층
득점자
구단주
매듭지
1342
사슴뿔
백지화
의인소설
매월당집
만수받이
1227
납치범
박승빈
용화수
뛰어남
휴대폰
나간다는
나타냈으며
기묘명현
경흥군
부전호
아비뇽
정형시
독성도
남조선국방
충적층
미타사
문학사조
천수관음
가전제품
직계제
낚시터
##으로써
솟아났
선소리산타령
태사묘
부식토
전리수소
지기스문트
용강서원
내사시
대보단
영도구
관람석
관람자
화양적
구룡산
##ella
조동사
조동종
상방정례
성읍마을
좌부승선
한일어업협정
유선방송
##마애여래좌상
오륜가
김소운
교외별전
김학성
해리슨
이한철
전함사
장판개
몰아낸
미추홀
서호면
가와바타
송화군
신계군
정년퇴직
와룡동
메리다
회양목
불명예
이철승
엑스박스
버들가지
북진통일론
천성산
포유동물
아쉬워하
안락사
최병심
관우희
##보험㈜
개울가
방패선
반송파
이춘영
정이품
서초동
서영보
소도구
유장원
김득배
국채보상
엄정면
흥부전
최재형
김남천
동몽선습
워커힐
소목장
테크놀로지
노하우
팔도도
박치복
정열모
소격전
외동딸
장작감
한국일보사
드라이버
권중화
금단청
낙성식
영빈이씨
순자법
얼룩무늬
Grand
은산별신제
자귀나무
안도현
김삼룡
서둘렀
하양읍
부드러움
유홍기
사질토
시집살이노래
원근법
박찬종
용추사
청취자
최기남
호리병
Teen
이흥렬
움츠리
중과부적
천추사
봉조하
석간주
내실화
아오모리
백합과
설악동
용흥강
종계변무
참위설
유니버설
뒤섞인
황학정
##구곡도
박흥식
ESPN
서령사
권업모범
나부끼
불조삼경
연두색
도유나
단호히
황준량
부스럼
홍무정운역훈
병관좌평
살구나무
크리스티안
판이부사
최희량
한독의약
조르주
들쭉나무
케인스
##스테르담
구군복
면밀히
달집태우기
대한청년단연합회
##천문도
보타락
##발자국화석
레코즈
벽제관
전중시어사
보르네
배서낭
경덕궁
치화평
William
홍복원
광희문
적유령산맥
권이진
세악수
사관생도
권덕규
의승군
진북위
대광대패
변강쇠타령
남형우
옥추경
가고시마
세종대왕기념사업회
장길산
##침례회
무차대회
항공우주국
알츠하이머병
소택지
각섬석
송석원시사
오퍼튜니티
잡식성
찔레꽃
하태경
Britney
불출마
유카탄
내야수
신드롬
##자음군
쿠루리
청장관전서
TEMM
람스테트
마드라사
방심곡령
비차부
삼선관파도
어숙권
업그레이드
에버그린
파넨카
현모양처
홍타이지
흥법사지
##무정부주의자연맹
국민방위군
전리수소영역
권업모범장
한독의약박물관
BC
Back
CJ
CIA
Es
Fore
Field
Hor
IBM
Mer
NLL
Per
RCA
Rose
VI
VT
bl
qu
ᄍᆞ
ᅀᅥ
가제
가희
가속도
감로왕
강착
강서원
갖신
개변
개활
거닐
거니
거마
거친다
건고
건율
건준
걸로
겉섶
격외선
격월간
결판
결빙
경심
경분
경근
경운동
곁가지
계월
계안
계로
계묘
고환
고색
고를
곡천
곡마
곡파
곤도
곤륜산
과징
곽암
관포
광폭
광흥사
괴로워
구요
구병
구목
구습
국동
국속
국철
군후
군율
군벌
군정부
군형법
권단
권병
귀때
규구
규표
균분
극렬
극빈
근자
글월
금낭
금인
금옥
금궤
기두
기니
기담
기역
기몽
길조
길선
길리스
김락
김혜
김첨
깍두기
깨어난
꼬마
꽁치
꽃술
꽃가지
꾸란
꾸러미
꿈틀
나산
나식
나각
나래
나감
낙론
난무
낮춰
내침
내딛
너와집
넋두리
널벽
노우
노려
노프
노하라
노계집
논총
놀부
놀림
놀랐
능란
니트
다모
다마스
단란
담선
당질
대록
대농
대향
대박
대풍류
덕기
덕인
덕적도
덧없
데이트
도행
도개
도윤
도염
도막
독대
독문
돌쩌귀
동궐
돼야
두수
둔한
듀오
등교
디즈
따낸
라리
라벨
렀다고
레바
레스토
로지
루주
루카
류사
류큐
리먼
마중
마방
만불
맞부
매드
맥상
맹휴
머지
먹인다
명림
모기업
목저
무종
무림
무희
묵묵
문객
묻어두
물통
미분
미납
민예
민희
밀전
밑받침
박식
박훈
박살
박렬
반치
발걸이
밤섬
방중
방청
방염
백당
백치
백전
백홍
벌림
법천
법제사
법화사
베기
벤치
벽선
변안
변박
변죽
병조선
보초
보혈
복치
복정
본생
본떴
봉강
봉통
봉익
부포
부요
부청
부선
불후
불매
브뤼
비노
비연
비뉴
비루스
비산동
비봉산
비빔밥
빨랐
뻐꾸
뿌려서
사념
사담
사충
사룡
삼효
삼광
상축
상견례
샛방
서세
선곡
설유
설재
섬록암
성오
성게
세탄
소창
소덕
소좌
손돌
솜털
송월
송요
쇠사
쇠가죽
수속
수춘
수완
수탉
숙장
순백색
술사
스컬
습열
습하
승만
시여
식의
신치
신준
신좌
신정부
신여성
실고추
심괄
쌍두
쌍청
아소
악의
안천
안후
안연
알지
암당
암지
암투
암스테르담
앙상
앞섰
애상
양석
양휘
양승
양희
양옥
양웅
어치
어재
어효
어득
어쿠스
어금니
에틸렌
여악
여위
여색
여김
역무
연을
연찬
연곡면
염의
영민
영비
영태
영내
예매
오촌
오매
오건
오솔
오산시
올콕
와다
와타
완충
왕공
왕준
왕양명
외함
요전
용관
우원
우징
운경
웅건
원분
원암
원설
원흥사
월도
월명사
위두
위구
위백
유념
유강
유택
유녀
유각
유와
육포
윤은
은상
응분
의유
이븐
인군
일음
일절
일장기
임형
자씨
작폐
작사자
작상인
잠사
잠그
잡사
잡학
잡인
잡힌다
장립
장변
장필
장외
재류
재본
재운
재항
재매
쟁론
저전
저력
저것
저질러
적출
적음
적과
전포
절주
정후
정렴
정건
제적
제불
조코
조격
족속
종약
주운
주하
죽여서
준엄
중설
중곤
지드
직랑
진가
진방
진형
진건
진괘
진액
질렀
집무실
차라
차귀
착생
창공
창렬사
채수
책망
천록
천흥사
철산군
첩정
첫해
청방
청의
청인
청참
청원사
청산면
체념
체위
체스터
첼로
촉감
촌은
총비서
최당
최립
추시
추탈
축자
축주
출행
출궁
충혼
취운
측방
치이
치주
칠패
칠면
침굉
칩거
칭할
카리스마
캐니언
컨디션
켄트
켤레
콜브
큰비
키케
타산
탁하
탄두
탄문
탈수
탑본
태지
태대형
터스
터뜨리
토번
토장국
톱날
투데이
튀겨
틀리
파나
파와
패트릭
퍼진다
펜들
평수
폐제
폐암
포신
포집
포폭
품정
풍소
풍림
풍뎅이
프론
하재
학지
학열
학용
학선
한파
한형
한판
한충
한갑
한커우
함세
합기
합수
항산
항몽
해가
해중
햇무리
행당
행락
헐렸
헤지
헤시오
현우
현민
현승
협수
형판
혜산시
혼구
혼일
홈구장
홍각
화산성
환선
활터
황일
황공
황시
후창군
흑석사
흙덩이
흥수
흥타령
##사연구
##우기
##유선
##고문
##천화상
##천자문
##가전
##34
##32
##소산
##소작
##지봉
##지하철
##부선
##치병
##구권
##일도설
##보자
##보편
##보주
##대원군
##정요
##정주의
##축원
##자연사
##화강
##화선
##초당
##초성
##초프
##교린
##수월
##안보
##미정
##원법
##조프
##중상
##장원
##bag
##ren
##to
##진첩
##성교
##바초프
##편집
##iat
##평도
##니클
##마드
##마면
##마이트
##라치
##라습
##재합
##영웅
##한화
##한잎
##본원
##명학교
##율리
##왕순수비
##uz
##불멸
##음운
##통의
##여해
##아찬
##과나무
##복례
##복덕
##친영
##용준
##삼재
##전고
##전운
##전탑
##항면
##오공
##오십
##족보
##직강
##작소
##박지
##관세
##관아
##투수
##AI
##칠사
##팔부
##매화
##표범
##카게
##발음
##체인
##러니
##촉진
##ᆡᆨ
##탈놀이
##칼레도
##씻김굿
##끝장식
##늑약
조선구
조선무용
한국천
한국영화
한국체육
한국구비
한국현대
한국토지
지역주의
모두루
중심주의
학교보건
이상수
이상길
이상춘
이상백
세계태권도
독립촉성
독립기념관
경제법
들어설
생활용수
북한지
기능대학
통일사회당
인물평
조성도감
백제국
백제고분
규정짓
서원철
도시락
1005
마음먹
토지세
이유석
이유로
이유필
규장전운
민속주
현상학
현상금
경찰국
경찰대학
금강반야경
아이오
그린차
려는데
농업용
제사장
##eral
대동사
대동문
대동면
대성아악
주목망
목조삼세
청년기
유명세
선교랑
이하진
건너오
수용체
바다표범
소유물
재정경제부
병원체
병원균
고문진보
##기념일
특성화
지닌다고
시집보내
우수주
대비책
김정한
363
전설사
##무원종
성균관직강
상서사
의례문해
인쇄기
인쇄공
고사인물화
동양인
이수정
법원조직법
악기장
물리친다
754
756
의견서
삼성사
삼성산
집중호우
생물학자
서재인
남해차차
아주머니
장애음
이명우
위기감
서사원
한인합성
여인숙
이원경
김성숙
경비원
521
감정평가
신경망
공공연히
백자호
437
439
어떻든
대가리
442
542
##이스케
세대주
494
설계자
이화여자고등학교
인원왕후
##itz
칠성암
해동역사
##연합위원회
애국열
1272
전력난
584
진도씻김굿
1305
이경류
변형생성
한정어
대륙성
알아냈
알아맞
국악협회
정유자
명사구
김동성
김동명
정선읍
장흥읍
복구공사
서민호
고령자
천자총통
어업계
국경일
한림랑
이시원
이시백
946
949
859
의문형
##라이즈
대우중공업
야구팀
정통성
지진파
956
장자풀이
989
##러스케
717
자음체계
축구팀
765
일으켰으나
대항전
거북등
용암포
749
742
유인물
박영준
신기리
신기선
중소도시
김경여
조경학
1293
권위자
김인섭
##ree
##oug
847
조명희
899
정동영
포교사
금당사
조영남
조영규
792
돌아왔으나
대부시
김재봉
단양팔경
헤이안
을사늑약
토착화
김연준
문지르
소학지
1218
아키타
아키히로
이문정
이문건
리듬체조
김병호
1080
담겨진
1538
이만희
고르바초프
##전문대학
수필가
대도시
머물렀으며
증조모
청산도
양도면
평행봉
메이드
김우명
조병식
조병순
과일나무
재미한족
##ull
납작바닥
성실히
천신만고
박태준
우정총국
상의어
영해면
심장형
영등굿
롯데그룹
삼국지연의
호국군
호국신앙
공수부대
최상급
몰래슨
밀려오
##진흥왕순수비
유니언
허물어지
국학진흥원
서유견문
조선인민혁명군
원작자
사대교린
용화동
오가산
끌어당기
윤회설
영세민
001
등기부
이강국
문사낭청
천불동
어획고
미타암
김익희
연소자
영일만
날아오
편수대엽
옹진반도
잠수정
급진주의
선상지
손꼽혔
신조어
세도가
구마라습
김사형
최경창
적벽부
태인면
히데오
대아간
대역사전
산대잡
산대놀이
그늘진
##able
좌부대언
보덕굴
교우촌
삼사우사
신구문화사
이한림
##보장회의
법성종
##ipp
김복선
깊숙히
문주왕
통속민요
서양화가
미수기언
되돌아갔
무조신
보육원
약혼녀
알렉산드르
전경련
가라앉히
김흥근
중독자
크로니클
보양청
중고제
정릉동
전법륜
부끄러
남명천화상
모심기소리
##교도소
송만재
소변불리
포고령
##창의록
문전본풀이
낭림산
중중모리장단
덕흥대원군
운학문
권농관
오정숙
이돈화
봉상왕
제갈공명
공손찬
횡단면
번안소설
그래픽스
목마장
파울로
오곡밥
자운서원
장한몽
하우메
Comp
사평부
안타까워하
영빈관
윤경남
다목적
윤정현
재결합
무릉리
한국불교전서
ᄒᆡᆼ
백중날
여고생
##axi
서병호
최동오
##교원대학
쓰러뜨리
호두나무
##트릭스
균여전
더라면
아자개
주저앉
서소문동
경구개
서일본
부추기
진현관
입후보자
What
칼자루끝장식
프라이즈
잔디밭
침례교
묵호자
순군만호부
친위군
##그래프
동교동
무병장수
시독관
단석산
극기복례
황준헌
뒤떨어지
선림원지
승보시
허난성
구본웅
소제목
##매일신문
권용현
삼선개헌
SCH
누진세
불모지
용출량
허여문기
Super
임선규
마령면
유금필
##iction
카디프
김매순
메트로폴리
##리석조여래좌상
민본사상
마야부인
역력히
상비군
스톡홀름
인순왕후
전농시
정노식
개도국
조선독립동맹
진변위
최흥원
호접장
권문세족
송규렴
민우수
알바니아
반야바라밀다심경약소
임사홍
장준하
단말기
알타이어족
표해록
무네카게
서력기원
소쩍새
한려해상국립공원
김형직군
박초월
기발이승일도설
나복자
후루야
어모장군
노랑부리백로
옥원재합
왕당파
오호츠크해
노박덩굴
문설주
오피스텔
제니퍼
하복부
##자비도량참법
바나나
청유형
국가안전보장회의
어마어마
##팔상전
바라지창
권돈인
애덤스
제마수
상교정본자비도량참법
자카르타
가운뎃손가락
##ublic
부다페스트
아날로그
한국독립운동사
추축국
국가배상법
수성금화사
David
별안간
쇼토쿠태자
대동금석서
##아미타여래설법
문방사우
소손녕
토트넘
근생엽
사쓰마
집달관
천매암
토카막
국채보상운동
개활지
다마스쿠스
담선법회
레스토랑
맞부딪
뻐꾸기
쇠사슬
어득강
어쿠스틱
키케로
펜들턴
헤시오도스
##자연사박물관
남해차차웅
변형생성문법
재미한족연합위원회
남명천화상송
메트로폴리탄
옥원재합기연
Are
Ang
BTS
CN
Du
For
Fri
GH
Mor
Mag
Na
Nob
NGO
Od
PV
Paul
Rem
SE
Wal
ac
co
ᄆᆞᆯ
ᄉᆞᆯ
ᄎᆞ
가금
가련
가랑이
가극단
각력
감교
감조
감압
강승
강규
강천사
개심
거소
거화
건어물
검문
검관
게놈
겨룬
견종법
결석
결획
결체
겸업
겹옷
경률
계군
고악
고율
고판
골재
공심
공혜왕후
과판
과육
과밀
관호
관곡
광흥
광년
교기
교선
구준
구삼
국본
군노
군측
군북면
굴묵
권축
권서
극형
근천
근구
근체
긁어내
금질
금의
금발
급유
기곡
기염
기러
김웅
깎였
깔리
꺾여서
꼬치
꼼짝
꽁지
꽃문
남리
남목
내공
내마
내응
내몽
냉국
너와
넝마
노당
노대
노중
녹산
녹여서
녹십자
논핵
농주
놓아주
뇌고
뇌질
는구나
다림
다한다
다무라
담청
담헌
담쟁이
당탑
당나무
덕소
덕적
덤불
데니
도생
도담
도반
도숙
독전
독권
동잠
동격
동업자
두골
둔토
둔테
들르
디미
떠다
띠배
라지
라운
랩퍼
랭커
류로
류성룡
리문
마과
마산시
막힘
막아주
만추
매연
매설
매트릭스
맴돌
맹골
멋대로
메가
메꾸
면임
명함
명률
모장
모암
목문
몰이
몰렸
몰운대
몸부림
묘행
무루
무감
무옥
무체
문절
물장수
미론
미러
민순
민음사
밀부
밑천
바예지
바장조
박고
박강
박권
반민주
발착
발받침
밤하늘
방우
방포
방외
밭갈이
배편
뱃고사
범용
법무사
법왕사
법륜사
벚꽃
베베르
벽루
변리
변문
변리사
병가
병술
보진
복면
복검
본주
봉고
봉계
부들
부축
부로
부체
부릅
북장
북옥저
분유
분진
불승
붓질
비산
비름
비서원
빙실
뽐내
뿔뿔이
사식
사타
사륜
사귄
사보이
산아
삼락
삼본
삼작
삼취
삽량
색신
생이
생채
서촌
석자
석모
설의
섬서
섬잣나무
성일
성봉
성즉리
세스
세화
세립
소석
소남
소옥
소흘
송리
[...]
