#version: 0.2 - Trained by `huggingface/tokenizers`
▁ 이
▁ ,
▁ .
▁ 에
▁ 의
▁ 는
▁ 다
▁ 하
▁ 을
▁ 은
▁ 고
▁ 1
▁ 으
▁ 한
▁ 있
▁ 가
▁ 를
▁으 로
▁ 되
▁ 지
▁ 년
▁ 기
▁ 어
▁ 로
▁ 사
▁ 과
▁ 대
▁ 여
▁ 었
▁ 도
▁에 서
▁ 였
▁ 인
▁ 그
▁ 시
▁ 수
▁ 조
▁ 등
▁ 전
▁ 일
▁ 제
▁ 적
▁ 부
▁1 9
▁ 것
▁ 자
▁ 정
▁ 아
▁ 보
▁ 중
▁ 2
▁ 와
▁ 서
▁ 경
▁ 주
▁ 된
▁ 들
▁ 나
▁ 위
▁ 관
▁ 유
▁ 신
▁ 문
▁ 상
▁ 라
▁ 월
▁ 3
▁ 게
▁ 동
▁ 개
▁ 해
▁ 면
▁ 성
▁ 연
▁ 소
▁ 구
▁ 만
▁ 공
▁ 장
▁ 세
▁조 선
▁ 국
▁ 때
▁ 편
▁ 모
▁ 교
▁ 며
▁ 비
▁ 권
▁ 내
▁ 발
▁ 4
▁ 명
▁ 후
▁한 다
▁ 남
▁ 학
▁ 화
▁ 5
▁ 불
▁ 호
▁ 무
▁ 원
▁ 우
▁ 선
▁ 마
▁ 던
▁ 김
▁ 현
▁ 형
▁ 영
▁ 할
▁ 설
▁ 당
▁ 간
▁ 산
▁는 데
▁ 거
▁ 오
▁ 단
▁ 강
▁ 통
▁ 계
▁ 양
▁ 두
▁ 안
▁ 진
▁ 각
▁ 방
▁ 생
▁ 종
▁ 또
▁ 6
▁ 따
▁ 삼
▁ 역
▁ 함
▁ 군
▁으 며
▁ 본
▁ 없
▁ 건
▁ 같
▁ 특
▁시 대
▁ 초
▁ 바
▁ 행
▁ 분
▁ 작
▁ 재
▁ 않
▁ 말
▁ 실
▁ 석
0 0
▁ 미
▁ 청
▁ 평
▁ 임
▁ 까
▁ 받
▁ 목
▁ 노
▁ 8
▁ 7
▁ 창
▁ 뒤
▁된 다
▁ 민
▁ 음
▁까 지
학 교
▁고 려
▁ 예
▁ 천
▁ 출
▁ 책
▁라 고
▁ 추
▁따 라
▁ 배
▁ 회
▁ 및
▁ 법
▁ 왕
▁ 반
▁에 게
▁ 았
▁대 한
▁ 운
▁ 광
▁ 백
▁ 했
▁ 금
▁면 서
▁ 처
▁ 북
▁ 용
▁ 차
▁ 집
▁1 8
▁ 9
▁1 0
▁ 표
▁ 많
▁ 봉
▁ 최
▁ 박
▁ 활
▁후 기
▁ 알
▁부 터
▁ 입
▁우 리
▁ 규
▁ 점
▁그 러
▁라 는
으 며
▁ m
▁ 감
▁ 매
▁ 외
▁ 물
▁ 변
▁ 결
▁ 충
▁ 속
▁ 약
▁나 라
▁ 태
▁1 2
▁이 나
▁다 고
▁ 높
▁ 승
▁한 국
▁ 직
▁ 저
▁ 병
▁그 리
▁ 독
▁ 돌
▁사 람
▁ 복
▁사 용
▁이 후
▁ 심
▁ 달
▁ 판
▁ 증
▁ 새
▁ 농
▁ 파
▁기 록
▁교 육
▁ 참
▁ 절
▁내 용
▁ 요
▁ 묘
▁일 본
▁함 께
▁다 가
▁ 길
▁으 나
▁지 방
▁ 토
▁ 향
▁ 칸
▁ 체
남 도
▁1 6
▁ c
▁신 라
▁그러 나
버 지
▁ 채
▁ 송
▁로 서
▁c m
▁ 근
▁ 황
▁간 행
▁가 지
북 도
▁ 잡
▁ 포
▁ 총
▁ 필
▁지 역
▁서 울
▁경 상
▁당 시
▁1 7
▁그리 고
▁연 구
▁ 좌
▁이 루
▁ 담
▁ 확
▁ 순
▁하 나
▁1 5
▁사 회
▁1 1
▁ 더
▁또 는
▁역 임
▁ 치
▁지 만
▁모 두
▁19 7
▁다 는
▁ 합
▁ 홍
▁19 6
▁경 우
▁ 데
▁현 재
▁ 앞
▁19 8
▁ 크
▁1 4
▁ ∼
나 무
화 재
▁ 풍
▁19 4
▁중 국
▁때 문
▁여 러
▁나 타
▁ 귀
▁였 으며
▁구 성
▁또 한
▁ 살
▁설 치
▁19 9
▁ 번
므 로
▁1 3
▁다 시
▁ 식
▁ 별
▁ 곳
▁ 철
▁위 하
▁ 못
▁위 해
▁ 올
▁높 이
▁아 니
▁ 열
▁수 록
▁19 5
▁ 쓰
▁본 관
▁ 죽
▁활 동
▁ 윤
부 터
▁ 씨
▁ 축
▁어 서
▁의 하
▁ 손
▁운 동
▁문 신
▁중 심
▁만 들
▁19 2
▁도 록
▁ 항
▁형 태
▁전 라
▁19 3
▁ 논
▁ 즉
▁으로 서
▁가 운
▁가운 데
▁아 버지
▁다 음
나 라
▁2 0
▁ 취
▁설 립
▁국 가
시 대
▁이 러
▁학 교
▁건 물
▁ 품
▁ 놓
▁이 르
▁중 앙
▁위 치
▁작 품
문 화재
▁특 히
▁ 밖
▁ 큰
▁관 한
▁ 언
▁가 장
▁전 기
▁시 작
▁ 육
▁ 완
▁지 정
▁ 층
▁대 학
▁ 잘
▁ 옥
▁관 계
▁사 이
으 나
▁경 기
▁다 른
▁보 다
▁ 끝
▁위 원
▁ 걸
▁ 피
▁ 효
▁유 형
▁는 다
▁ 협
▁2 00
▁ 측
▁이 름
▁ 글
▁세 기
▁ 허
머 니
▁ 준
▁19 1
▁조 직
▁부 분
▁위 한
대 학교
▁삼 국
▁일 반
▁관 련
▁독 립
▁ 환
▁ 둘
▁도 서
▁학 자
▁문 화
▁ 악
▁ 줄
▁ 스
▁ 폐
▁같 이
▁제 도
▁중 요
▁불 교
▁비 롯
▁ 암
▁자 료
▁ 딸
▁ 온
▁표 현
▁이 상
▁정 도
▁일 제
▁조 사
▁ 팔
▁ 볼
▁충 청
▁ 뜻
▁ 능
▁ 타
▁거 나
▁관 리
인 다
▁ 맞
▁아 래
문 집
▁어 머니
▁따라 서
▁창 건
▁들 어
▁ 존
▁으로 써
▁ 궁
▁보 이
▁ 머
▁ 친
▁ 극
▁ 뿐
▁경 제
▁추 정
▁이 것
▁발 전
▁ 날
▁ 범
▁기 술
▁아 들
▁19 0
부 분
▁주 로
▁역 사
▁유형 문화재
▁ 곡
▁ 급
▁대 표
▁기 관
▁형 식
▁과 정
▁생 활
▁의 미
▁ 야
▁민 족
▁ 업
▁ 갈
▁이 용
▁정 부
▁마 을
▁제 작
▁사 실
▁소 장
▁세 계
▁ 누
▁기 능
▁한 편
▁ 난
▁통 일
▁ 혼
▁경상 북도
▁ 침
▁ 려
▁ 검
▁정 치
▁방 법
▁조 성
▁나 무
▁ 갖
▁ :
▁시 기
▁많 이
▁문 제
▁ 밀
▁ 붙
▁기 념
▁ 몸
▁ 칠
▁자 연
▁ 덕
▁ 벽
▁ 질
▁못 하
주 의
▁의 해
▁시 키
▁ 드
▁단 체
▁ -
▁북 한
▁구 조
▁모 습
▁각 각
▁ 투
▁ 씩
▁ 탑
▁행 정
▁인 데
▁처 음
▁보 인다
▁조 각
▁2 5
▁사 업
▁출 신
▁모 양
▁3 0
▁특 별
▁불 상
▁서 문
▁ 될
▁백 제
▁새 로
▁초 기
▁봉 안
▁경기 도
▁규 모
▁ 밝
▁국 민
▁목 적
▁만 든
▁ k
▁생 산
▁담 당
▁ 네
▁보 물
▁로 부터
▁시 도
▁이 전
▁ 낙
▁전 체
▁ 밑
▁처 럼
▁ 좋
▁고 구
아 버지
▁편 집
▁매 우
▁cm ,
▁ 흥
▁ 견
▁자 리
▁ 애
▁ 헌
한 다
▁여 기
▁ 훈
▁특 징
▁ 넓
▁군 사
▁국 립
▁사 찰
▁18 9
▁실 시
▁편 찬
▁승 려
▁남 북
▁시 설
▁고구 려
▁측 면
▁ 므로
▁이 어
▁ 막
▁경상 남도
▁필 요
▁의 식
▁모 든
▁사 상
▁ 접
▁인 물
▁ 엮
▁지 금
▁전 문
▁대 부분
▁전 국
▁연 대
▁ 찾
등 학교
▁발 견
▁할 아버지
▁나타 나
▁였 으나
▁ 듯
▁ 염
▁ 졌
▁개 발
▁사 랑
▁ 겸
▁이 곳
▁ 숙
▁이루 어
▁ 왔
▁건 립
▁알 려
보 살
▁제 주
▁ 너
▁ 갑
▁머 리
어 나
▁ 니
▁규 정
▁ 격
▁필 사
▁인 간
▁ 먹
▁운 영
▁노 래
놀 이
물 관
▁그 것
▁자 신
▁으 면
▁제 문
▁경 주
▁삼국 시대
▁ 찬
▁발 문
▁강 원
▁ 춘
▁장 식
▁지 도
▁생 각
▁ 희
▁ 폭
▁일 부
▁ 첨
▁형 성
▁전라 남도
▁ /
▁ 읍
▁ 졸
▁ 섬
▁ 널
▁남 쪽
▁학 문
▁시 문집
▁ 익
▁출 토
▁통 해
▁전 통
▁ 벌
▁음 악
▁ 옛
▁ 느
▁대 상
▁사 건
▁문 학
▁ 녹
▁ 옮
▁양 식
▁명 칭
▁ 탄
점 기
▁k m
▁노 동
▁ 러
▁ 응
▁ 망
▁산 업
▁거 의
▁국 제
▁ 리
▁ 쌓
▁ 곧
▁서 원
▁원 래
▁ 얼
▁ 쓴
▁정 면
▁소 리
▁ 맡
▁나 누
강 점기
▁보 여
▁유 물
▁일제 강점기
▁성 격
▁ 색
▁부 르
▁구 분
▁설 명
▁임 진
▁ 울
▁대 해
▁전 하
▁국 내
▁ 첫
▁서 로
▁다 양
▁ 류
▁배 치
▁대 하
▁참 여
▁해 당
▁ 힘
▁ 꽃
▁돌 아
▁평 양
▁강원 도
▁동 안
대 로
▁확 인
▁유 적
▁서 쪽
진 다
▁졸 업
▁ 흔
▁비 교
▁증 손
▁해 방
▁포 함
▁ 얻
▁ 왜
▁시 가
▁전 개
▁ ᆞ
▁ 십
▁ 란
▁관 직
▁ 술
▁ 눈
00 0
▁기념 물
▁해 서
▁통 하
▁수 행
▁상 태
▁마 다
▁저 술
▁좌 우
▁정 책
▁기 둥
▁동 쪽
▁걸 쳐
▁부 산
▁ 0
▁보 통
▁계 속
▁변 화
▁속 하
▁ 넣
▁ 터
▁개 편
▁미 국
▁보 살
▁임 명
▁부 록
▁강 화
▁부 사
▁기 단
▁주 장
역 시
▁광 복
▁고 분
▁ 긴
▁자 기
▁내 려
▁산 문
▁ 버
▁오 늘
▁ 쌍
▁대 신
▁기 본
▁ 퇴
▁시 켜
▁대 구
▁북 쪽
▁ 떨
▁학 생
▁거 쳐
▁신 문
▁필사 본
▁소 속
▁대 사
▁도서 관
▁크 기
▁토 지
▁ °
왜 란
▁저 자
▁최 초
▁마 련
▁전 쟁
▁각 종
▁ 척
▁보 호
▁연 결
▁임진 왜란
▁ 깊
▁으 므로
▁세 워
▁2 1
▁위원 회
▁충청 남도
▁발 달
▁대 회
▁평 안
▁업 무
▁으로 부터
▁받 침
▁잡 저
▁ 쪽
▁자 유
▁2 4
▁ 풀
▁새로 운
▁전라 북도
▁규 장
▁발 굴
▁고 자
▁ 베
중 앙
▁ 골
▁ 뒷
▁행 장
▁ 잠
▁ %
▁마 음
▁ 율
▁전 해
▁ 옷
▁사 적
▁ 굿
▁ 굴
▁ 낮
▁변 경
▁영 향
▁역 시
▁가 능
▁약 간
서 원
▁너 비
▁소 설
▁규장 각
▁ 착
▁5 0
▁바 탕
▁주 요
▁존 재
▁여 자
소 리
▁ 징
▁차 례
▁의 한
▁신 앙
▁안 동
▁부 인
▁권 두
▁권 말
▁건 설
▁민 속
▁광 주
▁ 론
▁ 윗
▁결 과
▁ 둥
▁발 행
▁이 때
▁유 학
▁유 지
▁광 역시
른 다
▁ 혁
▁ 먼
▁대 체
▁2 2
▁ 탈
▁ 혜
▁한다 는
▁그 런
▁ 옆
▁본 래
▁계 획
▁달 리
▁오 른
▁바 로
▁더 욱
▁개 최
▁자 세
▁ 패
▁갖 추
▁1 00
▁일 정
시 아
▁4 0
▁무 덤
▁ 춤
▁건 축
▁ 억
▁석 조
▁떨 어
▁ 됨
▁과 학
▁직 접
▁시 켰
▁현 대
▁목 판
▁함 경
▁종 류
▁강 조
▁유 사
▁발 표
▁이 야
▁도 시
▁주 변
▁행 위
▁2 3
▁없 이
▁ 겠
▁금 강
▁동 시
▁ 쇠
▁인 정
▁차 이
▁ 엄
여 래
▁어 려
▁정 신
▁따 르
▁가 로
▁석 탑
▁ 넘
▁더 불
▁사 무
▁제 정
▁그 림
▁길 이
▁출 생
▁지 리
▁전 주
▁분 야
▁그 대로
▁가 리
▁처 리
▁내 부
▁새 겨
▁ 000
▁분 포
▁여 성
▁아 서
▁이야 기
▁널 리
▁이 미
▁2 8
▁토 기
▁ 왼
▁이 해
▁세 력
▁ 띠
▁설 화
▁ 둔
▁ 깨
▁ 빈
▁ 습
▁발 생
▁문 화재
▁조 정
▁체 계
▁ 혹
서 관
▁지 붕
▁국립 중앙
▁활 자
▁종 교
▁특별 시
▁행 사
▁개 칭
▁ 떠
▁공 사
▁문 인
▁양 성
▁가 사
▁ 프
▁ 짓
▁면 적
▁공 립
▁ 놀이
▁ 흑
미 타
▁지 나
▁제 사
▁ 납
▁묘 사
▁ 돈
▁민 주
▁2 6
▁실 려
▁부 여
▁소 재
▁비 슷
▁농 업
▁ 땅
▁현 상
▁황 해
문 학
▁ 몽
▁세 웠
지 붕
▁이 듬
▁후 손
▁옮 겨
▁위 패
▁경 전
▁먼 저
▁인 가
▁제 자
▁교 회
▁근 대
▁어 느
▁시 행
▁의 병
▁지 대
▁당 나라
▁정 보
▁ 몇
▁공 간
▁그 린
▁공 업
▁용 어
▁문 헌
▁모 아
▁결 정
▁ 메
▁대체 로
▁영 화
▁대 동
▁ 숭
▁이듬 해
▁파 견
▁외 국
▁나타 내
▁방 향
▁ 늘
▁충청 북도
▁대 청
▁18 8
▁체 제
▁어 야
▁둘 레
▁ 촌
▁과 거
▁예 술
▁등 장
▁세 종
▁전 면
좌 상
찰 사
▁대 성
▁평 가
▁분 류
▁들어 가
▁상 대
▁지 원
▁경 영
▁행 하
▁ 압
▁불 리
▁종 합
▁방 식
▁ 싸
▁폐 지
▁공 동
▁상 황
▁연 주
▁경 성
▁다 만
어 난
▁진 주
▁2 7
▁대 전
▁그런 데
▁ 겨
▁가 치
린 다
▁해 야
▁태 조
웅 전
판 서
▁지 내
▁정 원
▁청 동
▁축 조
▁올 라
▁려 는
▁ ′
▁가 르
국 시대
부 사
▁ 봄
▁자 라
▁말 기
▁18 6
▁ 잔
▁오늘 날
▁제 조
▁중 수
▁20 1
▁ 흐
운 동
원 군
▁나타 난
▁보 내
▁기 업
▁정 리
▁ 벼
▁기 간
▁보 존
▁보 관
무 덤
▁ 낭
▁자 형
▁얼 굴
▁고 등
▁공 신
▁개 인
▁농 민
▁묘 갈
▁상 당
▁이 유
▁사 항
▁무 신
회 사
교 육
▁196 0
▁ 빠
▁집 단
마 루
▁특 수
▁ 뛰
▁박 물관
▁ 꾸
석 탑
▁학 술
▁다 리
유 고
▁다 르
▁ 휴
조 판서
▁학 급
▁ 족
▁목 조
▁표 기
▁묘 지
▁미 술
▁임 시
▁민 간
▁ 밤
▁찾 아
▁ 끼
▁세 운
▁화 엄
▁확 대
▁기 원
▁가 슴
▁혹 은
▁차 지
▁197 0
대 부
▁ 맹
▁ 짐
박 물관
▁ 옹
▁ 져
▁구 체
▁ 코
▁중 간
▁환 경
▁ 답
▁실 제
▁중 학교
▁세 로
▁ 벗
▁완 전
▁마 루
▁주 목
▁인 천
▁한 자
▁통 합
▁남북 국시대
▁했 으며
▁2 9
▁가 정
▁ 잎
▁ 째
▁중 기
▁군 수
▁교 사
▁개 념
▁대 장
▁ 덮
▁대 웅전
▁해 안
▁한 글
▁장 관
▁시 간
▁세 우
▁배 향
▁공 주
▁일 으
▁공 장
▁교 수
▁ 뚜
▁천 연
▁정 상
▁임 금
▁목판 본
▁시 장
▁최 고
▁국 어
▁무 늬
▁제 외
▁아 미타
▁동 서
▁바 닥
도 사
도 서관
▁만 주
▁시 킨
▁이 사
▁전 승
▁동 지
▁시 조
▁198 0
▁관 장
▁석 가
▁드 러
▁목 사
▁원 형
▁하 늘
▁공 포
▁195 0
▁회 의
▁개 성
▁개 정
▁ 록
▁장 군
사 기
▁나 오
▁음 식
▁대 통
▁부 정
▁자 본
▁국 회
▁현 실
▁훈 련
▁따 른
▁ 묵
▁3 1
▁가 까
▁경 찰
▁진 행
▁준 다
▁사 신
▁언 어
▁시 험
▁번 역
▁지 냈
▁동 경
▁평 면
▁거 리
의 정
사 지
▁이 래
▁회 장
▁ 휘
조 참
▁추 진
▁통 신
▁고 등학교
▁결 성
▁청 년
▁이 론
▁국립중앙 도서관
▁수 도
▁어 린
▁가 진
▁안 정
기 시대
거 리
▁한 성
공 신
▁서 술
▁요 구
▁알려 져
가 지
▁기 준
▁자 체
무 늬
▁이 른
▁기 구
층 석탑
▁주 식
▁상 호
▁ 몰
▁ 균
▁문 서
▁재 산
▁현 존
▁물 론
▁상 징
▁문 장
▁ 흘
▁기 타
▁계 승
▁법 률
▁쓰 이
▁식 물
▁위해 서
▁주 인
▁동 일
▁대 로
▁아 름
▁로 써
▁그 려
▁묘갈 명
▁고 대
▁종 이
▁ 칭
▁지 명
▁대해 서
천 군
▁절 차
위 원
▁주 민
▁ 괴
▁어 깨
정 부
▁6 0
▁바 위
▁노 력
▁정 하
▁지 름
▁산 성
▁한다 고
▁매 년
▁당 하
▁대통 령
▁표 시
▁향 교
▁사 당
▁ 좁
국 사
▁활자 본
▁지 배
▁작 업
. .
▁자 주
▁작 용
▁지 장
▁정 확
▁제주 도
▁ 든
독 교
▁책 임
▁제 시
▁가 족
▁해 석
▁반 대
▁ 곤
▁점 차
▁일 대
▁신 설
▁이 외
대 학
의 원
▁둘 러
▁근 거
▁이 하
▁연 합
▁부 엌
▁전 시
▁선 교
▁동 물
▁인 도
▁회 원
▁교 통
▁출 판
▁백 성
어 났
리 학
▁대 개
▁장 소
▁전 투
▁추 모
▁복 원
▁좌 상
▁경 사
▁ 죄
▁기 초
▁단 계
▁cm .
▁서 양
▁기 사
▁관 원
▁편 성
▁작 성
▁운동 가
▁비 하
▁지 급
▁둘 째
▁바 뀌
▁청 주
▁주 석
▁ 겹
▁ 뿌
▁주 름
▁194 6
▁건 너
▁지 니
▁옥 개
▁ 짧
▁ 촉
▁모 시
▁견 해
▁가 을
▁도 로
▁194 5
▁전 한다
▁단 위
▁18 7
▁신 부
▁신 분
▁일 어나
▁정 조
▁영 조
▁유 교
▁영 산
▁등 지
▁ 썼
▁분 리
산 성
▁중 건
▁오 래
▁주 위
▁증 가
▁. ..
▁관 음
▁유 림
▁192 0
▁주 택
▁대성 전
▁ 탁
기 념
▁선 거
▁ 갔
산 군
▁인 식
▁부 처
머 리
▁바 꾸
▁신 도
다 리
▁창 립
▁회 사
▁소 개
▁공 격
▁ 즐
▁지 점
도 감
▁고 종
▁줄 기
▁장 단
▁귀 국
▁전 자
▁ 탐
▁사 리
▁효 과
▁구 실
▁파 악
▁ 짜
▁3 5
▁후 반
▁불 화
▁ '
▁은 행
▁국 사
▁전 후
▁문 양
▁흔 히
▁노 비
▁경상 도
▁보 수
▁경 향
▁어 떤
▁동 국
▁보 급
▁기 계
▁완 성
▁기 독교
▁황해 도
민 국
▁원 칙
▁도 입
▁재 정
▁상 주
▁지 구
▁ 괘
머 지
▁성 장
▁유 래
▁방 송
▁ 움
▁전 형
▁나 머지
▁전 반
▁역 할
▁연구 소
▁준 비
▁구 별
▁일 기
대 전
▁시 집
▁보 유
▁가 야
▁취 하
▁ 앉
▁경 계
▁이 동
▁연 화
▁고 인
▁선 정
▁ 커
▁구 멍
▁공 부
▁개 혁
▁ 삶
▁장 수
▁신 체
▁양 반
▁현 감
▁ 님
▁상 업
▁주 도
▁마 치
▁수 립
▁선 조
▁붙 여
▁치 료
아 가
▁감 독
▁본 격
▁부 근
▁분 명
▁ 첩
▁유 명
▁만 나
▁와 서
▁추 측
▁3 2
▁대한 민국
▁전라 도
▁창 간
▁사 망
▁수 령
▁성 균
▁으면 서
▁공 연
▁정 비
▁모 여
▁선 생
▁아 닌
▁소 유
▁발 간
문 관
▁재 료
▁위원 장
▁의 례
▁나 온
▁기 법
▁부 모
성 군
▁나 가
▁ 셋
▁바 다
아 리
▁상 서
▁미 륵
▁흘 러
▁혼 인
▁지 식
▁부 장
▁우 주
▁성균 관
▁수 용
▁ 믿
▁명 나라
▁ 객
▁비 해
▁집 안
▁왼 쪽
렇 게
기념 물
▁지 적
▁대 중
▁천연 기념물
▁무 역
▁단 의
▁글 자
▁한 문
▁궁 중
▁13 9
▁특 이
▁m 2
▁초 대
▁였 을
▁성 벽
▁양 쪽
▁살 펴
▁ 곽
▁창 작
▁침 입
▁지 닌
▁인 사
▁ 섞
하 여
▁8 0
▁올 려
▁7 0
▁참 가
▁5 00
▁종 사
▁비 로
▁활 용
▁여 야
▁관 심
▁제 공
▁확 실
불 교
▁안 채
▁밝 히
▁지 낸
▁그러 므로
▁ 묻
▁이 기
▁일 찍
▁관 서
▁193 0
▁우 수
소 설
▁화 강
▁능 력
일 보
▁정 자
▁성 주
▁내 외
▁우 물
▁상 량
▁왕 비
▁고 문
▁밝 혀
▁ 붉
▁사 립
▁협 회
▁ 굽
▁ 쉽
▁비 판
▁강 릉
▁배 경
▁ 횡
▁사 자
▁가 마
▁특 성
▁교 명
▁조 상
▁오른 쪽
▁194 8
▁서 기
▁적 극
▁191 9
▁발 해
▁지 휘
▁일본 인
▁이른 바
자 리
▁인 쇄
▁따 로
▁만 드
▁고 사
▁대 비
▁문 집
▁체 육
▁ 덧
공 업
▁가 락
연 구
▁이 룬
▁올 리
▁ 훼
▁ 읊
▁대 좌
▁풍 속
산 리
▁일 종
▁탑 신
▁부 족
▁단 순
▁계 기
▁3 3
▁첫 째
▁가리 키
▁ 빌
▁뿌 리
구 역
▁채 색
▁전 설
▁ 흰
▁인 하
▁의 원
▁나 이
▁3 6
▁고인 돌
▁작 가
▁명 문
▁제 품
▁헌 법
▁기 반
▁세 자
▁ 솟
▁ 혈
▁부 대
▁이루어 진
▁ 웅
▁미 루
▁동 양
▁세 상
▁초 등
▁주식 회사
▁성 립
▁ 듣
▁혁 명
위원 회
▁결 국
▁옥개 석
▁에서 부터
▁조 건
▁청 자
▁정 의
▁무 용
▁최 근
▁려 고
▁문 하
▁의 사
▁극 락
▁입 학
▁ 루
▁ 맺
울 러
▁부 속
▁다 섯
▁191 0
▁ 렀
▁왕 실
▁아 울러
▁금 융
▁요 소
▁199 0
▁마 당
조 선
▁집 행
▁방 어
▁기 여
▁다 루
사 상
▁이 수
▁개 월
▁국 왕
▁취 임
▁관 청
▁는 지
▁인 용
▁도 리
▁사 단
▁김 정
▁둥 근
원 사
▁여 겨
▁ 낳
▁감 사
▁병 원
▁전 적
▁농 촌
▁아 직
▁초 상
▁천 도
▁197 3
▁ (
▁남 자
▁그리 하여
▁각 기
▁고 유
▁만 사
▁잡 지
▁수 원
▁부 도
▁천 주
▁ 얹
고 등학교
도 리
▁전 사
▁비 문
▁작 자
▁ 량
▁ 빛
▁중 생
▁활 약
산 시
▁의 학
▁ 깔
승 지
지 만
▁계 통
▁관 하
▁정 사
▁개 교
▁199 6
▁상량 문
▁대 문
▁3 4
▁ 맥
▁ 택
▁그 래
▁외 교
▁이루어 지
▁수 법
▁유 행
지 막
▁ 흙
▁연 극
무 원
협 회
▁ 쌀
▁가 구
▁수 리
▁15 9
▁ 놀
▁199 8
▁수 집
▁어 렵
▁근 본
▁3 00
▁연 꽃
▁주 거
▁교 과
▁글 씨
▁범 위
▁ 읽
▁아름 다
리 아
▁수 출
▁규 칙
▁해 외
▁대 손
▁투 쟁
▁ 탱
▁거 주
▁건 국
▁부 른다
▁공 산
▁통 한
형 문화재
▁비 단
▁겨 울
▁신 축
▁ 맛
▁선 현
▁민 요
▁삼국 사기
▁형 제
▁실 천
▁자 격
▁기 와
▁개 항
▁형 상
▁서울 대학교
▁새겨 져
▁ 써
▁짐 작
라 도
산 면
▁반 드
▁벼 슬
▁ 뽑
▁이 성
▁수 학
▁반드 시
▁3 8
▁ 앙
유 사
▁재 배
▁활 발
▁듯 이
▁ 뻗
고 기
▁ 테
▁4 5
▁읍 지
▁교 리
▁196 1
▁도 움
▁인 구
▁셋 째
▁원 나라
▁항 목
▁인 지
▁194 9
▁이루어 져
▁주 제
▁흔 적
▁ 〕
▁구 릉
▁개 설
▁이 런
향 교
▁사 례
▁동 해
▁직 업
▁정 기
▁상 부
▁무 당
▁고분 군
▁ 찍
▁199 7
▁196 2
▁ 〔
▁손 자
▁묘지 명
자 치
▁관 제
▁세 조
▁팔 작
기 둥
▁유 리
▁설 정
▁ 칼
학 회
▁마 애
▁올 린
▁ 욕
▁유 일
▁못 한
다 는
▁받침 돌
▁ 빼
▁수 준
으 므로
▁정 월
▁ 디
고 분
▁여 름
▁학 원
부 인
▁숙 종
▁주 관
▁교 화
▁연 간
▁공 급
▁내 리
▁다 소
왕 후
▁준 공
▁뚜 렷
▁판 소리
▁아 이
▁재 판
▁이 승
▁ 삭
▁추 가
▁갈 라
▁ 흉
▁동 북
▁성 곽
▁직 후
▁196 3
▁관 료
▁법 인
▁ 레
▁ 액
▁중 대
▁부 문
▁철 학
▁확 립
▁수 호
▁사 전
▁원 리
▁배 출
▁제 목
▁정 당
▁중 창
▁학 회
▁관 찰사
▁급 제
▁마 지막
▁시 인
▁개 국
▁연 안
▁생 존
▁파 괴
▁반 영
▁여 래
▁적 용
반 도
유 적
입 상
▁명 륜
실 록
▁이 렇게
▁ 흡
주 시
▁소 나무
▁배 우
▁처 방
▁대 립
▁나타난 다
▁아 무
▁입 장
▁돌 방
▁ 낸
▁주 체
▁그래 서
▁구 역
▁사 천
▁태 종
▁197 9
▁조 화
▁ 획
조 합
▁중 추
▁7 5
▁ 멸
▁동 남
▁화 학
▁조 금
▁제 기
▁3 7
▁서 북
▁인 해
▁스 스
▁팔작 지붕
▁16 0
▁역 대
▁근 무
▁17 9
▁사 정
▁수 입
▁정 권
▁옛 날
▁ 엿
▁ 잃
▁동 원
▁악 기
▁흐 르
조참 판
▁만 큼
서 리
▁상 세
▁14 0
▁군 자
▁논 의
▁스스 로
▁ 꼬
▁확 보
▁는 가
▁채 택
▁남 편
▁학 과
의 회
▁제 일
▁상 소
▁산 신
▁바 람
▁왕 조
▁제 한
▁방 형
▁네 모
▁서 경
▁표 면
▁승 격
▁ 융
▁무 렵
▁자 원
▁198 1
▁바 라
▁법 원
아 들
▁즉 위
▁반 면
풀 이
▁이 익
▁다 듬
▁장 서
▁의 무
▁가 져
▁호 남
▁ 핵
▁이 황
▁ 깃
▁임 무
▁개 선
▁소 실
▁맞 추
▁전 래
▁보 낸
▁특 정
▁190 7
▁시 위
▁명륜 당
암 사
▁남 녀
▁199 5
▁유 치
▁동 래
화 경
▁하 여
정 사
▁도 모
▁ 꿈
▁동 아
▁ 돋
▁ 굄
▁교 장
▁불 렀
▁삼 존
▁ ○
▁ 굵
▁했 으나
▁국 방
▁육 군
▁197 1
▁창 설
▁독 자
▁향 상
▁문 자
▁행 동
▁철 도
▁깊 이
▁물 리
▁순 천
▁자 금
▁연 혁
▁금 동
▁하 지만
▁지 속
▁사 설
▁황 제
▁198 6
▁ 밭
▁아 랫
▁경 국
▁요 청
▁ 헤
가 락
느 리
▁주 자
▁만 세
▁남 해
▁순 서
▁지 키
▁전 환
▁안 방
▁보살 상
▁유 구
▁장 면
▁남 원
▁197 2
어 들
▁사 우
▁수 정
▁성 종
▁진 다
▁198 5
▁질 서
▁귀 중
▁무 릎
▁실 현
▁194 7
▁ 》
▁선 사
▁계 곡
▁출 입
▁광 산
▁한국 인
▁하여 금
▁이 이
▁나 아가
▁해 결
▁대학 원
▁대 형
▁진 흥
▁심 하
▁193 8
▁동 학
▁화 려
▁지 위
▁자 동
▁판 단
▁200 0
▁금 속
▁경국 대전
▁사 지
▁경 내
▁식 품
▁상 해
▁바 깥
▁영 남
▁가까 운
▁하 천
▁ 령
▁일 원
없 이
▁유 통
▁생 기
▁16 2
▁둥 글
▁서 재
▁병 마
▁198 2
▁모 서리
▁충청 도
▁아 야
▁ 숲
▁이 끌
▁장 방
▁고 정
▁두 께
▁스 승
▁ g
▁군 대
▁ A
▁유 배
▁ 틀
▁내 지
▁청동 기시대
▁보 름
▁본 부
▁198 7
▁ 大
중 추
▁이 정
▁지 하
▁민 중
▁ )
▁통 제
▁원 인
▁ 카
▁으 니
▁국 기
▁198 4
▁ 꾼
▁사 면
흥 사
▁이 중
▁봉 수
▁김 해
▁향 하
▁발 원
▁16 8
▁사 방
▁검 사
▁이 념
▁장 기
▁해 인
▁확 장
▁화강 암
▁국 보
▁198 8
▁ 겪
▁일 체
▁풀 이
러 운
▁안 쪽
▁별 도
▁197 4
▁언 론
▁프 로
▁였 음
▁단 지
▁보 장
▁계 열
▁달 하
▁강 하
▁3 9
▁송 시
▁투 자
▁성 과
장 사
▁연 세
▁196 7
▁살펴 보
은 행
▁196 8
▁천주 교
대 사
▁17 2
찬 가지
▁마 찬가지
▁197 5
▁고 향
▁들어 와
▁갖 춘
▁ 꼭
▁의 의
▁강 당
▁13 6
▁4 2
대 회
▁분 석
▁천 장
▁금 지
▁밀 양
▁소 비
▁석 불
▁197 6
▁ ×
▁ 홀
▁연 맹
▁피 해
▁맞 배
▁총 회
▁권 리
▁죽 음
여 지
토 기
▁목 표
▁노 인
▁나 와
▁광 배
▁사 라
▁한 인
▁아미타 불
▁ 끌
▁의 료
▁지 형
▁무 기
▁14 6
▁평안 북도
▁ 퍼
▁산 수
▁ 잇
▁17 8
▁느 낌
▁어린 이
▁ 멀
▁명 령
▁마 리
▁ 끓
▁나 주
처 마
▁국 문
▁16 3
▁ 펼
독 부
▁독 특
▁생 긴
▁출 발
▁협 력
▁유 생
▁실제 로
▁아 동
▁삼국 유사
▁° C
▁머 물
▁떨어 진
▁신 화
▁불 과
▁원 효
▁195 1
▁ 랑
▁고 쳐
▁인 조
▁김 일
▁인 수
▁선 출
▁ 뇌
▁구 름
▁장방 형
▁성 공
▁190 8
▁다 수
▁기 재
미 술
▁고 전
▁러 시아
덕 왕
회 의
▁산 지
▁197 7
▁ 끊
▁진 출
▁복 지
▁창 고
▁의 장
▁경 험
▁본 문
▁약 사
▁축 문
▁가 입
▁최 대
대 장
다 고
▁영 역
▁m m
▁철 폐
백 산
양 군
▁사 고
▁복 장
▁계 급
▁표 준
▁194 0
▁198 3
▁기 도
▁울 산
주 )
▁상 하
▁참 고
▁합 격
여래 좌상
▁완전 히
▁지 상
▁행 적
▁버 리
▁지 칭
▁그 렸
▁연세 대학교
초 등학교
▁시 문
▁삼 성
▁초 석
▁서 사
▁14 1
▁ 득
▁보 고
▁떠 나
▁보 건
▁정 착
▁196 9
▁199 9
▁ 엽
▁관 등
▁남 부
▁김 영
▁이 원
▁이 제
▁지 지
▁신 학
▁속 한다
▁ 툇
▁평안 남도
다 란
▁지 주
▁보 조
▁결 합
▁언 제
▁동 의
▁화 가
▁청 나라
▁송시 열
▁제 거
▁관 할
▁상 단
▁16 5
▁착 용
▁연 기
▁18 5
▁입 구
▁윗 면
▁사 장
▁경 지
▁두 루
▁15 0
읍 지
▁고 을
▁아 주
▁봉 사
▁대 지
▁항 일
▁금강 산
▁목 록
화 사
▁선 비
▁거 두
▁백 자
▁농 사
▁수 군
▁198 9
▁함경 남도
▁태 극
중추 부사
▁여 인
▁문 무
▁항 아리
▁전 신
▁ 콩
어 진
▁화 면
▁김 종
▁영 국
▁인 민
▁등 록
▁5 5
▁선 전
▁18 0
▁진 사
▁ I
▁고 기
▁유 역
▁태 평
▁수 산
▁17 7
▁성 리학
▁생 명
▁우리 나라
▁사 령
▁정 식
▁상 품
▁4 8
▁ 찰
▁충 주
▁196 4
▁염 불
▁ 펴
▁원 주
▁이어 지
▁주 조
준 다
▁통 치
▁체 결
▁보통 학교
▁ T
▁우 선
▁189 5
▁ ᄀ
▁194 1
각 형
▁제 수
▁관 광
▁근 로
▁뒷 면
대 문
▁삼 층석탑
▁가 곡
▁농 악
▁ 슬
▁동 생
▁불 러
▁강 제
▁양 주
▁군 인
▁부 부
▁ 빗
▁ 푸
모 니
▁올 렸
▁침 략
▁사 료
▁고려 사
▁보유 자
▁ 롭
▁장 대
▁192 5
▁한 강
▁인 과
▁196 6
▁주거 지
▁대 승
▁이어 서
▁렀 다
▁산 하
▁그 곳
▁16 1
▁190 9
▁법 당
▁199 2
▁춘 추
▁지장 보살
▁ 묶
▁다 스
▁음 력
▁체 포
▁193 7
▁행정 구역
▁프 랑
가 사
계 종
▁종 래
▁196 5
▁ 례
▁일 치
▁학 부
▁발 족
▁수 단
▁수 업
▁자 손
▁집 중
▁195 3
▁ 솔
제 학
▁197 8
▁간 단
▁종 로
▁ 맨
장 군
▁종 묘
▁전 혀
▁모 셨
▁선 수
▁9 0
▁언 급
설 화
▁중 단
▁타 원
▁의해 서
문 사
▁국민 학교
▁입 상
▁ 쯤
▁향 사
▁195 4
▁ 쟁
▁사회 주의
▁ 털
널 무덤
▁기 자
▁ 쳐
▁사 헌
▁무 리
▁생 겨
▁195 8
▁학 명
▁순 수
▁맞배 지붕
▁그 릇
▁193 6
광 사
▁아 시아
▁남 한
산 사
▁된다 고
▁ 닦
▁학 습
▁평 균
▁외 부
▁장 구
▁생 물
▁주인 공
▁ 《
▁4 1
▁더 라도
▁이 인
▁하 대
▁199 4
▁훼 철
▁ 붕
주 사
▁6 4
▁왕 자
▁몽 고
▁ 빚
▁교 류
▁17 5
타 령
▁해 설
▁판 매
▁192 7
▁ 키
▁교 구
▁강 의
▁192 1
▁잘 못
▁ ~
▁수 사
▁열 매
▁ 떡
▁조 합
▁상 인
▁공 무원
▁부 설
▁평안 도
▁이룬 다
▁프랑 스
▁제 향
▁평 화
▁돌아 가
고 리
동 안
어 사
자 나
▁의 정부
▁수 상
▁전 공
▁연 장
▁km 2
▁하 루
▁일 상
▁특 색
림 사
▁우 측
▁재 단
▁화엄 경
▁192 2
▁자 는
▁배 열
▁195 7
▁ 팽
가 루
▁수 요
▁소 년
▁벗 어나
▁서 정
▁17 0
▁문 종
▁동 부
▁알려 진
랑 이
▁고려 대학교
▁기 존
▁성 인
▁본 사
▁의 견
▁받 치
▁하 사
▁전 각
▁당 대
▁석 축
▁ 트
어 져
▁6 6
▁ 밥
▁서 남
▁자세 히
안 군
▁능 선
삼 문
▁경 비
▁영 의정
▁개 화
▁교 서
▁행 해
▁된다 는
▁192 6
▁였음 을
엄 경
여 자
▁사 직
▁마 침
▁192 4
▁악 보
성 사
▁불 탑
▁김 성
▁가 공
▁아 내
▁교 원
▁송 나라
▁석가 모니
▁국회 의원
▁상 류
▁원 산
▁비 록
▁오 히
▁전문 학교
▁떨어 져
▁의 지
▁지 석
▁과 장
▁석 기
▁품 계
▁김 상
▁몸 돌
▁어려 운
▁사헌 부
▁ 삽
▁신 중
▁4 3
▁산 림
▁회 복
승 람
어 지
▁195 5
▁쓰 여
▁오히 려
▁부 담
▁문 답
▁달 려
▁193 5
▁놓 여
▁ →
▁대 왕
▁일 어난
▁단 군
림 픽
▁예 산
▁천 지
▁함경 도
소 년
▁편 입
▁뒤 쪽
▁195 6
▁190 6
▁노동 자
상 도
▁고 승
▁귀 족
▁허 리
▁궁 궐
▁도 덕
▁방 위
▁선교 사
▁사 원
▁비 중
▁17 6
▁17 1
▁이 른다
▁칠 언
▁오 르
▁192 3
▁논 문
▁의 주
자 기
▁대 가
▁성 행
▁ t
▁이 주
▁그 렇
▁서 구
▁ 섭
▁였 으므로
▁서 식
▁문 과
▁4 7
▁당 초
▁195 2
▁한 반도
▁기 울
▁처 마
▁병 자
▁191 4
▁이 순
▁5 3
▁박 사
▁불 구
▁16 6
▁풍 부
▁가르 쳤
▁사 물
▁올라 가
대 군
▁관 해
▁단 편
▁인 한
▁하 단
▁재 직
▁17 4
▁서 적
▁공 양
▁5 2
▁무 엇
▁함경 북도
▁인 류
▁요 사
▁199 1
▁5 4
▁18 4
▁193 1
▁ 련
▁이 종
▁장 애
▁움 직
▁ 짝
▁단 어
▁미 상
▁ ―
▁ 쉬
▁계 층
▁장서 각
▁고 성
▁192 9
▁4 4
▁벽 화
▁동 맹
▁국 장
▁강 한
▁받 아들
▁앞 쪽
▁보 리
▁공 공
▁공 민
▁각 지
▁ 맑
천 시
▁구 축
▁5 1
▁수 습
▁석 등
▁승 지
▁유 성
▁ C
▁시 호
여지 승람
▁상 면
▁칠 성
▁ B
▁상 륜
▁ 뚫
▁193 9
▁일찍 이
법 인
▁의 상
▁신 장
▁방 지
▁창 녕
▁나타 낸
▁동 굴
▁김 유
▁출 가
▁묘 표
▁얼 마
▁전 달
▁선 언
▁대 조
▁부 임
▁교 환
▁오 랜
▁16 9
호 란
▁고 쳤
▁정 해
▁석 재
교 회
▁14 3
▁190 5
▁이 화
▁199 3
▁해 동
▁간 략
▁홍 문관
계 사
▁문 법
▁193 3
문 고
제 국
▁인 문
▁소 금
▁후 대
▁판 본
▁때 로
▁작 전
▁밖 에
청 년
▁번 식
▁193 4
▁위 기
▁관 념
▁안 전
▁뛰 어난
간 다
▁수 신
▁ 쥐
▁초상 화
바 닥
▁육 성
▁한성 부
민 속
▁18 3
▁판 관
▁스 럽
▁의병 장
▁기 대
▁공 통
▁장 사
▁양 산
▁신 하
▁189 4
▁뚜 껑
▁ 빨
▁의 도
▁정 주
▁몸 체
▁서 해
▁연 한
▁건 강
▁실 업
▁앞 서
▁193 2
문 화
▁4 6
▁판 석
▁192 8
▁조 치
▁중 부
▁경 위
▁모 신
▁현 종
▁변 하
▁16 4
▁날 개
▁ 빙
수 지
▁4 9
▁감 정
▁개 방
일 기
▁가 계
▁화 폐
▁선 발
잡 이
▁가 졌
▁195 9
▁ 냉
▁업 체
▁기 슭
▁비 신
▁저 서
▁주 사
▁후 보
▁두 어
▁하 고
▁나 왔
▁소 식
▁선 종
사 사
▁가 문
▁지 시
▁관 아
▁양 상
▁신 민
▁물 질
▁참 석
▁유 가
생 활
▁돌 려
▁아름다 운
법 원
▁기 생
▁보 편
▁김 수
▁군 정
▁북 부
제 사
▁위 주
▁편 지
▁건 의
▁독 일
간 지
▁등 급
▁14 5
▁걸 친
▁왕 명
▁드 리
과 학
▁작 곡
동 맹
▁장 악
▁의 거
▁거 래
▁표 지
▁복 합
▁16 7
▁191 1
수 록
▁사 법
▁대 책
▁주 부
▁동 재
▁권 력
▁석 실
▁청 하
고분 군
▁ 센
▁인 근
▁새 긴
▁가 례
▁중 종
▁태 도
▁상당 히
▁대 학교
▁면 석
▁공 자
▁12 7
▁복 식
▁대 원군
▁시 사
▁일 익
▁마 주
▁절 터
▁9 9
▁하 부
▁반 란
▁ 一
구 리
▁가 량
▁로 운
▁무 대
▁영 정
▁13 5
▁통해 서
▁서 당
▁섬 유
▁ M
▁모 래
▁모 음
▁추 구
▁왼 손
▁절 구
▁핵 심
▁ 궤
모 리
▁기 획
▁고 서
▁시 절
▁교 관
▁일 컫
▁태 양
▁덕 행
▁커 다란
▁구 하
▁장 인
▁교 정
▁물 건
▁갑 오
▁정 교
▁김일 성
자 료
▁계 면
▁5 6
▁애 국
▁달 라
▁존 속
▁공 식
▁거 행
▁10 1
▁친 족
▁유 기
▁동 자
▁영 동
▁ 꺾
중 학교
▁이 건
▁한 계
신 문
▁에 다
▁남 산
▁주 역
▁산 천
▁남 양
▁김 제
▁6 5
▁균 형
▁ 쫓
▁4 00
▁좌 측
조참 의
▁여 서
▁경 관
▁문 수
▁ 좀
▁심 사
▁여 수
▁동 기
▁국 무
▁방 언
▁음 양
▁압 록
▁시 민
▁성 명
▁영 양
▁두 드
▁책 봉
▁18 2
▁판 각
보 통
▁경 작
▁내 린
▁맞 이
▁지붕 돌
학 생
▁문 중
▁간 부
▁음 성
▁ 끈
▁조 세
▁부 자
▁부 재
▁6 7
▁ 숨
연 합
▁ 붓
▁문 예
▁베 풀
▁항 상
▁자연 석
▁ 탕
▁대한 불교
▁차 원
가 리
▁전 교
▁건 조
대 기
▁함 양
▁중 시
▁장 치
▁화 상
▁합 리
▁13 7
신 앙
▁도 량
▁200 9
▁도 성
▁안 성
▁주 재
▁교 단
▁식 민
불 탱
스 트
통 일
▁지 표
▁개 소
▁모 집
▁해인 사
▁철폐 령
▁ 겉
무 형문화재
▁어 떠
▁제 석
▁중요 무형문화재
▁질 병
▁ ᄒ
▁ 넷
호 부
▁지 켜
▁경 연
▁영 어
▁함 흥
▁청 소년
▁들어 서
▁제 국
▁소 작
▁왕 위
▁드러 나
▁사 기
▁수 양
▁예 능
▁13 0
▁툇 마루
공 산
무 부
▁전 제
▁오른 손
▁ 뉴
▁그 루
▁연 못
▁김 창
▁윗 부분
▁촉 진
▁여 진
▁구 제
▁세 손
▁발 기
▁북 위
학 자
▁일본 군
▁쓰 였
▁189 9
▁비로 소
위 기
▁고 시
▁지 난
▁자 녀
▁극 단
▁이 재
▁윤 리
선 사
▁동 사
▁무 장
▁예 조
▁기 회
▁여 섯
▁호 분
노 동
▁선 원
▁판 사
▁압록 강
▁ ᄃ
룡 사
▁이 경
▁전 파
▁신 석
▁갈 등
▁진 도
▁둘러 싸
공 학
정 원
▁동 문
▁동 요
▁청 구
▁18 1
▁태 자
▁ 얕
▁창 원
▁집 터
▁내려 오
갈 색
▁사천 왕
▁첨 차
관 찰사
▁여 의
▁정 서
자나 불
▁ 률
▁방 문
▁ 꾀
▁예 방
▁감 리
▁해 산
▁거 기
▁ 훨
▁까 닭
▁194 2
▁갑 석
▁왜 구
▁대 리
▁아 우
▁% ,
▁흡 수
▁중 문
▁동 작
▁해 발
▁원 종
▁6 2
▁본 존
▁재 건
선 생
주 군
▁국 악
▁설 비
▁12 0
▁심 의
▁누 정
▁ S
▁독 서
▁17 3
▁ 깎
▁ 덩
▁보 완
▁항 공
▁ 굳
공 원
▁해 도
▁본 다
▁임 원
▁명 부
▁186 8
▁ 브
악 산
▁사 간
▁전 선
▁선 고
▁당 선
▁토 양
▁14 4
지 도
▁상 례
▁5 8
▁실 록
사 자
져 서
▁이 광
▁화 재
▁병 조
▁ 늦
▁서 명
▁당 상
▁경 쟁
▁공 정
▁실 패
▁누 구
▁정 지
▁장 로
▁돌아 와
▁사 범
▁인 원
▁주 의
▁연 도
▁후 자
▁저 장
▁찾아 볼
▁써 서
▁유 럽
▁장 흥
▁계 몽
▁대 나무
▁조선 인
▁물 러
▁요 지
▁14 7
▁보여 준다
▁훨 씬
▁ ᄂ
천 리
▁나 한
▁합 쳐
▁민속 자료
▁한 양
▁해 남
▁공 의
▁통 상
▁소 형
▁구 절
▁변 형
▁순 조
▁통 도사
▁올 림픽
▁6 8
▁합 의
▁교과 서
▁지 사
▁용 도
▁봉 화
▁감 소
▁변 천
▁취 급
▁ 홑
▁비 밀
▁도 구
▁간 격
▁충 렬
▁응 용
▁대 대
▁조 약
▁보 현
▁성 분
▁계 산
▁극 복
▁ 젊
▁성 문
▁5 7
▁호 랑이
▁계 절
▁향 리
▁정 선
▁영 주
인 본
▁정 유
▁해 양
▁국 토
▁보 성
▁세 대
▁14 2
려 서
▁자 식
▁중 용
▁고 리
▁사 서
▁사 유
▁대 방
▁7 2
▁쓴 다
▁공 화
▁고등 보통
▁꼬 리
▁고등보통 학교
▁중 반
▁주 지
▁장 편
▁태 어나
▁공민 왕
▁끝 나
▁ 꽂
▁가 옥
▁후 원
▁현 장
▁겸 하
▁기 리
▁그 때
▁서 리
▁화 산
▁통 영
▁여 주
▁화 성
▁거 듭
▁불 법
▁분 위기
▁일으 키
▁다 니
▁불 렸
▁새 겼
너 지
▁일 시
▁명 사
▁창 조
▁도 교
▁천 자
▁옮 겼
▁신 선
▁상 감
▁무 속
▁원 통
▁행 랑
▁근 래
▁유학 자
▁12 6
▁쓰 인다
람 회
▁지 질
▁수 명
▁자동 차
▁이 규
▁제 의
▁19 00
창 군
▁기 온
▁여 부
지 사
▁시 킬
▁소 멸
▁반 주
▁알 리
▁깨 끗
▁병자 호란
▁강 력
독 립
▁한 림
▁공 예
▁단 면
▁환 자
▁ 얇
▁이 치
▁장 례
▁반 복
▁달 성
▁수 직
▁신 경
▁거 문고
▁복 잡
▁국립중앙 박물관
▁여겨 진다
▁소 득
▁구 도
▁라 도
▁연 희
▁거 란
▁진 리
▁차 관
▁춘 향
▁징 수
지 방
▁고 령
▁자 치
천 사
▁전 부
▁제 례
▁성 당
▁말 미
▁낙 동
▁덮 개
▁주석 서
▁사 관
▁일 환
▁불 전
▁흐 름
▁정 문
▁밝 힌
총 독부
▁관 세
▁조선 총독부
▁계 약
▁배 웠
▁규 범
▁폐 단
▁법 제
▁죽 이
▁붙 이
▁( 주)
▁돌방 무덤
▁사 위
▁6 00
임 시
▁주 희
▁종 친
▁회 화
호 사
▁불 린다
▁음 운
▁ K
▁이 민
▁시 정
▁상 실
▁실 정
▁새겨 진
▁ 짙
▁가 늘
▁부 녀
▁향 토
▁고 치
▁개 척
▁북 방
▁191 2
▁종로 구
▁인 상
▁신 사
▁비 유
▁선 택
▁체 재
▁마침 내
마 도
▁의 성
▁향 약
▁앞 면
▁첨 가
절 도사
▁도 사
▁해 체
▁학 위
▁양 호
특 별
▁수 평
▁정 성
▁복 구
종 교
▁개 관
▁법 령
▁도 와
▁화 석
▁무 가
▁에게 서
▁13 8
▁드 물
▁인 재
▁그 해
▁연 속
▁종 자
▁석 전
▁요 인
▁밀 접
▁시 주
▁김 동
▁고 주
▁한 정
▁중 엽
▁서 낭
▁서 민
▁원 시
▁스 러운
▁대 의
▁적 혀
▁실 무
▁완 만
▁정치 인
▁기 름
▁문 경
▁호 칭
▁당 우
▁단 행
▁안 치
▁없 애
▁절 대
▁피 하
▁싸 움
▁영산 회
▁전 력
▁일 어났
▁모 셔
▁결 의
새 김
은 사
▁지 혜
▁비 석
▁거 느리
▁목 포
껍 질
▁비 구
▁영 천
▁오 언
▁강 진
▁방 면
▁노 선
▁9 4
▁붙 인
▁ 떼
▁이 명
▁6 3
▁평 야
▁증 보
▁졌 으며
산 물
▁공 학
▁왕 족
▁집 권
▁혼 란
난 다
▁고 개
▁지 부
▁사 대부
▁서 무
▁편 자
▁교 훈
▁설 계
▁쇠 퇴
▁구 전
▁공 작
▁넘 어
▁가야 금
두 리
▁사 사
▁인 력
▁주 년
▁매 일
▁퇴 적
▁ 흩
▁대 화
▁영 암
▁어 업
▁참 봉
▁200 5
조 계종
▁중 서
▁장 승
▁세 부
▁석 회
▁매 장
▁귀 신
▁대한불교 조계종
▁소 련
▁국 도
▁관음 보살
▁이승 만
▁ +
▁이 조
▁으 려
▁천 문
▁현 지
▁병 사
▁건너 가
▁흘러 내
▁자 문
▁모 방
▁계 단
▁군 주
▁처 분
정 음
▁보 충
▁나 뉘
▁소 매
▁곡 식
▁ 숫
▁과 제
▁조 형
▁붙 잡
▁넷 째
▁고 양
▁예 수
▁15 7
▁천도 교
▁지 류
▁대 응
▁동 화
▁영 월
▁조 개
▁공 원
▁가까 이
▁부 지
▁선 임
▁국가 민속
▁발전 소
▁국가민속 문화재
▁ 곁
속 도
▁진 보
▁기 호
▁조 리
▁상 사
▁진 상
▁ 케
▁이 관
▁다 녀
▁어 제
▁실 질
▁완 공
▁녹 색
▁공동 체
▁군자 금
조 약
▁고 적
▁동 제
▁비 명
▁돌 출
▁조 국
▁서 화
▁연 출
▁화 원
▁바 닷
▁암 자
받 침
▁태 어났
▁언 덕
▁느 냐
▁사 제
▁조 달
▁보 험
▁나 갔
▁간 주
▁200 4
▁깨 달
▁빼 앗
▁연 보
▁달 린
국 민
▁가 담
▁시 왕
▁12 5
▁탄 생
▁ 녀
▁고 도
▁200 1
▁멀 리
임시 정부
▁ 三
▁자 루
▁근 처
▁너 무
기 업
활 자
▁고 용
▁따 위
▁박 자
▁증 권
▁한 때
▁종 목
▁추 천
▁법 화경
▁증 설
▁언 해
▁대 목
▁유 서
▁왕 세
마 당
음 보살
▁시 각
▁국 한
▁출 간
▁200 8
▁대사 헌
▁엄 격
▁194 3
▁징 역
▁ ᄆ
▁추 녀
▁새 롭
▁토 대
▁덮개 돌
▁무 산
▁초 하
▁부 조
▁물 품
▁지리 산
▁공 로
▁훈 민
▁펼 쳐
▁ 칙
▁어 사
▁서 산
▁소 화
▁국 정
▁반 전
▁멸 망
해 군
▁이 조판서
▁가 진다
▁부 드
▁나 란
▁유 엔
▁소 지
▁오 랫
▁심 한
▁앞 뒤
▁획 득
▁도 중
▁아 도
▁바 르
▁회 계
▁허 가
▁어려 움
▁낙동 강
악 기
▁적 절
▁무 형문화재
▁ 웃
▁ 잉
▁권 한
▁파 손
▁200 2
▁중추 원
▁ 띤
▁가 난
▁정 인
▁승 진
▁담 장
▁마애 불
단 지
수 리
▁연 관
▁비 상
▁안 상
▁운 반
▁올 랐
▁어 디
▁일 자
▁보 상
▁동 인
▁성 질
▁선 율
▁ 經
▁ 긍
▁ 쓸
곡 사
▁내 력
▁11 0
▁191 8
▁벽 돌
▁ 돼
천 면
▁대 원
▁소 송
▁거 치
▁ 짚
▁설 법
▁200 3
▁누 각
줄 기
▁첨 부
▁이순 신
▁오랫 동안
▁ ᄉ
▁교 지
▁진 영
▁8 5
▁천 안
▁입 각
▁옥 신
자 원
▁고 취
▁수 많
▁유 도
▁생 원
▁음 각
▁극 장
▁드러 내
무늬 토기
▁아무 런
h a
기 술
재 집
▁자 음
▁자 진
▁실 상
▁송 광사
▁망 명
▁사 액
▁출 현
▁열 린
▁이 병
▁관 점
▁관 찰
▁비 서
▁명 창
▁남 겼
▁처 벌
▁업 적
▁센 터
▁어 도
▁대 외
▁8 8
▁백 두
▁나타 났
명 사
▁이 룩
▁어 떻
▁김 용
▁통 과
▁들어 오
▁가르 침
▁훈민 정음
공 사
티 나무
▁태 백산
▁열 거
곡 리
▁단 장
▁미 치
▁노 출
▁증 대
▁온 돌
▁탄 압
▁기 행
▁신 성
▁공 헌
▁명 확
▁지방 민
▁축 소
훈 장
▁경 덕왕
▁내 세
▁ 갓
▁ 뜨
▁되 게
▁지 향
▁주 류
▁원 장
▁도 장
▁시 중
▁주 문
▁총 무
▁협 의
▁엿 볼
▁ 홈
좌 랑
▁과 목
▁정 토
▁광 범
▁신도 비
우 리
▁9 2
▁향 로
▁ 쇄
연 맹
▁도 상
서 쪽
▁가 루
▁비 례
▁출 연
▁두드 러
▁ ?
▁ 눌
러 미
▁대 량
▁인 접
▁수 량
▁자 생
▁정 경
▁문 체
▁명 주
▁무 관
▁저 항
▁외국 인
▁대 칭
▁ 솜
비 스
어 졌
▁해 주
▁구 미
▁장 자
▁8 2
▁춘 천
장 단
▁기 하
▁수 송
▁영 광
▁분 화
▁9 3
▁귀 부
연 히
▁경 복
▁미 리
▁지도 자
▁느 끼
▁아름 답
▁받 들
▁입 적
▁일 괄
▁편 의
▁무 명
▁법 회
▁용 암
▁변 동
▁쌓 았
▁제 출
▁공 해
▁직 무
▁암 석
▁계면 조
▁관 습
▁소 학교
▁옮 기
▁어 미
▁대 접
▁인 생
▁적 당
▁나 눌
▁학 설
▁ 릉
▁도 망
▁일 컬
▁친 구
▁탑 비
▁ 씻
선 왕
▁공 개
▁원 자
▁6 9
▁확 정
▁번 지
▁애 사
▁뛰 어나
▁맹 자
▁ 닭
▁보 주
▁화 사
▁규 제
▁머 무
▁성균관 대학교
혁 명
▁관 상
▁화 순
▁선 박
▁미 래
▁대 략
▁학 년
▁식민 지
▁ 험
▁소 수
▁한다 면
▁학 사
▁거 사
▁두 꺼
▁충 실
예 술
▁차 별
▁직 장
▁병 합
▁15 8
로 왕
▁사 명
▁전 수
▁판 서
▁떨어 지
상 시
컨 대
▁제 물
여 서
▁한 쪽
▁여 행
▁우 조
▁윤 곽
▁부 서
▁불 사
▁결 구
▁묘 소
▁촌 락
▁어 휘
▁9 8
▁증 산
▁194 4
▁축 제
▁국내 외
▁김유 신
▁고 통
▁모 르
▁비 율
▁원 료
▁양 자
▁생 략
▁대한 제국
▁근 원
▁요사 채
느 러미
봉 사
▁다 면
▁동 정
▁원 각
▁거 제
▁6 1
▁점 령
▁새 끼
▁는다 는
▁190 4
▁전 원
▁동 종
▁화 장
▁본 질
▁석 인본
▁목 재
▁충 분
▁191 5
▁어려 서
▁나란 히
▁ 컴
경 제
▁고 산
▁도 착
▁수 여
▁보 였
▁연 락
▁삼 도
▁봉 황
▁포 항
▁세워 진
▁ 룡
▁부 수
▁아 악
▁공 인
▁명 종
▁건 넌
전 투
▁동 방
▁개 량
▁원 수
▁취 지
▁ 댐
▁모 임
▁거 북
▁200 6
▁율 시
▁혁 신
간지 주
▁ 뾰
▁화 기
▁식 량
▁ 뱀
▁초 본
▁백 색
▁9 5
▁효 율
▁옆 면
라 니
▁교 량
▁거 부
▁평 생
▁칭 하
▁모 자
▁비 용
▁불 경
▁빠 져
▁초하 루
▁ 곱
▁ 얽
▁사 행
▁소 요
▁영 업
▁14 8
▁밝 혔
▁삼존 불
▁이 자
▁정 립
▁아 침
▁서 부
▁주 력
▁동 포
▁호 조
▁논 리
▁ 싣
▁대 우
▁191 3
▁난 간
▁189 6
퓨 터
▁하 동
▁가 하
▁부 과
▁거 대
▁왕 릉
▁금 산
▁알 아
▁혁 파
▁ 곰
▁이 시
▁정 재
▁위 쪽
▁승 정원
▁합 하
▁육 계
바 지
▁가 요
▁전 도
▁서 비스
▁남 성
▁현 판
▁청 송
▁예 전
▁궁 내
▁부 흥
▁보 도
▁유 고
▁천 태
▁묘 역
▁협 동
▁200 7
▁민속 문화재
불 화
▁사 본
▁개 원
▁단 층
▁신 증
▁소 국
▁만 물
▁국 경
▁권 상
▁물 고기
▁홑 처마
▁한 데
▁분 청
▁8 3
▁제주 특별
▁그려 져
자치 도
▁제주특별 자치도
▁소 박
▁7 1
▁풍 경
▁갈 색
▁건넌 방
문 서
▁비 정
▁통 계
▁청 도
▁황 색
▁허 용
▁익 공
▁사 진
▁부 리
▁부 연
▁김 구
▁진 전
▁7 6
▁합 성
▁철 저
▁효 자
▁팔 각
▁ U
▁의 문
▁중 구
▁면 모
▁불 분
▁처 녀
덧 널무덤
암 집
운 사
▁명 승
▁봉 행
▁15 5
▁지대 석
▁호 수
▁범 죄
▁강화 도
▁잔 치
▁정상 부
▁ 띄
▁수 장
▁추 대
▁피 난
▁탄 핵
▁중 화
▁서 인
▁구 속
▁구 획
▁호 구
▁행 차
▁합 천
그 램
삼 존
▁대 들
▁장 성
▁모 금
▁발 휘
▁생 겼
▁평 등
▁승 리
▁협 시
▁ P
▁한 산
▁가 격
▁문 고
▁개 경
▁5 9
▁우 의정
▁실 험
▁용 인
▁심 판
▁민주 당
▁뾰 족
▁상 고
▁종 성
▁분 향
▁감 찰
▁돌아 오
u s
자 락
▁어 울
▁주 간
▁병 풍
▁농 경
▁협 정
▁혼 례
▁이성 계
▁다스 리
▁단 원
▁판 결
▁191 7
▁온 천
▁범 주
▁족 보
▁한자 어
▁시킨 다
평 리
▁적 합
▁개 별
▁국 군
▁화 랑
▁경주 시
산 업
▁하 층
▁은 데
▁인 격
▁교 생
▁금 성
선 대
▁수 십
▁일 단
▁상 승
▁성 씨
▁행 록
▁재 학
▁컴 퓨터
▁ 꼽
▁이 란
▁부 동
▁정 읍
▁아 기
▁개 시
▁연 수
▁무 과
▁박 정
▁한국 어
▁겸 임
▁칭 호
▁ 껍질
무 사
▁조 식
▁마 산
▁김 진
▁김 홍
▁이 현
▁가 깝
▁7 7
▁심 상
▁달 러
▁합 장
▁고 조
▁정 규
▁구 사
▁북 경
광 역시
▁조 경
▁신 고
▁형 사
▁손 잡이
▁대들 보
▁연 호
▁김 시
▁반 야
▁가 죽
▁정 종
▁구 경
▁내 각
▁명 성
▁직 전
▁이사 장
퉁 이
▁자 란
▁7 4
▁밀 직
▁접 근
▁프로 그램
▁연 평
▁석 유
▁저 지
▁장대 석
오 리
▁수 관
▁부 채
▁공 덕
▁마 디
▁증 거
▁중 소
▁문 교
▁상 록
▁입 법
▁직 선
▁못 했
▁특별 히
▁201 0
▁대한민국 임시정부
▁극락 전
a n
▁부 호
▁자 락
▁현 유
▁군 현
▁충 선왕
▁포 도
▁응 시
▁버 렸
▁경복 궁
▁ 엔
회 장
▁여 도
▁전 답
▁후 면
▁단 종
▁분 과
▁7 3
▁12 9
무 지
▁정 통
▁신 주
▁저 작
▁좌 의정
▁는다 고
▁대사 간
살 이
킨 다
▁사 경
▁수 인
▁구 비
▁김 인
▁양 각
▁미 군
▁광 물
▁봉 토
▁매 매
▁증 진
▁15 6
▁11 7
▁취 득
▁′ ,
▁ 샘
▁자 수
▁유 수
▁신 호
▁구 연
▁진 정
▁종 파
▁음 절
▁알 맞
▁심 리
▁ 페
▁정 진
▁국 권
▁8 00
▁천 하
▁참 전
▁체 험
▁기관 지
▁ 뼈
사 관
▁사 학
▁효 종
▁연합 회
▁ 헛
탱 화
▁수 지
▁통 견
▁각 자
▁가르 치
▁겹 처마
▁행랑 채
법 연
▁대 두
▁대 륙
▁호 적
▁말 사
▁광 해군
▁승 인
법연 화경
▁ 냥
▁인 공
▁부 상
▁정 세
▁산 재
▁봉 산
▁사 림
▁사 후
▁15 4
▁기 상
▁두 리
▁광 대
▁최 치
▁포 괄
▁ 턱
▁라 면
▁남 기
▁단 정
▁결 사
▁품 종
라 고
▁보 전
▁원 문
▁현 령
▁평 론
▁충 당
▁민주 주의
▁ 文
광 대
덕 궁
▁의 복
▁유 전
▁국 조
▁재 무
▁농 가
▁잡 혀
▁올 바
▁가장 자리
▁아래 쪽
▁낙 수
▁ 플
▁동 구
▁당 악
▁단 일
▁8 7
▁박 영
▁소 로
▁바 치
▁은행 나무
▁다 룬
▁명 예
▁홍 수
▁동남 쪽
▁어떻 게
▁ L
▁ 푼
▁ 흠
▁조 목
▁화 살
▁김 원
▁현 행
▁포 교
▁논 하
▁존 상
▁훼 손
▁에 너지
▁부 윤
▁경 치
▁기 성
▁경 북
▁종 가
▁그리 스
▁15 1
▁극 히
▁급 격
▁디 자
▁ 쾌
국 어
학 사
▁고 택
▁주 고
▁관 부
▁신 자
▁내 렸
▁7 8
▁입 양
▁합 동
▁흥 선대
▁울 릉
▁흥선대 원군
레 이
▁장 원
▁약 화
▁12 8
▁확 산
▁′ ′
다 가
▁의 령
▁일 곱
▁정 약
▁정 한
▁위 험
▁유 인
▁신 흥
▁동 향
▁영 혼
▁출 목
걸 이
아 지
▁연 령
▁오 직
▁합 병
▁m2 .
박 사
북 면
▁교 양
▁실 용
▁9 6
▁붙 였
▁벌 이
▁돼 지
▁ ᄅ
로 운
▁부 위
▁정 화
▁편 리
▁발 음
▁명 명
▁선 진
▁금 당
▁ 젓
▁신 의
▁마 시
▁정확 히
▁즐 기
▁기 운
▁도 식
▁영 인
▁채 취
▁송 조
▁굿 거리
아 미타
▁이 웃
▁이 장
▁인 삼
▁보 냈
▁연 재
▁불 신
▁김 기
▁어 간
▁명 단
▁원 조
▁예 배
▁러 서
▁상세 히
▁조 처
▁모 란
▁당 간지주
▁필 수
▁검 토
▁부 착
▁유 입
▁불 타
▁무 량
▁접 하
공 주
▁이 지
▁기 지
▁도 화
▁신 기
▁상 공
▁조선 조
▁분 량
▁토 성
▁일으 켜
▁근로 자
공산 당
아 문
▁고 금
▁수 련
▁개 간
▁불 가
▁8 4
▁속 도
▁ᄒ ᆞ
▁주고 받
▁일 관
▁초 명
▁8 6
▁결 혼
▁증 상
▁191 6
▁ 찌
동 국
▁의 존
▁수 성
▁구 덩
▁원 본
▁청 원
▁예 문관
▁세워 져
▁안동 시
짜 기
▁이 윤
▁대 관
▁교 체
▁평 정
▁입 지
▁합 류
▁ 팀
▁기 후
▁대 단
▁신 당
▁개 조
▁창 방
▁직 제
▁지방 자치
▁네모 난
▁ [
▁ 꺼
▁ 틈
스 크
▁가 시
▁단 독
▁회 담
▁지 신
▁도 선
▁조 절
▁보 좌
▁타 령
▁드 문
▁공화 국
▁궁내 부
▁최치 원
▁전 략
▁자 산
▁관 례
▁7 00
▁풍 습
▁허 락
▁흰 색
무 리
부 좌
▁하 류
▁그 녀
▁정 수
▁김 대
▁거 처
▁쓰 인
▁훈 장
▁느 티나무
▁책임 자
아 내
영 산
▁인 연
▁동 명
▁군 기
▁더 니
▁걸 려
▁넓 이
개 혁
▁문 묘
▁길 림
▁별 로
▁가 득
▁대 군
▁수 문
▁정 언
▁상 석
▁교 주
▁각 국
▁평 지
▁축 원
▁서기 전
▁덧 붙
▁ 튼
으 니
▁고 고
▁전 세
▁비 행
▁명 하
▁당 국
▁삼 척
▁189 8
▁ 山
▁사 도
▁정 전
▁신 용
▁함 락
▁9 1
▁지방 관
▁ ]
왕 릉
▁성 안
▁형 조
▁영 원
▁단 양
▁곡 선
▁수 수
▁조 카
▁분 지
▁비로 자나불
o r
련 사
친 다
▁이 덕
▁이 행
▁활 엽
▁폐 사
▁대방 광
▁분청 사기
▁고 지
▁인 종
▁들 여
▁신 인
▁김 장
▁새 기
▁항 복
▁접 촉
▁세워 졌
▁동아 일보
▁ 셈
▁ 캐
▁ 큼
의 식
▁구 례
▁안 주
▁창 덕궁
▁용 산
▁협 의회
정 랑
천 장
▁제 대로
▁ 닿
▁요 약
▁ 값
보 감
사 업
▁고 창
▁수 종
▁주 둔
▁구 원
▁며 느리
▁거 창
▁왕 건
▁폐 쇄
▁갈 래
▁흥 미
연구 원
▁자 서
▁동 무
▁김 천
▁8 9
▁규 명
▁살 해
▁희 귀
▁사 인
▁주 심
▁해 졌
▁평 조
▁증 명
▁189 7
▁ 갱
▁ 꿀
▁ 훌
방 송
암 리
▁기 인
▁예 속
▁알려 졌
▁읍 성
▁기 우
▁인 권
▁전 염
▁편 제
▁군 산
▁색 채
▁앙 련
즈 음
▁조 광
▁진 언
▁예 의
▁승 탑
▁풍 자
▁숫 자
포 츠
▁이 영
▁지 극
▁수 영
▁작 물
▁재 상
▁금 관
▁낙 엽
▁사 역
▁도 쿄
▁내 면
▁간 접
▁반 포
▁체 조
▁공산 주의
▁디자 인
▁이 마
▁이 의
▁조 명
▁보 은
▁문 지
▁당 한
▁창 의
▁규 합
▁약 재
▁싸 우
▁수 복
▁강 연
▁7 9
▁심 성
▁충렬 왕
▁ 히
정 리
▁그 만
▁발 급
▁8 1
▁이 바지
▁대 부
▁인 출
▁아 라
▁상 임
▁모 은
▁노동 조합
▁대동 강
▁가르쳤 으나
▁백두 산
체 육
▁고 흥
▁어 긋
▁소 학
▁바 른
▁창 호
▁충 신
▁참 모
▁채 록
▁청동 기
▁광범 위
▁서 예
▁풍 류
▁성 지
▁교 섭
▁진 실
▁봉 분
▁향 악
▁신증 동국
▁신증동국 여지승람
▁ 돕
사 전
▁강 령
다 니
▁상 복
▁남 동
▁김 광
▁단 청
▁계 사
▁객 관
▁탱 화
까 래
노 래
▁지 평
▁제 천
▁성 현
▁호 소
▁강 습
▁묘 비
▁토 론
▁순 회
▁육 조
▁측 정
▁독립 군
▁먹 이
▁조 류
▁마 저
▁막 돌
▁159 2
▁부녀 자
- -
▁산 출
▁민 가
▁파 리
▁대 기
▁양 면
▁총 재
▁철 수
▁악 장
▁k W
▁사무 소
▁세종 실록
▁ 뜰
메 달
▁이 리
▁대 금
▁일 월
▁장 려
▁실 린
▁줄 어들
나 리
총 리
▁자 비
▁정 구
▁문 명
▁상 속
▁단 오
▁진 공
▁군 데
▁봉 해
▁대 항
▁조 영
▁선 도
▁초 가
▁재 래
▁반 하
▁악 학
▁km ,
▁들어와 서
▁전 화
▁관 동
▁세 분
▁간 결
▁찾아 가
▁지석 묘
i s
사 건
▁사 형
▁피 부
▁들어 갔
속도 로
산 동
▁전 남
▁임 용
▁농 림
▁익 산
▁왜 적
▁건축 물
▁이 문
▁을 사
▁구 슬
▁모 순
▁꽃 잎
▁수호 신
▁ 톱
라 산
신 보
▁해 상
▁차 운
▁병 력
▁열 반
▁늘 어
▁미술 관
▁ 젖
▁고 증
▁사 절
▁영 토
▁저 고리
▁돌 리
▁심 경
▁구성 원
▁착 수
▁수 구
▁수 목
▁수 확
▁정 동
▁역 학
▁음 보
▁활 성
▁스 포츠
▁꾸 며
▁서남 쪽
▁ 記
리 지
▁도 의
▁부 활
▁무 게
▁당 사자
▁강 계
▁방 안
▁끼 워
▁일으 켰
불화 엄경
대 성
▁신 청
▁통 화
▁종 전
▁채 소
▁연화 문
▁김 치
▁속 담
▁스 님
▁201 1
▁훌 륭
▁ 東
▁여 덟
▁무 너
▁진 료
▁왕세 자
산 맥
▁편 년
▁비 각
▁내 륙
▁간 직
▁진 지
▁매 화
▁논 설
▁서북 쪽
▁보고 서
▁머무 르
▁ ha
▁조 기
▁부 각
▁책 판
▁추 증
▁새로 이
▁견 훤
▁바라 보
▁병마 절도사
▁사간 원
▁ 쏘
▁조 립
▁보 안
▁유 신
▁신 광
▁방 아
▁표 제
▁소재 지
▁ D
▁ 쿠
우 회
▁대 덕
▁제 단
▁부 회장
▁소 원
▁구 석
▁김 병
▁당 산
▁특 기
▁범 종
▁이어 져
▁187 1
▁문교 부
▁ 력
민 족
전 히
▁고 급
▁국 자
▁김 경
여래 입상
▁대장 경
▁나온 다
▁푸 른
▁지 옥
▁제 반
▁중 지
▁유 민
▁내 포
▁남 향
▁11 1
▁전문 대학
▁돋 을
▁큼 직
▁해 소
▁연 회
▁군 관
▁본 명
▁평 소
▁10 2
▁희 생
덕 사
▁수 심
▁주 술
▁삼 각
▁잡 아
▁순 절
▁협 조
▁ 金
▁ 錄
경 기
단 체
백 제
▁주 교
▁문 관
▁연 해
▁강 사
▁안 마당
▁군 중
▁예 종
▁연구 원
▁잠 시
▁대장 군
▁여 졌
▁부 친
▁주 주
▁유 희
▁내 삼문
▁실 기
▁저 수지
▁°C ,
▁돋을 새김
성 왕
▁이 만
▁사 냥
▁시 종
▁수 기
▁전 용
▁서 장
▁동 백
▁장 안
▁강 서
▁노 사
▁예 컨대
▁12 1
▁친 목
▁혼 합
동 리
▁으 리
▁신 령
▁성 적
▁간 호
▁천 인
▁최 영
▁토 벌
▁들어 온
▁검 찰
▁25 0
▁ 덜
▁서 까래
▁위 협
▁동 산
▁권 위
▁물 가
▁토 착
▁옥 천
▁밑 면
▁연평 균
드 리
▁정 벌
▁국 화
▁출 전
▁총 칭
▁곡 물
▁섬 세
▁이 내
▁일 생
▁부 원군
▁경 의
▁유 씨
▁비 평
▁선 산
▁역 관
▁10 8
▁피 리
▁이어 받
▁쳐 서
톨 릭
▁이 희
▁기 에
▁위 반
▁연 원
▁장 교
▁통 사
▁추 세
▁감 각
▁요 동
▁육 지
▁환 원
▁190 1
▁좋 아
▁139 2
▁빛 깔
조 사
▁정 연
▁연 상
▁호 족
▁예 천
▁10 5
▁토 끼
▁축 성
▁명부 전
니 다
대 엽
보 전
언 해
▁사 주
▁인 기
▁장 령
▁조선 어
▁우 승
▁오 층석탑
▁군 부
▁절 벽
▁지방 지
▁201 2
▁꾀 하
▁ 께
멘 트
▁이 언
▁대 각
▁전 서
▁관 여
▁장 정
▁최 종
▁심 지
▁토 목
▁토 산
▁14 9
▁살 림
▁몸 통
▁습 격
▁정약 용
i n
▁ 맏
전 문
▁경 남
▁면 제
▁재 실
▁9 7
▁최 우
▁약 속
▁순 교
▁품 질
▁객 사
▁빌 려
▁ 씌
▁고 무
▁일 련
▁자 제
▁동 편
▁해 군
▁성 취
▁새 벽
▁풍 년
▁효 력
▁유치 원
e r
경 장
대 왕
화 문
▁시 무
▁수 백
▁정 려
▁정 밀
▁구 현
▁조선 공산당
▁선 천
▁강 론
▁음 계
▁광 고
▁묘 법연화경
▁첨 지
▁짐 승
▁출판 사
▁ 꿰
별 곡
▁일 화
▁보 인
▁장 지
▁명 시
▁학 장
▁현 손
▁노 론
▁민 영
▁박 세
▁축 산
연구 회
▁수 필
▁자 취
▁무 사
▁김 재
▁분 교
▁재 일
▁청 풍
▁회 합
▁반 도
▁총 괄
▁데 리
▁중앙 부
▁끝 난
▁찬 양
▁흑 색
▁해안 선
▁바깥 쪽
당 집
변 사
석 사
▁서 방
▁상 경
▁상 층
▁평 산
▁타 이
▁더욱 이
▁빠 른
동 면
▁이 방
▁대 정
▁그 룹
▁조 항
▁발 췌
▁마 한
▁오 대
▁감 시
▁물 자
▁병 부
▁희 곡
▁즐 겨
▁붙여 진
▁ 集
도 량
▁전 지
▁중 세
▁원 호
▁통 문
▁용 기
▁요 령
▁ 뱃
▁고 찰
▁그 치
▁정 방
▁나 비
▁못 한다
▁취 락
무 소
사 범
▁대 도
▁경 과
▁주 최
▁후 학
▁백 운
▁박 문
닫 이
▁과 세
▁대 석
▁수 료
▁소 양
▁군 단
▁법 정
▁10 9
▁절 목
▁염 색
▁골 짜기
▁지리 지
▁동국 여지승람
▁ 늙
문 하
▁한 라산
▁연 유
▁교 실
▁무 력
▁산 청
▁분 합
▁석 굴
▁운 명
▁운 수
▁운 용
▁15 3
▁중 점
▁위 생
▁함 안
▁추 상
▁용 왕
▁서울 시
▁소장 본
▁긴 급
▁외국 어
▁꼭 대기
▁갑오 경장
▁브 라
o n
▁ 궐
▁대 변
▁대 소
▁부 령
▁유 람
▁구 리
▁구 호
▁영 웅
▁노 랫
▁왕 후
▁향 해
▁착 공
i c
마 을
▁수 시
▁정 몽
▁상 권
▁공 기
▁후 세
▁선 문
▁출 범
▁논 한
▁노동 력
▁ 엇
▁사 마
▁수 조
▁유 약
▁해 제
▁소 문
▁세 습
▁담 겨
▁ 썰
립 공원
아 시아
▁제 약
▁신 학교
▁방 침
▁외 래
▁친 일
▁말미 암
▁ 림
▁ 컸
바 라
▁시 상
▁구 입
▁형 조판서
▁재 임
▁법 주사
▁봉 우리
▁매 달
▁돌 덧널무덤
▁검 거
▁바로 잡
▁공산 당
▁신석 기시대
▁이 진
▁사 성
▁주 축
▁유 아
▁신 탁
▁특 유
▁목 장
▁ 놋
▁ 햇
워 서
워 하
▁상 원
▁학 계
▁김 준
▁현 저
▁결 가
▁증 조
▁풍 물
▁인정 받
▁가리 킨다
▁소비 자
사 회
전 서
▁가 람
▁여 건
▁상 무
▁교 역
▁평 탄
▁포 장
▁치 성
▁중심 지
▁부동 산
▁의 자
▁적 색
▁서 체
▁경 문
▁장 엄
▁영 사
▁북 동
▁번 뇌
▁온돌 방
▁ ᄇ
▁다 락
▁기 르
▁도 설
▁공 물
▁청 사
▁청 색
▁치 우
▁물리 치
▁붕 괴
화 상
▁화 약
▁무 주
▁오 리
▁내려 와
어 리
▁이 색
▁어 두
▁그 물
▁시 책
▁부 당
▁영 현
▁양 지
▁군 역
▁초 의
▁논 어
▁′ ∼
▁석가 여래
▁당상 관
▁결가 부좌
▁ 혐
다 른
▁의 약
▁수 혈
▁해 수
▁소 상
▁교 대
▁방 사
▁석 주
▁석 탄
▁ 립
▁ 솥
참 찬
▁이 본
▁시 스
▁소 경
▁교 재
▁삼 신
▁곳 곳
▁손 상
▁끝 내
▁효 행
▁하대 석
유 산
▁가 설
▁간 다
▁산 란
▁운 송
▁10 7
▁저 녁
▁심 방
▁11 2
▁ 똑
▁이 남
▁의 리
▁주 기
▁연 판
▁연 행
▁오 사
▁양 국
▁풍 수
▁벌 였
▁동북 쪽
둥 이
든 가
▁이 찬
▁사 의
▁문 물
▁구 상
▁원 삼
▁농 지
▁민족 주의
▁납 부
▁묻 혀
▁ 옳
▁ 워
▁고 르
▁기 문
▁대 공
▁조 종
▁원 내
▁산 맥
▁함 평
▁분 배
▁치 마
▁문제 점
▁k g
▁폭 포
▁힘 썼
고 사
리 유적
포 시
▁인 명
▁시 멘트
▁정 병
▁주 일
▁산 간
▁초 월
▁평 평
▁예 비
▁점 점
▁열 리
▁지닌 다
▁ 헐
▁하 위
▁성 경
▁남 긴
▁종 지
▁석 방
▁참 의
▁갑 자기
▁돌아 온
▁의 심
▁화 풍
▁추 밀
▁12 4
▁병 설
▁괘 불
e n
▁ 圖
▁ 클
살 문
정 책
▁자 율
▁연 루
▁무 상
▁통 칭
▁창 당
▁귀 양
▁돌아 왔
▁ 잣
궤 범
▁서 도
▁화 승
▁실 행
▁뒤 편
▁운 문
▁길 흉
▁풍 기
▁완 료
▁악 곡
발 전
▁유 정
▁무 인
▁산 기
▁두 르
▁역 설
▁저 승
▁13 1
▁관해 서
▁ 밟
디 오
소 송
▁시 내
▁조선 일보
▁산 악
▁오 목
▁입 사
▁논 쟁
▁쌍 계사
▁늘 어나
▁일으 킨
▁삼 각형
▁함 유
▁석가모니 불
▁두리 기둥
동 자
보 이
▁조 부
▁자 장
▁정 변
▁연 계
여자 대학교
부 리
산 서원
▁시 비
▁내 성
▁실 내
▁단편 소설
▁ 티
▁이 항
▁지 면
▁제 언
▁부 를
▁간 장
▁진 압
▁노 반
▁배 제
▁감 회
▁총 장
▁든 다
▁탑신 석
▁악학 궤범
악 단
힌 다
▁수 반
▁아 산
▁원 정
▁선 각
▁김 석
▁천 왕
▁독 점
▁받아들 여
리 카
▁인 심
▁성 서
▁구 간
▁후 백제
▁화 문
▁생 태
▁재 물
▁예 조판서
▁법 맥
▁190 2
사범 학교
▁시스 템
신 교
▁사 육
▁중 등
▁성 산
▁산 학
▁통 용
▁계 룡
▁10 6
▁병 조판서
▁살 필
▁휘 하
▁ 찹
선 거
인 민
평 장사
▁가 산
▁조 병
▁중 성
▁원 당
▁예 서
▁백 화
전 선
▁상 여
▁미 소
▁학교 법인
▁ 잊
부 시
▁사 태
▁일 행
▁서 귀
▁마 무리
▁천 신
▁치 르
▁둘 렀
▁줄 거리
▁굴 곡
▁밝혀 졌
▁관세 음보살
산 조
▁의 관
▁전 담
▁김 우
▁직 경
▁향 기
▁살 피
▁청년 회
▁만 일
▁장 시
▁재 주
▁돌 무지
▁귀 퉁이
▁살 아
▁손 가락
▁논 술
▁뒷 받침
▁문하 시
▁대방광 불화엄경
주 식
▁도 호부
▁제 왕
▁법 사
▁든 지
▁곤 충
▁흩 어져
▁찹 쌀
등 록
유 물
▁부 탁
▁면 하
▁세 련
▁마 땅
▁창 단
▁포 로
▁누 룩
▁질 환
▁옷 자락
▁통신 사
▁그려 진
▁대문 간
▁아랫 부분
▁ 덤
문 법
의 궤
▁지 인
▁공 과
▁화 전
▁산 사
▁통 로
▁생 성
▁표 방
▁참 판
▁묘 제
▁채 권
▁퍼 져
▁ 촬
인 물
통 신
▁사 재
▁도 감
▁문 산
▁김 규
▁오 행
▁강 도
▁천 리
▁외 관
▁야 간
▁ 五
▁이 천
▁하 와
▁조 인
▁경 서
▁위 장
▁월 남
▁해 진
▁김 덕
▁진 양
▁평 행
▁채 용
▁려 면
▁울 진
▁지나 치
▁납 작
( 주)
강 원
기 구
별 초
사 금
현 전
▁고 부
▁가 톨릭
▁수 세
▁제 관
▁아 문
▁성 리
▁공 중
▁통 감
▁안 양
▁청 량
▁속 성
▁좌 익
▁별 장
▁죄 인
▁단순 히
▁진흥 왕
▁ 잦
▁ 콘
▁개 축
▁세 월
▁법 의
▁법 화
▁직 책
▁교육 자
▁철 기시대
▁능 엄경
▁동국 대학교
▁ 뿔
▁의 회
▁유 연
▁단 단
▁금 고
▁변 이
▁황해 북도
▁ 十
▁ 歌
▁ 닫
아 래
▁다 포
▁자 질
▁신 명
▁연 등
▁원 만
▁선 명
▁김 윤
▁양 인
▁처 형
▁변 호사
▁12 3
▁풍 산
▁축 대
▁꾸 준
▁우물 마루
이 지
▁정 계
▁내 시
▁내 왕
▁후 진
▁마 감
▁양 감
▁초 청
▁봉 건
▁13 2
식 물
▁개 명
▁천 상
▁육 상
▁빠 지
▁ 낚
▁ 톤
▁서 자
▁권 수
▁불 려
▁받 쳐
▁지냈 으며
자 국
평 야
▁인 동
▁명 인
▁우 편
▁임 기
▁민 사
▁반 원
▁광 명
▁10 3
▁홍 주
▁타 당
▁왜 군
▁석실 분
a r
▁ 블
만 강
충 사
태 자
▁이 태
▁기 금
▁어 진
▁그 렇게
▁관 모
▁처 지
▁북 청
▁심 화
▁확 충
▁완 도
▁문무 왕
▁정몽 주
▁ 팥
재 란
▁정 제
▁동 반
▁구 결
▁따 랐
▁요 충
▁항 쟁
▁낙 랑
▁정유 재란
지 기
▁과 일
▁시 범
▁보 령
▁주 두
▁모 각
▁본 과
▁운 행
▁용 수
▁송 병
▁삽 입
▁어긋 나
리 트
▁시 루
▁정 간
▁남 인
▁영 덕
▁반 자
▁박 종
▁점 토
▁상당 수
▁중소 기업
모 음
전 쟁
학 당
▁사 모
▁시 초
▁일 명
▁경 력
▁해 운
▁호 위
▁두 레
▁삼 현
▁집 회
▁일본 어
▁온 갖
▁흉 년
▁바닷 가
사 화
수 도
제 도
한 국
▁다 라니
▁전 이
▁상 체
▁명 목
▁영 감
▁강 요
▁축 하
▁발행 인
▁자본 주의
▁당초 문
▁혐 의
▁ 新
▁ 냐
▁ 넋
▁ 뫼
▁ 쇼
관 계
▁연 산군
▁영 해
▁간 기
▁간 사
▁진 관
▁금 하
▁규 격
▁직 원
▁절 충
▁혼 용
▁숭 배
▁인천 광역시
▁한자 음
▁국무 총리
▁ 핀
간 채
수 경
시 조
▁이 산
▁의 금
▁은 거
▁지 침
▁도 원
▁전 망
▁신 랑
▁소 관
▁교 유
▁비 변사
▁초 간
▁회 령
▁얼 음
극 장
텔 레
▁동 궁
▁장 경
▁모 색
▁할 머니
▁건 전
▁최 충
▁변 모
▁참 회
▁체 질
▁언 행
▁하와 이
▁의 종
▁수 비
▁자 고
▁상 설
▁권 유
▁우 정
▁선 암사
▁생 육
▁바 이
▁청 산
▁민 정
▁용 문
▁감 영
▁막 대
▁경사 면
▁좋아 하
a t
뜨 리
불 좌상
▁가 령
▁대 처
▁유 산
▁강 남
▁두 껍
▁예 기
▁외 손
▁달 한다
▁담 양
곡 면
매 기
절 제사
▁대 추
▁주 종
▁비 스
▁기술 자
▁금강 경
▁발원 문
전문 학교
▁ 之
전 람회
찬 성
▁가 닥
▁유 의
▁성 실
▁장 비
▁형 벌
▁두 광
▁금 석
▁용 두
▁야 산
▁리 듬
▁둔 다
▁미륵 불
▁산신 각
연합 회
▁발기 인
개 발
거 운
▁고 장
▁대 종
▁부 안
▁모 으
▁남 문
▁남 포
▁초 조
▁결 실
▁증 축
▁중심 부
▁헌 병
주식 회사
더 미
토 리
▁어 부
▁조 차
▁유 문
▁라 기
▁게 재
▁호 텔
▁김 응
▁심 청
▁황 금
▁곳 간
▁남해 안
▁길림 성
이 트
▁사 비
▁보 문
▁주 초
▁나 뭇
▁동 화사
▁종 손
▁태 실
▁암 벽
▁궁 예
▁범 례
▁벽 체
▁대 흥사
▁방 리
▁분 열
▁감 로
▁매 듭
▁순 국
▁마루 방
바 로
자 루
재 문집
▁이 탈
▁고 수
▁한 층
▁자 인
▁관 행
▁유 자
▁상 관
▁동 계
▁만 경
▁봉 작
▁손 바닥
▁옥 사
▁삼국 지
▁흔 들
▁억 제
▁사라 지
할 시
▁전 념
▁무 예
▁두 만강
▁감 싸
▁심 정
▁연구 회
▁188 4
▁태평 양
경 궁
▁이 조참판
▁경 쾌
▁만 약
▁호 주
▁영 등
▁산 조
▁초 반
▁충 절
▁악 사
▁날 짜
▁투 표
▁신문 사
▁석불 입상
미술 관
▁가 려
▁기 장
▁경 종
▁신 임
▁개 신교
▁소 주
▁만 호
▁김 태
▁현 무
▁방 해
▁임 신
▁합 각
▁이어 졌
▁아름다 움
▁움직 이
백 색
온 천
임 관
전 자
▁이 식
▁동 이
▁발 발
▁화 합
▁영 상
▁산 정
▁거 친
▁출 마
▁광 상
▁10 4
▁빈 번
▁머물 렀
▁노랫 말
지 느러미
▁고 루
▁과 실
▁아 리
▁서 편
▁관 문
▁구 부
▁공 조
▁호 국
▁거 울
▁입 술
▁외 곽
▁충 효
▁잡 가
▁겨 우
▁분명 히
재 판
해 서
▁이 날
▁의 정
▁가 면
▁지 공
▁제 방
▁신 정
▁희 망
▁원통 형
유 집
▁하 구
▁유 언
▁만 년
▁만 수
▁간 혹
▁표 출
▁외 형
▁절 도사
▁채 집
▁13 4
천 왕
▁여 전히
▁도 학
▁시 의
▁일 가
▁소 방
▁양 양
▁행 복
▁직 물
▁암 반
▁춘추 관
▁의금 부
▁ 딱
▁고 추
▁수 의
▁일 어
▁소 백산
▁국 문학
▁거 칠
▁안 팎
▁표 창
▁염 료
▁188 2
▁가마 터
▁동의 보감
▁ 寺
계 서원
▁기 기
▁인 왕
▁시 랑
▁전 북
▁부 원
▁개 통
▁학 제
▁김 도
▁재 령
▁집 현전
▁화엄 사
▁재단 법인
비 전
스 코
정 재
▁고 본
▁조 계
▁나 중
▁공 법
▁교 인
▁발 효
▁역 원
▁까 치
▁파 생
▁11 8
▁칠 정
▁개화 기
대 공
장 수
▁도 솔
▁시 체
▁수 레
▁동 성
▁소 저
▁무 성
▁방 대
▁생 애
▁임 종
▁예 외
▁포 상
미술 전람회
▁원종 공신
▁ =
그 릇
▁하 권
▁시 원
▁자 국
▁경 산
▁문 루
▁본 인
▁금 제
▁입 체
▁궁 극
▁190 3
▁급 속
▁꾸 미
▁움직 임
▁영산회 상
▁울릉 도
비 로
심 사
암 문집
▁고 방
▁아 프
▁해 금
▁당 당
▁두 려
▁배 수
▁회 관
▁박 지
▁갑 사
▁격 퇴
▁ s
▁ □
천 동
총 통
▁도 심
▁자 경
▁정 체
▁유 식
▁만 장
▁공 유
▁간 섭
▁강 학
▁초 록
▁분 장
▁배 속
▁온 도
▁퇴 계
▁km2 ,
▁붙잡 혀
보 인다
용 수
▁대 종교
▁자 립
▁화 물
▁날 카
▁져 서
▁훈련 원
▁사천왕 상
대 비
디 어
사 리
영 화
▁대 법원
▁시 립
▁전 등
▁마 멸
▁태 어난
▁농 장
▁풍 요
▁왔 으며
▁왔 으나
▁아닌 가
▁천태 종
▁면 은
▁공 소
▁발 명
▁남 구
▁양 도
▁양 손
▁군 락
▁왕 래
▁광 양
▁백 관
▁매 월
▁15 2
▁철 기
▁택 하
▁서해 안
a l
든 지
음 악
의 장
▁다 를
▁공 단
▁권 장
▁임 하
▁법 계
▁용 량
▁감 추
▁더 러
▁옥 고
▁석조 여래좌상
▁밝혀 져
▁전염 병
마 리
십 자
▁의 인
▁시 전
▁노 조
▁풍 화
▁열 녀
▁효 시
▁협 실
▁밀 교
▁테 두리
관 리
나 한
비 고
진 흥
▁이 준
▁도 달
▁전 역
▁개 체
▁공 군
▁호 종
▁영 변
▁평 택
▁논 란
▁빠 르
▁꾸 몄
▁둘러 싼
▁김장 생
{ }
▁ 朝
▁ 갚
▁ 캠
여 왕
▁조 그
▁자 극
▁신 비
▁불 편
▁영 흥
▁분 쟁
▁손 해
▁존 중
▁이루어 진다
▁힘 쓰
문 헌
삼 층석탑
업 원
정 신
▁되 돌
▁사 슴
▁상 의
▁공 적
▁장 여
▁불 만
▁우 산
▁건 치
▁왕 사
▁생산 량
▁자본 금
▁덧 널
▁비스 듬
자 나무
협 의회
▁부 가
▁자 매
▁경 부
▁관 군
▁신 간
▁국 학
▁오 염
▁본 당
▁초 급
▁예 언
▁책 문
▁9 00
▁병 기
▁복 역
▁11 3
방 울
일 고
▁이 세
▁이 양
▁어 류
▁동 리
▁장 신
▁세 속
▁우 려
▁접 어들
▁깨 닫
▁나타낸 다
▁촬 영
▁ 낫
관 음
▁의 결
▁사 과
▁아 홉
▁주 된
▁관 개
▁비 료
▁남 방
▁강 수
▁석 사
▁음 소
▁외 삼문
▁12 2
▁헌 납
▁전사 청
▁병마 사
▁러서 는
천 강
▁가 축
▁수 륙
▁제 호
▁유 실
▁월 간
▁석 곽
▁봉 하
▁황 종
▁홍 보
▁열 렸
▁씨 족
▁광복 군
▁돈 녕
▁빗 살
▁ 슈
공 화
아 보
▁경 신
▁문 란
▁공 조판서
▁권 속
▁명 기
▁우 두
▁박 태
▁독 창
▁치 안
▁혼 자
▁제조 업
▁활발 히
▁135 6
▁깨달 음
ᆞ ᆯ
태 평
▁사 문
▁과 전
▁주 소
▁관 측
▁비 추
▁남 사
▁불 로
▁당 진
▁양 념
▁바 지
▁왕 권
▁물 레
▁철 종
▁축 구
▁대표 작
▁눈 썹
▁흘러내 리
어 도
▁대 치
▁등 용
▁중 군
▁관 인
▁내 장
▁무 시
▁금 호
▁금 산사
▁찬 술
▁짜 여
여자 고등학교
▁ 볶
산 대
선 언
촌 리
▁소 론
▁모 의
▁김 지
▁진 성
▁진 입
▁진 해
▁종 신
▁초 창
▁법 칙
▁금 기
▁속 한
▁침 공
▁칠 보
▁첫 머리
▁사령 부
▁신민 당
▁ 國
▁지 성
▁아 궁
▁국 수
▁후 퇴
▁남 서쪽
▁학 도
▁특 권
▁초 래
▁변 상도
▁귀 속
▁투 명
▁짜 임
▁유성 룡
▁ 四
▁ 天
▁ 냄
▁ 혀
보 부
▁상 정
▁동 네
▁분 산
▁대한 독립
▁표 고
▁충 남
▁효 성
▁검 교
▁익 히
▁량 가
▁맥 락
▁ 傳
리 석
▁이 계
▁과 도
▁수 축
▁중 원
▁관 복
▁국 역
▁형 편
▁복 무
▁요 즈음
▁포 기
▁누 리
▁벽 면
▁내려 가
▁발표 회
▁옹 호
▁조개 더미
▁자란 다
▁ 락
락 부
▁인 형
▁조 용
▁정 국
▁유 력
▁장 석
▁초 성
▁창 업
▁최 씨
▁약 수
▁저 축
▁심 해
▁향 가
▁순 종
▁악 지
▁누 이
▁제주 시
▁석회 암
▁ E
▁ ᄋ
노 비
▁제 법
▁아 가리
▁경 학
▁교 목
▁단 기
▁계 주
▁회 색
▁용 언
▁심 각
▁언제 나
▁ F
▁이 속
▁고 발
▁도 제
▁배 워
▁회 전
▁용 담
▁집 필
▁송 도
▁순 흥
▁합 작
▁뒷 산
▁탐 구
▁다섯 째
▁찰 방
긴 다
라 지
병 원
▁은 혜
▁고 하
▁대 마도
▁도 굴
▁시 신
▁아 뢰
▁경 로
▁개 수
▁장 르
▁후 지
▁남 하
▁반 응
▁최 소
▁허 물
▁폭 넓
▁봉수 대
평 군
▁경 원
▁유 효
▁개 헌
▁소 생
▁소 조
▁교 도
▁화 주
▁무 령
▁강 경
▁통 례
▁광 업
▁최 익
▁박 승
▁즉 시
▁범 어사
▁첨 정
▁김정 일
▁브라 질
▁똑 같
보 호
춘 추
▁도 총
▁조 문
▁유 곽
▁무 궁
▁분 묘
▁임 상
▁민 무늬토기
▁출 품
▁차 려
▁충 성
▁병 서
▁농 산물
▁파 평
▁좌 수
▁폐 허
▁전해 진다
▁상소 문
▁ G
▁ 짠
기 름
무 아문
유 수
▁다 량
▁중 석
▁경 도
▁연 변
▁공 경
▁불 국사
▁영 문
▁따 뜻
▁본 성
▁재 원
▁감 상
▁품 관
▁누 마루
거 래
세 지
운 다
▁가 미
▁기 거
▁도 금
▁수 석
▁유 화
▁편 액
▁무 고
▁선 유
▁목 욕
▁배 척
▁차 자
▁복 용
▁참 지
▁식 사
▁겸 직
▁자유 당
▁고문 서
▁감리 교
▁솜 씨
▁산기 슭
이 사금
▁이 우
▁사 복
▁사 시
▁여 흥
▁조 작
▁전 의
▁원 예
▁현 전
▁거 절
▁생 전
▁창 제
▁용 화
▁속 리
▁홍 건
▁휴 전
▁화강 석
▁국한 문
내 리
농 악
로 이
▁어 른
▁대 제학
▁도 가
▁조 운
▁후 궁
▁호 기
▁강 변
▁진 천
▁반 죽
▁백 지
▁파 종
▁교육 부
▁황 주
▁포 위
▁침 해
▁녹 사
▁순천 시
▁충분 히
▁오대 산
(주) (
▁ 書
봉 산
▁인 체
▁시 킴
▁유 허
▁성 품
▁선 구
▁선 행
▁재 질
▁실 학자
▁봉 기
▁포 구
▁13 3
▁별 당
▁견 문
▁널 돌
▁곁 들
사 위
▁위 아래
▁내 무부
▁군 영
▁최 상
▁병 행
▁복 수
▁졌 으나
▁첨 의
▁지식 인
▁급격 히
▁ V
▁ 二
▁ {}
랜 드
복 사
▁로 마
▁사 대
▁아 마
▁발 사
▁김 부
▁간 석
▁산 화
▁안 녕
▁재 미
▁청 화
▁달 아
▁향 한
▁별 감
▁188 3
▁아미타 여래
▁ 났
느 님
력 발전
성 기
욕 장
▁하 느님
▁대 폭
▁상 자
▁장 차
▁명 복
▁김 양
▁진 흙
▁방 울
▁배 포
▁집 약
▁입 안
▁11 5
▁탈 출
▁훈련 도감
▁사령 관
▁ N
▁ 옻
▁이 목
▁부 기
▁서 천
▁나 름
▁성 불
▁장 부
▁산 록
▁본 국
▁복 위
▁철 거
▁친 척
▁뛰 어났
▁섞 여
▁올바 른
▁첨지 중추부사
▁ 콜
교 리
베 리아
악 부
▁하 체
▁과 수
▁보 강
▁서 간
▁서 반
▁소 위
▁명 당
▁불 단
▁방 편
▁임 야
▁표 정
▁아니 하
▁내려 온
▁박정 희
신 론
춧 돌
▁사 계
▁제 안
▁아 마도
▁주 춧돌
▁무 녀
▁감 옥
▁물 산
▁충 무
▁약 물
▁잡 직
▁찬 성
▁풀 려
▁쉬 운
▁사범 대학
▁두꺼 운
편 찬
▁지 녔
▁성 대
▁교 포
▁난 다
▁둔 전
▁갑오 개혁
▁본존 불
▁대단 히
반 정
진 강
▁사 선
▁도 자기
▁무 지
▁용 궁
▁치 열
▁암 살
▁사실 상
▁화엄 종
▁김정 희
▁흡 사
▁톱 니
리 고분군
민 요
신 굿
▁기 부
▁수 식
▁적 어도
▁정 중
▁상 장
▁김 주
▁설 과
▁독 경
▁채 무
▁고등 교육
▁을사 조약
▁꾸준 히
▁ H
▁ 걷
무 역
생 대
선 도
▁하 순
▁중 턱
▁나 마
▁소 집
▁무 학
▁삼 가
▁감 안
▁승 문
▁살 짝
▁열 전
▁항 구
▁품 목
▁접 시
강 도
러 진
레 스
례 악
▁한 지
▁여 론
▁도 기
▁수 계
▁조 계종
▁정 대
▁중 도
▁위 임
▁문 단
▁마 구
▁영 락
▁종 도리
▁북 서쪽
▁매 병
▁총 관
▁세웠 으며
▁101 8
▁덤 벙
▁ 닮
▁ 쪼
악 원
▁도 령
▁시 베리아
▁자 아
▁자 전
▁정 관
▁유 진
▁신 위
▁우 거
▁단 결
▁강 희
▁방 주
▁초 서
▁예 상
▁흥 국사
편찬 위원회
▁ ᄌ
▁ 튀
재 유고
▁고 운
▁시 경
▁수 차
▁전 복
▁나 발
▁불 우
▁당 해
▁안 산
▁태 안
▁직 사
▁총 론
▁색 깔
▁쫓 겨
▁얽 힌
▁ 낱
▁ 냈
대 신
▁의 과
▁기 점
▁기 다리
▁세 금
▁화 신
▁양 측
▁재 현
▁낸 다
▁보름 날
바라 밀
▁ 싶
은 이
▁이 단
▁이 두
▁한 탄
▁가 무
▁기 질
▁어 원
▁대 강
▁적 응
▁경 희
▁주 머니
▁종 실
▁행 렬
▁임 실
▁파 편
▁토 광
▁체 언
▁치 렀
▁홍 색
▁폐 교
▁존 경
▁썼 으며
▁긍 정
▁조광 조
유 록
▁이 석
▁한 가
▁사 양
▁수 익
▁나 뉜
▁유 려
▁선 무
▁간 지
▁오 락
▁광 종
▁논 산
▁질 문
▁전문 가
▁힘 들
▁엄 지
▁촉 구
고 속도로
의 사
▁기 이
▁시 어
▁부 계
▁주 선
▁성 숙
▁불 안
▁원 천
▁영 세
▁계 명
▁배 상
▁왕 생
▁감 실
▁놓 인
▁효 능
▁침 식
▁살펴 볼
연구 소
▁부드 럽
▁수시 로
▁대 감
▁도 승지
▁정 무
▁나 눈
▁위 탁
▁관 립
▁국 유
▁오 위
▁계 림
▁진 한
▁역 량
▁홍 경
▁검 정
▁연꽃 무늬
▁물러 나
▁주심 포
▁ Y
행 위
▁고 원
▁어 우
▁도 읍
▁전 소
▁위 로
▁상 제
▁성 기
▁연 작
▁구 국
▁교 민
▁비 극
▁선 인
▁마 친
▁오 방
▁종 보
▁범 패
▁격 파
▁끼 리
▁괴 산
▁덩 굴
왕 사
▁한 시
▁자 모
▁신 한
▁강 구
▁실 직
▁실 태
▁출 자
▁반 발
▁집 사
▁결 부
▁합 천군
▁별 다른
▁밀 집
▁헌 종
▁굴 식
▁75 7
인민 회의
놀 음
춤 법
▁이 학
▁의 서
▁고 성군
▁어 찌
▁사 각
▁전 한
▁중 복
▁문 대
▁영 구
▁진 술
▁종 중
▁군 위
▁석 장
▁요 건
▁야 당
▁격 문
▁망 라
▁ 냇
▁ 맷
▁ 멋
▁ 욱
그 룹
무 용
▁고 위
▁과 시
▁대 명
▁여 운
▁시 화
▁조 수
▁전 임
▁상 식
▁원 활
▁마 르
▁종 업원
▁천 마
▁달 걀
▁손 실
▁일반 인
▁맡 아보
▁몰 려
▁탁 지
▁단행 본
극 단
복 야
▁이 별
▁대 대로
▁도 당
▁등 기
▁제 헌
▁부 전
▁보 개
▁서 면
▁경 흥
▁신 속
▁문 사
▁세 시
▁명 의
▁학 력
▁선 포
▁김 만
▁당 쟁
▁행 진
▁청 룡
▁묘 향
▁앞 장
▁축 적
▁취 업
▁놓 이
▁경제 학
▁덕 수
▁버 린
▁골 라
▁연합 군
국민 회
▁요충 지
비로 자나불
낸 다
마 암
시 왕
화 학
▁수 천
▁일 지
▁소 정
▁김 명
▁김 형
▁거 점
▁단 풍
▁민 의원
▁충 족
▁필 치
▁친 다
▁떠 났
▁비스듬 히
실 기
▁지 층
▁사 각형
▁시 제
▁조 복
▁정 철
▁나 물
▁비 난
▁명 분
▁진 동
▁분 수
▁창 시
▁배 정
▁최 남
▁송 정
▁밀 가루
▁189 0
▁상대 방
▁146 6
▁생물 학
▁춘향 전
▁비구 니
▁고고 학
▁ 石
방 언
▁부 제
▁위 성
▁신 상
▁신 원
▁성 황
▁불 도
▁재 사
▁민 법
▁예 부
▁법 상
▁처 용
▁복 음
▁ 텔레
▁하 계
▁수 몰
▁수 묵
▁자 의
▁유 동
▁강 점
▁군 량
▁분 할
▁말 엽
▁민 란
▁천 불
▁법 규
▁용 구
▁입 증
▁물 결
▁항 만
▁친 정
▁밑 부분
▁강화 군
재판 소
▁ 쏟
전 리
▁기 묘
▁기 수
▁기 증
▁사 격
▁도 안
▁서 두
▁소 녀
▁구 족
▁만 시
▁발 각
▁불 설
▁무 안
▁거 짓
▁오 동
▁단 조
▁생 계
▁최 후
▁잘 라
▁폐 기
▁친 히
▁여름 철
▁이 강
▁가 스
▁지 세
▁대 의원
▁관 목
▁연 금
▁연 산
▁김 희
▁당 신
▁삼 세
▁재 위
▁돌 기
▁파 주
▁188 5
▁지낸 다
▁130 8
라 는
주 박물관
▁이 렇
▁을 지
▁지 눌
▁여 유
▁수 로
▁부 락
▁자 사
▁상 장군
▁라 디오
▁비 늘
▁권 하
▁발 자국
▁명 절
▁김 두
▁안 악
▁생 강
▁박 인
▁외 양
▁요 원
▁치 중
▁완 산
▁침 범
▁소유 자
▁약사 여래
▁ 꿩
구 나
▁가 뭄
▁지 출
▁인 제
▁조 례
▁전 말
▁일 면
▁적 성
▁신 격
▁상 상
▁개 년
▁공 보
▁발 라
▁원 경
▁선 법
▁당 간
▁강 좌
▁예 안
▁최고 인민회의
▁동지 중추부사
▁놀 라
▁ 르
역 사
▁하 급
▁사 부
▁도 둑
▁제 비
▁제 재
▁중 동
▁연 경
▁소 차
▁남 겨
▁강 동
▁양 기
▁바 뀐
▁충 적
▁허 목
▁폐 간
▁고유 문
소 문
▁이 서
▁다 운
▁사 변
▁대 행
▁나 옹
▁관 사
▁교 차
▁바 퀴
▁예 설
▁반 성
▁차 장
▁박 동
▁묘 우
▁잡 귀
▁들어 간
다리 기
▁끊 임
바 위
사 령
퍼 스
▁기 다
▁사 창
▁수 공업
▁서 지
▁주 해
▁성 수
▁장 축
▁김 익
▁간 도
▁미 타
▁평 주
▁천 군
▁광 무
▁심 장
▁송 준
▁11 9
▁홍 성
▁찬 성사
▁벌 어진
▁곧 바로
▁겹 쳐
▁국사 편찬위원회
▁갈라 져
▁갈라 지
▁가져 왔
무 가
정 변
▁다 투
▁어 획
▁보 증
▁성 원
▁소 자
▁모 범
▁무 한
▁원 광
▁김 세
▁영 당
▁안 중
▁배 운
▁차 차
▁환 관
▁첨 단
▁첨 사
▁136 2
▁이 라
▁다 년
▁여 산
▁시 공
▁수 주
▁부 른
▁위 계
▁유 대
▁연 설
▁장 생
▁교 학
▁학 파
▁화 자
▁특 산
▁말 뚝
▁판 문
▁터 널
▁늘 어났
▁찾아 보
▁미륵 보살
▁이규 보
▁참지 정사
▁ 즙
렁 이
민 주
▁어 영
▁도 래
▁유 품
▁소 아
▁장 계
▁호 부
▁청 장
▁청 진
▁취 재
▁사이 다
▁칠 곡
▁접 대
▁경찰 서
▁겨울 철
▁ 日
▁ 썩
스 토
▁대 안
▁조 석
▁정 초
▁경 은
▁주 동
▁유 포
▁공 룡
▁안 변
▁실 적
▁매 입
▁물 려
▁독 성
▁철 원
▁타 인
▁잔 존
▁187 6
▁김종 직
▁팽 나무
▁빨 리
▁중등 교육
▁최익 현
▁나뉜 다
▁ 삿
가 야
바 람
의 학
▁이 봉
▁사 로
▁대 본
▁수 찬
▁일 선
▁자 랑
▁자 살
▁중 흥
▁유 한
▁동 헌
▁공 전
▁장 연
▁영 일
▁산 중
▁강 신
▁양 정
▁광 택
▁매 체
▁속 현
▁홍 익
▁녹 권
자원 부
▁승문 원
암 서원
장 보살
▁지 경
▁기 물
▁사 임
▁도 정
▁인 터
▁일 심
▁자 성
▁경 직
▁당 부
▁양 천
▁안 창
▁삼 한
▁특 진
▁금 오
▁처 하
▁감 무
▁총 독부
▁담 배
▁협 약
▁임진 강
▁괘 불탱
▁ "
▁ 륜
반 야
절 요
▁한 방
▁도 끼
▁정 랑
▁우 왕
▁삼 강
▁박 제
▁복 제
▁11 4
▁검 열
▁소설 가
▁휴 정
▁부드 러운
u m
가 요
밟 기
위 사
▁주 모
▁해 명
▁호 응
▁우 화
▁김 포
▁본 받
▁분 단
▁책 머리
▁손 님
▁막 론
▁문학 사
▁힘 써
▁착 의
▁메 기
▁홍건 적
도 끼
벽 화
산 도
▁기 형
▁전 진
▁보 석
▁서 상
▁서 대문
▁성 혼
▁공 수
▁오 후
▁실 습
▁참 나무
▁지방 법원
▁순 창
▁관계 없이
▁느 낀
▁압 력
▁163 6
▁I I
▁ 린
남 면
덕 여왕
음 인
제 공
▁사 미
▁전 집
▁정 형
▁경 무
▁주 한
▁세 제
▁편 마암
▁학 당
▁우 부
▁군 신
▁목 활자
▁천 수
▁용 문사
▁약 하
▁송 사
▁문화 사
▁선전 관
▁맷 돌
▁ 뜬
▁ 숯
계 리
▁시 청
▁전 우
▁정 묘
▁위 태
▁마 라
▁북 구
▁높 여
▁취 소
▁능 하
▁야 기
▁민속 놀이
불탱 화
▁뉴 욕
▁튼 튼
세 계
장 전
▁이 여
▁여 객
▁수 술
▁수 탈
▁부 석사
▁보 림사
▁유 영
▁신 봉
▁개 구리
▁소 임
▁원 년
▁던 져
▁김 이
▁양 어
▁말 년
▁실 학
▁복 발
▁절 기
▁풍 수지
▁리 얼
▁걸쳐 서
▁국어 학
▁방송 국
▁깔 려
청년 회
▁풍수지 리
▁ 찧
문 기
바 다
시 기
▁이 창
▁지 중추부사
▁수 면
▁주 어
▁연 이
▁소 고
▁모 반
▁권 근
▁계 보
▁생 선
▁삼 정
▁예 정
▁반 달
▁갈 수록
▁189 2
▁녹 봉
▁99 5
▁문산 계
러 져
▁이 형
▁수 취
▁조 창
▁정 승
▁정 침
▁보 광
▁서 유
▁주 필
▁유 원
▁교 직
▁교 서관
▁현 금
▁영 수
▁실 체
▁출 납
▁법 학
▁매 개
▁태 봉
▁걸 치
▁들어 왔
▁자연 히
▁188 0
▁객 주
▁교과 목
▁朝 鮮
▁장신 구
▁ R
▁ 래
▁ 멍
러 기
풍 속
▁지 체
▁대 수
▁나 루
▁개 석
▁남 이
▁무 진
▁진 산
▁천 의
▁처 사
▁속 대전
▁직 각
▁직 계
▁근 간
▁취 한
▁암 시
▁존 자
▁궁 방
▁이어 진다
▁접 속
▁긴 장
▁문수 보살
▁계룡 산
비로자나불 좌상
군 부
▁이 질
▁도 인
▁조 지
▁정 호
▁서 류
▁주 상
▁관 현
▁비 치
▁영 리
▁단 령
▁안 장
▁종 단
▁창 출
▁파 직
▁홍 예
▁데 려
▁식 년
▁측 량
대학교 박물관
▁느 껴
▁기업 체
▁석불 좌상
▁받아들 이
▁지켜 야
▁두드러 지
리 즘
배 기
싸 움
작 물
▁가 전
▁사 교
▁대 간
▁도 깨
▁수 교
▁제 영
▁문 목
▁모 이
▁남 매
▁우 위
▁선 소리
▁오 색
▁미 곡
▁목 숨
▁왕 성
▁감 동
▁요 리
▁섬 기
▁대상 자
▁쇠 서
▁이언 적
▁ 곶
▁ 뭉
광 산
다 지
랑 평장사
암 면
▁이 공
▁시 점
▁전 학
▁서 계
▁원 사
▁각 본
▁박 성
▁태 사
▁머 슴
▁휴 식
▁행해 졌
▁신중 도
▁다녀 왔
세지 보살
▁세시 풍속
방 아
법 사
▁으 뜸
▁어 구
▁부 역
▁개 천
▁성 도
▁명 맥
▁형 승
▁양 산시
▁안 면
▁반 공
▁차 림
▁윤 회
▁피 아
▁독립 협회
▁견 제
▁어려 우
▁몽 골
▁몰 래
▁탐 라
▁중대 석
▁장편 소설
ᆞ ᆫ
▁의 천
▁은 사
▁지 각
▁정 광
▁성 향
▁장 점
▁세 포
▁김 현
▁영 위
▁두 른
▁종 택
▁18 00
▁충 돌
▁농 상
▁숙 위
▁힘 입
▁산수 화
▁ 南
▁ 앵
거 지
조 직
판 윤
▁어 음
▁수 월
▁월 동
▁연 봉
▁진 작
▁길 상
▁허 튼
▁견 고
▁낭 청
▁욕 구
▁생겨 나
▁한성부 판윤
▁춘향 가
▁기행 문
▁ 說
▁ 폴
계 획
아 이
▁가 라
▁기 린
▁기 병
▁사 다리
▁제 직
▁자 작
▁만 성
▁마 포
▁석 물
▁평 창
▁복 부
▁순 환
▁곡 성
▁녹 훈
▁옮 긴
▁억 울
▁목조 아미타
▁칭 찬
▁이화 여자대학교
혁명 당
▁구덩 이
▁강연 회
▁캠 퍼스
▁ 李
▁ 엎
막 새
명 부
미 사
직 할시
▁가 동
▁도 산
▁중 학
▁상 륙
▁상 반
▁연 료
▁소 중
▁구 주
▁편 수
▁명 신
▁무 동
▁선 봉
▁단 속
▁각 성
▁군 명
▁바 둑
▁평 방
▁반 해
▁편집 국
▁이미 지
▁문인 석
▁201 3
▁지휘 관
대장 경
▁창원 시
동 유적
쟁 이
진 군
진 회
▁어 선
▁대 답
▁서 신
▁서 한
▁유 감
▁유 격
▁개 장
▁선 대
▁방 과
▁초 계
▁재 화
▁청 정
▁예 문
▁천 명
▁총 서
▁별 칭
▁친 필
▁업 종
▁시켰 으며
▁곤 란
▁동백 나무
▁현무 암
▁ 싹
관 음보살
▁한 하
▁가 벼
▁수 미
▁수 염
▁수 컷
▁조 적
▁부 마
▁주 서
▁관 형
▁성 악
▁장 남
▁형 용
▁영 험
▁임 의
▁차 단
▁외 성
▁복 귀
▁홍 범
▁폐 해
▁아래 층
▁염 려
▁민속 학
▁윗 방
▁즐 거
공 동
국 립공원
비 아
수 수
흘 림
▁이 를
▁고 봉
▁고 속
▁사 조
▁여 지
▁수 분
▁수 서
▁만 족
▁남 경
▁원 고
▁영 장
▁간 경
▁봉 은사
▁점 유
▁절 실
▁황 후
▁총 독
▁11 6
▁나타 냈
▁영향 력
▁넘어 가
▁그리스 도
▁ 쪄
▁다 름
▁기 교
▁자 결
▁성 사
▁후 한
▁불 보살
▁설 하
▁진 단
▁본 떠
▁민 심
▁속 칭
▁병 영
▁황 남
▁철 제
▁걸 리
▁줄 다리기
▁벌 어지
▁베 트
▁사적 비
▁홀 로
▁낚 시
▁ p
갑 사
부 모
회 담
회 도
▁도 독
▁였 으니
▁조 공
▁부 귀
▁자 갈
▁보 병
▁서 운
▁신 진
▁개 금
▁구 해
▁내 림
▁거 지
▁안 료
▁진 학
▁본 체
▁빈 약
▁숭 실
▁밀직 부사
▁국자 감
구 멍
의 금
주 석
크 리트
한 인
▁사 공
▁경 세
▁유 관
▁장 만
▁불 의
▁우 아
▁설 사
▁간 척
▁북 면
▁별 개
▁악 공
▁옮겨 졌
▁솟 아
▁탱 주
▁언론 인
▁정해 진
▁장로 교
▁신의 주
▁콘 크리트
▁ 촘
경 사
정 서
총 장
▁이 홍
▁어 지
▁인 본
▁정 은
▁나 간
▁상 계
▁호 흡
▁마 른
▁단 골
▁반 가
▁감 자
▁결 코
▁심 양
▁교육 청
▁향 촌
▁침 투
▁ 닥
▁ 켜
본 풀이
상 제
▁고 조선
▁사 치
▁그 날
▁전 장
▁아 비
▁통 역
▁역 도
▁법 관
▁차 츰
▁독 송
▁독립 선언
▁누 락
▁밀 려
▁견 지
▁수군 절도사
▁이건 하
노동 당
▁관상 감
▁ 鄕
건 설
맞 이
성 당
협 동
▁이 선
▁고 안
▁기 로
▁인 장
▁정 현
▁정 혜
▁소 감
▁구 두
▁국 물
▁국 세
▁호 박
▁호 조판서
▁마 모
▁통 솔
▁계 원
▁생 사
▁왕 궁
▁태 수
▁향 나무
▁황 성
▁준 하
▁전승 자
▁무산 계
▁철저 히
문하 성
▁텔레 비전
▁ 論
나 물
라 스
왕 조
읍 성
지 인
▁의 논
▁고 아
▁가 해
▁시 선
▁수 표
▁제 명
▁위 촉
▁권 익
▁선 물
▁설 득
▁각 도
▁생 일
▁회 고
▁법 전
▁왕 복
▁표 충사
▁참 선
▁송 파
▁윤 치
▁완 화
▁애 정
보살 입상
▁울 리
▁몇 몇
▁옹 관
▁쓰여 진
▁보현 보살
▁최충 헌
▁묘향 산
카 락
▁이 끄
▁대 세지보살
▁정 시
▁보 일
▁위 축
▁성 정
▁모 체
▁마 찰
▁두 부
▁각 급
▁삼 문
▁실 력
▁길 러
▁체 신
▁악 부
▁드 나
▁머리 카락
▁대사 성
▁틀 림
▁남한 산성
▁얼마 나
▁여서 는
문헌 비고
대 교
문 답
▁보 국
▁주 성
▁나 섰
▁동 과
▁편 안
▁화 법
▁재 생
▁청 룡사
▁용 주사
▁입 교
▁감 염
▁치 과
▁치 밀
▁〕 ,
▁남원 시
▁》 ,
▁어울 려
▁대관 령
▁서귀 포시
▁초간 본
금 보
어 서
연 사
입 사
▁다 지
▁한 결
▁여 우
▁중 립
▁해 탈
▁성 조
▁소 용
▁장 학
▁조선 미술전람회
▁미 만
▁미 주
▁노 자
▁홍 천
▁육 체
▁야 외
▁응 하
▁탈 락
▁웅 장
▁레 이
▁깨끗 이
▁영산회 상도
▁태백산 맥
▁구덩 식
▁초창 기
▁ !
곡 집
오 르
▁의 궤
▁한 학
▁어 장
▁대 만
▁정 희
▁공 안
▁남 조선
▁우 사
▁당 기
▁단 절
▁안 경
▁분 별
▁백 련사
▁충 숙
▁충 주시
▁높 직
▁온 다
▁습 득
▁공주 시
▁창간 호
▁방어 사
▁동아 시아
▁달라 지
▁동문 선
▁ 樂
▁ 通
도 설
▁이 완
▁한 량
▁제 어
▁정 복
▁정 순
▁서 목
▁서 벽
▁서 학
▁동 대문
▁개 입
▁성 모
▁구 출
▁세 례
▁교 동
▁현 황
▁단 백
▁계 시
▁삼 매
▁역 경
▁바 리
▁행 의
▁창 극
▁배 합
▁금 전
▁점 치
▁곡 명
▁넓 적
▁울 창
▁공업 단지
▁숭 상
▁청주 시
▁국방 부
과학 기술
▁제석 천
▁유엔 군
▁남동 쪽
문 왕
▁대 광
▁대 인
▁부 패
▁관 내
▁연 습
▁비 인
▁배 양
▁용 강
▁집 자리
▁최 승
▁복 판
▁별 시
▁피 신
▁느 린
▁혈 연
▁사범 학교
▁ 멥
▁ 셔
김 새
성 장
이 어
청 색
▁사 족
▁대 교
▁인 위
▁시 계
▁등 재
▁제 발
▁나 열
▁신 숙
▁문 간채
▁상 좌
▁성 천
▁만 화
▁후 불탱화
▁선 상
▁거 슬
▁본 기
▁특 허
▁바 늘
▁석 비
▁회 유
▁법 문
▁살 려
▁악 화
▁뒷 날
▁끓 이
▁기울 였
▁백화 점
▁멥 쌀
▁ 正
미 륵
향 악단
▁이 호
▁기 숙
▁전 보
▁부 적
▁관 통
▁유 경
▁동 전
▁5 000
▁오 경
▁진 평
▁분 재
▁창 가
▁박 해
▁감 지
▁결 속
▁저 본
▁돌 널무덤
▁증 직
▁좌 정
▁앞 부분
▁갑 옷
▁영산 전
▁솟 을
▁개국 공신
▁나한 전
▁ 엉
정 기
홍 색
▁어 록
▁자 각
▁관 방
▁상 향
▁편 단
▁내 놓
▁오 가
▁진 위
▁재 수
▁재 해
▁왕 지
▁입 선
▁외 면
▁체 아
▁평양 시
▁쇠 고기
▁황해 남도
▁학회 지
▁생겨 났
▁촘 촘
길 이
러 지
신 도
▁어 필
▁과 부
▁도 관
▁주 산
▁명 산
▁후 계
▁원 불교
▁우 도
▁김 사
▁삼 별초
▁광 경
▁금 정
▁북 송
▁변 방
▁심 신
▁달 랐
▁농 어
▁확 고
▁세계 관
▁갑 신
▁폭 발
▁평양 직할시
▁188 7
▁꾸 민
▁35 0
의금 부사
여 학교
▁이 괄
▁대 흥
▁자 물
▁아 귀
▁경 인
▁개 벽
▁면 허
▁성 북
▁남 도
▁화 단
▁호 법
▁선 양
▁선 화
▁설 탕
▁단 부
▁양 명
▁바 쳤
▁행 주
▁배 재
▁금 군
▁입 석
▁돌 보
▁근 세
▁꽃 무늬
▁전해 져
▁옷 감
▁140 1
▁141 3
▁덧붙 여
▁외양 간
▁ 볏
▁ 콧
▁ 탓
농 사
보 고
수 산
▁한 역
▁어 기
▁수 렵
▁일 방
▁신 유
▁교 부
▁무 왕
▁단 자
▁생 동
▁초 고
▁행 서
▁말 린
▁왕 대
▁한국 학
▁새 우
▁춘 다
▁흔 하
▁긴 밀
▁바람 직
▁끓 인
▁북동 쪽
▁빗살 무늬토기
▁도깨 비
▁충숙 왕
i a
▁ 八
석 가
이 션
▁하 의
▁기 복
▁도 순
▁전 란
▁제 고
▁아 찬
▁보 천
▁중 장
▁중 정
▁문 짝
▁장 명
▁간 소
▁종 량
▁노 령
▁백 양
▁용 품
▁외 환
▁변 한
▁번 갈
▁투 입
▁경성 제국
▁확실 히
▁동부 승지
▁129 8
▁리얼 리즘
▁경성제국 대학
▁ 00
국 회
회 원
▁인 성
▁시 흥
▁수 납
▁부 하
▁나 전
▁신 식
▁신 파
▁월 북
▁동 검
▁조선 왕조
▁내 사
▁무 공
▁김 연
▁산 세
▁재 앙
▁음 모
▁예 천군
▁천 거
▁왕 경
▁증 원
▁녹 두
▁빠 진
▁붙여 서
▁원각 경
▁그만 큼
경기 대회
▁심지 어
▁무궁 화
▁ O
전 도
▁이 운
▁지 연
▁기 암
▁대 등
▁조 출
▁조 헌
▁전 례
▁자 재
▁중 순
▁경 판
▁신 안
▁성 보
▁화 덕
▁원 외
▁양 전
▁삼 림
▁석 성
▁청 학
▁회 상
▁풍 토
▁경기 장
▁사랑 채
▁춤 추
▁가치 관
▁낭 만
▁툇 간
▁팽 창
▁경쟁 력
▁활엽 수
▁잡아 먹
▁추밀 원
▁ 海
녕 부사
니 아
다 라
돈 녕부사
바 퀴
▁은 진
▁일 파
▁제 철
▁부 식
▁부 응
▁부 합
▁경 질
▁주 권
▁상 처
▁개 태
▁연 마
▁우 세
▁김 순
▁종 속
▁군 병
▁실 증
▁출 옥
▁용 천
▁태 인
▁좌 찬성
▁사회 학
▁중국 인
▁민간 신앙
▁탁 월
▁뉴 스
C A
요 지
인 자
▁사 살
▁대 보
▁여 학생
▁도 전
▁정 공
▁정 여
▁경 호
▁유 해
▁신 천
▁신 흥사
▁월 정사
▁구 워
▁장 본
▁교 감
▁무 악
▁본 향
▁분 립
▁감 기
▁결 심
▁태 백
▁절 반
▁송 이
▁합 창
▁중국 어
▁살 리
▁186 5
▁186 9
▁ 료
▁ 뽕
라 마
정 대부
황 후
▁하 면
▁고 요
▁기 주
▁사 연
▁대 여
▁월 성
▁해 독
▁공 익
▁편 평
▁남 강
▁불 량
▁선 운사
▁단 국
▁통 행
▁양 역
▁작 사
▁용 지
▁속 집
▁필 적
▁윤 증
▁투 항
▁188 6
▁몰 락
▁융 기
▁알아 보
▁베트 남
▁단백 질
세 시기
왕 생
우 도
진 각
하 면
▁고 관
▁대 아
▁대 일
▁일 주
▁부 곡
▁부 유
▁나 갈
▁관 찬
▁성 내
▁연 강
▁장 도
▁국 적
▁불 꽃
▁마 름
▁진 의
▁각 선
▁생 리
▁함 부
▁본 풀이
▁분 담
▁미 쳤
▁청 춘
▁용 이
▁박 용
▁절 단
▁풍 만
▁별 지
▁손 꼽
▁협 상
▁급 증
▁특별 법
▁어려 웠
▁떠 난
▁웅 진
▁삭 제
▁칠성 각
▁조선왕조 실록
▁ W
▁ 古
암 산
으 로
이 상
이 씨
▁이 왕
▁기 강
▁유 공
▁유 무
▁소 홀
▁화 양
▁무 선
▁본 연
▁평 민
▁창 경궁
▁배 려
▁금 액
▁충 북
▁체 감
▁송 림
▁잡 록
▁날 아
▁칭 송
▁지배 층
▁이광 수
▁봉토 분
▁봉해 졌
리 스
보 내
암 동
제 품
제 례악
▁어 라
▁도 청
▁도 통
▁수 운
▁정 감
▁위 엄
▁신 발
▁동 년
▁동 진
▁해 저
▁세 곡
▁교 의
▁원 대
▁원 전
▁양 곡
▁민 담
▁음 역
▁천 문학
▁금 메달
▁측 근
▁생활 상
▁혜 택
▁벗 겨
▁한문 본
▁굄 대
▁오사 카
e s
그 네
대 웅전
립 간
본 부
석 정
▁자 색
▁상 담
▁우 상
▁형 부
▁방 목
▁군 청
▁분 기
▁청 계
▁백 마
▁박 상
▁직 속
▁항 마
▁형태 소
▁극 동
▁189 3
▁터 전
▁186 6
▁드러 난
▁끌 어
▁송준 길
▁진평 왕
나 다
밀 직
위 영
은 색
타 리
훈 련
▁이 응
▁수 형
▁제 전
▁유 용
▁문 리
▁상 위
▁소 사
▁명 동
▁우 연히
▁마 늘
▁김 승
▁군 악
▁임 경
▁임 관
▁반 역
▁토 관
▁필 선
▁암 컷
▁딸 린
▁야 생
▁고사 리
▁영암 군
▁ ᅀ
▁ 上
▁ 걱
버 들
석 묘
시 계
코 드
팡 이
▁가 수
▁사 목
▁전 정
▁제 복
▁적 벽
▁부 류
▁자 면
▁신 편
▁문 안
▁장 현
▁선 주
▁군 의
▁청 양
▁승 상
▁심 리학
▁필 자
▁식 용
▁별 명
▁별 집
▁습 지
▁사리 탑
▁그렇 지만
▁기우 제
▁연해 주
▁》, 《
▁ 太
▁ 쑥
덩 이
생 물
숭 아
암 유고
익 공
직 물
책 판
쳐 서
▁하 회
▁고 이
▁기 악
▁사 옥
▁조 음
▁조 현
▁전 산
▁부 진
▁상 법
▁장 가
▁후 천
▁무 제
▁영 도
▁할 지
▁강 점기
▁규 율
▁황 룡사
▁기념 비
▁몸 길이
▁격 렬
▁격 식
▁납 세
▁특수 학교
▁뛰 어
▁언어 학
▁대승 불교
▁올림픽 대회
▁잉 어
▁불분 명
▁인 자
▁인 주
▁전 대
▁적 석
▁경 유
▁유 발
▁신 념
▁신 재
▁면 사
▁세 도
▁세 미
▁불 공
▁던 지
▁당 연
▁계 율
▁양 수
▁증 세
▁채 워
▁맞 서
▁숙 명
▁겹 집
▁가야 산
▁표준 어
▁생겨 난
▁남한 강
▁오목 새김
▁ 法
▁ 王
▁ 詩
▁ 샤
결 사
구 비
마 귀
사 람
사 록
투 리
▁지 목
▁도 호
▁적 정
▁구 나
▁공 항
▁교 전
▁권 세
▁원 한
▁간 본
▁산 대
▁초 점
▁실 수
▁용 신
▁용 정
▁봉 래
▁봉 상시
▁돌 기둥
▁풍 어
▁몸 채
▁유적 지
▁굴 뚝
▁덮 여
▁믿 음
▁안창 호
▁걱 정
▁ l
▁ 렴
국 악원
도 드리
런 히
평 대군
혈 식
▁이 면
▁기 틀
▁적 자
▁부 제학
▁서 고
▁구 운
▁구 황
▁교 종
▁호 조참판
▁우 대
▁우 익
▁선 왕
▁설 악산
▁당 했
▁산 봉
▁오 성
▁통 리
▁진 찬
▁한국 은행
▁파 도
▁좌 목
▁살 아가
▁윤 봉
▁시켜 서
▁억 압
▁어려 워
▁188 1
▁대통령 령
▁횡 혈식
▁밀양 시
▁끌 려
▁자진 모리
▁원자 력
▁충실 히
▁분합 문
▁끊임 없이
▁ 華
▁ 꼴
▁ 멕
대 표
석 조
일 전쟁
▁을 해
▁가 두
▁일 신
▁중 공
▁중 량
▁서 서
▁나 서
▁상 방
▁성 읍
▁국 산
▁교 방
▁후 서
▁오 산
▁진 달
▁행 한다
▁목 걸이
▁추 위
▁태 토
▁포 천
▁철 조
▁삼국 통일
▁환 곡
▁눈 물
▁중문 간
▁유허 비
▁무지 개
▁ 高
동 기
참 나무
▁고 래
▁가 래
▁위 상
▁유 상
▁상 급
▁구 룡
▁공 명
▁공 무
▁마 사
▁김 선
▁형 조참판
▁방 풍
▁종 정
▁행 한
▁금 광
▁우리 말
▁병 인
▁황 산
▁좌 부
▁치 사
▁낭 장
▁기원 전
▁중추 원사
▁조선인 민
▁반도 체
▁토광 묘
▁ ᅵ
▁ 싱
건 축
금 강
어 버
▁고 국
▁고 창군
▁기 정
▁기 해
▁수 놓
▁조 천
▁신 종
▁개 판
▁해 녀
▁단 가
▁양 금
▁삼 베
▁노 장
▁법 조
▁품 사
▁야 구
▁장로 회
▁중서 문하성
▁선진 국
h e
▁ 끄
▁ 됐
라 이
▁이 충
▁사 수
▁시 골
▁전 과
▁부 안군
▁주 임
▁들 이
▁위 정
▁구 마
▁호 서
▁무 수
▁무 오
▁김 봉
▁산 줄기
▁반 사
▁포 수
▁익 혀
▁느 낄
▁0 5
▁188 8
▁굽 다리
▁가져 오
▁돋 보이
▁신민 회
▁장악 원
▁구족 계
▁ 넉
▁ 뉘
마 애
시 코
의 대부
직 자
▁이 범
▁지 문
▁지 제
▁도 지
▁그 동안
▁등 대
▁서 거
▁신 뢰
▁국 호
▁김 자
▁할 석
▁단 아
▁역 과
▁함 양군
▁재 개
▁노 거
▁길 주
▁좌 랑
▁번 영
▁번 호
▁익 산시
▁네모 기둥
▁원산 지
▁어두 운
▁ 갯
▁ 퉁
▁ 훔
온 다
피 리
행 사
▁가 볍
▁지 선
▁여 겼
▁수 녀
▁수 전
▁정 정
▁국 고
▁산 내
▁재 능
▁석 종
▁미 사
▁음 기
▁음 반
▁예 복
▁처 단
▁박 경
▁박 기
▁결 론
▁승 부
▁잡 히
▁총 애
▁더 구나
▁불교 의식
▁숙 소
▁녹 음
▁평양 성
▁차이 점
▁습 기
▁연화 대
▁모여 서
▁136 9
▁보현 사
로왕 도
력발전 소
▁여운 형
▁최남 선
▁형용 사
▁즐거 움
검 찰
사 랑
열 왕
잡 가
▁정 운
▁후 박
▁남 대
▁무 구
▁양 구
▁초 과
▁배 후
▁승 선
▁담 가
▁치 제
▁풍 천
▁널 방
▁색 상
▁버 드
▁휴 대
▁개성 시
▁헤 아
▁이제 현
▁나한 상
▁음운 론
▁김시 습
춘추 관
나 마
성 대
폐 합
▁사 소
▁수 려
▁조 동
▁서 역
▁동 벽
▁동 심
▁성 년
▁소 승
▁내 원
▁남 서
▁학 업
▁화 서
▁호 성
▁무 자
▁예 리
▁운 봉
▁최 경
▁박 진
▁효 령
여래 삼존
▁출입 문
▁꼭 지
▁쳐 들
▁블 라
▁다년 생
조직 법
▁ 志
▁ 굶
▁ 낼
▁ 둑
강 목
니 와
다 보
동 원
행 정
▁이 근
▁대 불
▁위 시
▁구 인
▁장 유
▁모 인
▁화 천
▁불 린
▁우 참찬
▁선 덕여왕
▁양 사
▁안 부
▁방 치
▁생 업
▁따 른다
▁분 사
▁분 출
▁임 제
▁운 전
▁북 서
▁총 통
▁담 긴
▁스 러
▁극 심
▁대표 자
▁율 곡
▁진주 시
▁찍 혀
▁거슬 러
▁멕 시코
▁진달 래
▁ 뚝
광 전
영 정
타 민
태 후
항 아리
▁도 포
▁시 달
▁수 선
▁문 구
▁공 모
▁공 복
▁통 폐합
▁방 화
▁석 상
▁법 명
▁광 장
▁입 국
▁감 탄
▁돌 렸
▁복 숭아
▁못 할
▁범 천
▁편집 인
▁벌 어졌
▁탈 놀이
▁둔 중
▁낭 중
▁횡 포
▁슬 픔
▁청도 군
▁돌무지 무덤
▁속리 산
▁ 녕
고 인
무 관
스 터
원 종
존 자
촌 면
학 파
▁수 안
▁조 신
▁부 의장
▁자 발
▁중 모리
▁신 보
▁소 극
▁내 의
▁영 창
▁단 성
▁종 결
▁역 법
▁임 자
▁목 차
▁법 어
▁북 문
▁외 우
▁물 리학
▁복 사
▁달 린다
▁치 소
▁올 린다
▁친 지
▁낙 선
▁사랑 방
보살 좌상
▁망 자
▁패 배
▁관음 전
▁굄 돌
▁인조 반정
▁경작 지
▁어울 리
▁지극 히
▁ 깐
▁ 몹
가 족
기 독교
절 로
▁여 백
▁도 적
▁그 다지
▁시 찰
▁수 급
▁자 행
▁주 연
▁문 정
▁상 봉
▁모 사
▁교 파
▁무 극
▁산 물
▁양 동
▁진 경
▁삼 남
▁군 액
▁평 원
▁추 석
▁속 신
▁교육 법
▁요 양
▁좌 참찬
▁걸 음
▁골 격
▁징 발
▁사무 실
▁모아 서
▁흘러 드
▁서낭 당
▁눌 러
▁문하시 중
▁마땅 히
▁ ᄎ
▁ 中
▁ 白
▁ 댁
▁ 헝
괘 불탱
덕 리
인 수
▁기 소
▁사 군
▁대 적
▁그 늘
▁제 각
▁부 딪
▁부 총
▁보 덕
▁해 변
▁모 형
▁교 우
▁화 답
▁원 줄기
▁선 승
▁간 신
▁오 륜
▁계 자
▁양 계
▁두 터
▁차 리
▁살 미
▁들어 간다
▁투 옥
▁미국 인
▁24 0
▁소작 인
▁시왕 상
▁자생 지
사관 학교
▁분교 장
▁우두 머리
▁사복 시
▁직사 각
▁삼세 불
▁버드 나무
▁ 딴
개 토
협 력
▁되 풀이
▁수 렴
▁조 심
▁보 허
▁서 향
▁신 구
▁상 원사
▁해 병
▁성 전
▁공 존
▁남 면
▁남 용
▁무 문
▁무 슨
▁형 법
▁방 직
▁삼 천
▁행 상
▁재 담
▁임 업
▁광 개토
▁봉 양
▁귀 꽃
▁별 신굿
▁언 문
▁기념 관
▁덕 목
▁폭 탄
▁떨 쳤
▁넘 겨
▁지하 수
▁뚫 려
▁ 佛
▁ 갇
▁ 긁
▁ 땀
▁ 옴
동 굴
시 집
월 일
체 계
▁다 이
▁지 회
▁사 화
▁대 주
▁도 내
▁정 과
▁경 리
▁경 순
▁상 이
▁구 로
▁공 방
▁비 파
▁영 안
▁산 술
▁오 이
▁양 화
▁안 내
▁삼 수
▁본 산
▁청 해
▁목 화
▁금 니
▁봉 름
▁박 공
▁변 신
▁약 한
▁궁 전
▁돌아 다니
▁드러 난다
▁162 3
▁T V
▁여의 주
▁고양 이
▁헛 간
▁캐 나다
▁아프 리카
▁피아 노
▁틀림 없
고 원
들 이
분 지
섬 유
와 서
지 곡
총 동맹
▁하 도
▁하 수
▁여 민
▁조 장
▁정 장
▁주 창
▁유 묵
▁동 력
▁동 료
▁구 수
▁내 재
▁불 어
▁불 태
▁호 석
▁두 툼
▁삼 사
▁군 국
▁바 디
▁뒤 집
▁예 금
▁최 제
▁승 주
▁증 인
▁잡 힌
▁담 그
▁논 산시
▁걸 립
▁온 화
▁막 내
▁탈 피
▁납 도리
▁영산 강
▁복장 유물
▁으려 고
▁몹 시
▁ 西
▁ 촛
군 읍지
규 모
례 의
연 의
풍 류
▁의 열
▁고 신
▁가 꾸
▁기 한
▁조 회
▁전 리
▁서 얼
▁성 남
▁성 왕
▁성 학
▁연 지
▁후 렴
▁화 포
▁원 로
▁김 소
▁영 주시
▁산 다
▁강 상
▁역 모
▁작 은
▁출 석
▁차 량
▁변 상
▁변 혁
▁충 격
▁길 목
▁치 하
▁항 거
▁줄 이
▁186 0
▁증보 문헌비고
▁다녀 온
▁바닷 물
▁증조 부
B S
o l
▁ 公
▁ 겁
▁ 앓
과 리
당 문집
댕 기
▁가 위
▁여 원
▁시 나
▁전 탑
▁제 상
▁제 하
▁적 장
▁자 구
▁아 전
▁경 술
▁나 주시
▁문 비
▁상 납
▁공 세
▁우 진각
▁계 모
▁임 천
▁천 민
▁광 학
▁용 사
▁활 기
▁매 수
▁승 하
▁병 조참판
▁절 감
▁황 갈색
▁옥 수수
▁암 행
▁능 묘
▁범 자
▁침 체
▁숙 청
▁0 1
▁전주 시
▁어린 아이
▁근거 지
▁문수 사
▁본다 면
▁꺼 내
▁함부 로
우 치
증 권
환 경
▁기 뻐
▁기 억
▁여 관
▁여 신
▁중 인
▁나 쁜
▁유 계
▁유 두
▁신 수
▁개 개
▁소 발
▁화 불
▁선 악
▁김 은
▁생 가
▁받 쳤
▁천 사
▁법 성
▁반 남
▁금 구
▁입 주
▁약 칭
▁낙 안
▁왜 인
▁술 회
▁율 격
▁상주 시
▁뇌 문
▁김상 헌
▁작곡 가
▁주재 소
▁박지 원
▁사다리 꼴
로 기
록 대부
오 광대
진 전
헌 집
▁은 퇴
▁고 소
▁사 찬
▁부 품
▁주 청
▁상 전
▁면 포
▁연 길
▁소 무
▁구 개
▁선 공
▁김 계
▁김 철
▁진 안
▁노 루
▁출 정
▁법 신
▁독 도
▁농 부
▁토 속
▁체 구
▁더 위
▁합 당
▁번 창
▁누 가
▁덕 산
▁겨 루
▁94 0
▁ a
▁ 댓
▁ 찔
꼬 리
민 란
요 의
원 경
튿 날
▁이 모
▁이 북
▁지 기
▁대 결
▁대 별
▁수 나라
▁부 용
▁정 음
▁경 사지
▁주 형
▁유 선
▁성 진
▁연 소
▁소 규모
▁구 지
▁공 고
▁세 탁
▁비 타민
▁화 제
▁화 첩
▁우 유
▁마 쳤
▁오 빠
▁양 심
▁각 출
▁예 조참판
▁파 주시
▁살 풀이
▁투 신
▁186 2
▁강릉 시
▁간단 히
▁아리 랑
▁주모 자
▁블라 디
느 질
무 실
문 동
복 지
부 도
▁가 창
▁가 평
▁기 년
▁기 세
▁기 입
▁대 용
▁수 화
▁조 희
▁전 권
▁전 무
▁전 술
▁정 직
▁중 형
▁상 기
▁소 서
▁구 형
▁공 문서
▁교 세
▁우 국
▁선 녀
▁통 나무
▁최 신
▁풍 치
▁항 전
▁완 벽
▁접 수
▁옷 깃
▁지리 학
▁싸 웠
▁끼 우
▁서술 어
▁커 서
▁삽 화
▁항공 기
▁매일 신보
▁인터 넷
▁ 렬
정 치
▁이 보
▁다 녔
▁고 객
▁기 독
▁대 궐
▁대 호
▁수 연
▁부 시
▁나 아
▁성 능
▁만 났
▁교 외
▁비 천
▁내 정
▁학 무
▁거 창군
▁오 류
▁삼 중
▁군 무
▁초 시
▁행 실
▁고려 인
▁요 법
▁채 우
▁총 각
▁식 당
▁효 도
▁협 문
▁189 1
▁격 하
▁탄 광
▁낮 추
▁곽 재
▁기와 집
▁끓 여
▁사육 신
▁옻 칠
▁특진 관
▁원외 랑
▁ 雜
▁ 꽹
▁ 몫
라 기
러 스
서 면
성 지
세 보
숭 배
의 례
좌 도
지 악
통 상
▁한 식
▁지 게
▁기 일
▁인 플
▁장 독
▁명 현
▁화 력
▁우 뚝
▁강 석
▁안 보
▁분 자
▁석 관
▁미 역
▁평 장사
▁예 성
▁용 호
▁최 현
▁팔 괘
▁밀 착
▁헌 신
▁격 전
▁표기 법
▁연화 좌
▁m2 ,
▁합격 자
▁나뭇 가지
▁소백산 맥
▁수륙 재
▁자물 쇠
▁시나 위
에 도
올 림픽
▁이 대
▁고 배
▁지 낼
▁기 보
▁대 웅
▁도 드
▁부 평
▁정 명
▁서 호
▁관 북
▁신 돈
▁신 조
▁해 학
▁만 월
▁남 정
▁화 반
▁선 혜
▁김 문
▁김 복
▁김 한
▁오 상
▁강 물
▁본 원
▁초 각
▁석 문
▁미 추
▁까 마귀
▁목 종
▁반 구
▁운 서
▁용 화사
▁점 검
▁태 후
▁참 작
▁폐 위
▁구조 물
▁186 4
▁187 0
▁김성 일
▁적절 히
▁포항 시
▁육계 주
▁통감 부
▁영등 포
▁노거 수
▁ 엘
가 옥
포 리
▁1 000
▁시 국
▁전 중
▁상 응
▁후 예
▁선 가
▁선 두
▁영 모
▁거 론
▁진 나라
▁행 법
▁분 급
▁노 리
▁배 면
▁광 석
▁백 정
▁집 착
▁외 무
▁새 김
▁순 간
▁합 치
▁축 출
▁육 신
▁피 력
▁효 소
▁문화 유산
▁팔 관
▁범 어
▁여수 시
▁최제 우
▁ 런
▁ 벨
▁ 줌
당 유고
덕 면
모 양
박 해
시 강원
총 서
현 동
▁되 찾
▁로 스
▁사 암
▁대 령
▁도 피
▁수 온
▁중 사
▁중 등학교
▁주 나라
▁상 지
▁장 래
▁세 간
▁학 식
▁화 창
▁호 장
▁선 돌
▁선 지
▁김 안
▁m 3
▁살 인
▁곡 류
▁드 렸
▁염 주
▁쪽 마루
▁대동 법
▁대가 야
▁띤 다
▁윤곽 선
▁냄 새
▁독립선언 서
▁꽹 과리
보 장
오 군
정 전
통 감
▁이 헌
▁에 워
▁하 인
▁한 전
▁사 가
▁도 문
▁수 창
▁일 차
▁적 갈색
▁아 닐
▁중 개
▁경 고
▁신 극
▁문 주
▁월 경
▁후 삼
▁마 이
▁영 천시
▁통 속
▁양 재
▁종 각
▁초 빙
▁재 활
▁규 약
▁요 새
▁황 실
▁언 양
▁국제 연합
▁왜 냐
▁21 0
▁올라 갈
▁괴 산군
▁김해 시
▁사라 졌
▁여진 족
▁덩 어리
▁용산 구
▁이목 구비
▁마라 톤
▁간경 도감
▁ 쳤
곡 동
근 대
녹 권
니 스
으 면
페 라
▁의 류
▁고 경
▁가 선
▁가 중
▁사 촌
▁제 창
▁서 대
▁주 세
▁동 호
▁성 동
▁연 천
▁명 덕
▁김 중
▁오 주
▁양 분
▁역 서
▁분 구
▁실 물
▁실 존
▁예 절
▁천 제
▁백 과
▁차 용
▁표 상
▁최 유
▁박 수
▁입 시
▁외 자
▁농 기
▁포 섭
▁항 로
▁팔 공산
▁급 식
▁국립 국악원
▁벌 여
▁춤 사위
▁납 치
▁지장 시왕
▁김홍 도
▁생동 감
▁암행 어사
▁왜냐 하면
1 1
촬 요
▁이 데
▁도 다
▁적 십자
▁유 종
▁유 향
▁연 의
▁구 장
▁남 대문
▁원 류
▁안 의
▁진 화
▁바 느질
▁분 박
▁말 리
▁평 판
▁목 수
▁노 예
▁예 빈
▁출 동
▁최 항
▁입 대
▁저 절로
▁달 래
▁농 요
▁간행 물
▁포 곡
▁필 연
▁사회 단체
▁논 변
▁들어 갈
▁염 원
▁고분 벽화
▁180 1
▁원각 사
▁사역 원
▁법상 종
관음보살 좌상
u l
▁ 싫
각 시
끼 리
버 이
▁하 강
▁한 복
▁가 끔
▁지 수
▁지 진
▁도 첨
▁시 급
▁수 질
▁조 의
▁전 생
▁주 본
▁위 서
▁신 동
▁문 도
▁동 복
▁비 류
▁권 고
▁불 행
▁원 집
▁우 의
▁김 학
▁양 편
▁진 남
▁진 하
▁초 익공
▁창 부
▁북 두
▁병 선
▁좌 절
▁앞 세
▁앞 바다
▁온 양
▁겨 드
▁그려 졌
▁재판 소
▁머물 러
공화 당
▁탁지 부
▁신숙 주
▁ 全
▁ 道
▁ 략
레 타
자 총통
팔 경
▁이 한
▁한 일
▁어 촌
▁어 버이
▁사 채
▁여 학교
▁인 의
▁제 로
▁제 후
▁주 먹
▁구 산
▁세 밀
▁조선 민족
▁내 수
▁김 옥
▁단 소
▁진 무
▁각 간
▁방 비
▁군 포
▁재 난
▁말 갈
▁노 지
▁천 관
▁승 전
▁앞 선
▁풍 양
▁육 종
▁허 약
▁환 영
▁스 타
▁능 히
▁둘러싸 여
▁햇 볕
▁도제 조
▁ 元
▁ 先
미 자
버 섯
아 비
칠 성
▁이 부
▁한 두
▁기 량
▁사 동
▁시 해
▁전 실
▁전 액
▁전 성기
▁적 군
▁자 양
▁주 악
▁주 전자
▁신 계
▁장 판
▁발 탁
▁남 색
▁원 하
▁오 도
▁강 가
▁계 비
▁재 봉
▁미 학
▁임 영
▁음 료
▁입 당
▁입 문
▁충 의
▁직 명
▁달 렸
▁송 화
▁황 폐
▁극 도
▁날 씨
▁정부 조직법
▁갖 가지
▁훈 도
▁깃 발
▁삼성 각
▁이원 익
▁문무 관
▁공양 왕
▁으려 는
or e
▁의약 품
▁핀 다
▁날카 로운
u r
▁ 댄
▁ 웨
강 왕
국 단
도 회
마 기
시 험
폭 포
해 사
▁이 튿날
▁가 신
▁여 장
▁조 위
▁전 당
▁전 방
▁일 록
▁주 례
▁관 람
▁신 안군
▁동 조
▁남 창
▁화 초
▁원 소
▁김 화
▁단 식
▁초 지
▁평 상시
▁천 황
▁배 설
▁법 무부
▁용 마루
▁집 대성
▁입 혀
▁외 방
▁결 여
▁태 화
▁돌 널
▁윤 지
▁암 수
▁능 률
▁맞 아들
▁누 비
▁녹 말
▁탄 력
▁22 0
▁족 자
▁교통 부
▁159 7
▁획 기
▁엄격 히
▁펼쳐 져
▁화사 석
▁놋 쇠
▁목조아미타 여래좌상
▁기숙 사
▁ d
▁ 方
▁ 邑
▁ 샌
▁ 샛
▁ 엷
뜨 려
뿌 리
음 화
중 경
통 보
풍 군
▁지 켰
▁대 거
▁도 합
▁조 총
▁문 터
▁장 국
▁국 초
▁화 공
▁영 릉
▁양 평
▁진 설
▁종 부시
▁역 점
▁초 당
▁노 수
▁천 체
▁박 순
▁판 목
▁참 찬
▁향 유
▁설립 자
▁옥 구
▁폭 력
▁노동 당
▁싸 워
▁서양 화
▁모여 들
▁여래 상
▁멸 치
▁깃 대
-- --
▁심청 가
▁강수 량
▁돈녕 부
▁갑신 정변
▁장현 광
▁이데 올
1 9
▁ 밋
▁ 좇
별 감
어 업
질 러
초 상
▁고 난
▁고 상
▁수 은
▁신 입
▁면 천
▁소 산
▁구 월
▁편 차
▁거 쳤
▁계 류
▁양 원
▁안 개
▁초 장
▁분 비
▁노 정
▁규 방
▁감 수
▁증 언
▁농 작물
▁체 하
▁홍 콩
▁효 경
▁환 인
▁널 무덤
▁쌓 여
▁습 니다
▁농민 군
▁세자 시강원
▁얹 혀
▁아무 리
▁177 6
▁번식 지
▁제국 주의
▁고양 시
레이 션
▁외래 어
▁무령 왕릉
▁체아 직
▁단국 대학교
▁이데올 로기
계 몽
보 상
숭 이
요 일
자 본
▁고 속도로
▁한 족
▁가 자
▁지 물
▁사 병
▁대 내
▁대 명사
▁도 미
▁보 부
▁상 형
▁해 져
▁연 하
▁소 대
▁장 진
▁선 호
▁통 할
▁평 강
▁출 산
▁추 봉
▁백 호
▁박 람회
▁변 성
▁복 엽
▁판 대공
▁절 약
▁칸 통
▁채 굴
▁순 경
▁열 람
▁옥 중
▁능 주
▁십 자
▁휴 양
▁균 역
▁회원 국
▁극락 보전
▁갈라 진
▁172 8
▁나와 서
▁펴 낸
▁소작 료
▁가야금 산조
▁이탈 리아
▁아궁 이
▁간석 지
▁정대 업
국 제
촉 지인
치 기
혜 왕
▁이 회
▁지 불
▁그 쳤
▁조 소
▁일 직
▁주 시
▁문 어
▁공 문
▁장 고
▁장 주
▁국 외
▁남 궁
▁호 군
▁단 축
▁미 약
▁왕 인
▁금 천
▁감 축
▁충 혜왕
▁독 무덤
▁판 벽
▁요 직
▁근 육
▁황 태자
▁포 작
▁홍 만
▁환 도
▁국민 당
▁낙 향
▁망 주석
▁옮겨 져
▁메 밀
▁맹 세
▁우물 천장
▁뚜렷 이
▁융 합
청년 단
▁해남 군
▁통영 시
▁강진 군
▁명확 히
▁후계 자
▁항마 촉지인
▁서서 히
▁효령 대군
란 드
병 희
지 평
타 기
학 원
▁의 용
▁도 동
▁그 럼
▁조 서
▁전 매
▁부 실
▁서 의
▁비 옥
▁원 지
▁현 직
▁오 전
▁안 현
▁진 신
▁분 파
▁회 양
▁법 흥
▁속 악
▁약 용
▁복 시
▁총 체
▁좌 윤
▁풍 조
▁귀 의
▁손 목
▁취 미
▁능 동
▁누 르
▁고구 마
▁헌 가
▁버 려
▁광주 시
▁혜 공
▁왼 편
▁압 도
▁학술 지
▁139 1
▁36 0
▁종친 부
▁제헌 국회
▁가벼 운
도 총
마 립간
산 고
신 화
양 성
유 지
▁이 발
▁어 민
▁대 법
▁그 냥
▁수 역
▁조 일
▁정 법
▁중 류
▁서 법
▁위 대
▁신 대
▁신 지
▁상 가
▁내 린다
▁후 신
▁남 벽
▁원 초
▁김 굉
▁오 수
▁오 광대
▁강 세
▁각 시
▁청 국
▁목 회
▁병 진
▁총 수
▁순 화
▁홍 명
▁못 해
▁허 위
▁환 상
▁이상 정
▁국민 회
▁견 디
▁잠 재
▁벗 어난
▁즐 겁
▁전반 기
▁체육 관
▁레 코드
▁160 4
▁최대 한
▁ᄉ ᆞ
▁실상 사
▁두꺼 비
▁증산 교
▁상록 수
▁김규 식
▁도원 수
▁편집국 장
▁ 윷
공 장
승 선
자 법
▁이 구
▁이 불
▁전 차
▁제 휴
▁정 일
▁와 룡
▁주 몽
▁상 회
▁소 성
▁세 브
▁모 스크
▁방 정
▁함 안군
▁본 초
▁추 존
▁직 지사
▁돌 파
▁묘 정
▁토 의
▁대학 생
▁누 에
▁군사 력
▁시가 지
▁넘 치
▁새겨 졌
▁몰 아내
▁욕 심
▁펼 쳤
▁공화 당
▁박세 채
▁안중 근
▁정묘 호란
▁쪄 서
▁지장시왕 도
▁ 事
▁ 成
▁ 멈
기 신론
자 보
잡 기
팝 나무
화 기
▁이 극
▁의 빈
▁하 이
▁가 섭
▁기 습
▁위 만
▁신 미
▁모 친
▁비 녀
▁명 소
▁남 천
▁선 후
▁김 효
▁영 지
▁오 지
▁통 정대부
▁각 주
▁분 해
▁실 로
▁평 의원
▁목 탑
▁천 재
▁반 점
▁북 로
▁용 서
▁감 초
▁태 우
▁별 제
▁- ,
▁커 지
▁웅 천
▁162 4
▁141 4
▁신중 탱화
▁신석 기
▁험 준
▁권상 하
▁정읍 시
▁화살 촉
▁김대 중
▁구석 기시대
▁서장 관
▁으리 라고
▁ 後
▁ 萬
남 북
마 디
와 집
탑 비
판 본
평 사
현 리
▁다 져
▁지 봉
▁사 향
▁대 둔
▁대 제
▁수 막새
▁조 왕
▁전 조
▁전 람회
▁나 간다
▁관 식
▁신 익
▁동 상
▁구 양
▁남 종
▁마 곡사
▁형 무소
▁진 부
▁건 봉사
▁평 범
▁민 화
▁추 수
▁변 론
▁변 질
▁약 탈
▁송 환
▁황 룡
▁번 성
▁중앙 군
▁능 인
▁후반 기
▁140 5
▁생긴 다
▁화성 시
▁옥신 석
▁내세 우
▁내세 워
▁합성 어
▁당악 정재
▁편년 체
▁원삼 국시대
▁곁들 여
▁양어 깨
▁ 잿
고 루
김 씨
도 면
루 미
소 장
저 리
▁이 도
▁이 득
▁하 반
▁대 역
▁그 간
▁시 강원
▁아 연
▁보 태평
▁중 퇴
▁서 열
▁나 선
▁관 객
▁월 령
▁동 강
▁성 재
▁연 쇄
▁소 음인
▁구 들
▁장 산
▁내 밀
▁명 백
▁거 니와
▁진 여
▁실 례
▁약 효
▁심 문
▁채 광
▁범 인
▁산업 단지
▁버 선
▁습 속
▁올라 와
▁준다 는
▁동국 세시기
▁139 8
▁가락 국
▁도리 어
▁영남 지방
▁66 0
▁뚜껑 돌
▁천자 문
▁도화 서
▁동명 왕
▁사로 잡
▁여민 락
e l
▁ 벤
다 라니
마 사
서 당
쌓 기
육 각
육 나한
▁의 뢰
▁고 로
▁가 상
▁수 작
▁일 부분
▁보 양
▁주 현
▁문 호
▁상 수
▁상 시
▁면 역
▁소 외
▁만 난
▁공 파
▁장 마
▁비 장
▁권 선
▁권 씨
▁무 려
▁원 동
▁원 상
▁간 절
▁종 군
▁목 관
▁노 고
▁민 생
▁출 세
▁추 출
▁봉 선
▁직 능
▁직 위
▁복 각
▁황 기
▁연구 자
▁순 위
▁식 생
▁별 세
▁취 해
▁흥 보
▁기둥 머리
▁올라 간
▁밤 나무
▁묵 서
▁경사 진
▁덧 널무덤
▁주자 학
▁약사 전
▁흘러내 린
▁해수 욕장
▁신간 회
▁김부 식
▁ 람
▁ 멧
기 획
도 서
약 사
영 사
정 운
치 산
회 통
▁의 흥
▁사 내
▁사 분
▁대 연
▁시 식
▁제 지
▁자 급
▁아 사
▁서 책
▁관 속
▁유 례
▁상 궁
▁상 투
▁동 대
▁개 업
▁해 평
▁장 미
▁며 칠
▁호 의
▁우 동
▁현 과
▁단 과
▁양 서
▁생 생
▁삼 보
▁청 한
▁판 독
▁절 제사
▁귀 한
▁항 해
▁드 디어
▁밑 바닥
▁희 미
▁돌아 갔
▁강원도 관찰사
▁란 스
▁엄 밀
▁빈 곤
▁등지 느러미
▁움 집
▁액 수
▁펼 치
▁대승 기신론
▁영동 군
▁공예 품
▁명성 황후
스토 크
▁이왕 직
밀직 사사
▁곽재 우
▁ ᅳ
▁ 北
공 부
방 사
조 각
탈 춤
패 총
행 록
형 동
▁이 룰
▁이 복
▁의 성군
▁은 제
▁기 예
▁기 축
▁시 세
▁제 현
▁정 역
▁보 육
▁상 한
▁해 진다
▁세 무
▁모 티
▁후 임
▁호 화
▁무 거운
▁산 면
▁오 세
▁단 락
▁진 휼
▁종 조
▁삼 지
▁바 꾼
▁평 하
▁회 수
▁북 상
▁판 화
▁농 약
▁황 토
▁총 사령
▁담 보
▁팔 상
▁침 엽
▁침 탈
▁낙 산사
▁노동 요
▁망 하
▁신문 왕
▁지리 서
▁납 북
▁159 3
▁군자 감
▁수산 업
▁서식 지
▁지표 조사
▁봉화 군
▁천안 시
▁영광 군
▁보은 군
▁무너 져
▁조그 마
▁ 쑤
곡 서원
덩 굴
롤 레타
르 트
배 우
빙 고
▁고 직
▁여 타
▁수 궁
▁조 산
▁제 차
▁유 황
▁연 명
▁구 매
▁만 기
▁공 조참의
▁내 걸
▁발 의
▁당 원
▁종 간
▁초 헌
▁집 결
▁표 본
▁결 집
▁속 기
▁태 음
▁병 종
▁복 심
▁농 구
▁교육 학
▁좌 승지
▁홍 계
▁홍 원
▁홍 재
▁번 조
▁윤 보
▁독립 당
▁널 길
▁퇴 락
▁패 총
▁188 9
▁직업 훈련
▁엿 보인다
▁퍼 지
▁사헌부 지평
▁김제 시
▁한림 학사
▁구미 시
▁구석 기
▁반원 형
롤레타 리아
▁ 龍
구 락부
시 장
원 류
제 비
치 마
통 사
▁은 둔
▁지 관
▁여 가
▁부 군
▁정 태
▁아 메
▁보 아지
▁동 참
▁성 상
▁연 중
▁장 문
▁원 구
▁원 유
▁마 천
▁현 세
▁당 호
▁산 현
▁함 축
▁석 영
▁미 수
▁임 대
▁용 재
▁용 해
▁박 탈
▁약 성
▁달 구
▁교육 인
▁체 류
▁황 보
▁완 주군
▁폐 하
▁자료 집
▁십 장
▁0 4
▁받침 대
▁흑 백
▁201 4
▁아시아 경기대회
▁창녕 군
▁꺾 이
▁케 이
▁의자 왕
▁산란 기
▁짜임 새
▁뽕 나무
▁중공 군
▁인플 레이션
o s
▁ 明
▁ 덴
月 日
나 비
막 이
보 건
저 고리
점 사
▁이 채
▁다 방
▁어 망
▁로 움
▁사 옹
▁시 련
▁정 년
▁경 운
▁들 려
▁신 통
▁상 쇠
▁성 화
▁모 심
▁발 목
▁후 사
▁형 체
▁강 렬
▁양 광
▁미 세
▁미 친
▁추 격
▁반 찬
▁금 주
▁집 합
▁봉 천
▁입 수
▁죽 산
▁죽 임
▁항 의
▁흥 덕
▁벌 인
▁탈 취
▁흑 룡
▁201 5
▁고등 여학교
▁택 지
▁흉 배
▁179 6
▁○ ○
▁공통 점
▁언해 본
▁두드러 진
▁화순 군
▁젓 대
▁이리 하여
▁산청 군
▁일주 문
▁서거 정
검찰 청
e t
i l
▁ b
▁ 漢
거 세
로 움
로 지
봉 집
불 상
원 지
춧 가루
▁이 집
▁지 령
▁어 리석
▁대 산
▁대 악
▁조 예
▁중 재
▁서 흥
▁관 보
▁문 기
▁공 시
▁모 퉁이
▁내 관
▁학 칙
▁원 주시
▁현 왕
▁설 한
▁산 실
▁안 타
▁생 식
▁생 김새
▁군 선
▁바 쳐
▁재 목
▁재 외
▁왕 도
▁백 암
▁물 체
▁승 무
▁승 화
▁저 수
▁복 두
▁송 악
▁홍 문
▁식 생활
▁품 격
▁온 전
▁타 격
▁곡 조
▁혼 동
▁국립 경
▁격 조
▁돌아 보
▁버 섯
▁상대 편
▁싸 리
▁동지 사
▁전라도 관찰사
▁배우 자
▁돋 보인다
▁장기 간
▁웃 음
▁밀직 사
▁살림 집
▁급속 히
2 0
r a
극 락
륵 사
오 행
일 구
작 가
적 자원부
총 록
출 판
하 나
▁이 겨
▁다 채
▁기 전
▁어 로
▁어 릴
▁사 월
▁일 당
▁제 련
▁동 면
▁발 상
▁무 의
▁마 비
▁당 연히
▁강 산
▁강 역
▁안 강
▁본 교
▁본 디
▁청 천강
▁천 성
▁천 정
▁회 보
▁처 자
▁북 벽
▁규 탄
▁외 무부
▁결 핵
▁충 정
▁속 해
▁판 윤
▁요 역
▁치 장
▁귀 향
▁죽 였
▁윤 관
▁훈 계
▁찬 한
▁울 음
▁0 3
▁깊 숙
▁전시 과
▁중생 대
▁가져 온
▁종묘 제례악
▁145 7
▁민사 소송
▁교육인 적자원부
▁ 六
갈 나무
그 마
니 즘
도 경
묘 지
벚 나무
예 수
오 례의
음 식
제 일
지 리지
▁기 녀
▁사 발
▁조 양
▁정 창
▁아 파
▁경 시
▁주 벽
▁유 능
▁신 창
▁상 산
▁동 관
▁소 급
▁구 금
▁화 해
▁화 훼
▁불 복
▁진 골
▁각 처
▁작 법
▁재 차
▁노 란
▁처 장
▁박 연
▁매 몰
▁직 제학
▁판 정
▁총 리
▁필 리
▁담 수
▁합 법
▁쓰 임
▁씨 앗
▁급 히
▁지나 가
▁메 주
▁서양 식
▁187 2
▁139 5
▁디 지
▁둘러싸 인
▁비밀 결사
▁하동 군
▁강습 소
▁이항 복
▁금석 문
▁석곽 묘
▁국립경 주박물관
▁ 子
▁ 꿇
동 지
어 미
▁도 명
▁수 소
▁조 령
▁보 우
▁중 산
▁경 중
▁주 막
▁신 규
▁문 왕
▁상 언
▁라 든가
▁구 강
▁무 반
▁무 효
▁원 망
▁원 추
▁영 물
▁당 주
▁양 현
▁각 색
▁군 제
▁군 산시
▁배 당
▁백 토
▁용 법
▁용 연
▁차 출
▁달 마
▁절 제
▁합 주
▁귀 환
▁품 직
▁편찬 자
▁울 주군
▁자유 시
▁잠 입
▁징 계
▁가르 쳐
▁밤 색
▁코 리아
▁음식 물
▁수원 시
▁거주 지
▁45 0
▁울산 광역시
▁161 3
▁서산 대사
▁정경 세
▁신당 서
▁최소 한
▁밋 밋
▁ 벙
▁ 홉
가 짐
군 정서
당 주
당 초
대 총
덕 수
심 판
일 으
자 전
정 청
제 자
천 서원
▁이 번
▁하 북면
▁고 비
▁기 적
▁사 초
▁여 사
▁도 주
▁수 재
▁수 로왕
▁전 편
▁부 작
▁중 중
▁와 당
▁서 강
▁주 방
▁주 봉
▁들 판
▁연 월일
▁모 았
▁모 함
▁명 호
▁남 단
▁불 정
▁영 재
▁당 면
▁거 느
▁거 름
▁강 호
▁양 민
▁분 노
▁분 업
▁말 려
▁석 수
▁반 월
▁대한 인
▁백 일
▁용 역
▁최 저
▁증 서
▁절 개
▁근 심
▁허 균
▁맞 춘
▁옛 터
▁균 등
▁카 프
▁구름 무늬
▁불러 일으
▁지장보살 상
▁붕 당
▁169 4
▁국무 위원
▁강력 히
▁K BS
산대 놀이
▁본향 당
▁선혜 청
▁邑 誌
▁법흥 왕
▁필리 핀
▁ 史
▁ 林
▁ 귤
관 광
농 업
말 로
무 공
비 어
사 고
석 주
소 득
쓰 기
우 스
일 원
정 동
지 황
▁이 적
▁시 용
▁전 재
▁정 이
▁서 독
▁된 장
▁유 방
▁상 통
▁상 훈
▁성 심
▁성 덕왕
▁소 인
▁화 북
▁간 추
▁산 호
▁강 인
▁통 권
▁안 수
▁종 두
▁종 장
▁함 량
▁민 물
▁민 전
▁출 장
▁배 흘림
▁입 히
▁태 권
▁참 기름
▁토 사
▁궁 녀
▁급 한
▁생산 력
▁버 린다
▁퇴 임
▁양성 소
▁아랫 방
▁음양 오행
▁장흥 군
▁경북 대학교
▁시무 외
▁낱 말
▁성북 구
▁세미 나
▁모스크 바
▁디지 털
고 적
련 암
▁은 입사
▁고 친
▁사 묘
▁조 교
▁전 날
▁전 송
▁서 산시
▁나 팔
▁유 중
▁연 일
▁만 국
▁장 터
▁조선 문
▁조선 문학
▁교 당
▁명 랑
▁명 필
▁남 려
▁남 평
▁김 방
▁김 약
▁강 강
▁강 주
▁양 장
▁바 가지
▁분 당
▁미 비
▁노 회
▁예 하
▁변 호
▁승 병
▁한국 사
▁판 중추부사
▁황 희
▁쓰 일
▁품 위
▁악 조
▁섬 진강
▁힘 든
▁십 이
▁퇴 화
▁민주 공화당
▁영화 제
▁벼 루
▁번역 본
▁139 0
▁극락 왕생
▁탕 평
▁안성 시
▁여섯 째
▁괘불 도
▁송병 선
▁과수 원
▁홍경 래
▁대아 찬
▁ 氏
경 소
성 리
헌 문집
황 색
▁고 깔
▁가 집
▁지 소
▁지 청
▁대 출
▁제 천시
▁정 충
▁정 취
▁서 찰
▁유 년
▁신 목
▁신 행
▁동 체
▁개 작
▁성 군
▁소 모
▁장 릉
▁모 를
▁비 좌
▁발 현
▁명 제
▁호 형
▁무 너지
▁당 굿
▁거 신
▁양 대
▁종 유
▁행 수
▁창 사
▁민 원
▁예 학
▁반 석
▁했 으므로
▁북 간
▁용 대
▁최 선
▁최 창
▁점 수
▁절 경
▁하나 하나
▁급 하
▁흥 해
▁애 용
▁넓 혀
▁시설 물
▁버 들
중앙 연구원
▁23 0
▁사무 국
▁26 0
▁제조 법
▁몰 두
▁둘러 져
▁꼭 두
▁남양 주시
▁여의 두
▁으리 라
협동 조합
▁한국학 중앙연구원
▁장명 등
▁할지 라도
▁보허 자
▁팔관 회
▁ 墓
▁ 롯
▁ 펜
계 집
광 복
버 스
종 택
항 리
호 텔
▁이 휘
▁은 해사
▁고 달
▁고 식
▁가 묘
▁기 조
▁사 나
▁대 패
▁인 륜
▁조 원
▁조 준
▁조 참
▁등 산
▁전 락
▁정 심
▁아 카
▁서 관
▁신 공
▁신 세
▁장 중
▁편 하
▁교 조
▁무 술
▁원 기
▁원 숭이
▁김 천시
▁형 세
▁오 량
▁양 육
▁방 학
▁종 대
▁평 상
▁반 듯
▁직 관
▁독 주
▁요 하
▁총 융
▁윤 선도
▁피 살
▁타 악기
▁경제 기획
▁업 계
▁투 박
▁전통 문화
▁수행 자
▁0 6
▁굴 도리
▁압 박
▁후반 부
▁아랫 면
▁사라 져
▁127 5
▁고흥 군
▁친일 파
▁삼현 육각
▁삿 갓
▁의열 단
▁경제기획 원
▁ 無
길 도
더 기
번 에
변 상도
장 어
지 성
▁이 철
▁고 름
▁가 질
▁대 야
▁여 럿
▁인 경
▁전 근대
▁일 수
▁정 악
▁아 님
▁아 호
▁중 경
▁위 사
▁관 노
▁신 덕
▁신 이
▁문 형
▁만 록
▁국 상
▁교 란
▁발 하
▁명 대
▁남 만
▁화 목
▁화 염
▁간 편
▁각 광
▁방 조
▁재 야
▁실 권
▁미 생물
▁청 백
▁뒤 이
▁금 위영
▁표 명
▁속 명
▁파 진
▁잡 역
▁홍 산
▁못 함
▁윤 기
▁질 의
▁익 사
▁긴 요
▁유학 생
▁몽 산
▁경영 학
▁끼 친
▁유명 무실
▁혈 압
▁욕 망
▁천주교 회
▁136 3
▁장례 원
▁평론 가
영산 회
▁남사 당
▁후박 나무
▁선공 감
▁보부 상
형동 검
▁ 셰
다 수
보 기
불 입상
씨 족
창 의
한 기
황 사
▁기 쁨
▁수 중
▁등 단
▁전 경
▁일 러
▁자 방
▁정 릉
▁정 안
▁보 답
▁경 수
▁상 환
▁장 재
▁장 보고
▁세 울
▁영 신
▁간 이
▁오 랑
▁계 수
▁양 가
▁양 부
▁두 건
▁진 연
▁목 단
▁민 도리
▁출 혈
▁배 천
▁운 흥사
▁박 춘
▁사회 과학
▁합 금
▁합 세
▁육 도
▁맞 춤법
▁벌 레
▁베 푼
▁뒷 벽
▁오른 편
▁옹 기
▁코 끼리
▁비해 서
▁맥 주
▁갈라 졌
▁두루 마리
▁석굴 암
▁주시 경
▁ ­
▁ 뜯
금 속
천 가
층 쌓기
판 암
▁이 혼
▁이 조참의
▁하 룻
▁고 목
▁지 양
▁기 러기
▁대 담
▁도 승
▁인 부
▁인 품
▁전 결
▁전 법
▁정 남
▁중 신
▁중 후
▁중 공업
▁서 첩
▁해 역
▁내 전
▁무 연
▁영 고
▁간 수
▁거 미
▁오 백
▁오 복
▁각 부
▁행 할
▁임 연
▁목 곽
▁예 산군
▁법 호
▁북 진
▁점 복
▁감 행
▁결 탁
▁홍 도
▁줄 여서
▁야 사
▁기능 사
▁난 형
▁드 라마
▁투 각
▁지장 암
▁187 4
도감 의궤
▁가져 다
▁선사 시대
▁보조 국사
▁서정 시
▁모셔 져
▁칙 임관
▁소양 인
▁잣 나무
▁지공 거
▁허튼 층쌓기
▁솟을 대문
▁적벽 가
▁기정 진
▁가선 대부
▁오랑 캐
1 0
농 민
모 란
어 날
은 집
▁인 솔
▁일 광
▁부 민
▁정 례
▁아 치
▁성 중
▁소 현
▁구 락부
▁공 훈
▁교 열
▁내 역
▁후 불
▁선 군
▁김 관
▁김 신
▁현 주
▁거 꾸
▁오 월
▁양 잠
▁종 족
▁삼 군
▁재 지
▁노 랑
▁용 례
▁최 병
▁외 척
▁병 조참의
▁근 친
▁근 사록
▁좌 평
▁이름 난
▁허 준
한다 는
▁리 라
▁울 타리
▁베 틀
▁186 7
▁옹 진
▁비로 자나
▁동남 아시아
▁남해 군
▁붙잡 혔
▁규합 총서
▁치우 쳐
▁선구 자
▁어영 청
장보살 도
▁호성 공신
▁기뻐 하
▁블라디 보
▁ 寶
▁ 神
▁ 禮
▁ 괄
▁ 깬
▁ 낡
동 물
연 극
재 건
지 지
헌 대부
▁이 효
▁고 명
▁고 생
▁한 중
▁도 립
▁그 네
▁수 위
▁주 둥
▁유 출
▁신 륵사
▁라 야
▁동 창
▁연 자
▁구 명
▁화 룡
▁불 문
▁마 제
▁김 흥
▁진 격
▁군 민
▁말 씀
▁실 은
▁평 창군
▁감 로왕도
▁매 출
▁판 도
▁길 가
▁좌 사
▁취 향
▁팔 경
▁타 파
▁이어 진
▁혜 성
▁낭 림
▁고등 과
▁문장 가
▁관음 사
▁혈 통
▁무용 가
▁mm ,
▁형사 소송
▁연등 천장
▁고추 장
▁달아 나
▁백양 사
▁헝 겊
▁대웅 보전
▁예빈 시
▁사옹 원
c h
▁ 碑
릅 나무
벌 레
쏘 기
양 요
정 의
참 배
척 사
▁하 편
▁은 어
▁고 변
▁고 의
▁한 진
▁지 반
▁기 용
▁시 보
▁보 사
▁주 어졌
▁관 지
▁문 전
▁게 임
▁국 교
▁화 두
▁우 윤
▁선 경
▁김 여
▁단 발
▁양 봉
▁양 태
▁건 평
▁실 리
▁청 대
▁평 박
▁노 량
▁예 측
▁활 쏘기
▁요 의
▁황 사
▁담 근
▁순 행
▁손 녀
▁팔 부
▁날 로
▁덕 원
▁읍 내
▁0 2
▁흐 른다
▁동서 남북
▁종사 자
▁179 1
▁보낸 다
▁신사 참배
▁초조 본
▁되돌 아
▁튀 어나
▁어려우 나
▁드나 들
▁규방 가사
▁롯 데
▁하룻 밤
▁거꾸 로
▁ 郡
▁ 重
▁ 잽
공 단
공 예
데 기
리 에
신 사
자 문
적 사
정 언
참 법
▁다 툼
▁을 유
▁기 명
▁여 정
▁도 체
▁등 가
▁전 함
▁자 정
▁정 각
▁정 산
▁중 고
▁유 작
▁신 단
▁신 소설
▁문 익
▁동 당
▁면 세
▁구 세
▁모 본
▁교 토
▁남 송
▁무 위
▁무 죄
▁원 진
▁우 견
▁간 첩
▁산 소
▁산 포
▁역 리
▁특 전
▁재 가
▁실 재
▁미 인
▁외 세
▁태 학
▁직 령
▁묘 청
▁포 식
▁악 귀
▁능 가
▁업 자
▁행정 학
▁숙 박
▁십 육나한
▁착 한
▁압 축
▁답 사
▁시험 장
▁상호 군
▁지배 자
▁전시 관
▁전시 회
▁기하 학
▁수목 원
▁삼각 산
▁추밀 원사
▁입체 감
▁이집 트
▁ 靑
▁ 찐
고 택
나 불
바 탕
상 인
업 자
절 사
청 자
▁다 짐
▁은 율
▁고 립
▁가 부
▁일 각
▁일 설
▁부 경
▁정 양
▁보 시
▁경 화
▁위 조
▁위 층
▁유 추
▁유 점사
▁신 년
▁개 울
▁해 치
▁공 직
▁장 병
▁교 무
▁발 언
▁불 길
▁마 진
▁강 등
▁생 장
▁말 라
▁노 부
▁창 달
▁뒤 따
▁배 분
▁점 판암
▁직 결
▁파 내
▁17 00
▁합 해
▁14 00
▁식 기
▁열 려
▁끝 난다
▁스 런
▁일제 히
▁범 망
▁덕 양
▁행정 부
▁노동 운동
▁터 득
▁퇴 직
▁습 유
▁늘 어져
▁압 송
▁미술 가
▁고유 어
▁162 7
여지 도
▁뇌 물
▁태극 기
▁이인 좌
▁기울 이
▁인류 학
▁137 2
▁중서 시
▁유전 자
▁사간원 정언
▁가면 극
▁쳐들 어
▁ n
네 스코
보 험
사 면
성 전
의 사사
▁의 기
▁한 옥
▁한 원
▁사 량
▁도 지사
▁도 산서원
▁관 우
▁상 도
▁개 마
▁개 창
▁구 한
▁명 실
▁남 명
▁화 개
▁무 등
▁선 재
▁오 페라
▁강 설
▁계 량
▁양 관
▁바 친
▁재 인
▁예 과
▁운 룡
▁최 명
▁태 고
▁직 종
▁심 학
▁농 서
▁참 상
▁절 정
▁옥 포
▁피 고인
▁능 성
▁접 합
▁찬 자
▁익 혔
▁왜 관
▁고분 자
▁골 고루
▁둥 그
▁현대 국어
▁엄 구
▁등장 인물
▁당하 관
▁종사 관
▁정사 각형
▁굵 기
▁충청도 관찰사
▁172 5
▁두루 마기
▁쟁 기
▁175 0
선생 묘
▁임원 경제
▁유인 석
▁불가 피
공화 국
▁과전 법
▁황남 대총
▁면사 무소
▁ 淸
계 단
군 데
신 제
유 상
의 부
장 령
재 단
철 학
▁이 춘
▁다 라
▁고 공
▁한 유
▁가 열
▁지 유
▁기 미
▁수 난
▁수 색
▁제 학
▁적 대
▁아 담
▁아 르
▁아 세
▁중 랑
▁나 성
▁위 도
▁유 숙
▁신 병
▁상 편
▁동 란
▁연 활자
▁공 조참판
▁세 균
▁모 델
▁교 두
▁권 총
▁호 미
▁오 기
▁강 감
▁통 달
▁진 시
▁본 전
▁석 인
▁목 소리
▁입 직
▁변 산
▁속 요
▁복 속
▁달 성군
▁중국 식
▁못 지
▁논 평
▁급 경사
▁침 구
▁담당 관
▁겸 한
▁이루어 질
▁왜 가리
▁뒷 부분
▁진주 성
▁탁 자
▁돋 우
▁피해 자
▁관광 객
▁조합 원
▁정해 져
▁젊 은이
▁보성 전문학교
▁문경 시
▁삼척 시
▁농어 촌
▁이괄 의
▁개태 사
▁굶 주
원종 공신
▁대적 광전
▁ 安
▁ 要
▁ 밧
덕 산
둘 기
방 위
전 기
해 수
▁이 롭
▁한 눈
▁한 동안
▁가 속
▁지 의
▁사 안
▁대 례
▁여 종
▁여 지도
▁도 고
▁시 천
▁부 득
▁자 강
▁자 강도
▁정 미
▁정 황
▁중 첩
▁유 충
▁신 관
▁성 자
▁구 내
▁만 남
▁비 위
▁후 생
▁화 관
▁원 군
▁우 군
▁간 판
▁역 본
▁재 조
▁창 수
▁천 판
▁책 자
▁운 학
▁운 문사
▁박 달
▁외 치
▁승 군
▁필 법
▁순 응
▁귀 면
▁윤 두
▁손 질
▁취 약
▁날 리
▁벽 진
▁막 혀
▁퇴 치
▁세워 서
▁농민 운동
▁옹 주
▁황해도 관찰사
▁서사 무가
▁슬 퍼
▁돌아와 서
▁상공 부
▁군데 군데
▁그럼 에도
▁임원경제 지
▁ 儀
▁ 왈
거 나
염 불
투 자
▁이 은
▁다 분
▁가 맹
▁기 공
▁기 마
▁기 발
▁사 퇴
▁대 위
▁대 선사
▁전 위
▁일 깨
▁부 피
▁보 성군
▁서 봉
▁주 물
▁유 복
▁유 네스코
▁상 점
▁동 주
▁개 론
▁소 변
▁장 난
▁원 명
▁거 문
▁단 양군
▁생 모
▁삼 재
▁노 라
▁예 우
▁예 조참의
▁천 진
▁금 나라
▁표 훈
▁박 헌
▁외 과
▁물 명
▁직 면
▁증 자
▁파 동
▁총 제
▁연구 실
▁치 러
▁죽 림
▁독립 신문
▁스 키
▁친 근
▁훈 몽
▁갑 자
▁산업 체
▁국제 법
▁시켜 야
▁습 관
▁빛 나
▁잃 어버
▁깃 털
▁출입 구
▁178 9
▁순교 자
▁중세 국어
▁삼신 불
▁중중 모리
▁ –
로 회
심 경
은 편
지 리
테 면
현 대
▁에 헤
▁은 은
▁지 팡이
▁어 리
▁대 선
▁전 모
▁일 사
▁부 세
▁보 습
▁경 간
▁관 중
▁상 국
▁라 이
▁동 도
▁연 예
▁명 승지
▁영 관
▁당 제
▁진 열
▁군 웅
▁임 수
▁배 급
▁법 고
▁운 치
▁금 리
▁처 해
▁차 등
▁최 자
▁박 천
▁결 함
▁충 원
▁승 천
▁저 명
▁병 과
▁판 굿
▁새 해
▁절 의
▁향 완
▁채 제공
▁순 사
▁식 구
▁암 류
▁맞 대
▁급 여
▁덕 흥
▁벽 장
▁생산 물
▁0 7
▁석조 비로자나불좌상
▁대청 마루
▁186 3
▁맹 인
▁답 습
▁드러 낸
▁개성 부
▁서재 필
▁I V
▁소득 세
▁기우 만
▁박문 수
▁두려 워
▁이를 테면
▁ ᅩ
▁ 令
▁ 平
▁ 會
▁ 펄
▁ 댕기
문 화사
연 문
옥 사
주 택
탄 전
▁이 온
▁하 곡
▁사 악
▁대 열
▁도 매
▁도 표
▁수 결
▁주 구
▁위 안
▁유 심
▁성 유
▁공 청
▁장 삼
▁비 리
▁무 료
▁원 부
▁우 러
▁마 하
▁영 종
▁당 집
▁오 스트
▁통 보
▁통 천
▁삼 산
▁군 복
▁분 원
▁말 단
▁석 부
▁청 소
▁반 출
▁돌 담
▁복 주
▁판 의금부사
▁16 00
▁송 계
▁송 대
▁송 만
▁총 지
▁육 영
▁옥 과
▁피 침
▁기념 일
▁칠 기
▁북한 산
▁국민 훈장
▁느 리
▁과학 기술
▁띠 살문
▁봄 철
▁섞 인
▁136 1
▁구연 부
▁군부 대
▁임경 업
▁경순 왕
▁런 던
▁후삼 국
▁백과 사전
▁아파 트
▁대한인 국민회
▁잽 이
해수 욕장
▁ 地
▁ 小
▁ 時
▁ 횃
교 구
술 래
자 집
젤 레스
집 성
철 도
청 정
총 화
▁이 무
▁기 피
▁여 창
▁도 진
▁적 의
▁보 광사
▁중 방
▁중 도리
▁주 공
▁관 대
▁성 신
▁연 고
▁연 초
▁구 가
▁단 서
▁양 복
▁안 종
▁진 수
▁삼 공
▁특 파
▁석 촉
▁노 원
▁배 기
▁회 갑
▁백 로
▁금 령
▁용 뉴
▁박 재
▁m g
▁매 각
▁외 연
▁승 통
▁심 포
▁증 강
▁향 수
▁총 본
▁씨 름
▁즉 흥
▁허 전
▁능 호
▁맞 은편
▁발전 기
▁막 새
▁응 진전
▁0 8
▁그림 자
▁빈 민
▁186 1
▁동지 회
▁청년 운동
▁구릉 지
▁160 3
▁네모 꼴
▁공산주의 자
▁농림 부
▁세습 무
▁107 6
관음 도
▁예성 강
▁ 齋
공 연
때 로
륜 산
차 림
▁지 국
▁사 귀
▁대 북
▁도 회
▁인 증
▁시 구
▁조 익
▁자 랐
▁자 명
▁서 연
▁유 색
▁동 음
▁성 가
▁성 호
▁소 나
▁소 이
▁공 평
▁세 액
▁명 월
▁원 회
▁원 성왕
▁우 애
▁선 동
▁단 련
▁강 대
▁안 락
▁실 효
▁임 나
▁추 앙
▁저 하
▁증 식
▁길 재
▁토 호
▁체 력
▁황 도
▁죽 령
▁환 율
▁암 사
▁투 구
▁폭 로
▁음악 인
▁27 0
정부 주의
▁지휘 자
▁168 0
▁맞배 집
선생 문집
▁계단 식
▁도호 부사
▁장독 대
i t
o p
▁ v
▁ ᄐ
▁ 叢
▁ 月
각 국사
교 사
국 가
리 사
목 판
산 수
오 염
요 람
지 구
축 제
형 제
▁이 숙
▁이 안
▁다 진
▁고 생대
▁사 세
▁여 진다
▁조 중
▁일 산
▁일 일
▁제 중
▁정 회원
▁서 성
▁경 자
▁관 악
▁유 록
▁유 족
▁성 덕
▁연 사
▁장 용
▁국 전
▁때 때로
▁모 리
▁모 른다
▁권 농
▁우 호
▁거 류
▁오 줌
▁특 질
▁재 편
▁평 해
▁천 만
▁출 처
▁추 적
▁배 율
▁박 중
▁매 석
▁승 계
▁죽 인
▁손 병희
▁허 구
▁타 고
▁극 대
▁경제 협력
▁야 마
▁낙 서
▁탄 소
▁탈 퇴
▁외국 환
▁끼 치
▁코 스
▁잎 자루
▁영산 재
공업 고등학교
▁퍼 졌
▁161 0
▁사헌부 장령
▁지신 밟기
▁장안 사
▁천마 총
▁무연 탄
▁블라디보 스토크
▁ ᅡ
▁ 行
▁ 횟
걸 리
러 워
산 림
세 다
어 내
일 록
종 합
▁이 몽
▁이 소
▁이 팝나무
▁하 남
▁어 학회
▁사 구
▁조 관
▁정 령
▁정 할
▁아 가
▁중 상
▁유 부
▁3 000
▁해 부
▁소 종
▁구 애
▁공 제
▁장 복
▁세 마
▁무 조
▁선 우
▁설 날
▁당 좌
▁산 양
▁오 자
▁오 로지
▁강 목
▁진 력
▁진 법
▁특 사
▁실 명
▁창 안
▁예 장
▁회 군
▁최 인
▁외 화
▁약 초
▁잡 석
▁열 강
▁품 인
▁준 수
▁곡 산
▁정치 학
▁벽 사
▁내려 왔
▁공사 관
▁메 이지
▁꾸 밈
▁찾아 오
▁부장 품
▁밝혀 진
▁사단 법인
▁물리 쳤
▁수산 물
▁간략 히
▁소작 농
▁병조 좌랑
▁펼쳐 진
▁중화 학
▁클 럽
▁언행 록
▁ 七
▁ 長
▁ 韓
들 여
뜨 린
맞 춤법
밤 나무
전 집
트 기
▁에 이
▁대 당
▁전 속
▁전 퇴
▁일 곽
▁와 세다
▁위 함
▁관 성
▁신 종교
▁성 의
▁성 하
▁조선 족
▁권 신
▁발 가락
▁양 덕
▁안 국
▁추 서
▁반 지
▁백 석
▁금 릉
▁금 화
▁북 극
▁집 집
▁최 윤
▁입 자
▁입 춘
▁외 가
▁속 초
▁태 상
▁병 증
▁토 막
▁사회 상
▁귀 갑
▁갈 대
▁마을 굿
▁자연 환경
▁막 대기
▁망 월
▁전해 진
▁둥 지
▁프 롤레타리아
▁옮겨 온
▁목조 건축
▁민간 인
▁한글 맞춤법
▁뿌 려
▁187 9
▁탐 사
▁짜 리
▁빼 어난
▁태종 무
▁기울 여
▁달라 진다
노동 조합
▁칙 령
▁무량 사
▁그만 두
▁전등 사
▁앞장 섰
반야 바라밀
▁다분 히
M CA
▁ 唐
▁ 誌
▁ 귓
▁ 링
교 서
군 사
상 업
성 면
시 사
시 형
영 언
은 중경
조 화
평 면
피 나무
▁이 설
▁대 다수
▁수 부
▁제 원
▁부 뚜
▁정 절
▁아 미
▁관 용
▁동 족
▁해 조
▁연 방
▁소 령
▁소 망
▁구 기
▁구 할
▁공 납
▁권 1
▁4 000
▁화 폭
▁원 순
▁김 택
▁현 풍
▁영 농
▁진 통
▁함 창
▁군 비
▁청 아
▁노 승
▁법 도
▁반 상
▁금 수
▁알 칼
▁외 적
▁저 화
▁포 개
▁홍 무
▁철 산
▁철 새
▁조직 체
▁침 전
▁숙 부
▁거쳐 서
▁떨어 졌
▁선생 안
▁성주 군
▁185 0
▁175 9
▁조리 법
▁헛 간채
▁대각 국사
▁계명 대학교
▁나눈 다
▁모티 프
▁강강 술래
▁ 如
▁ 멜
같 이
륜 사
손 가락
장 경
전 보
정 보
행 실
▁한 번
▁가 파
▁지 권
▁인 목
▁시 나리
▁조 업
▁전 도사
▁일 식
▁정 윤
▁아 군
▁중 견
▁중 남
▁서 안
▁경 산시
▁주 원
▁유 파
▁문 의
▁상 선
▁상 아
▁상 평
▁월 대
▁동 질
▁동 탑
▁소 도
▁소 라
▁구 곡
▁구 이
▁명 장
▁후 방
▁선 형
▁마 약
▁당 귀
▁강 회
▁진 로
▁각 계
▁생 도
▁종 종
▁초 순
▁평 리
▁추 방
▁백 인
▁금 보
▁북 향
▁외 벽
▁결 말
▁충 량
▁약 실
▁독 재
▁파 사
▁절 식
▁요 점
▁묘 호
▁송 광
▁송 상
▁잡 이
▁총 명
▁경상 우도
▁올 릴
▁큰 아버지
▁육 자
▁걸 린
▁허 무
▁려 다
▁흥 덕왕
▁접 해
▁끼 웠
▁중간 본
▁답 한
▁괴 롭
▁187 3
▁187 5
▁치료 제
▁관광 지
▁농악 대
▁예조 좌랑
▁국조 오례의
▁향악 정재
▁Y MCA
▁오백 나한
▁시나리 오
께 끼
률 사
성 회
신 편
싱 턴
앗 간
▁이 돈
▁이 삭
▁이 연
▁수 년
▁조 태
▁부 끄
▁부 두
▁주 천
▁소 략
▁국 채
▁내 물
▁학 살
▁화 로
▁호 암
▁무 염
▁원 공
▁산 촌
▁오 음
▁안 병
▁실 장
▁창 성
▁추 사
▁회 향
▁봉 상
▁봉 서
▁최 정
▁속 편
▁농 기구
▁파 계
▁잡 혔
▁치 켜
▁홍 순
▁큰 방
▁조사 단
▁궁 실
▁친 선
▁려 던
▁울 주
▁흑 갈색
▁지나 친
▁대동 여지도
▁숭 정
▁고등 법원
▁경찰 관
▁160 5
▁179 0
▁엿 보
▁168 9
▁끊 이
▁허리 띠
▁꼽 힌다
▁예배 당
▁구례 군
▁강남 구
▁가라 앉
▁김굉 필
▁멈 추
▁ 뺨
▁ 즈음
기 와
달 마
봉 수
선 관
시 마
이 터
잡 지
지 대
찬 성사
칠 정
▁이 숭
▁이 토
▁고 교
▁한 용
▁기 선
▁기 화
▁사 금
▁여 류
▁도 술
▁인 신
▁그 대
▁수 건
▁전 호
▁정 평
▁서 측
▁경 재
▁신 현
▁상 용
▁월 조
▁구 문
▁만 포
▁조선 노동당
▁모 태
▁비 지
▁비 탈
▁명 천
▁무 독
▁원 작
▁우 표
▁간 관
▁간 청
▁산 골
▁오 정
▁강 직
▁종 루
▁따 름
▁군 왕
▁청 어
▁임 정
▁회 백색
▁반 정
▁박 은
▁묘 실
▁근 교
▁더 운
▁살 상
▁식 읍
▁취 입
▁범 람
▁범 일
▁려 다가
▁기념 식
▁혁 대
▁상당 구
▁179 4
▁동아 대학교
문화 연구원
▁타이 어
▁연판 문
▁충무 공
▁판문 점
▁양명 학
▁주세 붕
▁범망 경
▁태종무 열왕
▁ 紀
▁ 義
▁ 숟
▁ 칡
각 화
괭 이
교 위
녕 전
대 도
두 환
레 나무
림 사지
받 이
백 자
사 인
석 기
식 품
야 마
우 기
의 전
활 동
▁이 필
▁어 의
▁대 유
▁여 닫이
▁인 회
▁전 성
▁정 예
▁아 산시
▁경 승지
▁주 리
▁나 당
▁관 악기
▁유 골
▁유 예
▁신 빙
▁문 반
▁문 성
▁상 동
▁면 장
▁조선 혁명
▁교 황
▁비 방
▁학 관
▁원 성
▁선 배
▁김 호
▁영 인본
▁양 로
▁진 급
▁군 장
▁본 집
▁건 원
▁실 렸
▁고려 도경
▁예 식
▁천 변
▁점 포
▁그러 면
▁약 학
▁저 주
▁병 화
▁심 원
▁농 학
▁일본 식
▁근 년
▁황 진
▁나타 날
▁완 주
▁덕 성
▁탄 식
▁패 전
▁빠 짐
▁187 8
▁곽 종
▁대문 채
▁이승 훈
▁통제 사
▁산수 도
▁174 4
▁영월 군
▁기묘 사화
▁윤치 호
▁촘촘 히
▁넉 넉
▁일일 이
▁ j
▁ 九
▁ 曲
▁ 긔
▁ 늑
돌 이
동 생
동 종
목 조
물 산
비 파
안 면
진 사
케 이
평 가
포 도
▁다 도
▁을 까
▁고 모
▁로 다
▁사 민
▁도 면
▁시 일
▁중 층
▁나 그네
▁관 혼
▁유 로
▁동 판
▁동 메달
▁연 정
▁소 전
▁교 하
▁비 음
▁선 부
▁선 풍
▁김 득
▁현 관
▁산 동
▁계 정
▁군 도
▁예 법
▁법 식
▁왕 가
▁금 마
▁용 비어
▁결 산
▁약 방
▁길 쌈
▁토 로
▁황 강
▁총 선거
▁좌 대
▁별 좌
▁윤 음
▁문화 원
▁온 대
▁머 름
▁기념 행사
▁격 려
▁격 물
▁0 9
▁율 령
▁떨어 진다
▁시행 령
▁뛰 어들
▁가까 우
▁동남 향
▁이광 정
▁충렬 사
▁어사 대
▁플 라스
▁경희 대학교
▁우부 승지
▁先 生
▁침엽 수
▁수궁 가
▁용비어 천가
a p
▁ 本
▁ 굉
▁ 똥
▁ 텍
권 력
꺼 번에
농 장
소 사
진 영
향 나무
▁이 신
▁한 꺼번에
▁가 호
▁기 근
▁기 저
▁수 력
▁조 주
▁일 승
▁제 술
▁자 부
▁보 라
▁서 초
▁경 모
▁주 어진
▁나 르
▁개 령
▁개 탄
▁장 전
▁비 약
▁비 전
▁내 금
▁불 감
▁우 음
▁선 별
▁김 좌
▁형 주
▁영 선
▁당 내
▁양 양군
▁진 표
▁방 한
▁노 릇
▁용 모
▁외 명부
▁변 증
▁약 혼
▁직 역
▁직 함
▁저 해
▁농 토
▁참 배
▁요 컨대
▁향 시
▁체 득
▁근 해
▁총 섭
▁좌 선
▁담 양군
▁치 적
▁환 기
▁극 작가
▁사실 주의
▁km .
▁버 무
▁현대 식
▁늘 리
▁찾아 내
▁휘 문
▁사리 원
▁139 4
▁이기 설
▁평화 통일
▁기대 승
▁도량 형
▁대리 석
▁ᄂ ᆞᆫ
▁증보 산림
▁연출 가
국민 당
▁사명 대사
▁U N
▁무량 수
▁창시 자
▁부득 이
▁증보산림 경제
▁ ᄑ
▁ ᅥ
▁ 人
▁ 德
▁ 水
▁ 캘
▁ 폈
더 니즘
령 산맥
미 료
병 마사
차 관
치 주의
▁이 슬
▁은 메달
▁고 마
▁지 으
▁지 전
▁어 문
▁어 학
▁도 랑
▁도 읍지
▁시 리
▁조 어
▁조 제
▁전 봉
▁일 삼
▁중 편
▁관 학
▁신 방
▁상 리
▁상 학
▁동 등
▁동 채
▁장 화
▁남 근
▁무 형
▁현 역
▁산 원
▁계 문
▁역 한
▁군 문
▁행 궁
▁청 렴
▁따라 가
▁박 희
▁태 워
▁태 을
▁심 부
▁포 대
▁서울 대
▁치 수
▁앞 두
▁철 사
▁철 화
▁완 비
▁환 생
▁궁 핍
▁극 진
▁갈 문왕
▁벽 지
▁질 그릇
▁조각 가
▁흥 부
▁애 기
▁갑 인자
▁춘 천시
▁익 힌
▁색 소
▁굴 절
▁대전 회통
▁사단 칠정
▁179 9
▁140 7
▁서경 덕
▁융 성
▁유치 명
▁진사 시
▁이주 하
▁동자 주
▁용인 시
▁문하시 랑평장사
▁대법원 장
▁과도 기
▁인형 극
▁서대문 구
▁강감 찬
▁ o
▁ 周
▁ 城
▁ 忠
▁ 節
▁ 텃
교 섭
대 방
석 원
시 설
올 리
이 다
촌 락
▁다 보
▁하 정
▁은 유
▁으 러
▁한 영
▁가 세
▁기 아
▁기 풍
▁도 계
▁도 자
▁인 계
▁수 박
▁조 우
▁등 사
▁부 왕
▁자 상
▁보 제
▁서 너
▁유 장
▁신 묘
▁신 시
▁문 파
▁동 동
▁동 유
▁동 장
▁동 행
▁연 접
▁공 채
▁장 충
▁세 태
▁무 무
▁무 정
▁우 륵
▁우 체
▁영 춘
▁영 사관
▁산 직
▁거 든
▁강 성
▁양 팔
▁방 물
▁방 패
▁본 위
▁건 륭
▁특 명
▁석 각
▁책 명
▁추 산
▁회 덕
▁백 록
▁금 문
▁용 맹
▁판 형
▁치 른
▁효 험
▁환 웅
▁스 위
▁야 학
▁덕 진
▁졸업 식
▁술 래
▁학생 운동
▁골 방
▁윗 단
▁떠 난다
▁즐 겼
▁상서 좌
▁외교 관
▁정당 문학
▁실업 학교
▁띄 워
▁동아일보 사
▁김도 화
▁조그 만
▁오동 나무
▁옹관 묘
▁법조 인
▁횃 불
▁ 春
▁ 疏
▁ 랴
▁ 쥬
▁ 컬
가 시
회 계
▁다 문
▁다 행
▁고 저
▁도 라
▁도 민
▁시 관
▁전 나무
▁자 궁
▁자 르
▁보 신
▁경 창
▁유 주
▁신 무
▁상 표
▁연 당
▁내 쫓
▁남 당
▁무 복
▁영 가
▁영 기
▁통 틀
▁진 본
▁진 이
▁종 밀
▁삼 월
▁군 집
▁석 고
▁석 류
▁목 민
▁노 후
▁창 문
▁추 이
▁법 장
▁금 사
▁활 달
▁약 자
▁병 역
▁요 체
▁향 직
▁담 채
▁순 안
▁치 유
▁홍 살문
▁귀 왕
▁축 약
▁국가 보
▁효 용
▁협 소
▁협 판
▁줄 어
▁날 아가
▁격 차
▁왜 란
▁베 푸
▁탈 환
▁메 리
▁몰 아
▁정의 부
▁연꽃 잎
▁여래 장
▁영남 대학교
▁168 2
▁이제 마
▁사직 단
▁171 1
▁수문 장
▁수수 께끼
en s
▁만경 대
▁딱 딱
▁일어 날
▁똑같 이
▁덕수 궁
▁북간 도
▁팔부 중
▁ 和
▁ 堂
▁ 옵
만 호
송 리
율 사
은 니
칠 기
▁한 명
▁가 혹
▁가 훈
▁과 감
▁도 드리
▁수 치
▁일 연
▁제 신
▁적 상
▁정 홍
▁경 명
▁주 무
▁위 문
▁상 민
▁상 순
▁상 영
▁월 출
▁개 봉
▁성 찰
▁성 삼문
▁성 직자
▁만 석
▁장 상
▁국 력
▁모 전
▁교 향악단
▁후 금
▁후 일
▁무 도
▁무 안군
▁우 찬성
▁강 우
▁두 산
▁초 등학교
▁천 궁
▁회 도
▁광 의
▁용 성
▁봉 직
▁증 광
▁송 순
▁총 국
▁합 계
▁홍 대
▁홍 제
▁식 료
▁측 간
▁줄 여
▁팔 찌
▁타 락
▁난 징
▁덕 종
▁탄 산
▁가리 켜
▁국어 문법
▁올려 져
▁시위 운동
▁김영 삼
▁64 괘
▁개화 파
▁176 0
▁홍문관 부
▁궤 도
▁퇴적 층
▁빼앗 기
▁알아 볼
▁곰 솔
▁비행 기
▁111 6
▁엇 갈
▁워 싱턴
▁보문 각
▁이라 든지
▁기로 소
▁신재 효
▁대호 군
계몽 운동
▁곽종 석
u n
▁ ᅌ
▁ 同
개 소문
구 결
담 집
대 한
면 적
세 자
스 카
왕 묘
유 설
타 이
헌 유고
▁이 일
▁고 니
▁고 졸
▁고 집
▁한 약
▁한 울
▁지 맥
▁지 화
▁대 원사
▁부 화
▁정 본
▁주 가
▁위 항
▁유 랑
▁유 석
▁유 익
▁동 광
▁동 식물
▁성 터
▁소 부
▁장 형
▁조선 교육
▁비 답
▁우 월
▁당 파
▁강 행
▁계 유
▁안 재
▁삼 청
▁행 운
▁창 주
▁뒤 주
▁책 정
▁배 격
▁배 추
▁용 주
▁변 주
▁승 가
▁복 종
▁판 교
▁판 자
▁토 록
▁송 학
▁황 새
▁가지 런히
▁손 수
▁옥 산
▁옥 황
▁피 우
▁존 립
▁부산 진
▁척 화
▁율 동
▁옆 구리
▁목조 석가
▁올려 놓
▁택 일
▁179 5
▁찰 주
▁169 5
▁181 1
▁향토 사
▁138 9
▁쇄 신
▁거제 도
체육 대회
▁차운 시
▁멍 석
▁나루 터
▁좌부 승지
▁동심 원
씨족 보
▁부뚜 막
▁플라스 틱
a s
▁ 花
▁ 즈
▁ 짤
백 나무
섣 달
오 층석탑
절 목
지 르
편 람
▁이 가
▁고 선
▁지 례
▁기 왓
▁사 벌
▁도 수
▁인 산
▁수 피
▁수 덕사
▁부 칙
▁주 임관
▁관 철
▁유 후
▁라 틴
▁동 신
▁개 폐
▁연 향
▁권 문
▁학 정
▁화 각
▁무 경
▁선 관
▁김 극
▁영 성
▁삼 계
▁역 동
▁청 록
▁임 오군
▁노 천
▁법 부
▁왕 국
▁반 일
▁운 모
▁최 재
▁매 도
▁속 사
▁태 주
▁필 명
▁지역 구
▁열 차
▁논 밭
▁20 5
▁육 전
▁걸 쳤
▁글 귀
▁범 하
▁역사 학
▁밝 힐
▁흥 왕사
▁접 미사
▁문학 부
▁러 일전쟁
▁꽃 받침
▁베 이
▁유사 시
▁28 0
▁201 6
▁끼 쳤
▁안정 복
▁출판 물
▁아름다 워
▁179 2
▁아랫 단
▁185 5
▁남양 주
▁물러 났
▁정인 홍
▁꼽 히
▁노사 나불
▁이항 로
▁돌무지 덧널무덤
▁풍수지리 설
▁파진 찬
▁숟 가락
▁임오군 란
▁ 口
▁ 돗
▁ 싼
국 치
느 티나무
동 고분군
불 사
시 리
질 서
키 와
향 악
▁이 뇨
▁하 례
▁한 배
▁사 류
▁사 생
▁사 하
▁과 천
▁도 목
▁수 어
▁조 림
▁조 봉
▁정 난
▁나 운
▁신 심
▁신 역
▁동 몽
▁동 중
▁연 질
▁연 개소문
▁세 율
▁조선 중앙
▁내 무
▁발 톱
▁화 분
▁불 씨
▁선 장
▁김 헌
▁영 접
▁간 호사
▁오 미자
▁통 고
▁양 안
▁종 헌
▁역 전
▁군 법
▁건 장
▁광 제
▁박 쥐
▁파 업
▁토 우
▁송 곳
▁순 장
▁놓 였
▁문화 상
▁투 기
▁겸 비
▁탄 전
▁맡 기
▁혜 능
▁연주 문
▁낭 독
▁휴 가
▁찾아 와
▁139 3
▁33 0
▁179 7
▁육군 사관학교
▁헤 이
▁끌 어들
▁키 우
▁김창 협
▁진도 군
산업 단지
▁부호 군
▁쾌 자
▁금관 가야
▁두려 워하
장전 산고
▁한결 같이
▁오주 연문
▁김옥 균
행실 도
▁오주연문 장전산고
▁ 젼
▁ 휩
년 명
백 로
법 당
연 기
장 식
▁이 거
▁한 창
▁사 철
▁과 다
▁대 남
▁인 척
▁시 유
▁수 만
▁전 폐
▁일 렬
▁서 동
▁주 진
▁유 혹
▁유 흥
▁상 현
▁동 천
▁면 복
▁소 동
▁소 량
▁소 목
▁국 서
▁교 각
▁권 영
▁권 율
▁내 릴
▁학 풍
▁불 명
▁호 산
▁무 서
▁원 님
▁원 용
▁원 측
▁마 의
▁오 운
▁단 점
▁양 제
▁진 과
▁진 심
▁방 앗간
▁함 정
▁초 사
▁미 처
▁청 문
▁임 성
▁노 년
▁민 보
▁음 수
▁회 청색
▁감 당
▁감 응
▁변 계
▁속 간
▁증 여
▁연구 학교
▁합 본
▁협 간
▁문화 공
▁팔 목
▁누 워
▁난 초
▁덕 유산
▁애 호
▁헌 강왕
▁희 극
▁폭 파
▁규장각 도
▁현대 문학
▁연주 회
▁160 6
▁168 4
▁인민 군
▁팽 이
문화 제
▁끈 다
▁자치 통감
▁잉 태
진흥 청
▁시어 머니
▁농상 공부
▁관형 사
신도 비
▁내금 위
▁ ᅮ
▁ 聖
▁ 黃
▁ 찢
돼 지
란 시
리 포
안 전
올 린
자 유
충 정
통 령
프 트
해 전
흥 창
▁의 숙
▁의 창
▁지 어
▁사 록
▁사 빈
▁사 친
▁여 실
▁여 져
▁시 편
▁수 효
▁전 곡
▁적 개
▁정 숙
▁중 강
▁경 음
▁나 올
▁나 지막
▁관 전
▁상 교
▁동 역
▁해 시계
▁성 운
▁소 반
▁소 엽
▁세 모
▁세 칙
▁권 제
▁명 태
▁무 쇠
▁원 목
▁우 협
▁선 집
▁선 창
▁당 대회
▁거 둔
▁오 봉
▁오 해
▁단 판
▁통 교
▁통 구
▁두 류
▁안 심
▁생 몰
▁본 토
▁특 산물
▁초 엽
▁미 나리
▁예 악
▁배 구
▁반 송
▁반 환
▁운 항
▁감 색
▁약 품
▁태 풍
▁저 포
▁병 리
▁포 유
▁홍 진
▁앞 트기
▁식 산
▁철 강
▁열 기
▁윤 석
▁운동 장
▁피 선
▁팔 도
▁능 통
▁타 개
▁창건 자
▁기념 사업
▁애 창
▁망 인
▁퇴 장
▁척 사
▁탈 해
▁전시 실
▁체육 회
은행 나무
▁178 8
▁서사 시
▁유가 증권
▁합쳐 서
▁꼬리 지느러미
▁협동 조합
▁밀직 사사
▁방사 선
▁천왕 문
▁보령 시
▁지침 서
▁날카 롭
▁오위 도총
▁어우 러져
▁경술 국치
▁반구 형
▁구월 산
▁지봉 유설
▁윤보 선
▁꼭두 각시
▁오위도총 부
▁ 別
▁ 年
가 치
고 가
난 히
날 리
뛰 기
삼 매
우 드
페 인
▁지 은이
▁도 약
▁도 요
▁도 갑사
▁시 강
▁수 당
▁수 림
▁조 망
▁등 극
▁등 분
▁제 군
▁제 형
▁자 운
▁아 헌
▁보 하
▁와 중
▁주 안
▁유 덕
▁월 봉
▁게 송
▁개 제
▁개 풍군
▁성 금
▁성 형
▁연 좌
▁소 각
▁소 태
▁소 환
▁장 한
▁국 무원
▁내 연
▁우 암
▁김 교
▁김 완
▁당 적
▁산 인
▁오 곡
▁오 인
▁오 현
▁안 기
▁진 국
▁방 제
▁본 점
▁행 방
▁석 판
▁석 왕사
▁미 묘
▁미 흡
▁목 련
▁배 례
▁법 무
▁처 우
▁돌 도끼
▁파 랑
▁참 된
▁지방 행정
▁홍 우
▁번 안
▁별 자리
▁육 수
▁옥 천군
▁독립 운동
▁스 테
▁스 트
▁아래 채
▁존 호
▁궁 성
▁궁 이
▁덕 사
▁흥 원
▁출토 품
▁벌 금
▁응 교
▁울 분
▁술 잔
▁부산 시
▁퇴 보
▁201 7
▁시킨 다는
▁휘 모리
▁건너 편
▁즐 길
▁이동 하
▁수출 입
▁179 8
▁178 4
▁트 인
▁비밀 리
▁새겼 으며
▁138 8
▁퇴적 암
▁왕세 손
▁정인 지
▁뜨 거운
▁박영 효
▁기성 회
▁상무 위원
▁좌수 영
▁견문 록
▁쪼 개
▁시청 각
▁신파 극
▁남대 천
▁단발 령
▁여지도 서
▁횟 수
▁문화공 보부
▁앞트기 식
1 2
▁ J
▁ 有
▁ 꽉
▁ 닷
▁ 컨
군 악
근 수
대 리
말 어미
선 문
앤 젤레스
여 성
조 치
출 토
팽 년
호 선
▁의 제
▁한 상
▁지 탱
▁어 전
▁대 모
▁여 느
▁정 용
▁보 륜
▁보 태
▁서 림
▁서 석
▁관 작
▁유 모
▁문 소
▁문 적
▁연 잎
▁연 풍
▁구 당
▁장 성군
▁호 조참의
▁선 묘
▁김 보
▁설 서
▁당 일
▁거 목
▁방 추
▁방 호
▁행 성
▁작 위
▁청 금
▁백 장
▁표 석
▁봉 오리
▁알 선
▁규 찰
▁승 방
▁돌 린
▁참 외
▁송 금
▁담 임
▁순 례
▁취 체
▁옥 천사
▁능 침
▁특별 자치
▁생산 자
▁훈 고
▁희 사
▁돌아 올
▁베 를
▁압 수
▁꾸 짖
▁붉 은색
▁벼슬 길
▁178 1
▁득 도
▁166 0
▁143 4
▁김수 항
▁수양 대군
▁이규 경
▁숫 돌
▁찌 르
▁영원 히
▁봉해 진
▁사절 단
▁께 서
▁정중 부
▁이라 든가
▁서운 관
▁이완 용
▁불꽃 무늬
▁로스 앤젤레스
▁혜공 왕
▁십장 생
▁흑룡 강
▁특별자치 시
o d
▁ 遺
▁ 섰
▁ 얄
가 협회
공 자
꿈 치
반 대
반 수
삼 경
수 찬
수 세보
여 닫이
적 십자
츠 크
층 탑
통 고
▁이 음
▁이 징
▁하 품
▁기 밀
▁과 하
▁대 경
▁도 형
▁조 연
▁제 대
▁아 부
▁보 문사
▁중 계
▁관 정
▁유 하
▁신 영
▁상 수리
▁해 식
▁소 격
▁만 민
▁공 관
▁공 산군
▁장 영
▁세 수
▁비 기
▁명 지
▁무 소
▁원 가
▁원 위
▁선 보
▁마 니
▁김 충
▁오 장
▁양 질
▁방 도
▁종 법
▁석 남
▁임 내
▁배 타
▁운 주
▁운 주사
▁박 치
▁참 조
▁토 축
▁황 석
▁치 국
▁취 사
▁걸 어
▁볼 록
▁흥 사
▁헌 장
▁인물 화
▁겸 사
▁쌍 룡
▁패 션
▁가로 막
▁올라 갔
▁가까 워
▁균 세
▁기와 지붕
▁주체 사상
▁178 6
▁163 7
▁동의 수세보
▁대승 사
가사 유상
▁붕 어
▁청구 영언
▁넘어 서
▁이조 좌랑
▁미군 정청
▁젓 갈
▁무량 수경
▁군기 시
▁비로자나불 상
▁단풍 나무
▁이인좌 의
▁동의수세보 원
▁ X
▁ ᄯ
▁ 舞
네 시아
니 까
목 원
자 재
조 림
지 역
천 집
체 조
추 어
호 분
▁이 간
▁이 과
▁이 직
▁한 기
▁기 편
▁사 평
▁과 업
▁도 난
▁도 평
▁도 라지
▁수 감
▁조 전
▁조 진
▁전 일
▁전 향
▁정 강
▁정 한다
▁보 임
▁관 경
▁관 절
▁연 가
▁연 례
▁연 백
▁세 공
▁세 형동검
▁국 면
▁비 대
▁불 탄
▁마 부
▁김 찬
▁형 조참의
▁계 성
▁계 엄
▁계 지
▁안 향
▁방 장
▁종 료
▁따 온
▁삼 장
▁말 경
▁뒤 퇴
▁광 채
▁처 한
▁표 류
▁박 광
▁박 유
▁입 힌
▁외 사
▁물 음
▁약 소
▁약 주
▁복 호
▁황 정
▁총 부
▁귀 걸이
▁식 별
▁윤 경
▁취 타
▁제작 자
▁소장 품
▁넓 히
▁색 조
▁왜 병
▁척 도
▁넘 기
▁숭 앙
▁연주 자
▁201 8
▁공신 도감
▁족 장
대부 인
▁맹 아
사지 론
▁탐 지
아리 랑
▁앙 화
▁삭 주
▁178 5
▁165 0
▁165 3
▁서남 향
▁섭 취
▁빨 치산
▁숨 겨
▁충실 하
▁올바 르
▁돌아온 다
▁서귀 포
▁초급 대학
▁유격 대
▁화덕 자리
▁을해 자
▁사군 자
▁중서시 랑평장사
▁알칼 리
▁스위 스
i on
▁ 心
▁ 案
▁ 맴
▁ 슴
공 거
교 향악단
당 기
섬 시
와 유고
주 나무
하 리
항 공
행 수
▁이 점
▁고 민
▁기 치
▁사 영
▁시 발
▁시 재
▁조 윤
▁전 상
▁제 가
▁제 갈
▁자 백
▁아 끼
▁경 축
▁나 인
▁상 왕
▁동 고
▁해 미
▁면 병
▁성 토
▁소 란
▁소 청
▁구 봉
▁공 판
▁장 옷
▁편 저
▁비 자나무
▁남 측
▁무 원
▁원 찰
▁우 마
▁선 어
▁현 도
▁오 관
▁양 홍
▁진 명
▁군 서
▁초 산
▁청 성
▁목 과
▁운 율
▁광 구
▁용 머리
▁봉 암사
▁최 세
▁물 푸
▁변 해
▁파 열
▁풍 악
▁철 원군
▁윤 리학
▁관련 자
▁줄 곧
▁맞 닿
▁야 인
▁낙 양
▁갑 산
▁읍 락
▁관직 명
▁마음 대로
▁율 학
▁굴 착
▁엄 숙
▁동지 공거
▁몰 수
▁선교 회
▁흉 내
▁168 1
▁김종 서
▁슬 기
▁다스 려
▁행해 진
▁쓰여 졌
▁145 5
▁동자 상
▁험 한
▁돼지 고기
▁순회 공연
▁아마 추어
▁칠곡 군
▁배재 학당
▁노리 개
▁아메 리카
▁민물 고기
▁출장 소
▁민도리 집
▁중랑 장
▁ 字
▁ 學
▁ 긋
▁ 섣달
배 나무
산 문
아 주
장 이
제 종교
조 개
징 어
화 점
▁이 국
▁의 탁
▁하 현
▁고 독
▁고 임
▁한 사
▁한 수
▁기 제
▁사 종
▁대 천
▁여 음
▁도 우
▁도 해
▁조 대
▁자 마
▁자 택
▁경 매
▁주 둥이
▁위 호
▁관 기
▁관 수
▁동 거
▁해 전
▁소 윤
▁세 관
▁세 입
▁권 중
▁발 동
▁무 이
▁원 화
▁당 의
▁산 타령
▁오 름
▁양 력
▁두 공
▁안 찰사
▁분 실
▁작 살
▁책 상
▁배 신
▁백 낙
▁백 동
▁용 접
▁활 석
▁알 렸
▁외 조
▁승 패
▁복 직
▁길 쭉
▁황 국
▁홍 직
▁데 뷔
▁귀 틀
▁철 릭
▁열 사
▁완 형
▁층 군
▁밀 도
▁벽 암
▁국민 정신
▁네 트
▁보호 구역
▁골 자
▁착 취
▁엄 정
▁한문 소설
▁이수 광
▁이정 구
▁천주교 인
▁146 7
▁애국 가
▁K ore
▁보상 화문
▁샘 물
도량 참법
▁초조 대장경
▁볏 짚
▁소홀 히
▁치제 문
▁제각 기
▁김은 호
▁에워 싸
▁고경 명
▁유향 소
▁북두 칠성
▁거느 린
▁슬퍼 하
▁ ᄏ
▁ 井
▁ 信
▁ 譜
개 량
교 장
붙 이
식 론
애 왕
유 리
지 엄
▁이 능
▁다 물
▁고 백
▁가 인
▁사 략
▁대 진
▁대 나마
▁도 봉
▁도 왔
▁수 증
▁정 찰
▁서 영
▁관 주
▁유 유
▁유 난히
▁문 간
▁성 면
▁연 통
▁구 어
▁구 정
▁공 략
▁공 상
▁권 지
▁발 화
▁남 병
▁불 변
▁무 심
▁무 정부주의
▁현 등
▁현 명
▁영 취
▁설 문
▁강 선
▁통 지
▁계 란
▁진 서
▁군 총
▁특 선
▁행 인
▁목 천
▁천 룡
▁추 장
▁추 종
▁법 안
▁운 암
▁백 남
▁금 단
▁금 줄
▁금 산면
▁봉 군
▁입 단
▁독 려
▁파 란
▁송 신
▁송 영
▁하나 님
▁홍 영
▁홍 성군
▁번 각
▁열 심
▁환 호
▁머 금
▁급 료
▁노동 부
▁응 답
▁내려 졌
▁윗 몸
▁건축 가
▁석조 여래입상
▁예술 가
▁낭 자
▁답 변
▁인도 네시아
▁개항 장
▁개국 원종공신
▁유배 지
▁사라 진
▁185 8
▁161 2
▁대왕 대비
▁171 3
▁183 9
▁유가 사지론
▁예조 정랑
▁배웠 으며
▁98 3
▁무사 히
관리 위원회
▁군량 미
▁나전 칠기
▁여의두 문
▁방조 제
▁빠짐 없이
▁관혼 상제
▁ 生
▁ 眞
▁ 類
▁ 놈
나 가
작 전
장 총록
정 보부
체 시
총 연합회
통 제사
파 일
판 관
푸 스
화 력발전소
▁이 길
▁이 틀
▁은 산
▁고 가
▁고 는
▁고 속도
▁한 경
▁사 흘
▁사 은사
▁대 작
▁인 현
▁수 포
▁전 악
▁일 률
▁부 주
▁부 천
▁자 귀
▁정 응
▁보 낼
▁중 위
▁서 가
▁서 광
▁위 경
▁유 현
▁신 채
▁문 덕
▁상 의원
▁연 적
▁구 심
▁교 련
▁비 축
▁현 인
▁당 사
▁간 선
▁단 구
▁강 약
▁안 압
▁음 사
▁예 불
▁배 쪽
▁회 맹
▁왕 희
▁반 박
▁백 주
▁처 인
▁표 주
▁박 봉
▁활 주
▁매 주
▁승 과
▁판 심
▁증 시
▁죽 간
▁중앙 정보부
▁육 보
▁층 위
▁스 며
▁정부 인
▁누 대
▁벽 파
▁남북 조
▁너 머
▁베 르
▁빈 도
▁32 0
▁풍속 화
▁기반 암
▁앙 서
▁172 0
▁수군 통제사
▁뚫 린
▁빙 렬
▁167 4
▁147 0
▁매장 량
▁화장 품
▁승정원 일기
▁꾸며 져
▁채무 자
▁임실 군
▁위태 천
▁교직 원
▁정여 창
▁신편 제종교
▁용재 총화
당초 문
▁송만 갑
▁신편제종교 장총록
▁ 崇
▁ 慶
▁ 꽤
▁ 낀
▁ 랭
▁ 빵
내 기
대 첩
대 청
라 리
라 미
몽 유록
일 체
통 편
파 동
향 약
▁이 앙
▁하 역
▁한 남
▁기 종
▁여 순
▁적 멸
▁적 진
▁정 온
▁서 점
▁신 교
▁신 교육
▁문 선
▁문 창
▁월 광
▁동 태
▁해 사
▁성 암
▁연 단
▁구 포
▁만 리
▁편 병
▁교 위
▁권 기
▁우 방
▁할 망
▁당 위
▁당 할
▁산 유
▁두 륜산
▁안 택
▁각 별
▁방 석
▁방 책
▁삼 양
▁군 공
▁초 목
▁석 이
▁목 각
▁백 수
▁금 탑
▁금 산군
▁북 벌
▁봉 쇄
▁봉 정사
▁태 세
▁복 설
▁심 도
▁파 상
▁참 소
▁식 힌
▁축 전
▁손 쉽
▁세기 말
▁환 적
▁줄 타기
▁타 협
▁궁 정
▁극 예술
▁대표 단
▁염 소
▁격 상
▁찬 미
▁벌 려
▁옮 길
▁색 동
▁터 로
▁제자 리
▁촌 주
▁괴 석
▁미륵 전
▁유치 진
▁168 3
▁146 9
▁거두 어들
▁생명 력
▁푸 르
▁김상 용
▁184 4
▁182 4
▁아악 부
체육 회
▁강습 회
▁전남 대학교
▁내시 부
▁완도 군
▁낙랑 군
▁이산 가족
▁민정 당
▁흔들 리
▁경희 궁
▁도당 굿
▁예문 춘추관
▁레이 저
▁도순 문사
▁대불 정
양성 소
▁무등 산
▁박헌 영
▁안압 지
▁ 松
▁ 셩
데 미
무 량
빼 미
산 지
성 이
야 식
위 생
자 회
작 법
할 아버지
▁하 성
▁지 분
▁과 연
▁시 론
▁조 두
▁전 고
▁자 처
▁정 점
▁아 나
▁보 발
▁경 진
▁주 동자
▁관 가
▁관 명
▁관 조
▁유 근
▁신 변
▁문 한
▁라 며
▁성 묘
▁소 통
▁구 와
▁구 토
▁구 휼
▁구 렁이
▁공 감
▁장 항
▁조선 청년
▁모 더니즘
▁내 구
▁내 자
▁남 로
▁남 아
▁호 림
▁무 방
▁무 주군
▁원 제
▁마 전
▁김 춘
▁형 방
▁간 살
▁간 쟁
▁거 관
▁계 발
▁역 참
▁건 져
▁목 마
▁예 시
▁법 주
▁운 산
▁백 발
▁금 어
▁박 대
▁점 성
▁감 관
▁변 소
▁변 조
▁변 함
▁한국 불교
▁파 라
▁파 이
▁길 군악
▁향 음
▁근 신
▁근 접
▁귀 하
▁별 군
▁글 로
▁아래 위
▁곡 용
▁자연 주의
▁담당 자
▁낙 성
▁헌 관
▁사상 가
▁연대 순
▁찬 란
▁벌 채
▁색 인
▁경영 자
▁경성 부
▁낭 비
▁붙여 졌
▁횡 단
▁놀 음
▁갈라 져서
▁176 4
▁171 2
▁대리 인
▁흩 어지
▁봉산 탈춤
▁방사 성
▁울진 군
▁조계 산
▁ᄌ ᆞ
▁위만 조선
▁한원 진
▁개마 고원
▁상서좌 복야
▁ f
▁ 木
▁ 玉
▁ 벅
국 수
단 자
덜 란드
둔 전
묘 법연화경
별 산대놀이
산 기
세 서
소 이
유 예
재 해
축 산
▁이 빨
▁이 차
▁고 영
▁고 온
▁지 은
▁사 포
▁도 토리
▁시 굴
▁수 라
▁조 하
▁전 단
▁전 립
▁일 무
▁자 하
▁아 쉬
▁서 시
▁서 후
▁서 천군
▁위 급
▁위 세
▁유 소
▁신 해
▁소 총
▁장 작
▁모 계
▁교 예
▁권 공
▁명 경
▁무 릉
▁마 도
▁김 의
▁거 둥
▁오 구
▁양 조
▁안 무사
▁역 로
▁작 문
▁재 종
▁석 교
▁청 평
▁청 산리
▁음 영
▁추 기
▁배 역
▁백 산
▁봉 업
▁최 석
▁박 규
▁점 진
▁저 변
▁파 장
▁채 운
▁잡 영
▁육 경
▁악 극단
▁경제 력
▁급 찬
▁난 대
▁나무 숲
▁네 덜란드
▁염 전
▁숙 련
▁벌 어져
▁쇠 약
▁빈 객
▁짓 소리
▁성주 사
▁문하 부
▁마애 여래좌상
▁호남 지방
▁동래 부
▁163 5
▁165 9
▁슬 픈
▁양주 별산대놀이
▁170 2
▁받아들 였
통일 안
▁ᄒ ᆡ
▁공정 거래
▁한림 원
▁ᄒᆞ ᆫ
▁청량 산
▁사비 성
▁도총 섭
▁여원 인
관광 부
▁중화학 공업
▁ 壽
▁ 解
▁ 뜸
▁ 푹
개 구리
구 슬
군 옥
능 엄경
덕 랑
문 예
산 집
생 원
신 학교
십 이
왕 산
촌 동
촌 집
현 면
화 물
▁하 양
▁하 원
▁한 테
▁가 재
▁지 덕
▁지 르
▁기 층
▁어 법
▁어 용
▁대 첩
▁인 두
▁인 후
▁시 부
▁수 동
▁수 락
▁일 품
▁적 도
▁정 석
▁정 우
▁아 시
▁보 루
▁서 론
▁서 이
▁경 정
▁주 경
▁주 화
▁관 구
▁유 순
▁동 선
▁해 짐
▁연 분
▁만 행
▁공 용
▁조선 사
▁내 영
▁화 회
▁호 로
▁호 패
▁원 보
▁현 성
▁영 서
▁영 희
▁오 를
▁오 징어
▁계 축
▁계 회도
▁양 평군
▁안 국사
▁방 계
▁종 기
▁역 마
▁분 가
▁작 호
▁재 벌
▁천 역
▁추 자
▁회 랑
▁회 암사
▁박 창
▁감 흥
▁약 정
▁승 마
▁직 인
▁농 공
▁농 도
▁향 찰
▁합 편
▁윤 희
▁항 소
▁형태 론
▁피 로
▁허 씨
▁스 크
▁폐 소
▁맞 춰
▁칠 석
▁사업 자
▁국립 공원
▁널 찍
▁평양 부
▁쌍 방
▁과학 자
▁사무 총장
▁출생 지
▁공간 포
▁늘 어진
▁자본 가
▁청년 단
▁수도 회
▁흘 리
▁일기 체
▁금동 불
▁143 3
▁183 4
▁겉 면
▁이현 일
사회 당
▁석장 승
▁냇 가
▁高 麗
▁시달 리
▁부총 재
▁진남 포
▁일직 선
▁흥보 가
▁팔상 전
▁옥황 상제
란시 스코
▁홍직 필
갈 문왕
격 대
기 사
돈 이
래 기
빤 지
스 탄
시 성
야 담
인 곡
총 연맹
흑 색
▁이 귀
▁하 행
▁을 미사
▁고 한
▁고 춧가루
▁한 조
▁가 한
▁대 마
▁조 속
▁부 소
▁자 영
▁정 오
▁서 용
▁서 윤
▁주 돈이
▁신 춘
▁문 벌
▁상 생
▁라 인
▁면 류
▁연 인
▁만 인
▁공 서
▁장 륙
▁세 장
▁국 난
▁편 목
▁교 로
▁비 준
▁권 번
▁권 태
▁발 레
▁발 아
▁화 현
▁원 양
▁김 삼
▁형 국
▁산 관
▁단 천
▁양 진
▁안 심사
▁각 사
▁6 000
▁평 시
▁천 호
▁왕 정
▁백 령
▁백 중
▁금 색
▁차 사
▁봉 족
▁박 물
▁박 혁
▁매 향
▁결 하
▁약 식
▁태 안군
▁직 할시
▁판 례
▁판 상
▁파 급
▁요 나라
▁총 무원
▁풍 흉
▁국가 재건
▁중앙 관
▁협 곡
▁허 공
▁경제 사
▁검 은색
▁칠 장사
▁질 소
▁흥 망
▁격 언
▁찬 하
▁널 빤지
▁돌아 간
▁패 망
▁문인 화
▁곤 장
▁36 5
▁177 7
▁T he
▁선언 문
▁동자 기둥
▁붓 다
▁적당 히
▁재래 식
▁김규 진
▁슈 퍼
수산 부
▁두터 운
▁구개 음화
▁특파 원
▁한용 운
▁을미사 변
o m
▁ 世
▁ 敎
▁ 갸
▁ 땔
▁ 휼
▁ 괭이
간 본
규 칙
르 크
만 록
식 지
어 진다
유 취
주 서
천 도
촉 성
▁하 생
▁을 미
▁가 와
▁지 략
▁기 동
▁어 귀
▁전 전
▁경 혈
▁동 여
▁연 성
▁만 두
▁만 연
▁권 무
▁내 기
▁발 단
▁발 송
▁명 전
▁학 동
▁불 순
▁호 두
▁우 승지
▁간 송
▁산 릉
▁산 해
▁강 일
▁강 태
▁강 해
▁통 조림
▁따 지
▁삼 포
▁군 소
▁초 안
▁실 사
▁청 탁
▁노 름
▁왕 신
▁반 기
▁광 덕
▁최 진
▁활 짝
▁감 면
▁외 동
▁충 훈
▁태 산
▁태 현
▁직 급
▁토 석
▁체 로
▁송 강
▁송 진
▁송 치
▁잡 색
▁좌 천
▁별 곡
▁열 악
▁윤 영
▁윤 이
▁완 수
▁환 입
▁능 숙
▁난 해
▁덕 천
▁21 5
▁혜 심
▁엄 청
▁떠 서
▁압 류
▁무신 도
▁밤 중
▁만주 국
▁죄 수
▁전반 부
▁자격 증
▁160 1
▁168 6
▁끓 인다
▁보건 사회
▁185 1
▁ᄀ ᆞ
▁쟁 취
▁쟁 탈
▁164 4
▁빙 고
▁펼쳐 지
▁청송 군
▁굿거리 장단
▁백운 산
▁진양 조
▁혼용 체
▁병인 양요
▁해병 대
▁북로 군정서
▁보건사회 부
o t
▁ 夫
▁ 캔
▁ 힐
가 마
객 사
괴 석
김 치
누 이
만 식
만 행수
밀 인수
변 화
부 흥
연 군
처 분
크 스
파 리
▁하 마
▁가 느
▁지 남
▁지 녀
▁기 설
▁어 름
▁어 물
▁사 돈
▁사 질
▁시 풍
▁전 직
▁적 선
▁자 초
▁정 박
▁보 감
▁서 전
▁경 물
▁들 리
▁나 일
▁관 헌
▁유 홍
▁신 약
▁신 전
▁연 탄
▁구 류
▁만 덕
▁장 헌
▁화 병
▁호 방
▁원 융
▁김 남
▁영 유
▁단 사
▁미 숙
▁창 자
▁민 진
▁민 폐
▁예 경
▁예 제
▁법 랍
▁백 만
▁백 악기
▁외 상
▁돌 림
▁복 간
▁잡 과
▁총 목
▁좌 명
▁담 백
▁합 판
▁크 리스
▁올 림
▁윤 동
▁윤 용
▁환 산
▁날 실
▁난 타
▁혼 재
▁낙 원
▁낙 천
▁염 라
보살 만행수
▁첨 절제사
▁내려 진
여래 밀인수
▁납 입
▁개인 전
▁대장 도감
▁아미타 경
▁액 자
▁액 체
▁146 1
▁잇 따
▁185 7
▁여의 도
▁감리 회
▁신경 통
▁두드러 진다
▁찌 개
▁수혈 식
▁대방광불화엄경 소
▁안양 암
▁엎 드
▁촛 불
▁통틀 어
보살만행수 능엄경
여래밀인수 증
▁ 不
▁ 序
▁ 某
▁ 爲
▁ 辨
▁ 돛
▁ 멱
▁ 뭇
▁ 썬
▁ 홋
가 스
강 의
군 락
권 자
병 제
재 산
지 심
▁이 달
▁고 산사
▁한 신
▁사 은
▁대 판
▁인 내
▁조 이
▁조 조
▁자 력
▁정 적
▁정 훈
▁아 편
▁경 천
▁주 전
▁나 례
▁관 품
▁유 세
▁문 부
▁해 관
▁해 임
▁면 한
▁연 암
▁소 탕
▁장 벽
▁장 곡사
▁비 사
▁권 3
▁내 진
▁내 소사
▁발 매
▁발 열
▁발 포
▁후 인
▁호 전
▁무 애
▁선 계
▁마 상
▁김 집
▁김 환
▁영 빈
▁영 자
▁오 라
▁통 주
▁계 서
▁두 보
▁안 평대군
▁삼 화
▁삼 장보살도
▁말 린다
▁노 상
▁노 송
▁노 하
▁광 선
▁백 광
▁백 옥
▁박 팽년
▁복 싱
▁파 초
▁향 당
▁송 암
▁포 획
▁치 병
▁홍 패
▁풍 장
▁번 잡
▁축 사
▁관계 자
▁허 백
▁급 진
▁혼 서
▁조성 기
▁덕 망
▁탑 지
▁흥 업
▁애 초
▁벌 칙
▁문학 가
▁망 건
▁왜 곡
▁버 스
▁금강 저
▁떠 내
▁분류 법
▁벼 농사
▁빠 졌
▁기계 공학
▁방송 통신
▁붉 은
▁세자 빈
▁159 8
▁갈라 진다
▁168 8
▁174 0
▁174 1
▁143 2
▁두드 리
▁정선 군
▁퇴적 물
▁다녀 오
▁단오 제
▁늘어 놓
▁무너 진
▁대도 호부
▁아뢰 야식
로이 드
▁도체 찰사
▁가부 장
▁지권 인
▁월출 산
▁영취 산
▁열심 히
▁글로 벌
I N
▁ 핍
▁ 헬
궁 전
방 목
부 자
상 감
석 장
월 리
장 성
전 력
제 보살만행수능엄경
집 요
테 른
프 란시스코
▁다 층
▁가 늠
▁사 론
▁과 대
▁과 문
▁그 믐
▁시 부모
▁일 문
▁제 청
▁부 통령
▁자 아내
▁정 민
▁보 행
▁나 리
▁관 민
▁유 집
▁유 창
▁신 태
▁상 과
▁게 끔
▁성 역
▁성 우
▁공 구
▁공 비
▁공 천
▁비 취
▁비 바람
▁명 환
▁불 갑사
▁무 겁
▁우 봉
▁우 연
▁우 제
▁현 악기
▁강 백
▁진 봉
▁방 인
▁삼 족
▁본 뜬
▁미 혹
▁임 유
▁7 000
▁천 부
▁추 풍
▁배 부
▁회 소
▁북 편
▁봉 선사
▁매 사
▁향 안
▁근 기
▁경상 좌도
▁순 찰사
▁귀 천
▁옥 녀
▁경기 전
▁암 술
▁온 몸
▁온 성
▁밀 정
▁훈 구
▁남북 한
▁겸 관
▁흔 한
▁건설 업
▁어려 울
▁가로 질러
▁민주 화
▁부여 읍
문학 회
▁겨 레
▁기업 인
▁일으 킬
▁건너 갔
▁탐 욕
▁가야 면
▁조상 신
▁김정 호
▁멸 종
▁160 9
▁상해 임시정부
▁163 4
▁141 5
▁165 8
▁농사 일
▁175 3
▁66 8
▁184 9
▁183 2
▁빨 래
▁에다 가
▁이경 석
▁144 3
▁144 4
독립 운동
▁회화 나무
▁석회 동굴
▁구비 문학
▁헌병 대
보호 법
▁자전 거
▁샌 프란시스코
▁소현 세자
▁신채 호
▁ h
▁ ─
▁ 修
▁ 光
▁ 琴
▁ 續
▁ 議
▁ 렌
▁ 몬
▁ 훑
동 산
씨 전
옹 주
지 장보살
짓 기
청 사
화 도
▁이 교
▁이 긴
▁이 암
▁의 전
▁하 상
▁은 니
▁고 칠
▁한 미
▁지 조
▁기 신론
▁어 색
▁과 잉
▁대 포
▁여 단
▁여 말
▁도 마
▁수 대
▁수 선사
▁전 동
▁자 화상
▁서 생
▁서 종
▁주 척
▁관 산
▁유 승
▁신 생
▁문 천
▁문 둥이
▁상 연
▁해 원
▁장 덕
▁세 가
▁교 편
▁명 상
▁학 병
▁김 언
▁설 교
▁통 덕랑
▁계 회
▁진 천군
▁방 광
▁생 년
▁함 길도
▁재 추
▁석 도
▁청 조
▁민 회
▁천 경
▁반 신
▁광 사
▁백 골
▁북 측
▁차 비
▁집 게
▁표 음
▁물 기
▁승 관
▁한국 일보
▁직 분
▁복 건
▁복 자
▁복 통
▁심 우
▁판 장
▁파 시
▁교육 과학기술
▁포 고
▁합 한
▁홍 인
▁앞 마당
▁윤 상
▁효 제
▁준 설
▁악 단
▁의미 론
▁검 역
▁숙 빈
▁망 국
▁쌍 벽
▁마음 가짐
▁사적 지
▁22 5
▁23 5
▁메 우
▁대동 군
▁옹 진군
▁사리 장
▁시집 살이
▁동해 안
▁140 3
▁지하 철
▁였음 이
▁솔 잎
▁이화 학당
▁183 0
▁빨 라
▁냉 수
▁신민 부
▁음성 학
▁물러 가
▁물러 난
▁참모 총장
▁씌 워
▁수차 례
▁말뚝 이
의학 전문학교
▁본떠 서
춘추관 사
▁청해 진
▁도명 존자
▁낭림 산맥
▁훈몽 자회
▁성유 식론
▁베를 린
▁원위 치
▁가느 다란
▁교육과학기술 부
▁ 鄭
▁ 陽
▁ 쏠
▁ 찜
▁ 콤
강 서원
문 자
박 이
불 도
신 장
위 성
티 푸스
▁이 백
▁고 뇌
▁고 행
▁한 마디
▁기 림사
▁어 형
▁사 여
▁대 창
▁시 아버지
▁수 진
▁조 판
▁전 할
▁부 석
▁와 편
▁주 대
▁나 진
▁상 공업
▁개 진
▁구 좌
▁만 다라
▁공 손
▁공 증
▁세 목
▁국 운
▁국 지
▁비 비
▁후 비
▁남 계
▁화 동
▁마 구리
▁산 군
▁양 단
▁안 목
▁초 연
▁바 보
▁재 결
▁석 천
▁청 배
▁추 원
▁회 지
▁운 각
▁광 부
▁광 한
▁백 학
▁최 광
▁최 시형
▁매 스
▁태 음인
▁참 정
▁절 망
▁근 면
▁좌 협
▁담 갔
▁사회 보장
▁귀 인
▁아니 면
▁논 증
▁친 위
▁경제 성장
▁침 묵
▁칠 불
▁자연 보호
▁낙 화
▁벌 목
▁음악 회
▁망 치
▁곧 이어
▁베 개
▁잠 깐
▁억 류
▁이해 관계
▁민주 정의
▁올라 간다
▁낭 관
▁대한민국 미술전람회
▁가마 니
▁중대 장
▁산신 제
▁162 9
▁180 4
▁161 7
▁66 1
▁문답 식
▁166 6
▁동작 구
▁거제 시
▁東 國
▁131 0
▁바이 러스
▁부원 수
▁풀려 났
▁영구 히
▁이여 송
▁궁방 전
▁분재 기
▁정감 록
▁헤아 릴
▁안타 까
▁부작 용
▁儀 軌
▁민주정의 당
▁ 캄
간 이
독 관
디 아
뜨 렸
레 일
부 위
수 정
언 어
오 동
집 의
▁이 례
▁다 각
▁고 미
▁지 네
▁기 만
▁기 영
▁수 일
▁조 규
▁전 가
▁전 두환
▁일 길
▁정 가
▁정 군
▁정 영
▁아 랑
▁경 당
▁주 어지
▁유 보
▁신 서
▁문 공
▁문 상
▁상 벌
▁상 차림
▁해 태
▁만 취
▁내 명부
▁발 병
▁호 각
▁원 령
▁우 량
▁김 조
▁영 미
▁오 계
▁오 두
▁단 추
▁양 파
▁안 무
▁안 식
▁종 회
▁역 적
▁함 대
▁군 졸
▁실 지
▁노 신
▁노 역
▁8 000
▁창 법
▁음 통
▁추 계
▁배 달
▁회 동
▁백 사
▁집 정
▁표 구
▁최 규
▁승 장
▁직 산
▁직 임
▁저 격
▁복 권
▁새 마을
▁치 도
▁홍 양
▁죽 여
▁윤 달
▁궁 리
▁민족 정신
▁붙 인다
▁흥 겹
▁군사 령
▁맡 겨
▁십 이지
▁쇠 시리
▁올라 오
▁옹 립
▁준다 고
▁주민 등록
▁상서 성
▁139 7
▁동양 화
▁172 4
▁멀 티
▁김종 필
▁지장보살 도
▁다스 렸
▁170 1
▁김성 수
▁164 6
▁167 8
▁이자 겸
▁연수 원
an d
▁페 르
▁흠 모
▁의령 군
▁주심 도리
▁경문 왕
▁당진 시
▁황남 동
▁정여 립
▁손꼽 히
석묘 군
▁댓 돌
▁최현 배
▁깬 돌
▁피침 형
▁물푸 레나무
▁ ᄠ
▁ ᄭ
▁ 江
▁ 觀
▁ 땋
▁ 릿
▁ 핑
무 도
수 호
연 화
염 송
원 각
출 목
▁이 엉
▁이 존
▁의 술
▁의 안
▁다 기
▁한 얼
▁기 고
▁기 차
▁기 체
▁사 개
▁사 집
▁여 승
▁인 당
▁인 욕
▁시 방
▁시 복
▁수 저
▁조 계사
▁등 잔
▁전 구
▁일 민
▁자 선
▁자 태
▁정 열
▁아 예
▁경 륜
▁유 태
▁신 불
▁신 칼
▁상 문
▁동 그
▁구 법
▁세 주
▁후 추
▁남 장
▁학 대
▁학 보
▁화 수
▁호 연
▁우 회
▁현 물
▁영 문학
▁당 과
▁거 푸
▁강 정
▁통 진
▁계 선
▁종 식
▁종 학
▁삼 례
▁군 내
▁군 함
▁건 칠
▁실 차
▁석 검
▁평 성
▁까 다
▁노 파
▁음 향
▁왕 수
▁왕 버들
▁대한 체육회
▁백 출
▁금 은
▁차 남
▁최 의
▁물 감
▁결 총
▁심 의회
▁좌 군
▁합 문
▁홍 사
▁홍 천군
▁철 령
▁철 자법
▁둘 려
▁질 러
▁북한 강
▁낙 산
▁흥 행
▁훈 령
▁사찰 본
▁격 리
▁격 화
▁녹 관
▁보여 진다
▁21 4
▁징 조
▁석조 보살입상
▁떠 날
▁근대 식
▁특수 교육
▁답 험
▁자주 독립
▁기사 관
▁관음 상
▁경계 선
▁첩 자
▁써 야
▁앙 양
▁유리 왕
▁이이 첨
▁지하 자원
▁득 실
▁185 4
▁185 6
▁171 0
▁166 9
▁167 0
▁반란 군
▁ᄃ ᆡ
▁147 2
▁125 8
▁전수 학교
▁대장경 판
ic a
▁법화 사상
▁의금부 도사
▁도솔 천
▁서지 학
▁박제 상
▁자작 나무
▁적장 자
▁도드 라
▁겨드 랑이
▁움집 터
출판 사
▁간추 려
▁시무외 인
▁모전 석탑
▁대불정 여래밀인수증
▁봉업 사
, ,
▁ 램
▁ 륵
▁ 뺀
베 르
비 나무
산 파
조 리
챙 이
합 편
▁이 따
▁이 력
▁한 대
▁가 도
▁기 류
▁어 근
▁도 처
▁시 늉
▁수 고
▁제 화
▁정 두
▁중 풍
▁경 감
▁신 흠
▁문 성왕
▁동 짓
▁성 별
▁성 소
▁공 백
▁장 렬
▁국 영
▁권 벌
▁명 정
▁화 구
▁무 르
▁무 찌
▁원 서
▁선 체
▁마 룻
▁김 취
▁영 명
▁간 성
▁생 부
▁삼 종
▁함 실
▁함 열
▁함 종
▁초 판
▁목 제
▁추 국
▁왕 호
▁반 민
▁백 작
▁용 감
▁차 분
▁입 가
▁달 여
▁판 식
▁증 득
▁참 수
▁송 기
▁송 인
▁포 천시
▁확 신
▁합 덕
▁식 욕
▁열 중
▁죽 산리
▁20 3
▁폐 슬
▁팔 뚝
▁타 도
▁타 작
▁누 적
▁투 영
▁전국 구
▁찬 탄
▁얼 룩
▁힘 쓸
▁힘 차
▁뒷 전
▁억 불
▁깨 우
▁돈 대
▁족 손
▁끼 운
▁가슴 지느러미
▁맹 주
▁답 호
▁균 여
▁사리 함
▁유래 담
▁동북 부
▁화학 공업
▁불렀 으며
중추 원사
▁카 드
▁계열 사
▁177 9
▁161 8
▁평안도 관찰사
▁176 6
▁184 6
▁사천왕 사
▁독서 회
▁통상 조약
▁내세 웠
▁향로 석
▁김홍 집
▁김인 문
▁장지 연
▁햇 빛
▁누룩 가루
▁감로 도
▁인왕 산
▁대한독립 단
▁폐허 화
▁완산 구
▁중학 부
▁최승 희
▁우국 충정
▁경모 궁
▁현등 사
▁면류 관
▁박혁 거세
▁ 永
▁ 禪
▁ 깍
▁ 앎
감 찰
마 스
수 목원
저 우
좌 평
찬 요
피 아
헌 납
▁이 뤄
▁하 륜
▁고 보
▁지 엄
▁지 증
▁지 킨
▁기 분
▁도 연
▁조 칙
▁제 과
▁정 수리
▁중 전
▁서 악
▁위 법
▁해 준다
▁성 석
▁연 말
▁구 서
▁구 음
▁모 교
▁모 호
▁교 문
▁비 견
▁비 결
▁불 자
▁호 사
▁호 우
▁영 규
▁영 생
▁당 송
▁간 구
▁오 영
▁방 자
▁삼 량
▁군 령
▁미 닫이
▁청 결
▁청 양군
▁목 격
▁목 우
▁천 은사
▁추 운
▁반 부
▁북 춤
▁최 동
▁최 원
▁입 식
▁감 찰사
▁저 울
▁참 사
▁절 로
▁황 초
▁포 폄
▁담 화
▁순 찰
▁더 듬
▁치 레
▁합 일
▁홍 교
▁홍 정
▁열 성
▁피 나무
▁환 국
▁팔 자
▁볼 모
▁국민 대표
▁낙 질
▁찬 송
▁섬 멸
▁보살 도
▁뒷 방
▁흑 연
▁벼 락
▁31 0
▁명문 화
▁직업 교육
부인 회
▁방형 주
▁금속 활자
▁146 4
▁163 0
▁그렸 으며
▁175 5
▁쉬 우
▁드리 워
▁공학 부
▁사액 서원
▁이현 보
▁사림 파
▁생육 신
▁화합 물
▁짜여 진
▁무령 왕
▁전의 감
▁쫓겨 나
▁처용 무
공동 회
▁아비 달마
▁낭만 주의
▁성년 자
요의 제보살만행수능엄경
올림픽 대회
▁대둔 사
▁덕양 구
▁나일 론
▁이따 금
i d
▁ 롱
▁ 션
▁ 셨
▁ 쥔
고 려
기 본
남 산
대 광
림 리
망 이
삼 사사
애 국
양 종
와 문집
일 괄
족 자치
친 왕
해 안
혀 서
협 정
▁다 며
▁하 락
▁한 어
▁과 중
▁대 서
▁여 천
▁인 적
▁인 법당
▁등 부
▁일 족
▁일 수록
▁제 당
▁자 위
▁정 돈
▁보 복
▁보 화
▁중 독
▁중 외
▁경 론
▁경 선
▁주 신
▁유 개
▁유 병
▁문 방
▁동 삼
▁성 제
▁연 석
▁발 판
▁학 인
▁원 근
▁우 당
▁당 인
▁종 형
▁삼 천리
▁행 각
▁분 황사
▁청 각
▁청 일전쟁
▁임 피
▁민 어
▁민 흘림
▁음 가
▁출 력
▁반 격
▁금 선
▁북 분
▁북 조선
▁표 리
▁복 리
▁파 산
▁잡 초
▁총 랑
▁좌 도
▁식 재
▁식 초
머니 즘
▁암 갈색
▁암 각화
▁맞 춤
▁극 영화
▁범 부
▁야 별초
▁난 방
▁자연 물
▁흥 분
▁돌아 갈
▁24 2
▁굴 참나무
▁패 각
▁패 하
▁미술 사
▁탁 주
▁상서 우
▁139 6
▁혈 액
▁렀 으며
▁이루어져 야
▁삭 발
▁160 8
▁172 1
▁172 6
▁끓 여서
▁177 8
▁167 7
▁서민 층
▁부지 런히
▁사명 당
▁합장 묘
▁동편 제
▁조선일보 사
▁사계 절
▁선무 공신
▁앞장 서
▁분수 령
반야 경
▁부총 관
▁광개토 왕
▁오세 창
▁케이 블
▁김방 경
▁청백 리
▁문익 점
▁타고 난
▁안재 홍
a m
▁ 宗
▁ 定
▁ 雲
▁ 風
▁ 빽
▁ 윌
▁ 풋
거 사
교 수
꽂 이
누 라
달 리
동 이
뮤 니
빈 객
시 선
잡 록
장 국
접 시
정 례
티 나
평 화
회 관
▁다 래
▁다 비
▁하 로
▁고 물
▁고 체
▁지 킬
▁사 송
▁대 홍
▁도 란
▁도 립공원
▁시 취
▁수 하
▁전 업
▁부 유수
▁보 위
▁중 선
▁관 영
▁유 독
▁상 운
▁상 행
▁월 식
▁연 차
▁구 자
▁구 청
▁공 노비
▁국 책
▁편 전
▁교 자
▁후 발
▁학 덕
▁화 암사
▁호 상
▁원 균
▁원 반
▁원 점
▁김 평
▁김 필
▁영 노
▁영 전
▁강 림
▁강 문
▁강 동면
▁안 승
▁안 사랑
▁진 강
▁각 승
▁생 길
▁종 과
▁역 수
▁말 레이
▁실 과
▁임 헌
▁노 골
▁노 서
▁민 병
▁천 기
▁회 인
▁백 서
▁금 박
▁북 계
▁차 양
▁최 하
▁박 원
▁박 준
▁박 차
▁입 니다
▁매 인
▁변 란
▁태 묘
▁직 립
▁병 신
▁병 용
▁심 오
▁농 산
▁참 새
▁송 호
▁포 진
▁총 동원
▁올 빼미
▁윤 순
▁취 한다
▁완 결
▁관리 자
▁존 엄
▁극 치
▁조각 상
▁견 직물
▁기단 석
▁납 속
▁돈 다
▁드러 났
▁회의 소
▁그려 지
▁이동 휘
조선 연맹
▁178 7
▁뇌 사
▁177 5
▁통치 자
▁170 8
▁184 5
▁해동 악부
▁가졌 으며
사사 적
▁병조 정랑
▁고령 군
▁형조 좌랑
▁사마 시
▁서도 소리
▁살아 남
▁바이 올린
▁소정 방
▁뛰어 넘
▁균역 법
▁원추 형
▁매출 액
▁한글맞춤법 통일안
▁육자 배기
▁캘 리포
▁캘리포 니아
▁ 內
▁ 夢
▁ 考
▁ 눕
▁ 띈
간 의대부
기 온
기 지
남 리
마 침
묘 역
미 널
민 테른
바 꿈
복 리
시 화
유 공자
적 암
종 요
향 로
화 석
▁의 겸
▁하 한
▁은 평
▁가 부좌
▁어 둡
▁어 쩔
▁사 택
▁여 당
▁조 간
▁일 념
▁적 힌
▁부 관
▁자 석
▁아 난
▁아 자
▁주 보
▁관 자
▁유 필
▁신 검
▁신 녕
▁신 법
▁상 영산
▁상 수도
▁동 모
▁해 져서
▁면 도
▁성 충
▁만 력
▁공 역
▁장 막
▁장 백
▁장 이
▁때 마침
▁발 진
▁남 짓
▁호 도
▁원 적
▁우 후
▁마 연
▁영 은사
▁설 총
▁산 국
▁오 죽
▁강 홍
▁통 설
▁양 궁
▁종 선
▁본 류
▁노 획
▁회 선
▁운 기
▁금 대
▁금 부
▁봉 당
▁규 산
▁변 비
▁속 했
▁높 낮
▁복 덕
▁심 혈
▁파 송
▁참 신
▁절 사
▁근 경
▁황 간
▁귀 순
▁별 석
▁언 더
▁걸 러
▁피 폐
▁악 생
▁줄 풍류
▁볼 륨
▁칠 월
▁투 철
▁접 사
▁인물 상
▁먹 여
▁희 롱
▁문학 관
▁문학 상
▁왜 국
▁떨 치
▁착 오
▁40 6
▁사무 관
▁떠 돌
▁코 민테른
▁재정 난
▁관심 사
▁정자 각
조선 족자치
▁연극 인
▁중대 엽
▁162 5
▁163 3
▁141 6
▁165 5
▁180 5
▁개화 사상
▁176 5
▁171 9
▁184 8
▁169 3
▁냉 각
▁해발 고
▁이조 정랑
▁문체 론
▁93 6
▁문고 본
▁연평균 기온
인물 화
▁김덕 령
▁연변 조선족자치
▁신격 화
▁수월 관음도
▁수미 단
▁도드 라지
▁앞세 우
▁사분 합
▁후불 벽
▁아르 헨
▁물명 고
▁변계 량
▁자마 자
▁연변조선족자치 주
1 4
i m
▁ 뗏
▁ 뱅
▁ 좨
菩 薩
동 사
람 쥐
랭 이
룡 포
만 세
민 학교
뱅 이
센 터
소 통
수 비
스 키
어 보
코 올
해 상
혁 신
▁이 송
▁는 바
▁다 대
▁지 로
▁지 산
▁지 와
▁지 어서
▁지 돈녕부사
▁사 불
▁과 반수
▁대 양
▁인 보
▁시 서
▁수 국사
▁조 도
▁일 용
▁보 원
▁보 자기
▁경 현
▁들 러
▁위 수
▁신 생대
▁동 회
▁소 공
▁소 음
▁만 난다
▁공 표
▁장 리
▁비 호
▁내 분
▁남 선
▁남 지
▁선 광
▁선 농
▁김 민
▁김 생
▁김 육
▁산 령
▁산 삼
▁강 필
▁양 강도
▁진 대
▁삼 죽
▁역 어
▁특 례
▁초 보
▁석 단
▁석 당
▁석 호
▁받 드
▁노 농
▁노 적
▁노 총
▁민 종
▁책 방
▁최 기
▁감 격
▁매 립
▁그리 워하
▁독 널
▁독 로
▁독 촉
▁심 기
▁길 례
▁송 덕
▁송 전
▁귀 감
▁윤 백
▁윤 정
▁언 니
▁허 정
▁악 대
▁이상 범
▁드 린
▁전국 체육대회
▁숙 이
▁갑 인
▁벌 리
▁느 릅나무
▁응 제
▁강화 유수
▁21 2
▁습 성
▁흑 산도
▁학술 원
▁안정 사
▁책임 지
▁선거 구
▁치료 법
▁세자 궁
▁솟 대
▁형제 간
▁162 8
▁잇 대
▁175 4
▁칠성 도
▁애국 계몽운동
▁137 7
▁동인 지
▁눌 지
▁인생 관
▁부수 찬
▁얽 매
▁초가 지붕
▁친목 회
▁참의 부
▁인제 군
▁강신 무
▁무오 사화
▁훔 쳐
▁산내 면
▁내원 암
▁김안 국
▁노수 신
▁잃어버 린
반야바라밀 경
▁여실 히
▁도평 의사사
▁표주 박
▁빽 빽
▁높낮 이
▁ i
▁ 下
▁ 府
▁ 詞
▁ 釋
▁ 빻
고 회의
구 곡
보 리
세 기
스 레
승 전
시 의
운 기
임 금
최 고회의
편 수
해 산
▁이 흥
▁가 객
▁가 극
▁지 광
▁사 숙
▁과 자
▁시 합
▁조 방
▁조 자
▁조 한
▁부 존
▁아 지
▁보 필
▁서 주
▁서 희
▁주 불
▁유 니
▁유 시
▁문 필
▁상 성
▁동 우회
▁개 미
▁개 주
▁성 결
▁성 호사
▁소 초
▁소 호
▁만 날
▁비 범
▁권 오
▁내 한
▁화 경
▁화 친
▁불 효
▁호 이
▁선 초
▁김 하
▁할 미
▁산 리
▁산 목
▁통 곡
▁안 민
▁각 원
▁방 황
▁삼 봉
▁삼 승
▁특 혜
▁분 양
▁석 간
▁석 과
▁청 신
▁목 중
▁광 릉
▁백 송
▁감 성
▁외 진
▁결 전
▁속 인
▁병 리학
▁독 어
▁심 검
▁판 삼사사
▁증 유
▁송 림사
▁포 계
▁좌 안
▁순 차
▁15 00
▁홍 기
▁풍 랑
▁귀 비
▁번 상
▁식 수
▁취 학
▁층 탑
▁끝 단
▁끝 맺
▁측 백나무
▁존 칭
▁범 우
▁급 수
▁누 나
▁혼 수
▁흥 남
▁염 상
▁장식 품
▁골 프
▁정신 문화연구원
▁대동 소이
▁이사 관
▁훈련 대장
▁휘 장
▁균 열
▁곤 궁
▁교통 로
▁괘 사
▁체육 인
▁159 0
▁삭 대엽
▁178 3
▁사헌부 감찰
▁176 7
▁움직 여
▁빨 간
▁모신 다
▁173 1
▁짚 신
▁일곱 째
▁토론 회
▁초가 집
▁이산 해
▁재미 있
▁낱 낱
▁기다 려
▁스타 일
▁전봉 준
ens is
▁국가재건 최고회의
▁성호사 설
▁ *
▁ 君
▁ 式
▁ 딛
담 회
드 름
러 움
리 고분
상 조
열 개
외 선
우 견
의 자
쟁 의
천 하
토 성
▁하 중
▁은 화
▁지 치
▁기 려
▁기 유
▁사 중
▁대 자
▁대 황
▁여 긴
▁도 잠
▁도 조
▁수 경
▁조 잡
▁정 학
▁보 훈
▁서 품
▁서 풍
▁경 회
▁들 였
▁관 입
▁유 풍
▁상 보
▁해 일
▁구 송
▁만 회
▁세 출
▁국 법
▁비 이
▁후 주
▁남 상
▁화 조
▁마 노
▁마 신
▁영 평
▁단 선
▁양 다리
▁방 약
▁재 신
▁임 병
▁목 도
▁추 리
▁광 덕사
▁용 녀
▁차 경
▁활 인
▁알 코올
▁감 역
▁감 히
▁외 측
▁물 들
▁약 통
▁직 소
▁병 법
▁교육 방송
▁절 도
▁지방 검찰청
▁체 용
▁송 국
▁황 극
▁황 소
▁총 신
▁홍 유
▁풍 판
▁국가 유공자
▁경기 체
▁폐 수
▁곡 성군
▁견 성
▁희 천
▁첨 성대
▁보살 계
▁22 8
▁늘 어지
▁휴 간
▁세운 다
▁수도 원
▁고대 사
▁괴 로움
▁횡 성
▁카 르
▁172 3
▁165 1
▁177 2
▁교구 장
▁166 8
▁184 0
▁달라 서
▁덩 이
▁올랐 으며
▁관습 법
▁정종 로
▁김인 후
▁대륙 붕
▁모란 봉
▁대방광 원각
▁백운 암
▁용문 면
민주 주의
▁편단 우견
▁금광 명
▁퉁 소
▁비천 상
▁십자 가
▁대법 관
▁잿 물
▁노란 색
▁겸사 복
▁일길 찬
▁ 百
▁ 靈
▁ 뢰
▁ 엑
갱 이
공 작
관 찰
녕 대군
다 듬
대 중
미 디어
본 기
생 이
싸 리
어 필
포 르
▁의 대
▁하 리
▁은 밀
▁기 약
▁여 생
▁도 천
▁시 헌
▁조 롱
▁조 청
▁전 영
▁정 만
▁정 족
▁보 배
▁경 대
▁경 보
▁경 장
▁신 작
▁문 토
▁상 신
▁상 중
▁게 다가
▁동 민
▁개 구
▁해 유
▁장 년
▁조선 노동
▁국 공
▁모 화
▁교 린
▁발 육
▁남 악
▁학 기
▁학 령
▁불 룩
▁무 단
▁무 척
▁원 곡
▁원 병
▁원 혼
▁우 보
▁영 양군
▁거 간
▁강 건
▁양 무
▁두 품
▁진 감
▁진 인
▁진 피
▁각 서
▁방 서
▁방 역
▁방 출
▁생 화학
▁삼 론
▁재 혼
▁실 경
▁석 학
▁청 초
▁임 화
▁노 태
▁민 호
▁예 견
▁예 물
▁천 추
▁법 과
▁반 열
▁대한 예수
▁운 하
▁백 합
▁북 단
▁용 군
▁용 선
▁봉 조
▁점 괘
▁변 무
▁변 시
▁태 부
▁높 였
▁승 경
▁승 호
▁돌 입
▁복 령
▁향 후
▁황 경
▁포 병
▁포 용
▁포 제
▁사회 부
▁홍 중
▁살 포
▁번 개
▁다시 피
▁별 묘
▁철 광
▁윤 선거
▁중앙 대학교
▁육 식
▁옥 색
▁걸 렸
▁걸 작
▁범 한
▁난 민
▁접 한
▁쌓 인
▁굿 판
▁혜 종
▁메 워
▁영화 사
▁낭 산
▁밤 낮
▁답 답
▁벗 기
▁국어 사
▁시조 집
▁균 일
위원 장
▁일대 기
▁갔 으나
▁탐 색
▁움 츠
▁묻 힌
▁고유 명사
▁액 정
▁깃 들
▁헤 매
▁141 0
▁속한다 고
▁177 0
▁펴 냈
장군 묘
여자 중학교
▁164 7
▁주재 료
▁지부 장
▁부조 리
▁명승 고적
▁이덕 형
▁종지 형
▁다라니 경
▁풀려 나
▁조선인민 군
▁작은 방
▁겨드 랑
▁홍만 종
▁심포 지엄
▁김좌 진
▁거푸 집
1 7
▁ 宮
▁ 良
▁ 訓
▁ 諸
▁ 섶
▁ 옅
▁ 훤
검 사
금 니
목 도리
벌 대
스 턴
야 류
어 나무
요 결
운 드
월 회
취 락
쿠 츠크
한 집
환 입
▁이 견
▁하 지
▁고 착
▁가 평군
▁지 에
▁지 렁이
▁기 민
▁사 또
▁사 환
▁도 투
▁인 화
▁시 마
▁수 해
▁전 철
▁제 액
▁적 조
▁부 양
▁자 설
▁정 포
▁중 과
▁위 인
▁유 봉
▁유 재
▁유 회
▁신 찬
▁문 원
▁상 군
▁상 모
▁성 선
▁연 모
▁연 서
▁장 천
▁세 존
▁모 기
▁교 제
▁남 반
▁학 성
▁화 정
▁우 란
▁현 진
▁영 풍
▁오 천
▁강 영
▁통 인
▁종 계
▁삼 방
▁미 터
▁임 산
▁배 접
▁백 의
▁백 조
▁처 세
▁집 계
▁박 이
▁박 효
▁감 싼
▁매 기
▁외 출
▁변 별
▁변 영
▁변 용
▁결 원
▁속 이
▁한국 전력
▁저 기
▁복 신
▁파 수
▁요 업
▁요 즘
▁길 경
▁길 렀
▁순 한
▁홍 의
▁철 불
▁죽 주
▁손 기
▁즉 각
▁취 수
▁이르 쿠츠크
▁잘 록
▁옥 계
▁측 벽
▁허 수
▁환 희
▁암 면
▁칠 층석탑
▁벽 동
▁자유 주의
▁24 5
▁골 계
▁금강 반야바라밀경
▁세웠 으나
▁지원 병
▁싸 여
▁겨 자
▁동서 양
▁괴 임
▁건너 간
▁정사 공신
▁159 4
▁테 니스
▁직업 인
▁세조 실록
▁140 9
▁大 夫
▁잇 달
▁185 9
▁55 0
▁올렸 으며
▁170 9
▁169 7
▁182 8
▁교훈 서
▁띄 우
▁농경 의례
▁수수 료
▁최우 수
▁선문 염송
▁사재 감
▁평택 시
▁첨의 평리
▁금오 산
▁선봉 장
공동 위원회
▁윤봉 길
▁삼천 포
▁개개 인
▁원동 력
▁못지 않
▁v ar
▁다행 히
▁왕희 지
▁이차 돈
▁아르헨 티나
▁ e
▁ 乙
▁ 開
▁ 밴
감 주나무
고 취
고 문서
급 방
기 관
기 법
량 면
베 트
분 자
생 가
석 불
선 전
스 테
시 초
와 대
은 유고
인 사
정 법
회 색
▁다 목
▁하 주
▁하 호
▁은 하
▁고 광
▁가 물
▁가 의
▁지 영
▁지 우
▁기 력
▁사 패
▁수 좌
▁일 실
▁일 진
▁제 책
▁자 호
▁정 소
▁정 환
▁중 매
▁서 병
▁서 수
▁경 구
▁경 공업
▁유 절
▁월 드
▁개 심사
▁소 프트
▁구 술
▁공 영
▁장 날
▁편 중
▁모 과
▁모 면
▁모 용
▁비 벼
▁권 자본
▁내 실
▁학 통
▁현 은
▁영 호
▁설 악
▁산 계
▁오 일
▁단 다
▁강 시
▁강 자
▁양 옆
▁두 견
▁두 문동
▁진 군
▁진 현
▁종 주
▁재 소
▁말 려서
▁석 빙고
▁청 천
▁창 기
▁천 조
▁배 자
▁광 역
▁최 용
▁최 석정
▁저 리
▁저 부
▁병 장
▁독 과
▁복 상
▁복 색
▁심 법
▁심 재
▁심 회
▁판 전
▁증 류
▁지방 세
▁송 서
▁총 선
▁쓰 개
▁윤 택
▁손 진
▁육 류
▁옥 당
▁스 카
▁불교 학
▁궁 을
▁난 리
▁몸 빛
▁첫 날
▁내려 서
▁대사 관
▁전해 졌
▁안동 댐
▁탈 당
▁오른 발
▁떠 오르
▁공업 용수
▁숭 고
▁미술 품
▁환경 부
▁반대 쪽
▁갔 으며
▁올려 서
▁농촌 진흥청
▁놀 리
▁중추 부
▁75 9
▁민중 당
▁고쳐 졌
▁141 7
▁팽 배
▁칠언 시
▁166 4
▁143 0
▁143 8
▁167 6
▁합쳐 져
▁화랑 도
▁결사 대
▁김원 봉
▁이덕 무
▁대각 선
▁궐 내
▁강희 맹
▁성남 시
▁우진각 지붕
▁깃대 기둥
▁남사당 패
▁다도 해
▁한명 회
▁나운 규
▁갸 름
A K
o c
▁ 主
▁ 奉
▁ 듬
▁ 붐
계 선
껍 데기
노 루
법 회
뵈 기
약 소
어 류
어 먹
얼 빈
월 령
이 스
입 법
장 관
절 리
차 도
▁이 권
▁의 혹
▁다 산
▁하 관
▁하 얼빈
▁은 백색
▁가 가
▁지 능
▁기 침
▁여 선
▁인 질
▁인 칭
▁조 보
▁제 식
▁제 용
▁부 강
▁부 름
▁정 덕
▁보 기
▁보 직
▁중 려
▁중 자
▁경 강
▁위 지
▁위 토
▁관 왕묘
▁신 숭
▁상 화
▁성 관
▁구 품
▁공 론
▁장 의
▁장 춘
▁편 암
▁교 법
▁남 극
▁남 학생
▁학 예
▁화 령
▁무 능
▁원 봉
▁원 생
▁원 앙
▁원 윤
▁형 평
▁영 국사
▁당 장
▁오 례
▁안 도
▁진 기
▁진 종
▁삼 랑
▁본 조
▁석 식
▁청 취
▁운 두
▁백 련
▁용 추
▁봉 림
▁박 윤
▁활 력
▁점 심
▁감 문
▁감 화
▁충 현
▁약 력
▁태 동
▁직 영
▁직 첩
▁파 로
▁참 위
▁송 석
▁근 정
▁황 윤
▁순 자
▁철 쭉
▁아니 한
▁죽 장
▁윤 세
▁20 4
▁취 할
▁중앙 아시아
▁육 부
▁육 아
▁효 공
▁독립 단
▁폐 비
▁암 막새
▁들어 열개
▁친 밀
▁검 소
▁숙 주
▁희 종
▁익 숙
▁비교 적
▁빈 대
▁습 도
▁옮겨 와
린다 는
▁족 두리
▁자주 색
▁든 다고
▁죄 목
▁탁 본
▁커 뮤니
▁서기 관
▁덧 뵈기
▁의사 소통
▁방어 선
▁159 6
▁160 7
▁140 2
▁172 7
▁165 2
▁165 7
▁150 6
▁180 3
▁177 1
▁쟁 의
▁몽고 어
▁174 5
▁174 6
▁143 6
▁김수 온
▁독일 어
▁작곡 자
▁모음 체계
공산 청년회
▁인원 수
▁147 4
▁ᄂ ᆞ
▁서낭 신
▁서화 가
▁내세 운
▁수조 지
▁함평 군
천왕 상
▁시의 전서
▁충남 대학교
▁도총 관
▁마르 크스
▁어지 럽
▁영창 대군
▁조소 앙
▁총융 청
▁줄어 든
▁조선교육 령
▁짤 막
▁기왓 골
▁상수리 나무
무량 수경
▁멀티 미디어
▁대불정여래밀인수증 요의제보살만행수능엄경
▁띈 다
▁언더 우드
▁좨 주
▁심검 당
B C
▁ ᄫ
▁ 原
▁ 孝
▁ 是
▁ 玄
▁ 立
▁ 藏
▁ 農
걸 대
겨 운
고 지
교 주
교 통
구 식
금 대
닌 다
라 인
리 안
메 라
문 제
법 률
소 나무
시 오
우 대
의 용
정 경
정 맥
총 국
환 국
▁이 탁
▁하 안
▁은 근
▁가 감
▁가 덕
▁기 개
▁도 살
▁도 일
▁시 학
▁수 공
▁제 구
▁부 고
▁부 종
▁정 했
▁아 명
▁서 훈
▁나 빠
▁유 천
▁신 궁
▁문 맥
▁해 신
▁성 세
▁연 감
▁연 천군
▁소 맷
▁구 암
▁만 류
▁공 회
▁비 자
▁권 주
▁내 국
▁남 효
▁호 포
▁선 자
▁김 숙
▁김 회
▁할 당
▁설 인
▁거 상
▁각 문
▁본 능
▁본 서
▁석 양
▁석 제
▁청 와대
▁평 남
▁평 이
▁노 모
▁노 성
▁천 시
▁회 갈색
▁법 수
▁왕 대비
▁금 자
▁표 백
▁최 한기
▁감 하
▁매 구
▁충 목
▁승 용
▁직 권
▁증 기
▁근 엄
▁총 액
▁총 칙
▁필 두
▁홍 봉
▁식 리
▁운동 회
▁중앙 일보
▁피 지
▁효 사
▁생활 관
▁누 설
▁흥 륜사
▁애 월
▁염 화
▁보여 준
▁왜 장
▁강화 부
▁자유 로이
▁22 4
▁오른 팔
▁사무 처
▁지붕 틀
▁놀이 판
▁부여 받
▁잔 류
▁벼 랑
▁목조 보살좌상
▁찾아 다니
▁렀 을
▁159 9
▁165 6
▁태극 도설
▁48 0
▁가곡 원류
▁170 5
▁정해 졌
▁181 8
▁꾀 꼬리
▁목포 시
▁155 5
▁현저 히
▁찹쌀 가루
▁김윤 식
▁심청 전
▁부가 세
▁속리 산면
▁후한 서
▁보천 교
▁유공 자
▁華 嚴
▁위정 척사
여래삼존 좌상
▁강세 황
▁아카 데미
대방 광
▁돗 자리
▁선어 말어미
▁충훈 부
▁엄청 난
E R
a c
▁ 川
▁ 旗
▁ 浦
▁ 맵
가 와
농 요
도 호부
뚜 기
량 리
브 리아
심 곡
오 롱
유 법
저 기
전 설
처 럼
총 회
트 리
행 원
현 읍지
▁의 적
▁하 정사
▁은 일
▁고 초
▁고 소설
▁지 계
▁지 법
▁지 느러미
▁지 밀직사사
▁사 산
▁사 색
▁사 예
▁대 국
▁일 요일
▁자 자
▁정 설
▁경 포
▁주 영
▁관 무량수경
▁신 촌
▁월 인
▁장 순
▁장 황
▁모 정
▁교 령
▁교 식
▁권 순
▁후 설
▁화 음
▁김 무
▁김 흠
▁간 염
▁간 택
▁간 간이
▁산 둥
▁산 자
▁오 부
▁강 순
▁통 증
▁계 도
▁양 생
▁양 주시
▁진 자
▁진 장
▁종 제
▁삼 인
▁역 질
▁미 천
▁청 명
▁청 허
▁청 혼
▁출 사
▁회 시
▁법 집
▁금 곡
▁금 란
▁처 가
▁북 평
▁용 장
▁용 흥
▁표 선
▁표 토
▁알 루미
▁감 도
▁감 원
▁감 입
▁외 지
▁외 직
▁병 제
▁돌 검
▁심 복
▁농 후
▁파 병
▁파 인
▁요 금
▁향 제
▁황 학
▁사회 생활
▁홍 이
▁철 회
▁윤 사
▁윤 선
▁논 문집
▁논 매기
▁20 6
▁육 로
▁완 질
▁허 적
▁준 말
▁악 한
▁스 페인
▁맞 댄
▁머 릿
▁혼 천
▁침 수
▁검 무
▁몸 소
▁사상 사
▁염 송
▁숙 의
▁알려 준다
▁니 혼
▁격 자
▁찬 물
▁희 박
▁폭 동
▁벌 써
▁잠 업
▁혜 소
▁패 용
▁억 지
▁숭 덕
▁군수 리
▁이사 회
▁훈련 소
▁곤 룡포
▁정조 대
▁객 체
▁체육 부
▁연극 제
▁사례 편람
▁팔작 집
▁삭 망
▁즉위 년
▁162 0
▁146 2
▁아동 문학
▁141 8
▁양주 동
▁빗 물
▁이인 로
▁경비 대
▁함경도 관찰사
▁166 5
▁홍문관 교리
▁가문 비나무
▁중종 반정
▁101 0
▁김창 조
▁173 0
▁173 5
국민 회의
▁비서 감
▁무관 학교
▁77 6
▁덧붙 인
▁아라 리
▁아라 한
▁수구 파
▁삼각 주
▁수필 집
▁미소 공동위원회
▁닫 집
▁북청 군
▁되돌 려
태평 양
▁폐기 물
▁주상 절리
▁마포 구
▁성악 곡
▁올라갈 수록
▁분비 나무
▁막새 기와
▁시리 즈
▁식료 품
교장 로회
▁신춘 문예
▁대한예수 교장로회
N A
▁ r
▁ 廣
▁ 普
▁ 民
▁ 都
▁ 隱
▁ 韻
▁ 뮤
▁ 죠
▁ 팬
▁ 훗
본 원경
석 등
워 크
의 록
이 오
일 치
트 륨
행 성
▁이 맹
▁의 암
▁의 연
▁고 현
▁가 토
▁가 회
▁기 품
▁어 가
▁어 렸
▁수 매
▁수 자원
▁조 실
▁전 분
▁일 리
▁일 성
▁적 발
▁부 묘
▁자 적
▁자 회사
▁정 색
▁아 차
▁중 유
▁서 포
▁위 화
▁유 광
▁유 길
▁유 호
▁신 충
▁문 재
▁월 산
▁개 가
▁해 박
▁소 악부
▁만 상
▁공 교육
▁세 경
▁비 만
▁비 우
▁내 경
▁내 내
▁명 화
▁남 씨
▁불 두
▁불 천
▁호 송
▁원 권
▁김 녕
▁영 진
▁단 연
▁통 문관
▁양 근
▁두 세
▁두 창
▁각 인
▁방 산
▁군 호
▁본 가
▁초 년
▁초 문
▁초 수
▁행 원
▁분 주
▁재 기
▁말 음
▁미 완
▁미 쳐
▁청 중
▁목 기
▁노 무
▁뒤 섞
▁회 례
▁왕 골
▁반 경
▁광 평
▁처 소
▁박 시
▁입 산
▁입 역
▁외 삼
▁결 점
▁속 출
▁약 술
▁돌 계단
▁심 산
▁판 임관
▁파 련
▁요 시
▁지방 군
▁황 무지
▁잡 곡
▁합 친
▁철 근
▁열 편
▁열 하
▁20 2
▁취 발
▁효 심
▁궁 원
▁혼 전
▁밀 랍
▁출신 자
▁흥 양
▁접 경
▁염 증
▁벌 인다
▁응 원
▁울 려
▁왜 선
▁부산 대학교
▁21 3
▁24 3
▁24 4
▁가로 지르
린다 고
▁가르 친
교육 원
▁통신 부
▁187 7
▁방송 극
▁이동 녕
▁흘러 나
▁산신 당
▁바라 볼
▁총회 장
▁엽 전
▁콩 나물
▁I M
▁상류 층
▁184 7
청년 동맹
▁참석 자
▁꺾 인
▁한계 선
▁67 0
▁142 8
▁향토 음식
▁빼앗 긴
기업 소
▁포도 청
▁117 0
▁ᄅ ᆞ
▁이방 원
en t
▁김석 주
▁청량 사
▁진관 사
▁공조 좌랑
▁냄 비
▁우거 진
▁선화 당
▁海 東
▁갯 벌
▁문정 왕후
▁촛 대
▁멧 돼지
▁남만 주
▁총본 사
▁박은 식
▁적개 공신
▁파열 음
▁구좌 읍
▁백작 약
▁뗏 목
▁범우 고
▁우란 분
1 6
e m
▁ 家
▁ 遊
가 슴
경 연
골 제
국 화
그 림
김 굿
끄 럽
녕 부
대 지
두 루미
렴 사
시 중
신 서
신 문사
어 법
초 리
▁하 식
▁하 향
▁여 군
▁여 항
▁도 참
▁시 판
▁수 철
▁전 옥
▁적 병
▁정 청
▁중 영산
▁경 이
▁주 살
▁나 장
▁유 량
▁개 운사
▁해 송
▁해 이
▁해 충
▁성 희
▁연 동
▁소 대장
▁구 천
▁장 손
▁국 통
▁편 사
▁비 형
▁권 6
▁권 학
▁내 제
▁발 산
▁화 도
▁화 의
▁화 형
▁불 당
▁호 안
▁김 근
▁현 몽
▁영 과
▁영 랑
▁영 묘
▁설 파
▁당 나
▁당 한다
▁산 모
▁강 기
▁강 유
▁통 간
▁통 괄
▁두 들
▁안 렴사
▁삼 경
▁함 주
▁재 초
▁말 살
▁청 연
▁노 끈
▁뒤 늦
▁예 찬
▁배 반
▁배 나무
▁회 로
▁광 성
▁북 통
▁규 곤
▁외 채
▁외 할아버지
▁물 량
▁약 제
▁승 당
▁한국 산업
▁한국 광복
▁복 희
▁증 발
▁증 별
▁농 정
▁송 편
▁송 악산
▁포 란
▁합 방
▁합 자
▁홍 석
▁홍 종
▁살 창
▁식 지
▁별 록
▁별 호
▁항 고
▁옥 책
▁끝 날
▁피 할
▁협 성
▁허 벅
▁스 웨
▁팔 꿈치
▁난 이
▁나무 껍질
▁벽 골제
▁드 려
▁견 주
▁접 목
▁널 문
▁술 밑
▁수행 원
▁부인 사
▁혜 산
▁시켰 으나
▁경영 난
▁묵 죽
▁든 가
▁연합 체
▁살펴 본
▁이기 론
▁성주 굿
▁조상 숭배
▁감사 원
▁칼 자루
▁빼 놓
▁삭 과
▁철학 자
▁○ ,
▁178 0
▁185 2
▁영국 인
▁180 8
▁176 2
▁이주 민
▁166 1
▁선언 서
▁대조 전
▁지표 면
▁173 6
▁144 5
▁한양 대학교
▁천문 도
▁157 7
▁거북 선
▁판결 사
▁고조 부
▁씌 우
▁인명 록
▁산학 협동
▁빈번 히
▁서편 제
▁장석 영
▁수찬 관
▁편수 관
▁렴 구
▁임제 종
▁나아 갈
▁거신 광
▁아세 아
▁송광 면
가시 나무
▁생몰 년
▁간송 미술관
i f
o g
▁ 名
▁ 直
▁ 進
결 핵
고 시
골 문
국 집
득 공
부 동
시 지
안 사
여 움
유 허
재 사
전 지
정 소
홀 기
화 진
▁을 묘
▁고 제
▁한 서
▁가 게
▁가 풍
▁가 히
▁지 라
▁지 행
▁사 뇌
▁도 절제사
▁시 운
▁시 평
▁조 구
▁등 불
▁제 장
▁부 총리
▁정 렬
▁아 낙
▁보 탑
▁주 파
▁주 향
▁위 전
▁관 룡사
▁동 단
▁연 어
▁소 과
▁소 기
▁소 옹
▁장 조
▁모 해
▁내 주
▁남 진
▁화 보
▁우 석
▁우 열
▁선 암
▁현 륭
▁현 안
▁영 제
▁영 녕전
▁영 축산
▁산 경
▁단 변
▁진 선
▁각 층
▁방 수
▁생 약
▁생 리학
▁종 말
▁종 일
▁역 승
▁초 인
▁말 명
▁실 화
▁미 진
▁청 강
▁평 북
▁예 고
▁추 월
▁광 진
▁북 인
▁용 안
▁차 선
▁박 주
▁박 필
▁박 하
▁규 암
▁매 산리
▁외 설
▁물 길
▁결 제
▁약 점
▁직 교
▁돌 산
▁심 층
▁판 재
▁농 수
▁절 대로
▁요 강
▁요 람
▁묘 문
▁토 제
▁가지 산
▁잡 다
▁포 착
▁총 석정
▁순 방
▁치 악산
▁윤 광
▁축 물
▁20 8
▁품 은
▁옥 류
▁피 의자
▁환 갑
▁온 달
▁팔 달
▁궁 주
▁극 소
▁날 인
▁갈 아
▁흥 국
▁흥 복사
▁접 전
▁십 지
▁터 지
▁왼 발
▁대동 단
▁져 야
▁음식 점
▁그려 서
▁죄 상
▁겹 치
▁탐 관
▁인쇄 소
▁가락 바퀴
▁깔 린
▁칼 슘
▁삭 녕
▁네모 진
▁융 통
▁물리 친
▁금동 여래입상
▁진다 고
▁인민 공화국
▁177 3
▁175 1
▁일상 생활
▁170 7
▁달려 가
▁166 7
▁창녕 읍
▁183 1
▁김창 환
▁181 2
▁정지 용
▁142 4
▁142 6
▁도망 가
▁빠져 나가
▁히 로
▁둘렀 으며
▁시루 떡
▁대추 나무
▁대한독립 군
▁유진 오
▁군위 군
민주 당
▁서유 구
▁헤아 려
▁낙선 재
올림픽 위원회
▁조선민족 혁명당
동지 회
▁태권 도
▁유중 교
▁목곽 묘
모란 문
집성 방
▁무량수 전
▁텃 새
▁만민 공동회
▁방약 합편
▁신숭 겸
▁ 千
▁ 朴
▁ 歲
▁ 藪
▁ 껴
▁ 꽁
▁ 럭
▁ 롤
▁ 맬
경 전
공 도
공 항
니 어
대 형
룡 리
룰 루
무 강
부 군옥
소 학
스 름
어 록
어 쓰기
연 장
완 구
웨 어
유 석
조 성
주 거
춘 향
팔 수
▁이 담
▁이 당
▁이 통
▁은 신
▁고 어
▁한 우
▁한 천
▁어 랑
▁여 호
▁도 암
▁인 세
▁수 초
▁조 야
▁일 보
▁정 림사지
▁중 광
▁중 하
▁서 설
▁서 우
▁서 진
▁주 법
▁유 채
▁신 소
▁문 회
▁라 든지
▁동 림
▁동 시대
▁개 서
▁개 연
▁해 류
▁해 질
▁소 품
▁공 출
▁세 심
▁비 둘기
▁내 동
▁발 성
▁후 유
▁남 조
▁화 소
▁무 병
▁김 공
▁당 뇨
▁산 도
▁단 시
▁단 전
▁강 안
▁강 압
▁강 장
▁통 풍
▁계 부
▁계 청
▁양 공
▁방 원
▁함 석
▁건 주
▁특 위
▁행 행
▁석 벽
▁미 워하
▁임 지
▁목 책
▁법 첩
▁반 가사유상
▁운 세
▁금 송
▁북 돋
▁차 기
▁집 적
▁최 수
▁박 두
▁점 법
▁물 류
▁약 산
▁태 아
▁저 어
▁병 정
▁요 긴
▁향 청
▁홍 길
▁손 소
▁육 각형
▁온 조
▁이상 재
▁능 지
▁존 명
▁존 숭
▁궁 관
▁야 금
▁난 상
▁혼 령
▁방법 론
▁덕 산면
▁행정 청
▁낙 농
▁곧 추
▁보통 강
▁내려 다
▁퇴 각
▁21 8
▁23 3
▁돈 독
▁메 나리
▁대동 지지
▁흘 림
▁탁 구
▁사자 상
▁혁명 가
▁162 6
▁퍼 진
어사 전
▁서정 성
▁170 4
▁176 8
▁소금 물
▁164 9
▁김수 로왕
▁거래 소
▁성명 서
▁182 5
▁182 9
▁137 4
▁144 8
▁ᄉ ᆡ
▁생원 시
▁총무 과
▁공해 전
▁불사 리
▁얽 혀
▁91 8
▁세종실록 지리지
▁피부 병
▁낚 싯
▁신임 사화
▁전북 대학교
▁우거 져
▁어우 러진
▁연작 시
▁성황 당
▁II I
▁느껴 진다
▁주성 분
▁감지 은니
▁개태 사지
▁청계 천
▁하회 마을
▁삼지 연
▁양광 도
▁깊숙 이
▁홍경래 의
▁운룡 문
▁가파 른
▁버무 려
▁지화 자
▁꼭두각시 놀음
▁군사령 관
▁도드라 진
▁남효 온
▁ 印
▁ 嘉
▁ 洪
▁ 셀
▁ 톈
겨 서
경 비
계 곡
계 문집
공 민학교
권 번
동 포
록 색
립 교향악단
밀 원사
방 식
수 력발전소
십 리
주 례
추 밀원사
패 설
▁이 곡
▁이 옥
▁의 방
▁은 덕
▁은 전
▁고 복
▁지 동
▁지 문하
▁기 양
▁어 항
▁사 심
▁사 약
▁사 호
▁대 이
▁대 현
▁여 하
▁도 유
▁수 덕
▁수 류
▁조 강
▁전 인
▁전 초
▁일 진회
▁제 강
▁부 교리
▁부 위원장
▁자 최
▁정 액
▁중 판
▁서 령
▁주 색
▁주 저
▁나 부
▁위 력
▁관 공
▁유 목
▁유 몽
▁월 간지
▁동 덕
▁해 삼
▁성 체
▁성 절사
▁소 견
▁소 독
▁구 파
▁장 호
▁국 태
▁교 설
▁비 색
▁권 도
▁권 업
▁내 란
▁후 처
▁우 미
▁선 원사
▁현 신
▁산 방
▁산 서
▁오 명
▁오 호
▁오 희
▁단 맛
▁단 석
▁양 청
▁두 텁
▁안 감
▁안 대청
▁삼 일
▁본 영
▁특 집
▁초 롱
▁초 주
▁초 충
▁행 군
▁행 태
▁행 형
▁창 선
▁음 독
▁음 률
▁고려 공산청년회
▁천 존
▁반 동
▁광 화문
▁북 풍
▁외 호
▁변 사
▁변 종
▁변 통
▁충 담
▁속 악원
▁태 일
▁한국 식
▁돌 이
▁복 선
▁참 서관
▁토 월회
▁포 백
▁좌 승
▁치 미
▁풍 미
▁죽 절
▁항 렬
▁취 했
▁피 동
▁협 률사
▁폐 출
▁능 원
▁혼 사
▁검 증
▁낙 후
▁밑 술
▁애 매
▁애 환
▁헌 정
▁숙 성
▁숙 영
▁갑 진
▁익 살
▁문학 예술
▁녹 여
▁쌍 분
▁쌍 용
▁골 목
▁뒷 지느러미
▁혜 근
▁과학 원
▁떠 받
▁싸 울
▁대전 통편
▁낭 도
▁고등 공민학교
▁휴 한
▁식물 원
▁가족 원
▁선교 양종
▁동국 정운
▁부모 은중경
▁묻 혔
▁굽 히
▁횡 구식
▁렀 으나
▁160 2
▁융 자
▁국방 상
▁172 9
▁165 4
▁161 5
가사 리
▁171 6
▁기울 어져
▁장애 인
▁수신 기
▁164 3
▁빙 하
▁182 1
▁137 1
▁경연 관
▁쓰였 으며
▁대리 청정
▁고리 대
▁기행 가사
▁험 하
▁158 3
▁서비스 업
▁합성 섬유
▁피난 민
▁반야 경
▁96 0
▁꿰 매
▁유아 교육
▁자장 율사
▁야간 부
▁짜여 져
▁통례 원
▁성불 사
▁기부 금
▁국유 지
▁김두 봉
▁어영 대장
▁상반 신
▁홍범 도
무관 학교
▁목단 강
▁노원 구
▁송상 현
▁구당 서
▁네트 워크
▁호림 박물관
▁향음 주례
해상 국립공원
▁손진 태
▁유길 준
▁속악원 보
e d
t a
▁ ᄊ
▁ ᄍ
▁ 以
▁ 尙
▁ 州
▁ 甲
▁ 념
▁ 뺄
▁ 츠
가 상
감 제
귀 감
귀 비
당 간지주
봉 리
사 태
생 명
송 이
식 주식회사
야 승
요 리
임 당
정 집
정 토
직 설
척 식주식회사
취 타
▁이 농
▁다 식
▁다 원
▁을 과
▁한 호
▁가 려서
▁지 현
▁어 윤
▁사 바
▁사 판
▁도 련
▁도 산면
▁시 단
▁조 련
▁전 령
▁일 간
▁일 조
▁아 관
▁보 경
▁중 초
▁서 둘
▁서 부터
▁경 첩
▁주 군
▁관 법
▁유 조
▁유 토
▁신 여
▁상 어
▁월 등
▁연 건
▁소 의
▁장 선
▁모 험
▁교 묘
▁명 수
▁남 장사
▁화 평
▁불 성
▁불 조
▁무 위사
▁선 방
▁마 누라
▁김 낙
▁김 운
▁현 토
▁단 합
▁단 련사
▁계 집
▁안 산시
▁생 지황
▁종 경
▁삼 군부
▁군 적
▁바 꿀
▁바 꿔
▁분 홍색
▁실 전
▁평 서
▁평 한
▁받 친
▁노 여움
▁고려 말
▁예 맥
▁배 불
▁금 서
▁9 000
▁봉 림사
▁박 병
▁입 신
▁규 사
▁매 복
▁외 신
▁외 짝
▁물 의
▁변 한다
▁속 관
▁약 전
▁태 몽
▁증 면
▁요 절
▁향 임
▁체 내
▁황 달
▁귀 일
▁놓 아
▁육 의전
▁효 수
▁는다 면
▁문화 부
▁스 피
▁팔 상도
▁타 계
▁친 림
▁곡 면
▁급 사
▁야 로
▁혼 유석
▁사업 가
▁국민 소득
▁군사 학
▁갑 술
▁격 감
▁춘 양
▁지도 부
▁음악 가
▁거쳐 야
▁23 2
▁공사 비
▁대동 야승
▁환경 오염
▁가정 생활
▁움 푹
▁동양 극장
▁의학 부
▁맥 문동
▁159 1
▁75 0
▁산신 도
▁시위 대
▁동래 구
▁보장 왕
▁사고 방식
▁보조 금
▁인민 위원회
▁행해 진다
▁삽 교
▁174 7
▁164 0
▁돌려 보내
▁군정 청
▁145 3
▁145 6
▁달라 졌
▁탕 건
▁김창 집
▁181 6
▁여주 인
▁지질 학
▁집권 자
▁너무 나
▁대원 수
▁직선 제
▁광물 질
▁박영 희
▁′′ ,
▁갱 신
▁으리 라는
▁소양 강
▁153 0
▁제왕 운기
▁경부 고속도로
▁대한독립 촉성
▁교도 소
▁튼튼 히
▁동대문 구
▁합창 단
▁공방 전
▁영등포 구
▁아닐 까
▁을유 문화사
▁선재 동자
▁김택 영
▁휩 쓸
▁흥사 단
▁죽간 자
▁왕수 인
▁말레이 시아
▁은평 구
▁낱낱 이
e c
t h
▁ 武
무 처
서 기
선 원
축 구
케 이션
▁이 갑
▁하 오
▁한 단
▁한 도
▁지 그
▁지 마
▁기 어
▁사 보
▁대 련
▁여 과
▁여 씨
▁여 파
▁시 월
▁수 릉
▁조 미료
▁전 운
▁적 전
▁부 단
▁자 개
▁중 치
▁서 소문
▁관 선
▁유 거
▁유 린
▁면 리
▁구 고
▁구 료
▁구 약
▁세 법
▁조선 임
▁모 로
▁모 였
▁교 창
▁내 일
▁후 배
▁학 승
▁우 가
▁선 림
▁선 학
▁김 포시
▁간 반
▁간 화
▁산 법
▁산 마루
▁거 동
▁오 재
▁강 북
▁안 진
▁진 고
▁진 용
▁진 향
▁진 다는
▁진 안군
▁방 기
▁본 말
▁행 영
▁분 절
▁재 계
▁석 경
▁임 한
▁목 주
▁노 주
▁예 편
▁배 화
▁백 문
▁백 설
▁처 치
▁북 관
▁집 무
▁박 노
▁점 하
▁외 숙
▁속 세
▁승 보
▁한국 과학기술
▁직 파
▁판 별
▁파 계사
▁요 망
▁토 심
▁토 질
▁향 각
▁근 시
▁간행 본
▁총 상
▁총 면적
▁합 포
▁홍 조
▁철 교
▁윤 태
▁윤 필
▁논 조
▁20 9
▁육 진
▁다른 데
▁폐 백
▁암 산
▁관리 국
▁관리 법
▁들어 올
▁야 영
▁갈 매기
▁난 파
▁몸 짓
▁칠 원
▁국민 대학교
▁편집 부
▁애 니
▁찬 의
▁탄 로
▁탄 화
▁망 해
▁터 서
▁24 7
▁뒷 다리
▁징 세
▁먼 지
▁22 9
▁혜 민
▁패 관
▁함경 산맥
▁이야 말로
▁빈 다
▁종교 인
▁공립 학교
▁납 석
▁농업 용수
▁공업 화
▁숭 어
▁경성 군
▁목조 관음보살좌상
▁부정 형
▁상징 물
▁이하 응
▁죄 업
▁선거 법
▁탐 학
▁장수 군
▁법인 체
▁액 막이
▁획 일
▁37 0
▁가져 야
▁가져 와
▁식품 위생
▁원효 암
▁표준 말
▁161 4
▁쟁 점
▁176 1
▁176 3
▁171 8
▁유성 음
▁169 2
▁나왔 으며
▁167 3
▁167 9
▁애국 심
▁후원 회
▁향약 집성방
▁정성 껏
▁중서 령
▁흘러내 려
▁예수 교
▁157 3
▁자산 어보
▁푸른 색
▁쏟 아
▁안중 식
▁폴 리
▁작은 아버지
▁효소 왕
▁싫 어
▁全 書
▁봉선 화
▁오스트 레일
선생문집 책판
▁망월 사
▁홍무 정운
▁라틴 어
▁홋 소리
▁핑 계
대방광 불화엄경
▁당나 귀
▁스웨 덴
▁현륭 원
▁오스트레일 리아
1 5
l a
▁ \
▁ ᄡ
▁ 亭
▁ 剛
▁ 御
▁ 所
▁ 老
▁ 봐
녹 주
맞 추
매 일
백 관
부 전
부 주
상 공
상 부
선 무
신 왕
안 법
양 각
연 수
우 당
유 해
이 너
이 라
인 지
임 자
장 정
표 지
헌 왕후
현 사
▁이 군
▁이 끈
▁이 환
▁고 과
▁한 규
▁한 랭
▁지 후
▁로 회
▁사 칠
▁대 언
▁대 축
▁수 다
▁수 암
▁등 전
▁전 년
▁일 구
▁부 풀
▁중 관
▁중 년
▁위 배
▁유 월
▁신 응
▁신 제
▁상 진
▁동 한
▁구 관
▁구 본
▁구 불
▁구 치
▁만 자
▁만 전
▁교 미
▁내 선
▁발 주
▁남 공
▁호 령
▁무 산군
▁현 수
▁설 경
▁설 로
▁거 진
▁오 려
▁단 엽
▁단 학
▁강 재
▁계 백
▁계 책
▁양 보
▁종 소리
▁역 가
▁역 신
▁분 관
▁분 신
▁재 고
▁말 투
▁석 동
▁미 신
▁미 디어
▁임 해
▁창 구
▁창 신
▁민 감
▁예 론
▁회 통
▁법 통
▁왕 녀
▁집 성
▁봉 교
▁박 충
▁입 회
▁감 은
▁변 려
▁변 제
▁충 군
▁승 급
▁심 통
▁증 수
▁농 과
▁파 기
▁교육 정책
▁송 경
▁송 유
▁근 절
▁가지 런
▁순 군
▁홍 언
▁풍 성
▁식 성
▁열 대
▁열 수
▁윤 효
▁걸 인
▁피 복
▁협 박
▁허 황
▁준 거
▁문화 관광부
▁악 극
▁악 서
▁악 인
▁줄 였
▁들어 선
▁극 기
▁이용 자
▁난 중
▁자연 법
▁북한 산성
▁여기 저기
▁술 어
▁기본 법
▁잠 자리
▁율 관
▁22 6
▁23 4
▁금강 사
▁쇠 붙이
▁잔 잔
▁낭 사
▁해안 가
▁묵 호
▁동일 시
▁지배 인
▁작업 장
▁동국 이상
▁미륵 사
▁흘러 가
▁체육 학
▁사단 장
▁의학 자
▁34 0
▁38 0
▁동북 아시아
▁레 닌
▁179 3
▁엿 보이
▁140 6
▁주자 소
▁광산 구
▁172 2
▁아미타불 상
▁펼 친
▁김영 수
▁학습 서
▁47 5
▁대조 영
▁164 5
사사 업
▁돌려 져
▁167 5
▁181 9
▁차관 보
▁김동 욱
▁잉 여
▁보상 화
▁호조 좌랑
삼존 도
▁반야 바라밀
▁불가 결
▁참모 장
▁채권 자
▁공조 정랑
▁까치 구멍
▁도솔 암
▁남구 만
▁긴장 감
▁솟아 나
▁정순 왕후
▁호법 신
▁융기 선
▁군악 대
▁끌려 가
▁살풀이 춤
▁판도 판서
▁명실 상부
▁무조 건
▁유예 지
▁텍 스트
▁무서 운
▁제갈 량
▁핍 박
▁지증 왕
▁동국이상 국집
▁ 丁
▁ 善
▁ 政
▁ 皇
▁ 自
▁ 里
▁ 덥
▁ 돔
▁ 랄
간 토기
공 과
군 관
난 고
놀 룰루
맹 선
부 기
부 여
비 상
석 불좌상
시 위
심 원
아 치
올 라
의 병
장 조
파 업
▁이 노
▁의 경
▁다 든가
▁하 백
▁하 서
▁고 동
▁가 내
▁가 천
▁되 살
▁지 모
▁지 혈
▁사 표
▁대 무
▁도 부
▁그 나마
▁시 폐
▁수 이
▁조 호
▁등 나무
▁전 민
▁제 실
▁부 신
▁자 필
▁자 그마
▁아 음
▁보 정
▁중 력
▁중 령
▁중 구역
▁서 발
▁관 악산
▁유 망
▁신 풍
▁동 녀
▁해 룡
▁성 책
▁연 두
▁소 신
▁소 제
▁공 황
▁장 절
▁조선 미술
▁모 감주나무
▁권 능
▁남 파
▁화 계
▁호 놀룰루
▁무 보
▁원 오
▁마 그마
▁김 서
▁형 산
▁영 돈녕부사
▁설 주
▁당 분
▁산 등
▁산 야
▁단 주
▁단 성사
▁진 제
▁진 포
▁방 손
▁건 대
▁건 지
▁분 말
▁석 담
▁청 수
▁목 공
▁노 략
▁창 왕
▁음 직
▁천 동
▁천 현
▁출 병
▁법 보
▁반 항
▁대한 통
▁광 목
▁금 난
▁처 첩
▁북 원
▁집 의
▁봉 산군
▁입 원
▁병 란
▁복 천
▁심 광
▁판 명
▁파 격
▁황 상
▁필 름
▁필 체
▁치 음
▁치 인
▁홍 역
▁홍 석주
▁살 구
▁별 서
▁윤 원
▁윤 인
▁암 리
▁온 건
▁맞 물
▁친 군
▁제작 소
▁혼 백
▁정치 사상
▁칠 하
▁탑 재
▁30 5
▁애 석
▁경주 인
▁망 원경
▁잠 정
▁굿 당
▁부인 회
▁혜 화
▁23 6
▁빈 궁
▁늘 어난
▁싸 운
▁201 9
▁공신 녹권
▁답 안
▁가정 의례
▁개정 안
▁휘 종
▁통신 원
▁기계 공업
▁괘 서
▁미륵 사지
▁묻 히
▁의학 박사
▁맥 아
▁그래 도
▁맛 있
▁178 2
▁동의 어
▁180 2
▁175 2
▁쓰여 져
▁의주 군
▁169 0
▁복합 어
▁쫓 아내
▁67 2
▁문예 지
▁158 9
▁148 5
▁응시 자
▁플 라
▁쾌 적
▁금관 총
▁강서 구
▁박세 당
▁우편 물
▁태평양 전쟁
▁부가 가치
▁용담 유사
▁거짓 말
▁유원 지
▁설득 력
▁금정 구
▁이범 석
▁석관 묘
▁하반 신
▁신통 력
▁쓰임 새
무공 훈장
▁노량 진
▁세마 치
▁서초 구
▁해식 애
▁이능 화
▁좌명 공신
▁해발고 도
▁커뮤니 케이션
▁충목 왕
▁파련 대공
1 3
▁ w
▁ ᅙ
▁ 仁
▁ 崔
▁ 柳
▁ 竹
▁ 阿
▁ 륙
▁ 쇳
▁ 텅
▁ 핸
높 이
마 크
문 경
문 전
복 음
복 사지
송 정
신 중
아 전
여 름
용 언
절 벽
조 목
조 사사업
포 면
▁하 수도
▁가 림
▁지 안
▁기 각
▁사 체
▁대 롱
▁대 봉
▁여 권
▁인 년
▁인 로왕
▁그 럴
▁시 라
▁전 거
▁부 벽
▁부 파
▁자 지
▁아 득
▁아 트
▁보 계
▁보 각국사
▁중 로
▁중 흥사
▁서 라
▁서 일
▁경 략
▁주 작
▁주 정
▁들 보
▁나 병
▁유 마
▁유 속
▁유 죄
▁신 랄
▁상 조
▁개 산
▁해 심
▁해 협
▁성 교
▁소 염
▁장 말
▁장 윤
▁조선 연극
▁모 후
▁교 복
▁비 보
▁권 용
▁명 두
▁명 리
▁후 리
▁후 편
▁남 행
▁불 기
▁불 이
▁호 리
▁원 세
▁원 우
▁마 황
▁당 서
▁거 경
▁오 케
▁계 간
▁계 이
▁양 경
▁두 타
▁안 마
▁안 위
▁진 귀
▁진 묵
▁방 랑
▁종 용
▁삼 동
▁군 상
▁군 직
▁건 기
▁분 규
▁작 대기
▁재 동
▁재 로
▁실 향
▁석 씨
▁고려 조
▁추 록
▁운 제
▁차 린
▁봉 급
▁최 성
▁박 응
▁매 운
▁물 줄기
▁충 만
▁태 국
▁병 관
▁병 든
▁병 렬
▁달 천
▁참 최
▁요 순
▁묘 목
▁향 례
▁송 지
▁포 부
▁좌 향
▁홍 릉
▁데 이터
▁귀 얄
▁살 린
▁별 궁
▁별 사
▁철 물
▁철 자
▁윤 덕
▁윤 황
▁중앙 은행
▁옥 동
▁준 용
▁독립 성
▁관리 관
▁친 분
▁곡 예
▁누 렸
▁검 은
▁낙 지
▁견 실
▁국립 현대
▁염 기
▁찬 문
▁춘 원
▁리 유
▁눈 앞
▁21 6
▁쇠 가락
▁가리 킨
▁납 채
▁26 5
▁메 이
▁대성 산
▁고등 문관
▁무신 란
▁목조 여래좌상
▁찾아 갔
▁29 2
▁휘 호
▁성균관 대사
▁139 9
▁비로 전
▁빌 딩
▁헌법 재판소
▁도리 천
▁흙 벽
▁탱 자나무
▁테 러
▁마애 여래입상
▁금속 제
▁163 9
▁52 0
▁183 6
▁65 0
▁끈 질
▁ᄃ ᆞ
▁72 0
▁흩 어진
▁157 5
▁긍 지
▁쇄 국
▁농경 지
▁청원 서
▁보좌 관
▁비행 장
in g
▁놋 다리
▁물레 방아
▁내장 산
▁청화 백자
▁콜 레
▁안악 군
▁물려 받
▁이형 상
▁멍 에
▁수미 산
▁분기 점
▁찔 러
▁적십자 사
▁가자 미
▁균역 청
▁기적 비
▁화염 문
▁금령 총
▁조봉 암
▁염라 대왕
▁엎드 려
▁김평 묵
▁임헌 회
▁허수 아비
▁제용 감
▁승용 차
행원 품
▁훗 날
▁국립현대 미술관
▁고등문관 시험
▁성균관대사 성
▁ 實
▁ 理
▁ 申
▁ 目
▁ 낟
군 도
기 무아문
꺼 기
도 선
목 어
문 록
복 령
부 법
사 성
삼 불좌상
수 용
안 도
운 룡
자 매
적 으로
초 고
총 동원
터 리
할 린
형 태
▁다 닐
▁은 자
▁고 귀
▁고 운사
▁가 망
▁가 학
▁가 획
▁지 곡
▁지 황
▁기 경
▁로 워
▁사 할린
▁과 보
▁여 각
▁도 단
▁시 카
▁조 충
▁전 창
▁자 헌대부
▁아 스
▁보 첩
▁경 군
▁문 맹
▁동 파
▁동 평
▁해 답
▁해 왔
▁성 령
▁소 담
▁공 가
▁공 권력
▁장 과
▁모 실
▁모 찌
▁교 습
▁비 원
▁비 참
▁발 랐
▁발 령
▁명 쾌
▁학 행
▁화 토
▁불 평
▁무 실
▁우 기
▁우 여
▁우 이
▁선 시
▁선 한
▁당 형
▁오 원
▁오 채
▁계 방
▁진 소
▁방 방
▁역 상
▁군 지
▁초 벌
▁초 원
▁행 세
▁석 면
▁석 함
▁청 기
▁청 담
▁창 랑
▁민 비
▁천 금
▁배 산
▁배 움
▁왕 상
▁반 감
▁처 진
▁북 학
▁최 태
▁외 침
▁외 편
▁변 례
▁변 진
▁병 들
▁병 상
▁그리 움
▁심 할
▁농 법
▁파 묻
▁참 군
▁절 첩
▁토 루
▁향 연
▁체 인
▁채 상
▁담 론
▁식 견
▁열 도
▁윤 병
▁축 관
▁축 척
▁논 다
▁취 항
▁언 저리
▁육 묘
▁대학 자
▁스 코
▁능 한
▁업 보
▁갈 근
▁이용 구
▁정치 사
▁덕 대
▁투 사
▁행정 법
▁25 6
▁니 콜
▁부사 장
▁잠 수
▁율 사
▁굴 복
▁23 7
▁엄 하
▁습 합
▁늘 려
▁봄 날
▁잔 디
▁대장 간
▁만주 어
▁좁 쌀
▁곤 양
▁괘 상
▁사자 암
▁풍속 도
▁카 메라
▁검사 장
▁163 2
▁고기 잡이
▁펴 내
▁170 6
▁사헌부 집의
▁43 0
▁174 9
▁보리 수
▁애국 지사
▁173 8
▁142 9
▁종친 계
▁천문 대
▁뱀 장어
▁뼈 대
▁김기 수
▁찌 꺼기
▁형조 정랑
▁이의 민
▁간호 학
▁통사 론
▁안양 시
at a
▁첨의 찬성사
▁활엽수 림
▁제철 소
▁통리 기무아문
▁명백 히
▁마천 령
▁시용 향악
▁신이 담
▁박달 나무
▁윤두 수
전보 국단
▁조선혁명 군
▁엇갈 리
▁독립운동 가
▁인현 왕후
▁강일 순
▁향당 교주
▁ᄠ ᅳ
▁알루미 늄
▁한국광복 군
▁탐관 오리
▁중치 막
▁조선임 전보국단
▁서라 벌
▁시용향악 보
▁ 圓
▁ 女
▁ 官
▁ 從
▁ 於
▁ 殿
▁ 田
▁ 빅
가 포르
갈 이
검 열
구 조
구 치
기 준
달 나무
당 동
례 문
만 고
병 창
보 석
사 원
생 경
슬 링
시 고
양 도
양 반
우 트
익 위사
인 력
종 법
찰 음
트 라
합 일
향 조
허 리
훈 도
▁이 궁
▁은 나라
▁고 희
▁한 민
▁한 바탕
▁가 명
▁지 묘
▁지 산리
▁기 신
▁기 의
▁기 탁
▁사 언
▁대 몽
▁인 선
▁시 문학
▁수 꽃
▁조 재
▁부 이
▁정 결
▁정 봉
▁정 실
▁정 탁
▁정 암사
▁아 뢴
▁서 평
▁경 식
▁주 걱
▁주 치
▁들 쇠
▁유 제
▁성 부
▁연 담
▁소 교
▁장 회
▁모 피
▁권 희
▁학 조
▁원 두
▁우 라
▁우 박
▁우 에
▁선 덕왕
▁김 백
▁형 광
▁당 포
▁거 액
▁강 개
▁양 회
▁두 전
▁안 우
▁역 주
▁본 적
▁미 칠
▁청 련암
▁창 세
▁민 애왕
▁회 암
▁법 륜
▁법 천사
▁반 당
▁반 통
▁광 천
▁박 석
▁입 향조
▁점 자
▁감 나무
▁감 은사
▁물 권
▁결 본
▁결 수
▁태 생
▁태 장
▁이나 마
▁복 문
▁달 솔
▁농 담
▁농 성
▁향 도
▁향 회
▁송 수
▁필 기
▁좌 전
▁치 어
▁앞 발
▁풍 운
▁귀 금속
▁번 거
▁별 초
▁철 분
▁쓰 러
▁층 층
▁효 열
▁타 블
▁관리 사
▁궁 인
▁친 교
▁급 속도
▁누 하
▁혼 성
▁덕 담
▁질 감
▁흥 취
▁국립 부여
▁겸 용
▁찬 탈
▁춘 분
▁폭 행
▁널 려
▁탄 환
▁응 고
▁리 그
▁리 라는
▁힘 쓴
▁눈 동자
▁내려 다보
▁버 티
▁쌍 봉사
▁보호 관찰
▁대회 장
▁24 6
▁골 각
▁잠 복
▁굿 청
▁착 안
▁이해 조
▁문화재 관리
▁옮겨 서
▁올라 서
▁코 오롱
▁벗 어날
▁29 0
▁묵 상
▁촉 탁
기념 관
▁경향 신문
▁첩 장
▁횡 성군
▁세자 익위사
▁동양 척식주식회사
▁수리 조합
▁재배 법
▁42 0
▁163 1
▁가입 자
▁177 4
▁슬 하
▁161 6
▁이인 임
▁판매 업
▁키 워
▁트 랙
▁166 2
▁C D
▁신장 상
▁돌려 서
▁127 0
▁182 2
▁김창 흡
▁181 3
▁브 랜드
▁개척 자
▁김동 리
▁157 6
▁정인 보
▁암석 해안
▁이시 애
▁젖 소
▁강서 군
▁타이 완
▁박문 서관
▁엇 모리
▁정간 보
한국 당
▁딱 지
▁파생 어
▁진성 여왕
▁좌수 사
▁부제 조
▁물려 주
▁반가 상
▁수형 자
▁고이 왕
▁싱 가포르
▁바닷물 고기
▁홍계 희
▁반월 형
▁거문 도
▁韓 國
▁파계 승
ap on
▁문소 전
▁崇 禎
▁노태 우
▁근정 훈장
▁후유 증
▁당뇨 병
▁톈 진
▁국립부여 박물관
▁문화재관리 국
a k
▁ 初
▁ 失
▁ 門
▁ 꺽
▁ 늪
가 비
갈 매기
공 명
그 물
대 감
독 서
두 령
릿 대
별 장
삼 각형
서 도
어 머니
월 도
으 리
임 수
잣 밤나무
재 의
정 유고
지 변
첨 지
항 일
▁하 연
▁한 음
▁어 순
▁대 오
▁대 찰
▁대 초
▁수 제자
▁조 모
▁부 려
▁부 침
▁자 회
▁정 백
▁정 어리
▁보 법
▁중 리
▁경 소
▁신 무용
▁문 굿
▁월 정
▁해 자
▁성 음
▁연 애
▁구 타
▁만 유
▁만 조
▁장 초
▁장 진강
▁세 전
▁조선 소
▁조선 혁명당
▁모 성
▁교 계
▁교 본
▁교 시
▁비 망
▁비 법
▁권 점
▁내 게
▁발 한
▁명 망
▁후 행
▁무 릅
▁무 찔
▁원 단
▁원 무
▁우 성
▁선 서
▁선 적
▁마 산면
▁김 황
▁현 사
▁현 악
▁영 중추부사
▁당 도
▁산 형
▁오 윤
▁단 애
▁양 녕대군
▁안 문
▁안 서
▁방 귀
▁방 영
▁종 질
▁삼 선
▁삼 채
▁본 도
▁본 의
▁초 공
▁미 혼
▁청 파
▁평 시조
▁목 간
▁노 니
▁노 소
▁노 영
▁노 진
▁창 평
▁민 유
▁예 겸
▁예 사
▁천 구
▁추 쇄
▁추 숭
▁회 흑색
▁백 상
▁금 상
▁봉 의
▁박 선
▁박 찬
▁점 거
▁감 결
▁매 국
▁물 색
▁물 시계
▁변 장
▁변 환
▁결 손
▁결 핍
▁태 어날
▁심 이
▁판 수
▁농 축
▁참 으로
▁요 가
▁길 놀이
▁토 벽
▁황 수
▁황 조
▁황 준
▁황 철
▁황 화
▁서울 올림픽대회
▁더 럽
▁윤 자
▁취 직
▁표현 법
▁팔 리
▁관리 인
▁아래 턱
▁존 양
▁친 경
▁기술 관
▁역사 관
▁야 담
▁갈 기
▁통일 전선
▁갖 은
▁목적 어
▁밑 둥
▁접 착
▁염 장
▁폭 풍
▁벌 교
▁색 출
▁증손 자
▁버 금
▁베 껴
▁22 2
▁패 옥
▁현대 시
▁인정 전
▁넘 쳐
▁둔 화
▁깨 뜨리
▁깨 우치
▁빈 농
▁프 리
문학 관
▁자라 나
▁잔 털
▁화엄 사상
▁일으 킨다
▁통신 망
▁전자 계
▁전자 공업
▁우수 영
▁횡 간
▁중대 사
▁140 8
▁연기 설
▁175 7
▁171 4
▁이주 한
▁섭 렵
▁174 8
▁칠성 탱화
▁169 8
▁수신 사
민속 박물관
민속 예술
▁조치 원
▁냉 동
▁사법 부
▁유기 물
▁꺾 여
▁173 4
▁144 7
▁서명 응
▁혼란 기
▁귀신 사
▁소화 기
▁도장 방
▁정재 무도
삼존 상
▁154 6
▁김원 행
▁예문관 제학
▁김천 일
▁열반 경
▁희생 자
▁경의 선
▁바이 오
▁외손 자
▁오위 장
▁홍익 대학교
▁싹 트
▁토관 직
▁방풍 림
▁정음 사
▁총융 사
▁장난 감
▁에헤 야
▁제중 신편
▁o f
▁홍대 용
▁청금 록
▁흑룡강 성
▁슴 베
▁홍양 호
▁도투 마리
▁독과 점
▁피지 배
▁갈아 입
▁정재무도 홀기
i e
i p
▁ 與
▁ 調
▁ 깁
▁ 닳
▁ 짰
▁ 힌
구 니
국 제공
나 루
데 타
버 리
별 신굿
사 키
서 사
성 단
십 도
외 과
원 부인
자 수
재 계
재 비
조 나무
▁이 끼
▁이 오
▁이 요
▁이 월
▁이 혜
▁이 라고
▁다 의
▁하 산
▁고 결
▁고 딕
▁으 라고
▁한 참
▁가 릉
▁지 보
▁대 보살
▁대 취타
▁여 고
▁여 제
▁도 독부
▁시 연
▁적 산
▁적 심
▁적 지
▁자 칭
▁정 처
▁보 세
▁보 승
▁중 봉
▁중 일
▁경 조
▁주 미
▁관 요
▁신 집
▁상 행위
▁월 당
▁동 치
▁연 과
▁구 식
▁공 기업
▁세 아
▁모 국
▁모 진
▁비 닐
▁비 운
▁명 물
▁후 음
▁남 촌
▁화 차
▁호 동
▁호 란
▁무 록
▁원 면
▁우 곡
▁김 달
▁영 각
▁간 찰
▁산 진
▁단 문
▁양 효
▁진 중
▁방 짜
▁생 질
▁생 황
▁특 무
▁재 심
▁실 각
▁청 운
▁청 곡사
▁임 면
▁임 씨
▁임 학
▁노 두
▁뒤 떨
▁천 보
▁천 식
▁추 야
▁회 가
▁회 부
▁왕 유
▁반 탁
▁대한 적십자
▁처 남
▁북 변
▁북 천
▁용 마
▁용 상
▁차 일
▁최 양
▁최 장
▁최 적
▁입 헌
▁입 혔
▁입 후
▁매 호
▁외 경
▁외 모
▁외 위
▁물 으니
▁변 명
▁결 단
▁결 당
▁결 재
▁약 국
▁약 리학
▁병 산
▁심 원사
▁판 이
▁증 감
▁파 하
▁파 헤
▁참 하
▁채 널
▁송 산리
▁잡 류
▁총 동맹
▁총 연장
▁좌 복야
▁순 검
▁순 음
▁치 명
▁홍 난
▁홍 삼
▁살 대
▁아니 한다
▁완 자
▁잘 려
▁효 부
▁협 재
▁환 수
▁줄 지
▁암 괴
▁날 려
▁누 명
▁난 의
▁혼 돈
▁검 지
▁나무 판
▁덕 천군
▁벽 석
▁흥 천사
▁흥 법사
▁막 걸리
▁접 견
보살 반
▁격 지
▁춘 당
▁응 회
▁응 양군
▁망 부
▁돌아 간다
▁왜 소
▁부사 직
▁쌍 계
▁퇴 색
▁21 7
중앙 협의회
▁둥 우리
▁혁 거세
▁엄 중
▁흑 자
▁민주 국민당
▁26 2
▁몽 유록
▁늘 이
▁최고 봉
▁시조 창
▁바위 틈
▁둘러 서
▁가을 철
▁즐 거운
▁흘러 들
▁도리 깨
▁무당 굿
▁사천 시
▁의무 교육
▁만세 루
▁162 2
▁146 0
▁성공 회
▁신학 문
▁55 1
▁180 9
▁고려사 절요
▁프랑스 어
▁44 0
▁143 7
청년 당
▁기생 충
▁182 6
▁181 4
▁본존 상
▁173 7
▁142 5
▁수명 장수
▁김동 인
▁서화 협회
▁이병 기
▁제물 포
▁알아 내
▁강화도 조약
▁실험 실
▁117 2
▁쿠 데타
▁121 6
▁민영 화
▁민영 환
▁치우 친
▁소상 히
▁풍수 설
개발 계획
▁구부 려
▁칠정 산
▁조용 히
▁옻 나무
▁일지 라도
▁石 室
▁관현 악
▁통역 관
▁소용 돌이
▁무공 훈장
▁김연 수
▁숙명 여자대학교
▁지제 교
▁갇 혀
▁신익 희
▁가락국 기
▁진시 황
▁시천 교
산수 화
▁거류 민
▁중편 소설
▁소격 서
▁구심 점
▁박규 수
▁백령 도
▁잇따 라
브리아 기
▁IM F
경연 대회
▁타블 로이드
국제공 항
R A
▁ y
▁ 墳
▁ 康
▁ 話
▁ 語
▁ 音
▁ 닻
▁ 삐
▁ 앤
▁ 쭉
▁ 쵸
개 헌
거 름
견 록
국 악
난 간
내 면
도 르
무 장
문 덕
성 전투
쐐 기
양 산
엉 이
예 문
인 간
입 술
제 강
제 회
지 법
짐 승
첨 절제사
터 널
핵 사
훈 대부
▁이 을
▁이 칭
▁의 역
▁한 란
▁한 치
▁한 화
▁지 교
▁지 자
▁지 산동
▁기 다란
▁어 여
▁어 질
▁사 만
▁사 생활
▁대 차
▁여 미
▁도 강
▁도 류
▁도 암면
▁그 어
▁시 어사
▁수 개
▁수 보
▁수 봉
▁조 시
▁조 짐
▁조 침
▁등 주
▁전 아
▁전 연
▁일 출
▁부 스
▁정 위
▁정 함
▁아 교
▁중 한
▁와 해
▁서 늘
▁관 본
▁문 동
▁상 두
▁월 계
▁게 을
▁동 암
▁개 요
▁연 려
▁연 곡사
▁소 가
▁소 시
▁구 화
▁공 초
▁장 우
▁세 거
▁세 지
▁국 원
▁편 술
▁모 내기
▁권 응
▁명 도
▁명 암
▁명 산대
▁후 속
▁무 색
▁무 열왕
▁원 색
▁선 반
▁선 위
▁김 춘추
▁현 각
▁영 친왕
▁당 수
▁산 남
▁거 룩
▁단 벽
▁단 형
▁계 후
▁양 군
▁두 통
▁진 짜
▁진 척
▁진 취
▁따 를
▁군 창
▁본 거지
▁분 속
▁재 선
▁석 순
▁노 국
▁노 복
▁반 절
▁광 정
▁봉 인
▁박 계
▁박 명
▁매 안
▁외 문
▁변 강
▁태 위
▁그리 워
▁복 명
▁달 했
▁농 현
▁향 신
▁황 련
▁황 록색
▁포 자
▁포 탄
▁총 묘
▁총 판
▁지역 민
▁순 박
▁순 정
▁순 창군
▁사회 운동
▁풍 광
▁살 균
▁20 7
▁유형 원
▁환 성
▁악 행
▁능 했
▁능 행
▁타 관
▁들어 섰
▁날 문
▁곡 옥
▁급 변
▁누 런
▁누 진
▁침 실
▁행정 가
▁생산 품
▁견 우
▁애 도
▁숙 식
▁머리 말
▁망 양
▁왜 학
▁잠 실
▁그런 가
▁떨어 질
▁현대 그룹
▁왼 팔
▁26 7
▁몽 금
▁문헌 상
▁분류 학
▁탐 진
▁장수 왕
▁33 6
▁입학 식
▁건국 훈장
▁칼 날
▁헤 아리
▁주자 어류
▁이이 명
▁홀 기
▁고쳐 서
▁김일 손
▁185 3
▁문무 백관
▁161 9
▁맨 다
▁붕 우
▁170 3
▁일어난 다
▁오르 내리
▁유성 구
▁교환 기
▁홍문관 수찬
▁감리 서
▁138 0
▁가야금 병창
▁예수 회
▁정경 부인
▁통계 학
▁의문 점
▁P C
▁늘어 뜨려
▁유희 춘
▁주일 학교
▁귀양 살이
▁티 베트
▁생태 학
한국 학교
▁장경 호
▁인왕 상
화학 공업
▁기다 렸
▁황성 신문
▁송파 구
▁신유 박해
여래삼존 입상
▁진달래 꽃
▁불어 넣
통상 사
▁성동 구
▁대내 외
▁윷 놀이
도서 주식회사
▁총사령 부
▁벙 거지
▁간이 학교
▁구한 말
▁윤두 서
▁일깨 워
▁내물 마립간
▁j apon
▁석남 사
▁연통 제
▁극예술 연구회
▁판장 문
▁염상 섭
▁노략 질
▁인로왕 보살
▁콜레 라
형태 소
▁무릅 쓰
▁ 應
▁ 溪
▁ 賦
▁ 젠
거 미
교 관
녕 사
둘 레
림 동
만 화
문 안
순 위
스 포
십 육
어 물
영 문학
오 로
운 부군옥
유 편
정 계
정 벌
지 남
찌 개
타 이어
흥 학회
▁이 비
▁이 광사
▁다 졌
▁하 얀
▁을 사사
▁지 단
▁어 염
▁로 켓
▁사 투리
▁대 면
▁대 파
▁여 온
▁도 창
▁인 일
▁인 평대군
▁조 면
▁전 객
▁전 골
▁부 중
▁자 청
▁정 준
▁아 아
▁경 련
▁경 미
▁경 차관
▁주 당
▁들 인
▁나 철
▁위 관
▁위 령
▁위 판
▁유 비
▁유 음
▁신 리
▁동 소
▁해 면
▁성 각
▁소 씨
▁구 재
▁공 리
▁장 강
▁장 류
▁장 혀
▁세 고
▁조선 신
▁국 명
▁국 연
▁모 난
▁모 욕
▁내 통
▁명 료
▁남 침
▁호 공
▁무 격
▁원 역
▁우 스
▁우 인
▁우 통
▁선 성
▁마 운
▁던 졌
▁김 산
▁형 옥
▁영 아
▁산 제
▁강 과
▁강 탈
▁통 혼
▁두 각
▁안 건
▁진 호
▁각 석
▁각 수
▁각 형
▁생 멸
▁생 체
▁생 달나무
▁삼 부
▁군 경
▁초 두
▁초 립
▁분 대
▁작 동
▁작 풍
▁실 백
▁석 창
▁미 선
▁미 움
▁청 원군
▁평 문
▁임 춘
▁목 청
▁창 씨
▁민 권
▁민 자
▁음 지
▁출 시
▁배 비
▁법 손
▁반 제
▁백 미
▁금 양
▁북 촌
▁차 록
▁집 록
▁봉 명
▁봉 어
▁최 덕
▁최 호
▁감 금
▁외 목도리
▁충 칭
▁속 오군
▁태 고사
▁승 도
▁한국 기독교
▁저 온
▁심 대
▁심 심
▁심 주
▁파 여
▁참 관
▁절 요
▁묘 도
▁송 설
▁황 동
▁총 력
▁좌 파
▁담 담
▁순 영
▁귀 거래
▁별 급
▁철 촉
▁완 강
▁완 문
▁옥 저
▁허 여
▁환 궁
▁환 조
▁줄 무늬
▁스 케
▁암 키와
▁친 영
▁극 찬
▁경제 개발계획
▁세계 유산
▁밀 생
▁밀 제
▁붙 들
▁애 절
▁막 하
▁막 리지
▁숙 인
▁찬 집
▁익 대
▁익 종
▁녹 과
▁탄 수
▁망 상
▁망 한
▁부사 과
▁학생 회
▁토지 신
▁보호 법
▁전해 온다
▁22 1
▁22 3
▁종교 학
▁대동 운부군옥
▁예술 인
▁압 해
▁27 2
▁휴 전선
▁동지 돈녕부사
▁개성 유수
▁부정 기
▁몰 리
▁세조 대
▁동남 아
▁엿 기름
▁168 5
▁의료 인
▁수요 자
▁개화 당
▁166 3
▁174 2
▁련 주
▁공공 복리
▁164 1
▁164 2
▁164 8
▁145 0
▁145 1
▁101 1
▁137 8
▁영어 영문학
▁S K
▁68 0
▁142 3
▁통영 오광대
▁신사 임당
▁넘어 갔
▁이병 철
▁신성 시
▁무너 졌
▁뱃 속
▁평탄 면
▁경부 선
▁관개 용수
▁도총 부
▁二 十
▁냇 물
▁원활 히
▁곶 감
▁그리스도 교
▁세례 명
▁새우 젓
▁대보 름
▁미사 일
▁스러 움
▁에워 싼
▁천재 지변
▁현왕 도
▁지청 천
▁셰 일
▁부민 관
▁형사소송 법
▁표훈 사
▁펄 프
케이 팅
▁방추 차
▁최세 진
▁사리장 치
애국 부인회
▁노서 동
▁유필 영
▁윤백 남
▁여씨 향약
▁시카 고
▁홍난 파
▁을사사 화
t r
▁ 京
▁ 司
▁ 갤
고 추
도 가
도 시
렬 히
로 드
무 당
무 선
미 경
발 트
보 국
수 다라
앗 이
오 경
요 회
은 문집
장 구
정 지
주 자
주 거지
처 리
테 리아
평 동
평 론
해 자
현 실
호 적
▁이 매
▁이 택
▁의 론
▁다 다
▁하 옥
▁을 축
▁고 축
▁고 풍
▁한 발
▁가 주
▁지 날
▁기 실
▁어 종
▁로 동
▁사 온
▁사 노비
▁대 합
▁여 왕
▁도 발
▁인 방
▁시 말
▁수 채
▁조 덕
▁조 록
▁등 고
▁등 제
▁전 언
▁제 서
▁자 객
▁자 른
▁정 극
▁정 회
▁아 첨
▁아 픔
▁보 각
▁중 고기
▁주 립
▁주 발
▁주 워
▁위 용
▁신 가
▁소 래
▁구 만
▁공 후
▁장 세
▁세 라
▁국 과
▁모 병
▁모 포
▁비 누
▁내 편
▁발 색
▁남 안
▁학 규
▁화 과
▁화 생
▁불 서
▁호 인
▁무 언
▁무 열
▁원 간본
▁우 복
▁선 캄
▁마 가
▁마 친다
▁현 조
▁영 속
▁설 행
▁당 황
▁당 비파
▁간 명
▁산 곡
▁산 판
▁오 묘
▁오 종
▁오 태
▁오 하
▁강 돌
▁통 시
▁통 전
▁계 품
▁안 처
▁안 시성
▁삼 태
▁역 행
▁함 지
▁군 보
▁본 각
▁초 감제
▁분 경
▁재 보험
▁임 목
▁목 통
▁된다 면
▁음 복
▁고려 공산당
▁예 참
▁추 론
▁배 울
▁배 필
▁회 답
▁반 개
▁반 룡
▁운 곡
▁했 었
▁금 장
▁금 척
▁입 면
▁매 염
▁외 기
▁충 장
▁약 장
▁저 질
▁병 충
▁독 학
▁농 암
▁파 가
▁토 굴
▁토 리
▁황 하
▁포 목
▁총 림
▁총 생
▁순 도
▁나타 낼
▁별 단
▁별 미
▁못 자리
▁윤 종
▁축 산물
▁품 앗이
▁걸 식
▁걸 린다
▁측 우기
▁측 우대
▁악 부시
▁스 미
▁불교 가사
▁온 전히
▁존 심
▁궁 술
▁궁 의
▁기관 차
▁난 장
▁너 울
▁갑 주
▁찬 동
▁대상 물
▁응 신
▁맡 겼
▁왜 성
▁터 주
▁강화 읍
▁쌍 여닫이
▁대구 시
▁21 1
▁21 9
▁율 무
▁패 자
▁혹 시
▁납 품
▁영화 배우
▁연주 법
▁휴 게
▁찾아 온
▁지장 사
▁커 졌
▁성주 신
▁빌 리
▁문하 평리
▁네모 나
▁호남 읍지
▁남녀 공학
회의 소
▁보건 소
▁농사 직설
▁171 7
▁받아들 인
▁51 2
▁169 6
▁돌려 주
▁쫓 아
▁지난 날
▁굳 히
▁147 1
▁올림픽 경기
▁김동 진
▁쓸 쓸
▁관상 용
▁이시 영
▁띄 어쓰기
▁반야 심경
▁평론 집
▁국조 보감
▁농가 월령
▁김대 건
▁덧붙 이
▁고증 학
▁군단 장
▁다락 집
▁조부 모
▁천리 마
▁고부 조
▁민정 중
▁나뭇 잎
▁합각 지붕
▁치안 유지
▁잡직 계
▁김주 원
▁한탄 강
▁기질 지성
▁천마 산
▁강동 군
▁남이 흥
▁절실 히
▁닥 나무
▁기암 괴석
▁국산 화
▁양금 신보
▁굽다리 접시
▁불태 워
▁막내 딸
▁맞아들 이
▁노수 현
▁강산 제
광복 회
▁처인 구
▁광한 루
기본 법
▁액정 국
▁외삼 촌
▁주파 수
▁치안유지 법
A I
C H
▁ 在
▁ 辛
▁ 겐
▁ 늠
▁ 름
▁ et
광 기
구 급방
기 에
남 문
네 바
노 소
달 산
민 사
본 다
성 불
순 수비
인 트
장 고
탄 면
포 동
프 라
혈 사
회 상도
휴 학
▁다 정
▁하 경
▁고 해
▁가 화
▁지 심
▁여 조
▁시 고
▁시 야
▁시 효
▁시 김새
▁수 태
▁수 없이
▁전 관
▁전 청
▁전 황
▁일 류
▁제 압
▁제 이
▁부 의
▁자 못
▁자 은
▁자 혜
▁정 작
▁보 경사
▁중 금
▁중 찬
▁경 오
▁주 격
▁나 말
▁신 갈나무
▁문 책
▁상 거래
▁월 하
▁동 성왕
▁면 직
▁면 직물
▁성 거
▁성 환
▁소 추
▁소 극장
▁구 라
▁만 선
▁장 녀
▁세 트
▁세 피리
▁때 리
▁편 승
▁모 꼴
▁모 루
▁권 면
▁내 민
▁내 보내
▁발 심
▁후 견
▁후 회
▁남 류
▁남 제
▁남 생이
▁불 모
▁호 마
▁무 비
▁무 태
▁원 판
▁우 계
▁우 창
▁마 령
▁김 책
▁김 훈
▁형 전
▁형 지
▁영 건
▁영 예
▁설 선
▁설 음
▁간 의
▁산 발
▁산 속
▁강 창
▁강 현
▁통 형
▁계 첩
▁계 화
▁안 흥
▁진 각국사
▁건 학
▁특 효
▁초 중
▁바 란
▁분 전
▁작 인
▁재 부
▁재 연
▁청 류
▁청 석탑
▁목 탄
▁창 종
▁민 수
▁천 천
▁추 성
▁배 꼽
▁배 소
▁법 복
▁법 흥사
▁반 승
▁반 입
▁반 촌
▁백 가
▁북 어
▁용 양
▁용 출
▁봉 헌
▁박 학
▁감 귤
▁감 형
▁외 반
▁속 전
▁약 해
▁승 록
▁직 조
▁저 마
▁심 취
▁파 탄
▁절 급
▁지방 의회
▁지방 재판소
▁향 료
▁근 역
▁좌 창
▁치 부
▁풍 농
▁별 상
▁쓰 러져
▁운동 사
▁운동 자
▁논 공
▁옥 산서원
▁폐 결핵
▁궁 터
▁기관 사
▁검 색
▁질 투
▁25 4
▁25 5
▁사업 체
▁생산 지
▁낙 관
▁막 히
▁전국 민속예술
▁희 로
▁쓴 다고
▁터 미널
▁쌍 성
▁퇴 폐
▁대구 사범학교
▁굴 러
▁패 강
▁사무 직
▁프 린
▁몽 학
▁숭 유
▁숭 인
▁촌 의
▁재산 세
위원 부
▁괴 이
▁선거 관리위원회
▁이동 면
▁혈 족
▁유리 구슬
▁디 딜
▁법원 장
▁남녀 노소
▁동학 가사
▁168 7
▁146 5
▁146 8
미술 회
▁141 9
▁김영 한
▁불러 서
▁푸 조나무
▁기자 재
산사 고
▁수상 자
▁단편 집
▁고성 오광대
▁동맹 휴학
▁143 1
▁183 5
▁국악 인
▁147 6
▁분화 구
▁모자 라
▁하층 민
▁부채 꼴
▁잡혀 가
▁덧붙 였
▁상임 위
▁악장 가사
▁121 7
▁북동 부
▁내려와 서
▁오사 모
인민 위원회
▁문하시 랑
▁칠보 산
▁쫓겨 난
무용 단
▁을지 문덕
▁감염 병
▁재수 굿
▁태백 시
▁성학 십도
▁진부 면
다라니 경
▁벙 어리
▁일각 문
▁귀갑 문
▁해조 류
▁봉상 사
포도 대장
교섭 통상사
▁컬 러
▁베이 징
▁음수 율
언어 학
▁새마을 운동
▁램 프
▁동짓 날
▁미완 성
▁연건 평
▁전국민속예술 경연대회
3 0
l e
▁ #
▁ 丙
▁ 仙
▁ 入
▁ 叱
▁ 寧
▁ 洞
▁ 略
▁ 舊
▁ 贈
▁ 起
▁ 郞
▁ 順
▁ 깡
▁ 꼰
계 도
김 없이
나 갔
도 절제사
렛 당
망 라
목 록
묘 출토
보 냈
분 별
비 록
삭 대엽
석 리
소 비
순 절
아 나
열 반
오 제
오 지
외 국어
의 거
장 지
조 례
중 찬
창 작
크 라
할 머니
해 양
▁이 아
▁다 카
▁다 람쥐
▁은 연
▁고 군
▁고 학
▁가 름
▁지 서
▁어 다
▁로 로
▁로 우
▁인 양
▁시 속
▁시 회
▁조 본
▁조 순
▁조 율
▁정 천
▁서 변
▁경 암
▁주 차
▁관 촉
▁유 금
▁유 체
▁신 우
▁문 두
▁문 초
▁문 충
▁문 판
▁월 례
▁해 례
▁성 시
▁성 창
▁소 판
▁공 병
▁장 장
▁세 초
▁국 부
▁모 재
▁모 주
▁비 디오
▁권 7
▁권 진
▁발 바닥
▁후 치
▁화 백
▁불 국
▁불 릴
▁호 세
▁우 락
▁선 다
▁선 천군
▁김 매기
▁영 순
▁영 입
▁영 원사
▁간 인
▁산 석
▁산 주
▁강 윤
▁계 미
▁양 위
▁안 라
▁안 지
▁진 덕여왕
▁각 신
▁방 점
▁생 과
▁생 포
▁건 위
▁행 기
▁행 전
▁분 무
▁석 화
▁미 끼
▁미 지
▁청 석
▁임 선
▁민 부
▁민 머리
▁왕 벚나무
▁반 문
▁운 흥
▁광 흥창
▁백 구
▁처 신
▁북 대
▁북 도
▁북 정
▁용 암사
▁집 어
▁표 문
▁표 장
▁박 락
▁박 장
▁감 본
▁감 산사
▁매 끈
▁외 벌
▁태 천
▁승 낙
▁직 공
▁저 렴
▁사용 자
▁농 아
▁참 령
▁참 례
▁묘 탑
▁길 주군
▁신라 기
▁황 신
▁황 원
▁잡 신
▁총 망라
▁좌 보
▁좌 주
▁합 용
▁홍 승
▁홍 치
▁윤 공
▁항 시
▁즉 사
▁언 관
▁끝 자락
▁피 선거
▁측 후
▁준 칙
▁폐 광
▁조사 선
▁팔 만
▁친 견
▁급 성장
▁갈 마
▁누 릴
▁난 다고
▁벽 상
▁국민 문학
▁애 인
▁사랑 가
▁겸 손
▁숙 원
▁찬 방
▁졸 곡
▁녹 나무
▁색 감
▁부산 포
▁터 빈
▁24 8
▁23 1
▁28 2
▁28 5
▁세력 가
▁가사 집
▁27 5
▁학술 회의
▁찾아 와서
▁곤 경
▁도로 변
▁연화 사
▁곽 산
▁채색 화
▁혈 관
▁문하 생
조선 사
▁칼 집
▁법인 세
▁37 2
▁융 복
▁불렀 으나
▁금동 보살입상
▁동학 사
대사 탑비
대장 도감
▁득 점
▁180 6
▁생명 체
▁충주 댐
▁근로 기준
▁학부 모
▁쟁 이
▁순수 문학
▁64 7
▁의주 로
▁당초 무늬
▁움직 일
▁해동 가요
▁빙 자
▁두드 려
▁182 0
▁장로 교회
▁사서 삼경
▁험 난
▁취지 서
▁호조 정랑
▁혼례 식
▁엔 진
▁젓 가락
▁예문관 검열
▁지방자치 법
▁가득 히
▁이덕 홍
▁강계 군
▁끼워 져
▁논설 위원
▁이희 승
▁농지 개혁
▁재물 보
▁단단 히
▁만수 무강
▁남사 면
▁순흥 면
(주)( ─
사령 부
▁도래 지
▁식년 시
▁안면 도
▁확고 히
▁이충 무공
▁뉘 우치
▁정정 렬
▁분사 대장도감
▁묘정 비
▁덴 마크
▁음양오행 설
고적 기
▁정충 신
▁평상 복
▁과학기술 처
▁mg /
봉수 대
▁남근 석
▁백록 담
▁수어 청
▁군법 회의
▁마의 태자
▁마니 산
▁독로 강
▁천천 히
▁피선거 권
▁근로기준 법
3 6
▁ ́
▁ 施
▁ 物
▁ 福
▁ 言
▁ 넙
▁ 탔
강 리
룻 배
만 호부
비 둘기
산 문집
살 촉
세 고
세 포
송 사
수 염
숭 록대부
어 문
연 원
영 당
자 족
잣 집
제 법
질 토기
크 리에
태 도
포 구
해 방
혜 왕후
▁의 신
▁고 형
▁으 시
▁가 조
▁가 출
▁어 은
▁어 부사
▁사 해
▁사 섬시
▁도 경
▁도 신
▁도 임
▁도 선사
▁인 리
▁그 릴
▁시 냇
▁시 파
▁수 제
▁일 목
▁제 감
▁제 네바
▁자 반
▁아 쟁
▁보 류
▁와 전
▁서 익
▁관 도
▁유 여
▁신 활
▁신 천군
▁상 금
▁상 재
▁동 류
▁동 아리
▁개 암
▁면 학
▁소 복
▁만 신
▁만 입
▁장 갑
▁장 공
▁세 칭
▁비 분
▁명 량
▁후 부
▁후 창
▁남 전
▁남 다른
▁학 전
▁화 파
▁불 쌍
▁호 명
▁호 출
▁무 거
▁무 업
▁원 산시
▁원 기둥
▁김 가
▁김 려
▁김 매
▁영 송
▁간 독
▁산 불
▁산 파
▁산 가지
▁산 스크
▁거 라
▁오 군
▁오 므
▁단 경
▁단 인
▁계 신
▁양 길
▁양 모
▁안 영
▁안 인
▁진 원
▁각 오
▁각 판
▁방 생
▁방 파
▁삼 년
▁삼 소
▁군 림
▁시대 상
▁초 학자
▁행 자
▁말 세
▁실 감
▁임 석
▁목 동
▁노 사관
▁예 단
▁추 보
▁추 억
▁따라 야
▁배 위
▁회 피
▁백 파
▁금 위
▁차 서
▁차 린다
▁최 순
▁박 한
▁박 형
▁박 호
▁박 홍
▁박 흥
▁박 녹주
▁입 조
▁충 동
▁한국 교육
▁병 석
▁독 신
▁심 역
▁농 간
▁요 한
▁길 일
▁채 인
▁송 달
▁근 정전
▁좌 리
▁앞 채
▁풍 덕
▁열 쇠
▁열 목어
▁죽 도
▁죽 순
▁중심 인물
▁놓 인다
▁육 방
▁걸 어서
▁피 워
▁피 혁
▁허 난
▁암 꽃
▁조사 당
▁친 잠
▁극 명
▁극 한
▁범 벅
▁기술 혁신
▁곡 부
▁급 기
▁업 경
▁이용 우
▁기념 장
▁탑 명
▁국민 부
▁넓 혔
▁전문 직
▁연대 장
▁겸 했
▁숙 직
▁숙 부인
▁너 희
▁격 몽
▁장식 물
▁섬 겨
▁노동 법
▁리 라고
▁베 네
▁굴 레
▁놀이 터
▁흑 단
▁흑 치
▁메 시지
▁숭 례문
교육 회
▁민간 단체
▁최고 위
▁한성 준
▁괴 목
▁좁 혀
▁서양 인
▁커 피
▁비로 암
▁가락 지
▁금융 조합
▁형제 자매
▁앙 부
▁테 크
▁삭 탈
▁162 1
▁군대 해산
▁통제 영
▁출발 점
▁150 4
▁55 4
▁태평 성대
▁지장보살 본원경
▁생겨 서
▁64 2
▁왕자 의
▁175 6
▁연장 자
▁하사 관
▁놓여 져
▁모음 조화
▁궤 장
▁경관 직
▁선원 전
▁정서 법
▁굳 이
▁147 8
▁신경 준
▁사사 로이
▁시왕 도
▁어사 대부
▁열린 교육
▁148 1
▁감찰 어사
▁진정 한
▁민주주의 민족
▁꺼 리
왕릉 비
▁창호 지
▁kW ,
▁긴급 조치
▁영웅 소설
▁화문 석
▁황종 궁
리석 조
▁정국 공신
▁대명 률
▁삼강 행실도
▁간척 지
▁드나 드
▁해탈 문
▁무수 히
▁본초 강목
▁사향 노루
▁자급 자족
▁총사령 관
▁어망 추
▁맞춘 다
▁괄 목
▁해부 학
▁唐 書
▁건원 릉
▁변증 법
▁두류 산
▁산유 화
▁황초 령
▁상서우 복야
▁다대 포
▁차경 석
▁홍봉 한
▁여주인 공
▁간반 통
▁연려 실
크리에 이션
▁산스크 리트
▁노사관 계
▁민주주의민족 전선
2 4
i r
u c
▁ 興
▁ 谷
▁ 院
▁ 낯
▁ 듸
▁ 샀
▁ 쌈
▁ 찻
▁ 쐐기
간 접
감 독
감 로왕도
강 산
고 종
공 보
국 방
급 식
기 능
난 공신
니 라
대 언
덕 부
두 렁
라 비아
르 방
립 박물관
보 궁
비 서
삿 갓
소 금
어 드
오 른
위 전
의 숙
입 문
전 권
종 사
지 세
지 장
치 부법
토 지
패 류
풍 경
▁이 변
▁의 림
▁의 한다
▁하 방
▁고 갈
▁고 싸움
▁으 레
▁지 워
▁기 현
▁기 른다
▁어 초
▁어 골문
▁사 막
▁대 릉
▁대 림
▁대 엽
▁여 전
▁인 골
▁인 디
▁시 안
▁수 과
▁조 라
▁전 강
▁전 륜
▁적 기
▁부 국
▁부 업
▁부 치
▁자 류
▁자 오
▁아 수
▁아 픈
▁중 진
▁경 건
▁경 승
▁경 무사
▁경 공장
▁주 칠
▁관 비
▁관 위
▁동 적
▁개 역
▁연 표
▁연 시조
▁소 행
▁구 유
▁공 의회
▁장 목
▁국 대부인
▁편 경
▁모 악산
▁교 만
▁비 주
▁내 의원
▁명 안
▁원 심
▁우 현
▁선 잠
▁마 마
▁김 식
▁김 후
▁영 실
▁간 재
▁통 찰
▁양 문
▁진 헌
▁삼 촌
▁함 몰
▁건 과
▁초 정
▁바 루
▁작 아지
▁재 비
▁재 회
▁실 측
▁석 총
▁임 란
▁추 도
▁추 향
▁회 중
▁광 기
▁백 신
▁북 창
▁용 운
▁박 일
▁박 첨지
▁감 호
▁물 주
▁속 장경
▁태 교
▁복 서
▁달 밤
▁판 옥
▁증 후
▁교육 장
▁요 로
▁토 하
▁향 피리
▁체 급
▁채 점
▁송 당
▁송 죽
▁근 사
▁근 우회
▁황 칠
▁더 늠
▁앞 날
▁앞 다리
▁풍 천면
▁식 목
▁식 자
▁윤 색
▁윤 휴
▁축 선
▁손 색
▁손 톱
▁20 20
▁완 의
▁옥 주
▁스 리
▁온 난
▁창건 주
▁곡 간
▁누 상
▁난 전
▁몸 주
▁투 전
▁특별 활동
▁막 부
▁읍 호
▁널 판
▁내려 지
▁징 관
▁징 집
▁민속 악
▁22 7
▁현대 인
▁양성 지
▁흑 선
▁돈 오
▁26 1
▁몽 유
▁몽 둥이
▁답 문
▁답 서
▁주목 적
▁가정 법원
▁덮 인
▁묵 란
▁묵 인
▁휘 두
▁한성 도서주식회사
▁대통령 상
▁교통 량
▁탐 내
▁사리 병
▁지구 당
▁시집 가
▁궁중 음악
▁참가 자
▁무용 수
▁택 사
▁해외 건설
▁찍 힌
▁39 0
▁136 5
▁원효 대사
▁삼성 그룹
▁밥 상
▁섭 정
▁받아들 일
▁중부 방언
▁냉 전
▁182 3
▁ᄂ ᆡ
▁142 0
▁142 2
▁불법 행위
▁실무 자
▁정인 섭
▁92 7
▁148 8
▁곰 팡이
▁한산 주
an a
▁저작 물
▁156 5
▁참전 하
▁올바 로
▁151 9
▁증명 서
▁꿀 벌
▁진지 왕
▁대덕 구
▁대덕 산
▁당산 제
▁농지 개량
▁의심 나
▁육상 경기
▁절충 장군
▁용문 산
▁태실 비
▁만수 대
▁□ □
▁태안 사
▁도안 화
▁어획 량
▁日 記
▁유관 순
▁정희 왕후
▁남조선 노동당
▁솟을 삼문
▁료 의
석조 여래좌상
▁긁 개
요의 경
▁싸웠 으나
▁진무 공신
▁대둔 산
▁다방 면
▁재외 동포
▁불러일으 키
▁종유 석
▁직관 지
▁碑 銘
▁범람 원
▁양로 원
▁취체 역
▁스며 들
▁적멸 보궁
▁크리스 마스
▁떠내 려
▁그믐 날
▁문방 구
시의 방
▁설인 귀
▁규곤 시의방
▁금난 전권
▁게을 리
수다라 요의경
▁mg/ l
▁앙부 일구
A N
▁ 儒
▁ 卍
▁ 土
▁ 思
▁ 濟
▁ 答
▁ 臺
▁ 證
▁ 貞
▁ 묽
▁ 볕
▁ 얀
▁ 텐
가 집
검 정
경 찰
고 개
고 수
규 범
기 계
녹 색
당 간
동 묘
러 리
령 전
로 우
방 직
병 영
약 수
언 신
운 암
유 품
이 드
저 포
젤 러
종 이
진 언
차 비
타 브
틸 렌
펜 젤러
현 교회
후 원
▁다 거나
▁하 숙
▁하 얗
▁을 수록
▁은 대
▁가 다듬
▁지 중
▁지 천
▁어 군
▁어 둠
▁사 죄
▁대 범
▁도 박
▁인 준
▁그 을
▁시 름
▁수 달
▁조 긍
▁등 요
▁일 간지
▁부 성
▁정 배
▁보 로
▁중 임
▁경 각
▁경 외
▁나 트륨
▁유 폐
▁유 득공
▁신 록
▁신 립
▁동 약
▁해 고
▁연 승
▁소 명
▁소 천
▁장 살
▁장 양
▁장 거리
▁세 보
▁조선 불교
▁조선 물산
▁국 판
▁교 가
▁비 열
▁비 서관
▁권 대
▁내 방
▁내 원사
▁내 금강
▁명 심
▁호 랑
▁무 아
▁원 도
▁원 림
▁원 의
▁선 모
▁선 운
▁마 그네
▁현 릉
▁형 수
▁영 회
▁당 회
▁거 불
▁오 금
▁오 보
▁오 진
▁단 명
▁단 수
▁강 국
▁계 교
▁안 당
▁안 자
▁안 태
▁진 구
▁각 체
▁방 망이
▁종 통
▁삼 릉
▁역 자
▁본 보기
▁초 관
▁작 두
▁작 아
▁재 경
▁재 식
▁실 생활
▁청 안
▁청 약
▁청 암사
▁임 계
▁노 산
▁창 화
▁민 본
▁음 주
▁음 효
▁천 과
▁배 일
▁배 종
▁반 반
▁운 도
▁운 사
▁금 품
▁용 소
▁용 적
▁집 전
▁매 진
▁매 질
▁물 방울
▁충 익
▁12 00
▁한국 음악
▁병 졸
▁돌 살촉
▁복 도
▁심 초
▁증 도
▁파 자
▁채 웠
▁송 자
▁송 현
▁순 시
▁치 아
▁살 생
▁아니 리
▁열 부
▁윤 부
▁논 박
▁논 리학
▁학교 급식
▁언 사
▁육 화
▁옥 타브
▁경기 민요
▁허 사
▁허 영
▁허 유
▁허 통
▁환 두
▁문화 예술
▁악 업
▁스 탠
▁스 티
▁능 화
▁기술 원
▁질 박
▁생산 액
▁흥 겨운
▁전문 지
▁염 분
▁춘 주
▁익 선
▁음악 학
▁녹 지
▁응 징
▁꽃 밭
▁버 림
▁토지 조사사업
▁척 신
▁골 품
▁징 표
▁혜 경궁
▁엄 마
▁둔 갑
▁26 6
▁싸 인
▁흐 트
▁29 8
▁31 8
▁사신 도
▁균 전
▁반대 편
리학 회
▁도로 망
▁' ,
▁앉 은
▁모여 드
▁비로 봉
▁웅 대
▁집행 유예
▁김정 숙
▁전적 지
▁아름다 우
▁수학 자
▁정기 룡
▁욕 실
▁디 스크
▁레 저
▁레 슬링
▁레 크리에이션
▁동남 구
▁산신 령
▁전환 기
▁161 1
▁트 리
▁53 0
▁184 1
▁실업 가
▁65 1
▁67 5
▁종친 회
▁조국 통일
▁느냐 고
▁ᄆ ᆞ
▁칙 사
▁비상 사태
▁158 0
▁증거 물
▁포도 대장
▁지신 사
▁정수 사
▁수확 량
▁수심 가
▁비평 가
대왕 신
▁노랫 가락
▁圖 經
▁풍산 읍
개발 원
▁상관 없이
▁촬영 소
▁강희 안
▁단조 로운
▁끊임 없
▁관현 악단
▁마찰 음
▁좌정 승
▁진찬 의궤
▁불태 우
▁학무 국
▁마이 크
▁조총 련
▁만기 요람
▁안타 깝
▁저수 량
▁일깨 우
▁공청 회
▁오스트 리아
▁우체 국
▁윤석 중
▁Kore a
▁김환 기
▁페르 시아
▁맹주 국
▁구청 장
▁금광명 경
▁억지 로
▁영묘 사
▁홍길 동
▁방파 제
u t
▁ 左
▁ 師
▁ 秋
▁ 造
▁ 鳳
▁ 뮈
▁ 뻔
▁ 앗
▁ 컵
▁ 껍데기
거 울
고 금
고 등
과 이
규 일
기 러기
남 동
노 농
단 위
대 제학
돌 칼
뚜 껑
론 소
만 히
문 회
봉 서원
센 트
속 록
어 학교
요 연
의 료
전 적
제 철
진 리
징 악
차 기
협 판
▁이 등
▁에 는
▁에 도
▁에 스
▁다 룰
▁하 가
▁고 은
▁한 솔
▁한 적
▁한 의사
▁지 중추원사
▁지 추밀원사
▁사 농
▁사 릉
▁도 첩
▁도 헌
▁인 중
▁등 등
▁등 본
▁전 명
▁전 품
▁일 천
▁자 획
▁정 혼
▁중 보
▁경 락
▁나 쁘
▁나 사
▁관 재
▁유 건
▁유 우
▁유 존
▁신 윤
▁신 일
▁상 명
▁월 야
▁개 부
▁개 로왕
▁면 할
▁성 례
▁성 설
▁성 좌
▁연 필
▁소 록
▁구 군
▁구 급
▁만 병
▁장 제
▁세 움
▁조선 학생
▁교 내
▁권 4
▁내 루
▁명 관
▁명 유
▁명 작
▁후 춧가루
▁남 미
▁남 일
▁화 대
▁화 류
▁화 채
▁불 인
▁호 신
▁호 피
▁무 릇
▁우 로
▁우 록
▁우 묵
▁마 군
▁마 소
▁김 담
▁김 억
▁김 룡사
▁형 개
▁형 구
▁산 적
▁거 더
▁오 만
▁오 악
▁오 조
▁강 촌
▁계 동
▁양 종
▁양 통
▁두 목
▁삼 단
▁초 토
▁초 파일
▁평 사
▁평 준
▁임 고
▁목 축
▁창 포
▁음 란
▁고려 청자
▁천 산
▁천 한
▁출 몰
▁배 영
▁운 공
▁운 화
▁광 교
▁용 납
▁차 라리
▁집 들이
▁봉 향
▁최 연
▁점 필
▁물 걸리
▁태 선
▁직 금
▁독 실
▁판 돌
▁향 산
▁향 우
▁향 중
▁체 형
▁체 찰사
▁송 산
▁황 두
▁황 순
▁황 장
▁황 현
▁담 황색
▁치 석
▁치 죄
▁홍 윤
▁앞 머리
▁풍 긴다
▁귀 결
▁별 기
▁죽 계
▁손 씨
▁항 성
▁육 정
▁대학 사
▁옥 룡
▁피 란
▁허 다
▁허 한
▁암 기
▁암 통
▁능 산리
▁능 가사
▁곡 목
▁침 례
▁침 몰
▁침 상
▁몸 가짐
▁투 척
▁헌 덕왕
▁막 강
▁막 연
▁의식 요
▁사상 자
▁접 객
▁니 켈
▁탄 약
▁응 방
▁국제 기구
▁터 진
▁쌍 사
▁척 추
▁발달 사
▁굴 리
▁바탕 흙
▁탈 놀음
▁도시 계획
▁23 8
▁설화 집
▁빈 부
▁몽 리
▁압 운
▁경성 사범학교
▁휴 머니즘
▁코 발트
▁환경 공학
▁동물 담
▁국사 당
▁기독교 대한
▁이기 영
▁인쇄 술
▁34 5
▁건국 대학교
▁공급 원
▁140 4
▁서경 시
▁가져 가
▁발원 지
▁90 4
▁트 여
▁54 0
▁169 1
▁183 8
▁145 9
▁127 4
▁127 6
▁137 9
▁함흥 시
▁수양 산
▁181 7
▁144 0
▁합쳐 진
▁거문고 산조
▁서화 미술회
▁공로 상
▁칙 명
▁새끼 줄
▁화장 실
▁155 0
▁심판 관
▁석유 화학공업
▁울릉 군
▁장원 서
▁이장 하
▁대단 위
▁아라 비아
▁쿠 바
민족 행위
▁조선어 학
▁궐 기
▁이진 상
▁김우 옹
▁123 2
▁만경 강
▁금호 강
▁국역 본
▁개헌 안
▁달아 났
▁공보 처
▁양기 탁
▁경무 청
▁실학 파
▁폴 리에
▁바리 공주
▁엉 덩이
▁본연 지성
▁천문학 자
▁관북 지방
▁앞세 워
▁사회과학 원
▁밧 줄
▁우러 나
▁총지 휘
▁호암 미술관
▁심부 름
▁다보 탑
▁사벌 주
▁사철 나무
▁고임 돌
▁별군 직
▁한테 서
▁충현 서원
▁지문하 성사
▁장말 손
▁관촉 사
▁일목 요연
2 7
O R
e a
h y
▁ &
▁ 使
▁ 保
▁ 前
▁ 報
▁ 宋
▁ 宣
▁ 尹
▁ 源
▁ 蓮
▁ 갹
▁ 됴
▁ 짊
▁ 󰠐
▁ 菩薩
개 비
노 인
댕 이
덮 깃
랑 어
러 우
로 워
마 켓
번 식지
보 유
불 이
빨 리
사 장
삼 세
서 화
육 사
일 사
일 승
주 경
치 지
탈 해
함 산
합 성
호 부사
화 복
흗 날
▁이 증
▁이 타
▁하 공
▁고 열
▁한 독
▁한 삼
▁한 재
▁가 교
▁지 력
▁어 룡
▁어 조
▁대 세
▁대 운
▁여 회
▁인 습
▁인 화문
▁수 마
▁조 언
▁조 흥
▁조 가비
▁전 농
▁전 토
▁일 변
▁일 세
▁부 잣집
▁정 노
▁정 력
▁정 효
▁아 산면
▁중 죄
▁중 모음
▁들 쭉
▁위 천
▁유 안
▁신 연
▁문 생
▁문 영
▁동 수
▁동 현
▁동 활자
▁개 점
▁해 리
▁면 상
▁연 제
▁연 조
▁소 진
▁공 설
▁공 이
▁장 암
▁장 진군
▁세 신
▁편 복
▁모 현
▁비 안
▁발 탈
▁화 시
▁불 영사
▁호 호
▁무 송
▁원 비
▁마 대
▁마 차
▁김 위
▁김 항
▁영 력
▁간 곡
▁간 대
▁간 서
▁산 통
▁거 세
▁거 센
▁강 독
▁양 극
▁안 견
▁안 규
▁방 부
▁방 콕
▁본 령
▁본 론
▁건 실
▁초 례
▁초 제
▁행 패
▁분 쇄
▁작 중
▁재 력
▁재 치
▁석 정
▁미 산
▁미 시
▁청 련사
▁임 오
▁목 자
▁노 닐
▁민 치
▁음 성군
▁천 문관
▁배 지느러미
▁회 례악
▁법 기
▁반 수
▁대한 청년단
▁광 활
▁백 련암
▁금 실
▁용 동
▁최 북
▁입 소
▁감 탕
▁감 퇴
▁외 도
▁태 운
▁승 원
▁승 자
▁승 정
▁승 평
▁직 강
▁저 당
▁병 무
▁돌 칼
▁달 집
▁증 좌
▁증 치
▁교육 회
▁요 코
▁송 천
▁근 방
▁잡 상
▁좌 석
▁담 비
▁풍 월
▁식 화
▁별 책
▁열 세
▁죽 지사
▁윤 형
▁손 등
▁육 위
▁측 편
▁악 절
▁폐 정
▁온 정
▁타 국
▁범 절
▁누 문
▁통일 성
▁정치 가
▁백제 본기
▁접 두
▁접 혀
▁전문 부
▁갑 산군
▁니 라
▁격 년
▁격 분
▁찬 정
▁익 선관
▁느 라
▁국제 통
▁힘 찬
▁술 법
▁내려 올
▁신문 고
▁민속 극
▁혜 명
▁떨어 뜨리
▁엄 금
▁빈 틈
▁이유 원
교육 대학교
▁기원 후
▁코 트
▁몰 딩
▁동일 인
▁괴 물
▁탐 정
▁35 5
▁32 3
▁32 4
▁32 5
▁사망 자
▁공연 장
▁나가 사키
▁미륵 신앙
▁관서 지방
▁가마 솥
▁웅 기
▁인용 문
▁159 5
▁뽑 혀
▁빼 내
▁액 운
▁유치 면
▁꿈 꾸
▁141 1
▁180 7
▁태평 광기
▁빗 살문
▁묶 여
▁선수 단
▁연장 선
▁교원 양성소
▁51 4
▁쥐 띠
동맹 회
▁이건 창
▁겉 감
▁모셔 진
▁사대부 가
▁사사 로운
▁157 4
▁157 8
▁무산 자
▁두꺼 우
▁158 7
▁148 4
▁박정 양
▁정진 하
▁필수 품
▁자서 전
▁자비 도량참법
▁상속 세
▁149 5
▁청풍 면
▁뱃 길
▁못한다 고
▁ᄇ ᆡ
▁워 드
▁kg ,
▁길흉 화복
▁화전 민
▁이태 준
▁약수 터
▁김주 희
▁안산 암
▁김만 중
▁처용 가
▁천불 전
▁이강 년
▁이서 구
▁청장 년
▁조지 훈
▁뭉 치
▁소중 히
▁부귀 영화
▁이홍 장
▁대세지보살 상
▁주산 지
▁볏 단
▁청학 동
▁백마 강
▁太 平
▁도지 권
통상 조약
▁만월 대
▁조위 총
화기 법
제일 고등학교
▁탕평 책
▁대례 복
▁叢 書
▁상평 통보
▁홍문관부 제학
▁慶 尙
▁아시 안
▁붉은 간토기
평화 통일
▁삼죽 금보
▁애월 읍
▁혁명가 극
▁쏟아 져
▁싫어 하
▁미선 나무
▁탄수 화물
▁은연 중
▁연려실 기술
2 8
~ 7
▁ Z
▁ 士
▁ 將
▁ 章
▁ 聲
▁ 閨
▁ 館
▁ 馬
▁ 꼼
▁ 델
▁ 멘
▁ 쉰
▁ in
○ ○
가 해
강 록
관 련
괘 불도
교 도
구 국
구 석
나 부
단 경
도 로
도 성
도 독부
따 구리
력 조선연맹
백 화점
사 적
암 지
옥 저
왕 지
의 동
이 프
젝 트
집 권
집 행
총 력조선연맹
투 표
파 천
판 목
화 성
환 자나무
▁이 예
▁이 향
▁이 천군
▁하 우
▁고 두
▁고 란
▁한 주
▁가 실
▁가 짜
▁지 당
▁지 변
▁지 병
▁지 병마사
▁어 유
▁어 화
▁어 패류
▁사 현
▁대 설
▁여 라
▁도 치
▁도 톰
▁인 순
▁그 윽
▁시 직
▁조 밀
▁등 과
▁전 태
▁자 랄
▁자 활
▁중 역
▁경 책
▁주 국
▁나 눠
▁위 선
▁관 운
▁유 이
▁신 농
▁신 복
▁신 효
▁월 곡
▁월 지
▁동 악
▁개 도
▁해 열
▁성 구
▁연 체
▁소 포
▁공 성
▁공 진
▁공 탁
▁세 창
▁조선 대학교
▁조선 독립
▁편 재
▁모 던
▁비 어
▁비 회
▁권 투
▁내 해
▁발 길
▁발 등
▁명 천군
▁후 집
▁남 분
▁불 발
▁호 가
▁무 마
▁원 돈
▁우 울
▁선 세
▁마 실
▁마 장
▁김 류
▁형 평사
▁할 수록
▁설 천면
▁당 무
▁당 중앙
▁간 여
▁산 부
▁오 교
▁계 장
▁두 상
▁안 골
▁안 석
▁안 핵사
▁진 솔
▁진 에
▁진 왕
▁생 문
▁생 토
▁종 숙
▁종 인
▁따 비
▁역 력
▁건 달
▁바 오로
▁행 초
▁분 홍
▁작 부
▁말 띠
▁청 실
▁목 호
▁민 지
▁민 방위
▁음 색
▁천 계
▁회 문
▁왕 기
▁반 곡
▁반 엽
▁광 지
▁금 남
▁북 전
▁용 융
▁용 자
▁용 전
▁용 천군
▁봉 성
▁최 이
▁박 서
▁감 고
▁외 구
▁외 로운
▁속 설
▁속 어
▁태 릉
▁태 복
▁복 고
▁심 고
▁심 수
▁판 권
▁파 찰음
▁참 의원
▁절 후
▁포 쇄
▁필 라
▁좌 표
▁담 뱃
▁홍 서
▁철 선
▁철 판
▁열 정
▁축 국
▁축 생
▁육 기
▁사이 버
▁협 무
▁허 종
▁암 소
▁급 급
▁세계 사
▁통일 안
▁밀 수
▁단체 교섭
▁행정 소송
▁국민 총력조선연맹
▁목적 물
▁갑 각
▁희 빈
▁졸 참나무
▁옛 적
▁녹 용
▁응 진
▁부산 항
▁24 9
▁잠 기
▁광주 학생
▁쇠 뿔
▁빈 전
▁농업 교육
▁세종 대학교
▁27 3
▁잔 나비
▁밤 새
▁29 6
▁묵 재
▁31 2
▁31 5
▁계승 자
▁사당 패
▁뿌 린
▁웅 주
▁극락 암
▁읽 혀
▁수출 액
▁재판 장
▁37 5
▁사설 시조
대사 탑
▁146 3
▁141 2
▁보건 복지
▁지주 사
▁다스 름
▁64 8
▁팽 팽
▁66 3
▁떨어져 서
▁47 0
▁169 9
▁143 5
▁183 3
▁달라 질
▁67 6
▁137 6
노동 자
▁독서 당
▁보성 강
▁흘러내 렸
▁85 0
▁명주 실
▁외국인 투자
▁93 5
▁158 8
경제 부
▁협동 농장
▁의문 문
▁기관지 염
▁L G
레이 트
▁모란 꽃
▁지신 상
▁맏 형
▁씌 운
▁재일 본
▁뱃 놀이
▁109 8
▁구리 시
▁ᄇ ᆞ
▁치우 치
▁원삼 국
▁선각 자
▁살아 온
▁외관 직
▁관모 봉
at ion
▁수의 학
▁로마 자
▁엄지 손가락
▁신속 히
▁공보 관
▁충적 평야
▁미타 신앙
▁특산 종
▁日 本
▁어려우 므로
▁충북 대학교
▁세도 정치
▁지제 고
▁김자 점
▁승주 읍
▁기보 법
화기 금
▁권선 징악
▁漢 書
▁조선문 인
▁뒤따 라
▁최명 길
▁갑자 사화
▁평리 원
▁사금 융
▁격물 치지
▁국가보 안법
▁동중 서
석장 승
▁대방광원각 수다라요의경
▁혼천 의
▁대한독립촉성 국민회
▁산등 성이
▁대한통 의부
▁복천 암
▁무록 관
▁마운 령
▁귀거래 사
▁국제통 화기금
▁보건복지 부
i i
o b
u d
▁ 外
▁ 庵
▁ 戊
▁ 輿
▁ 關
▁ 魚
▁ 깜
▁ 렸
▁ 휜
▁ 림사
▁ 벚나무
감 사
개 명
고 성
관 부
관 한
꼭 대기
노 부
담 문집
독 본
두 품
드 문
떼 기
메 이션
목 리
버 드
비 결
서 림
에 관한
예 지
오 기
용 성
원 수
유 일
은 입사
직 해
천 문
클 럽
토 록
필 수
화 리
흥 록
▁이 랑
▁이 분
▁이 삼
▁이 심
▁의 녀
▁의 릉
▁의 물
▁의 태
▁하 겸
▁하 소
▁하 일
▁하 키
▁고 준
▁한 백
▁가 악
▁지 폐
▁사 급
▁사 력
▁여 문
▁도 운
▁인 록
▁시 녀
▁시 자
▁수 족
▁수 키와
▁전 랑
▁전 량
▁전 병
▁전 석
▁일 동
▁제 독
▁제 삼
▁부 농
▁정 련
▁정 맥
▁아 펜젤러
▁서 단
▁경 국사
▁주 판
▁들 렸
▁위 나라
▁관 어
▁관 문서
▁유 류
▁유 만
▁신 군부
▁문 건
▁문 선왕
▁상 등
▁상 술
▁개 띠
▁개 략
▁해 구
▁성 비
▁연 무
▁소 두
▁소 하
▁구 걸
▁만 보
▁만 안
▁만 대엽
▁장 동
▁교 향
▁비 아
▁발 부
▁발 자
▁명 해
▁학 산
▁화 부
▁화 왕
▁불 규칙
▁호 접
▁무 토
▁무 분별
▁원 격
▁원 관
▁원 덕
▁선 의
▁마 술
▁김 건
▁현 기
▁현 화사
▁영 부
▁설 단
▁설 봉
▁간 과
▁간 언
▁간 자
▁간 다고
▁산 꼭대기
▁통 관
▁통 통
▁통 훈대부
▁계 녀
▁양 류
▁양 해
▁두 문
▁방 공
▁종 서
▁삼 운
▁삼 학
▁특 설
▁초 도
▁바 뀔
▁분 철
▁미 녀
▁미 쓰
▁청 헌
▁노 산군
▁노 정기
▁고려 대장경
▁회 비
▁회 생
▁회 자
▁법 경
▁법 치주의
▁운 산면
▁광 맥
▁광 서
▁백 률사
▁금 계
▁차 입
▁박 만
▁박 민
▁박 소
▁알 파
▁규 식
▁속 히
▁태 보
▁승 복
▁한국 고
▁병 조참
▁독 락
▁돌 대
▁사용 법
▁참 교
▁총 설
▁사회 사
▁더 라
▁치 자
▁홍 낙
▁별 무
▁열 흘
▁윤 번
▁중심 축
▁육 각
▁육 중
▁옥 대
▁위원 단
▁협 주
▁허 망
▁허 실
▁준 장
▁팔 월
▁친 연
▁급 선무
▁나무 과
▁붙 임
▁드 릴
▁특별 회계
▁사랑 마루
▁숙 제
▁익 재
▁응 급
▁망 어업
▁터 져
▁버 나
▁풀 리
▁풀 무
▁굴 려
▁탈 바꿈
▁패 랭이
▁26 4
▁숭 림사
▁경성 의학전문학교
▁27 4
▁공신 전
▁이사 부
▁칭 한
▁경사 도
▁겹 겹
▁썼 으나
▁가야 국
▁객 실
▁웅 거
▁입학 생
조선 인
▁재판 관
▁인해 서
▁굵 직
▁홀 연히
▁아동 극
▁뇌 성
▁끊 기
▁55 3
▁41 9
▁64 5
▁수사 법
▁184 3
▁유성 준
▁46 0
▁드리 우
▁숨 기
▁중시 조
▁137 0
▁선원 록
▁58 0
▁봉화 산
▁신선 사상
▁지질 도
▁실정 법
▁원시 림
▁으려 면
▁태어났 으며
▁시왕 전
▁긍 선
▁주문 모
▁여행 자
▁148 2
▁155 6
▁유수 부
▁포교 당
▁신흥 무관학교
▁타령 장단
▁드문 드문
▁정동 행성
▁매화 나무
▁시종 원
▁뱃 노래
▁문물 제도
고사 리
▁관세음보살 상
▁대종 회
▁재령 군
▁도솔 가
▁오방 신장
역사 박물관
▁조석 진
▁홍익 인간
▁우부 승선
▁실학 사상
▁반달 돌칼
▁사교 과
▁체신 부
▁화양 동
▁통리 교섭통상사
▁김봉 남
▁나아 갔
▁삼중 대사
행록 절요
▁부군 당
▁조교 수
▁참상 관
▁이은 상
▁자명 종
▁괴롭 히
▁이돈 우
▁임성 주
▁내자 시
부흥 운동
▁김조 순
▁은밀 히
▁소프트 웨어
▁ᄠᅳ ᆷ
▁대한적십자 사
▁조긍 섭
▁병조참 지
▁통리교섭통상사 무아문
2 9
▁ ᅭ
▁ 分
▁ 合
▁ 延
▁ 梁
▁ 湖
▁ 知
▁ 編
▁ 野
▁ 龜
▁ 찼
▁ 켤
가 동맹
강 정
고 집
공 제회
교 원
금 석
기 금
네 마
는 소리
당 겨
도 원
독 문학
둔 토
드 민
롱 나무
림 면
무 게
박 씨
발 자국
벌 찬
상 여
상 지
상 훈
새 우
서 절요
설 음
이 승
저 창
좌 우
질 랜드
집 설
트 로
학 우회
후 불탱
▁이 십
▁이 억
▁의 고
▁다 케
▁하 규일
▁고 라
▁고 법
▁한 종
▁가 행
▁기 왕
▁기 혈
▁어 절
▁사 반
▁대 곡
▁대 충
▁여 울
▁도 맡
▁인 치
▁조 유
▁조 흡
▁전 범
▁일 례
▁일 임
▁부 덕
▁부 러
▁자 보
▁자 시
▁정 범
▁정 축
▁보 월
▁보 타
▁보 머리
▁보 길도
▁중 히
▁경 절
▁주 생
▁들 렀
▁나 날
▁유 빈
▁신 료
▁상 달
▁상 추
▁상 서원
▁동 감
▁동 흥
▁개 막
▁면 주
▁성 복
▁연 곽
▁소 띠
▁소 회
▁만 고
▁장 직
▁편 견
▁편 편
▁비 봉
▁비 합
▁권 필
▁내 만
▁내 장사
▁남 중
▁학 비
▁화 방사
▁화 요회
▁불 청
▁무 생
▁무 임
▁원 저
▁우 금
▁우 재
▁선 단
▁김 문기
▁당 론
▁당 성
▁산 비
▁오 시
▁강 관
▁통 수
▁양 강
▁두 주
▁안 거
▁각 대
▁방 각
▁종 명
▁삼 학사
▁없 앤
▁초 경
▁행 공
▁분 면
▁재 간
▁말 총
▁미 모
▁미 원
▁미 친다
▁평 신
▁임 동
▁임 술
▁목 가
▁노 전
▁뒤 지
▁음 죽
▁예 관
▁예 지
▁천 국
▁추 강
▁추 려
▁반 론
▁광 과
▁광 명사
▁북 류
▁북 제
▁차 청
▁집 례
▁표 어
▁최 은
▁박 스
▁입 부
▁감 복
▁외 거
▁외 전
▁물 목
▁속 량
▁속 옷
▁저 소득
▁판 축
▁참 깨
▁묘 한
▁향 명
▁향 전
▁체 코
▁채 홍
▁송 규
▁송 주
▁송 하
▁송 희
▁포 르
▁포 스트
▁순 무
▁치 법
▁합 자보
▁홍 상
▁풍 저창
▁철 인
▁열 병
▁취 고수
▁언 의
▁육 언
▁완 구
▁측 선
▁관련 지
▁문화 방송
▁극 성
▁범 띠
▁갈 돌
▁갈 비
▁난 류
▁밀 고
▁몸 무게
▁행정 과
▁25 3
▁25 8
▁애 장
▁염 두
▁겸 대
▁격 구
▁격 변
▁탄 신
▁색 리
▁내려 준
▁퇴 량
▁패 류
▁패 엽
▁현대 어
▁사무 원
▁28 4
▁26 8
▁부여 군
▁이유 태
▁배향 공신
▁묵 매
▁번역 극
▁몰 라
▁상징 주의
▁식물 학
▁부엌 방
▁전자 공학
▁탐 방
▁기독교 인
▁앉 히
▁소유 주
▁36 6
▁부속 품
▁해외 투자
▁관료 제
▁네모 뿔
▁특정 인
▁바깥 채
▁39 2
▁태평 소
▁밥 그릇
▁174 3
▁보리 밥
▁183 7
▁49 0
▁167 2
▁56 0
▁뉴 질랜드
▁173 2
▁173 9
▁실록 청
▁K S
▁향약 구급방
▁흘러내 린다
▁ᄆ ᆡ
▁씻 김굿
▁닭 띠
▁95 0
▁155 3
▁범죄 자
▁김시 민
▁유전 자원
▁올바 름
▁플 랜
▁그리스 어
▁정화 수
▁의존 도
▁김대 현
▁91 9
▁신인 종
▁심성 론
▁진실 로
▁대정 현
▁담겨 져
▁석주 선
▁조병 옥
▁잊 어버
▁연등 회
▁수비 대
▁구부 러진
▁일어 서
▁거칠 부
▁광양 시
▁유력 자
▁133 0
▁불설 대
▁조지 서
▁휴식 처
건설 본부
▁수표 교
▁박용 만
▁기악 곡
여래삼존 상
▁구인 사
▁접수 국
▁벨 기에
▁인의 예지
▁충의 위
▁방정 환
극락 전
▁몽산 화상
▁그네 뛰기
▁총본 산
▁아미 산
▁금마 면
▁節 目
▁장충 단
▁척화 비
▁정난 공신
▁자치통감 강목
▁슈퍼 마켓
▁허백 련
▁무찌 르
▁대홍 수
▁독어 독문학
▁허벅 지
▁개서 어나무
▁저어 새
경비 대
▁골각 기
▁휘두 르
▁정진하 였
드민 턴
3 3
i um
▁ 也
▁ 勝
▁ 巖
▁ 草
▁ 赤
▁ 뿜
▁ 씹
▁ 튜
▁ 퍽
감 영
구 시
당 굿
대 계
도 교
말 본
명 전
모 은중경
무 더기
미 인곡
분 류
비 리
스 티
양 속
어 앉
어 질
연 도
적 도
즉 리
타 라
태 고종
토 끼
투 쟁
항 사
형 식
화 산
▁이 생
▁의 랑
▁다 발
▁고 덕
▁고 른
▁고 토
▁가 결
▁지 족
▁기 산
▁기 연
▁기 효
▁어 쨌
▁사 축
▁사 통
▁대 과
▁대 민
▁대 부인
▁여 명
▁도 공
▁조 색
▁제 보
▁부 편
▁부 휴
▁자 포
▁정 파
▁보 격
▁보 조선사
▁서 긍
▁서 약
▁경 릉
▁주 입
▁나 도
▁나 방
▁위 업
▁신 독
▁신 례
▁신 협
▁신 혼
▁문 위
▁상 참
▁월 명
▁동 결
▁개 괄
▁해 로
▁연 각
▁연 줄
▁소 구
▁소 례
▁소 선
▁장 창
▁세 폐
▁조선 기독교
▁국 선
▁국 위
▁교 판
▁내 직
▁내 탕
▁명 군
▁남 간
▁남 루
▁학 점
▁화 판
▁불 보
▁호 환
▁원 평
▁원 부사
▁선 신
▁마 셨
▁형 질
▁할 인
▁설 해
▁간 봉
▁거 둘
▁오 양
▁단 칸
▁강 종
▁계 락
▁계 루
▁계 목
▁계 양
▁양 띠
▁양 응
▁안 음
▁진 변
▁각 루
▁각 설
▁종 구
▁초 여름
▁행 함
▁분 분
▁실 성
▁석 보상
▁석 탈해
▁청 암
▁평 저
▁평 원군
▁까 막
▁목 면
▁노 나라
▁예 인
▁천 우
▁천 축
▁출 계
▁회 분
▁왕 태자
▁반 침
▁백 담
▁백 철
▁금 귀
▁금 판
▁집 강
▁봉 제
▁봉 주
▁최 문
▁최 흥
▁최 희
▁박 신
▁활 로
▁매 겨
▁매 력
▁변 수
▁승 직
▁승 자총통
▁한국 군
▁병 아리
▁돌 다리
▁복 본
▁심 희
▁달 빛
▁달 항아리
▁교육 감
▁요 왕
▁요 통
▁향 비파
▁송 원
▁송 판
▁황 백
▁잡 종
▁포 화
▁포 대공
▁총 영사
▁좌 승선
▁담 팔수
▁사회 사업
▁합 니다
▁데 이
▁풍 모
▁살 충
▁별 채
▁윤 계
▁학교 문법
▁완 경
▁옥 소
▁걸 맞
▁피 장
▁효 녀
▁암 송
▁이상 설
▁궁 사
▁친 왕
▁날 렸
▁곡 집
▁업 소
▁난 생
▁밀 무역
▁칠 중
▁벽 제
▁단체 전
▁30 6
▁30 9
▁애 완
▁녹 유
▁탄 성
▁색 시
▁십 신
▁술 집
▁걸쳐 진
▁광복 단
▁쌍 둥이
▁풀 잎
▁잠 상
▁징 용
▁광주 리
▁건축 사
▁억 새
▁금강 역사
▁금강 계단
▁28 6
▁둔 하
▁촌 장
▁잔 재
▁기업 가
▁거리 굿
▁촉 석
▁촉 성
▁상주 국
▁우주 관
▁여야 만
▁사자 춤
▁33 4
▁빌 려서
▁36 4
▁문하 찬성사
▁도리 사
▁병원 장
▁읽 히
▁거주 자
▁벼슬 아치
▁상부 상조
▁디 딤
▁동북 항일
▁멸 하
▁꿈 속
가락 도드리
▁프로 젝트
▁163 8
대장 공주
▁175 8
▁우측 면
▁145 2
과학 고등학교
▁친족 관계
▁영동 지방
▁해산 물
▁144 2
▁나한 도
▁68 2
▁화성 암
▁결의 안
▁중서 성
▁중서 사인
▁부조 묘
▁110 7
▁원자 로
▁불사 르
▁다면 서
▁천태 산
▁금성 산
▁마산 합
살이 터
▁156 8
▁87 5
▁151 0
▁78 0
▁틈 새
▁늘어 뜨리
▁신광 주
▁교역 자
▁워 낙
▁힘썼 으며
▁송병 순
모음 화
▁쇼 핑
▁비변사 등록
▁되돌 아가
보부 모은중경
▁포구 락
▁욱 면
▁원광 대학교
▁박제 가
▁홍예 문
▁다름 없
▁별시 위
▁철조 비로자나불좌상
▁양구 군
▁양사 언
▁공고 히
▁전중 시
▁댄 스
▁송환 기
▁사분 율
▁홍재 전서
▁꿇 어앉
영산회 상도
▁간수 군
▁탁자 식
▁주안 점
▁한국불교 태고종
▁난대 림
▁부소 산
▁칠불 암
▁김취 려
▁아차 산
▁광평 성
▁한국산업 인력
▁어윤 중
▁핸 드
▁응회 암
▁선캄 브리아기
▁불설대 보부모은중경
▁석보상 절
▁동북항일 연군
▁한국산업인력 공단
1 8
A T
I S
S S
i g
▁ ᄄ
▁ ᅧ
▁ 乎
▁ 己
▁ 星
▁ 硏
▁ 雙
▁ 넝
▁ 닢
▁ 듀
▁ 춥
▁ 쿵
각 사
개 벽
경 원
곡 문집
광 선
금 동
다 심경
룻 날
림 서원
모 토
민 안
백 가
불 탁
빈 가
선 신
수 단
수 륙
식 나무
아 먹
안 장
양 장
여 사
옹 집
우 후
운 모
웨 이
윤 리
일 엽
잣 나무
절 차
정 권
초 롱
총 관부
취 업
칠 층석탑
태 산
페 이지
프 테리아
향 사
화 회
▁의 구
▁다 홍
▁하 달
▁은 주
▁은 총
▁고 혼
▁한 품
▁가 관
▁가 체
▁가 교사
▁어 보
▁로 망
▁과 격
▁대 순
▁여 아
▁여 초
▁도 출
▁도 병마사
▁인 마
▁인 서
▁그 저
▁시 독
▁수 절
▁조 맹
▁조 비
▁조 응
▁전 류
▁전 유
▁일 습
▁제 승
▁제 인
▁제 진
▁적 초
▁자 가
▁자 칫
▁정 암
▁아 함
▁보 궐
▁서 랍
▁경 동
▁경 어법
▁나 위
▁관 둔전
▁유 훈
▁상 효
▁라 이트
▁게 으
▁동 업
▁동 국사
▁개 표
▁성 간
▁성 병
▁연 날리
▁소 헌왕후
▁공 창
▁장 덕수
▁국 용
▁편 곡
▁편 종
▁내 측
▁내 섬시
▁명 가
▁후 시
▁후 연
▁남 발
▁남 유
▁학 소
▁학 포
▁화 담
▁불 멸
▁불 참
▁불 탔
▁호 선
▁우 복야
▁선 로
▁선 염
▁선 회
▁선 무사
▁마 지기
▁던 져서
▁김 면
▁현 양
▁설 령
▁당 화
▁간 다는
▁산 일
▁산 후
▁산 북면
▁오 우
▁오 작
▁단 도
▁강 명
▁강 봉
▁두 거
▁삼 복
▁역 둔토
▁군 부인
▁본 시
▁분 개
▁분 서
▁재 두루미
▁말 렸
▁석 봉
▁미 호
▁임 전
▁예 쁘
▁천 석
▁출 제
▁배 드민턴
▁법 가
▁왕 검
▁반 교
▁대한 국민
▁광 운
▁광 창
▁광 화
▁백 패
▁북 안
▁차 가
▁최 언
▁점 지
▁매 독
▁물 터
▁변 칙
▁결 렬
▁결 승
▁충 지
▁높 인
▁높 임
▁직 시
▁독 존
▁독 판
▁독 수리
▁돌 연
▁돌 무더기
▁달 서
▁달 여서
▁농 무
▁참 식나무
▁요 대
▁토 요일
▁토 함산
▁근 체시
▁황 명
▁잡 기
▁포 살
▁총 포
▁필 력
▁서울 청년회
▁담 제
▁치 루
▁홍 두
▁홍 선
▁홍 적
▁홍 현
▁앞 방
▁열 망
▁윤 현
▁축 수
▁축 산업
▁손 영
▁항 문
▁학교 장
▁중앙 집권
▁작품 집
▁언 로
▁육 주
▁완 월
▁효 우
▁온 라인
▁뜻 있
▁갈 증
▁검 시
▁정치 권력
▁탑 파
▁낙 차
▁인물 전설
▁숙 신
▁춘 관
▁장식 음
▁익 명
▁벌 린
▁문학 사상
▁평양 지
▁쌍 봉
▁탈 곡
▁패 주
▁습 곡
▁흑 점
▁흑 칠
▁제자 해
▁대성 학교
▁지원 자
▁27 8
▁보내 온
▁족 제비
▁인천 항
▁대장 전
▁석가 탑
▁휘 어진
▁수도 자
▁칭 한다
▁곤 지
▁연합 국
▁전투 기
▁촉 매
▁양반 집
▁첩 보
▁무역 학
▁우수 리
산리 유적
▁문하 평장사
▁여겨 졌
▁앙 금
▁뻗 쳐
▁디 프테리아
▁화학 공학
▁화학 제품
▁헤 엄
▁동학 군
미술 가협회
▁득 세
▁다스 릴
▁쟁 반
▁김성 원
▁171 5
▁54 4
▁장애 물
▁― ,
▁칠성 신
▁홍문관 제학
▁정주 영
▁99 8
▁135 9
▁101 2
▁윤리 관
▁181 0
▁깎 여
▁굳 건
▁장흥 고
▁합의 부
▁사서 오경
▁126 0
▁(주) ,
▁이민 자
▁138 3
▁결의 문
▁인력 거
▁초하 룻날
▁공로 자
▁쓸 모
▁110 1
▁두드러 졌
혁명 군
▁두꺼 워
▁봉황 대
▁154 1
▁154 4
아미타 여래좌상
▁모란 문
▁꺼 려
▁거창 읍
▁수영 장
▁꾸며 진
▁이만 도
▁살림 채
▁민영 익
▁조종 사
▁아산 만
▁오행 설
▁성리 대전
영화 제
▁빠르 기
▁전의 시
▁바뀐 다
▁힘써 야
▁사미 인곡
장전 적
▁관형 어
▁고아 원
▁송파 산대놀이
▁윤봉 구
▁조선인민 공화국
▁뚝 배기
▁부딪 쳐
▁불태 웠
▁삼중 대광
▁격전 지
▁미추 이사금
▁요새 지
▁한일 합
▁장산 곶
▁원유 관
▁달구 지
▁생식 기
영산회 괘불탱
▁튀어나 온
▁쳐들어 오
▁시천 주
▁속초 시
▁이숭 인
▁극진 히
▁여래장 사상
▁한약 재
▁금탑 사
▁아쉬 움
▁캔 버스
▁강홍 립
▁조방 장
▁은하 수
▁변려 문
▁반야바라밀 다심경
▁낟 알
으리 라
▁참하 관
▁농가월령 가
▁팔만 대장경
▁하겸 진
▁마산합 포구
▁연날리 기
L E
▁ ᅣ
▁ 吉
▁ 嚴
▁ 壬
▁ 形
▁ 昌
▁ 씀
감 리
곡 절
당 산
당 상
대 간
덕 기
렬 사
매 김
며 느리
문 신
미 도
부 부
사 공
사 부
석 보
순 화
안 지악
애 락
약 국
어 목
에 너지
외 사
유 서
윤 숙
장 려
주 머니
지 보
지 형
처 벌
청 화
촌 주
하 추
▁이 개
▁의 절
▁다 져서
▁하 등
▁고 삐
▁가 승
▁가 작
▁지 번
▁어 수
▁어 문학
▁과 의
▁대 곡리
▁도 급
▁도 양
▁인 덕
▁수 자
▁조 만
▁등 신
▁전 계
▁제 소
▁제 생원
▁부 닥
▁자 소
▁자 편
▁정 내
▁정 쟁
▁아 열
▁보 람
▁중 품
▁서 암
▁서 회
▁경 옥
▁경 토리
▁주 비
▁주 야
▁주 좌
▁주 학
▁유 별
▁유 엽
▁문 극
▁문 틀
▁상 극
▁상 피
▁동 가
▁동 교
▁해 풍
▁성 쇠
▁연 근
▁연 식
▁소 계
▁소 북
▁소 액
▁소 풍
▁구 독
▁만 지
▁만 호부
▁세 의
▁세 영산
▁조선 은행
▁때 려
▁편 호
▁교 안
▁비 관
▁비 속
▁비 수
▁비 슬
▁비 애
▁권 경
▁명 진
▁남 두
▁화 운
▁불 제자
▁호 총
▁무 계
▁무 창
▁마 쓰
▁마 필
▁던 가
▁현 덕
▁형 통
▁영 영
▁산 고
▁거 들
▁거 실
▁단 권
▁통 한다
▁통 천군
▁계 략
▁안 빈
▁방 백
▁종 현
▁삼 진
▁함 북
▁본 이
▁본 처
▁초 현실
▁재 궁
▁재 용
▁청 포
▁평 거
▁임 인
▁임 방울
▁목 본
▁뒤 덮
▁민 단
▁회 귀
▁반 고
▁반 어
▁반 닫이
▁반 차도
▁광 문
▁백 우
▁금 합
▁북 채
▁용 띠
▁용 진
▁봉 례
▁봉 박
▁봉 송
▁봉 지
▁봉 호
▁최 홍
▁알 타이
▁규 례
▁외 금강
▁변 색
▁태 의
▁저 조
▁돌 날
▁새 남
▁파 낸
▁절 여
▁토 산물
▁송 아지
▁근 초고
▁황 지
▁잡 아가
▁포 주
▁총 기
▁총 살
▁필 담
▁좌 방
▁사회 간접
▁치 를
▁홍 세
▁앞 길
▁크 로
▁쓰 러지
▁죽 산면
▁윤 근수
▁논 개
▁논 과
▁육 박
▁육 촌
▁사이 토
▁효 모
▁문화 축제
▁악 령
▁악 양
▁스 케이팅
▁타 임
▁친 자
▁곡 인
▁생활 사
▁이용 한
▁검 파
▁밀 인
▁몸 집
▁사업 장
▁접 할
▁염 포
▁찬 선
▁일부 러
▁쌓 이
▁색 실
▁서로 군정서
▁내려 갈
▁토지 대장
▁토지 제도
▁40 2
▁억 양
▁깨 소금
▁습 작
▁혹 독
▁프 라
▁옮겨 진
▁27 6
회사 건
▁회의 실
▁칭 칭
▁이동 백
▁창간 사
▁굽 혀
▁횡 대
▁서기 장
▁덧 달
▁이수 대엽
▁중생 인
▁놀 량
리아 문
▁여래 선
▁병마 도절제사
▁大 東
▁大 韓
▁42 7
▁소비 량
▁소비 조합
▁김일 경
▁대지 진
▁I C
▁고기 압
▁서정 주
▁김성 태
▁기울 어지
▁해동 명
▁장사 랑
▁127 1
▁한계 희
▁좀 처럼
▁심사 정
▁경작 자
▁67 1
▁지난 다
▁심의 겸
▁144 1
▁계몽 주의
▁126 9
▁자치 구
▁밝힌 다
▁향토 문화제
▁공작 원
▁조형 물
▁붙잡 히
▁157 0
▁고도 성장
▁단장 면
▁93 0
▁도망 쳐
▁69 2
▁권상 규
▁중화 군
▁156 6
▁신기 전
▁갱 생
▁이의 방
▁제천 의식
▁재래 종
▁여덟 째
▁표제 어
▁국화 과
▁좋아 한다
아시아 경기대회
▁해수 면
▁법의 학
▁123 1
▁박종 화
▁무성 음
진흥 공사
▁자매 지
▁박태 보
▁충성 심
▁손실 보상
▁정혜 사
▁樂 府
▁반역 자
▁산대 도감
▁풍어 제
▁산봉 우리
▁엘 리
▁선지 식
▁김안 로
▁마이 산
▁도첨 의사사
▁방정 식
▁의빈 계
▁김효 원
▁연쇄 점
▁신단 수
▁둥그 런
▁석인 상
▁제중 원
▁가까우 며
▁자부 심
▁강우 량
▁한울 님
▁스트 로
▁Kore an
▁거두어들 이
▁송진 우
▁찬송 가
▁오죽 헌
▁송국 리
▁손기 정
▁다도해 해상국립공원
▁가덕 도
▁소맷 자락
▁불천 위
▁국태 민안
▁창씨 개명
▁디딜 방아
창작 사
▁격몽 요결
의료 원
▁당중앙 위원회
▁담뱃 대
▁불청 불탁
▁어쨌 든
▁촉석 루
▁초현실 주의
▁근초고 왕
▁사회간접 자본
4 5
O M
i b
▁ u
▁ 作
▁ 兵
▁ 尊
▁ 峰
▁ 弘
▁ 易
▁ 治
▁ 相
▁ 綱
▁ 닌
▁ 뗀
▁ 릴
▁ 큐
▁ 폄
▁ and
고 치
금 고
기 원
기 탕
기 무처
꺽 정
더 지
덕 이
배 상
복 지사
사 천왕상
상 서
상 회
서 낭
성 시
속 찬
쇄 신
스 러운
어 영
오 륜
유 기
읍 리
자 적
재 소
전 동
정 상
종 가
중 승
지 질
초 파일
충 효
통 궤
통 재
표 기법
화 원
흘 리
▁이 스
▁이 엄
▁이 청
▁하 청
▁하 버드
▁고 심
▁고 산군
▁지 검
▁지 괴
▁지 실
▁지 용
▁지 통
▁기 략
▁기 벽
▁기 삼
▁기 철
▁기 할
▁어 량
▁사 덕
▁사 승
▁사 카
▁사 탕
▁과 외
▁대 영
▁대 대장
▁여 중
▁인 설
▁시 렁
▁조 반
▁부 추
▁자 년
▁자 탄
▁아 록
▁보 온
▁경 마
▁주 남
▁들 깨
▁나 락
▁나 룻배
▁위 무
▁관 훈
▁유 라
▁유 분
▁신 력
▁신 어
▁문 득
▁문 석
▁문 식
▁동 통
▁개 회
▁해 라
▁해 성
▁성 근
▁성 총
▁성 천군
▁성 산면
▁소 질
▁장 택
▁세 원
▁세 살문
▁조선 전
▁조선 농민
▁국 인
▁국 청사
▁편 육
▁내 알
▁남 태
▁화 암
▁화 천군
▁불 온
▁불 암사
▁호 정
▁원 감
▁원 숙
▁우 경
▁우 자
▁선 당
▁선 친
▁마 나
▁김 길
▁김 노
▁김 예
▁현 제
▁형 석
▁영 대
▁영 보
▁영 우
▁영 원군
▁영 통사
▁간 파
▁산 길
▁거 성
▁두 더지
▁안 과
▁안 순
▁진 두
▁진 회
▁각 세
▁종 수
▁따 져
▁삼 귀
▁역 옹
▁군 종
▁없 앨
▁건 양
▁특 출
▁초 식
▁초 야
▁행 이
▁행 재소
▁재 액
▁재 중
▁재 촉
▁재 무부
▁재 빨리
▁석 질
▁미 발
▁청 상
▁청 서
▁임 사
▁목 멱
▁민 국
▁예 원
▁배 롱나무
▁회 포
▁왕 제
▁반 장
▁운 필
▁광 원
▁광 해
▁백 금
▁백 암산
▁북 사면
▁봉 원사
▁입 보
▁감 돌
▁매 미
▁매 점
▁속 국
▁승 강
▁승 객
▁승 일
▁승 무원
▁저 택
▁돌 하
▁심 설
▁심 유
▁심 인
▁심 히
▁달 인
▁기록 물
▁묘 당
▁잡 문
▁잡 물
▁포 리
▁포 은
▁순 치
▁더 한
▁치 가
▁치 욕
▁치 졸
▁치 폐
▁합 숙
▁합 쳤
▁풍 담
▁별 전
▁윤 신
▁윤 행
▁논 두렁
▁중앙 당
▁작품 상
▁큰 일
▁육 사
▁육 안
▁옥 보고
▁효 명
▁허 주
▁독립 사상
▁환 부
▁폐 합
▁자료 실
▁뜻 밖
▁타 래
▁민족 종교
▁갈 매
▁난 제
▁검 신
▁구조 주의
▁투 탄
▁낙 점
▁헌 릉
▁헌 의
▁국립 극장
▁접 주
▁엮 음
▁숙 수
▁갑 판
▁먹 물
▁찬 사
▁떨 친
▁자유 자재
▁잠 긴
▁착 하
▁50 3
▁윗 사람
▁혜 원
▁패 물
▁엄 장
▁가로 쓰기
▁전주 대학교
▁습 진
▁흑 요
▁메 뚜기
▁대성 동
▁경성 여자
▁경성 방송
운동 장
▁무신 정권
▁꾸 리
▁족 질
▁29 4
▁31 1
▁흘 려
▁전시 장
▁인도 주의
▁기사 환국
▁전후 좌우
▁동국 통감
▁모여 든
▁발해 사
▁전사 자
▁써 준
▁뽑 힌
▁태종 실록
▁융 화
▁금동 관음보살좌상
▁홀 수
▁한인 사회당
▁끊 어진
▁삼성 물산
▁이원 조
▁염불 암
▁솔 직
▁이인 영
▁조합 장
▁문종 대
▁트 럭
▁예산 안
▁사원 전
▁176 9
▁가르쳤 으며
▁드리 운
▁석실 묘
▁부자 연
▁67 4
▁함양 읍
▁보현 행원품
▁157 2
▁영월 읍
▁느냐 는
▁왕세 제
▁홈 페이지
▁92 4
▁원자 재
▁닭 고기
▁98 2
▁뱀 띠
▁호구 단자
▁어울 려서
▁직전 법
▁저지 대
▁156 7
▁틈 타
▁알려졌 으며
▁이문 원
▁수구 문
▁주주 총회
▁축산 학
▁못한다 는
▁용왕 굿
▁상원 수
▁연행 록
▁헐 리
▁살아 나
▁홍주 성
▁삼현 도드리
▁유자 광
▁아리 스토
비로 자나
▁영변 군
▁불로 초
▁내장 원
▁진입 로
▁수석 대표
▁N AK
▁교민 단
▁덩굴 식물
▁사로 국
▁자작 농
▁바둑 판
▁편안 히
▁대여 음
▁김자 수
▁양동 마을
▁옴 중
▁다이 빙
▁군국 기무처
▁신동 아
▁주현 군
▁연중 행사
▁사월 초파일
▁발상 지
▁김약 수
▁굶주 림
▁중남 부
▁주원 료
▁여닫이 문
▁걸어 가
▁귀틀 집
▁파이 프
▁벅 수
▁서후 면
▁경회 루
▁초수 대엽
▁전옥 서
유허 비
▁서둘 러
▁감은 사지
▁계이 름
▁우라 늄
▁명산대 천
▁갤 러리
▁갹 출
▁한일합 병
▁NAK AI
W CA
e p
▁ ᄈ
▁ 丹
▁ 兩
▁ 匠
▁ 居
▁ 景
▁ 楞
▁ 泉
▁ 漁
▁ 總
▁ 辭
▁ 꿴
▁ 뇨
▁ 볍
▁ 얘
갑 당
경 도
계 유고
공 무원
과 서
국 전
대 구
뎅 이
동 헌
두 기
들 레
말 이
매 매
민 보
복 식
본 사
불 명
선 군
신 학
영 사관
육 전
자 연
제 전집
천 부
총 영
최 씨
추 부
쿠 리
하 라
▁이 훈
▁에 선
▁의 순
▁고 음
▁한 준
▁가 급
▁지 학
▁기 국
▁기 무
▁기 봉
▁기 포
▁사 학자
▁사 문서
▁대 렴
▁여 긴다
▁도 외
▁도 태
▁도 봉산
▁시 명
▁시 탄
▁수 각
▁수 곡
▁수 두
▁수 예
▁조 임
▁제 유
▁부 방
▁정 좌
▁정 찬
▁아 간
▁아 늑
▁아 달
▁아 로
▁보 산
▁중 당
▁경 맥
▁경 적
▁주 검
▁위 학
▁관 옥
▁신 음
▁문 계
▁문 희
▁상 백
▁상 우
▁상 춘
▁라 서
▁월 랑
▁동 야
▁개 과
▁해 온
▁면 밀
▁성 무
▁연 음
▁소 우
▁구 복
▁구 임
▁만 료
▁만 동묘
▁공 권
▁공 선
▁공 은
▁공 휴
▁장 끼
▁세 세
▁세 한
▁조선 계
▁조선 상
▁국 의
▁국 청
▁편 한
▁교 궁
▁교 태
▁권 섭
▁내 남면
▁발 인
▁명 릉
▁후 단
▁남 영
▁학 구
▁학 림
▁학 연
▁학 유
▁호 과
▁호 헌
▁무 식
▁원 재
▁우 림
▁우 황
▁선 실
▁선 영
▁마 조
▁김 전
▁현 자
▁형 기
▁설 움
▁간 하
▁간 담회
▁산 거
▁산 만
▁거 석
▁거 열
▁강 활
▁강 아지
▁안 원
▁각 론
▁각 전
▁역 작
▁건 곤
▁초 승
▁행 례
▁행 회
▁재 발
▁미 관
▁미 풍
▁청 고
▁청 계사
▁평 음
▁평 산군
▁목 성
▁목 탁
▁노 병
▁노 숙
▁노 환
▁노 걸대
▁민 우
▁음 관
▁예 부시
▁책 례
▁회 양군
▁반 세기
▁광 체
▁백 리
▁표 전
▁최 응
▁최 해
▁활 판
▁알 타이어
▁점 쟁이
▁m ×
▁물 보
▁변 정
▁결 송
▁태 학사
▁승 추부
▁직 설
▁저 며
▁저 물
▁독 소
▁독 약
▁독 음
▁판 부
▁농 한기
▁파 당
▁파 한집
▁참 뜻
▁절 지
▁요 란
▁요 성
▁채 화
▁송 남
▁송 언신
▁황 병
▁황 주군
▁잡 목
▁포 지
▁지역 어
▁치 화
▁합 사
▁홍 씨
▁홍 합
▁철 장
▁열 의
▁윤 집
▁전라 좌도
▁논 농사
▁큰 굿
▁허 허
▁환 속
▁문화 어
▁암 흑
▁타 일
▁궁 도
▁궁 륭
▁궁 시
▁친 제
▁민족 문학
▁갈 치
▁갈 참나무
▁누 운
▁밀 봉
▁드 림
▁낙 하
▁갑 과
▁머리 칼
▁머리 털
▁니 까
▁첨 예
▁망 간
▁산업 자원부
▁십 계
▁퇴 학
▁척 박
▁굴 욕
▁패 턴
▁23 9
▁넘 나
▁28 8
▁깨 어진
▁프 레스
▁흑 석
▁26 3
▁근대 사
▁숭 산
▁정리 자
▁가정 학
▁드러 낸다
▁번역 문학
▁교통 국
▁서양 철학
▁정조 사
▁선조 실록
▁무역 업
▁정자 나무
▁고문 헌
공업 대학
▁33 1
▁혈 구
▁동양 철학
▁맥 류
▁놀 란
▁글씨 체
▁인구 수
▁이승 휴
▁동북 방
▁꼬 투리
▁이익 공
▁핵 가족
▁헤 헤
▁전환 국
▁전환 점
▁병마 부사
미술 협회
▁러시아 어
▁기도 원
▁참고 서
▁엽 경
▁엽 형
▁150 7
▁왕자 군
▁트 이
▁고승 전
▁184 2
▁127 8
▁섬유 공업
▁좌측 면
▁선원 제전집
▁한양 가
▁57 0
▁계절 풍
▁장례 식
▁소매 업
▁빼앗 겼
▁125 9
▁소송 법
▁백두 대간
▁관습 도감
▁금성 대군
▁156 9
▁78 5
▁붙였 으며
▁돼지 띠
▁군기 감
▁군기 고
▁수영 야류
정리 사업
▁관동 별곡
▁방아 타령
단체 총연합회
▁간호 원
▁선산 읍
▁수시 력
▁계룡 면
▁곤충 류
▁조인 영
▁공법 상
▁광복군 총영
▁첨의 부
▁첨의 중찬
▁국유 림
▁Y WCA
▁골라 서
▁잘라 서
▁성수 침
▁안변 군
산도 립공원
▁뭉 쳐
▁박성 원
한인 회
▁국세 청
▁안경 공
▁기암 절벽
▁기주 관
▁위정 자
▁스러 워
▁요양 소
▁걸립 패
▁수창 궁
▁상록수 림
▁의빈 부
▁초헌 관
▁민사소송 법
▁담근 다
▁은율 군
▁뒤따 르
▁사량 부
▁如 來
▁산골 짜기
▁권문 세
▁시청각 교육
▁편저 자
▁괭이 갈매기
▁산해 관
▁민진 원
▁방송통신 고등학교
▁옥녀 봉
▁응제 시
▁첫날 밤
▁유몽 인
▁뺄 목
▁애니 메이션
▁내선 일체
▁남공 철
▁우여 곡절
도르 프
▁좌리 공신
▁애장 왕
▁플랜 트
▁硏 究
▁볍 씨
▁선원제전집 도서
7 0
H z
▁ x
▁ 亞
▁ 典
▁ 增
▁ 次
▁ 篇
▁ 縣
▁ 舍
▁ 趙
▁ 괸
▁ 봇
▁ 뻐
▁ 샹
▁ 엠
▁ 웬
▁ 칩
가 곡
각 제
곡 유고
과 도
내 취
독 구결
드 라
마 치
머 루
모 자
묘 소
바 이
발 타라
별 행록절요
보 국회
봉 가
비 요
석 탄
성 악
세 전
습 유
언 정
원 론
음 전
응 교
자 귀
자 연맹
정 과
지 석묘
집 록
창 사
카 드
타 작
태 실
피 스
해 야
향 완
호 리
화 과
▁이 럴
▁이 족
▁에 로
▁의 정원
▁다 치
▁하 장
▁은 폐
▁가 소
▁가 은
▁가 만히
▁지 요
▁대 륜
▁여 막
▁여 시
▁도 배
▁도 저
▁그 르
▁시 성
▁시 소
▁수 현
▁등 위
▁전 몰
▁일 손
▁제 본
▁제 부
▁제 생
▁제 월
▁부 렸
▁부 차
▁자 웅
▁정 견
▁정 로
▁정 옥
▁정 헌
▁경 애
▁경 드름
▁주 수
▁신 만
▁신 망
▁신 헌
▁상 강
▁상 구
▁상 북면
▁월 면
▁월 악산
▁동 점
▁해 적
▁연 곡
▁연 임
▁구 구
▁공 렬
▁장 내
▁장 모
▁장 법
▁장 태
▁장 티푸스
▁조선 유
▁모 밀
▁교 분
▁권 강
▁권 정
▁발 우
▁명 례
▁명 석
▁명 중
▁남 곤
▁화 실
▁화 투
▁화 계사
▁호 류
▁호 평
▁호 황
▁원 교
▁원 묘
▁우 송
▁우 전
▁마 고
▁마 식
▁마 야
▁마 지
▁김 개
▁형 이상
▁당 겨
▁당 구
▁간 월
▁간 통
▁거 담
▁오 뚝
▁오 석
▁단 막
▁강 항
▁통 장
▁양 치
▁방 령
▁방 재
▁방 종
▁생 시
▁생 신
▁건 널
▁초 라
▁분 국
▁분 법
▁미 끄
▁미 음
▁임 희
▁목 어
▁목 지
▁목 초
▁목 구멍
▁민 고
▁음 서
▁천 전리
▁출 감
▁배 태
▁왕 산
▁대한 국민회
▁광 전
▁백 선
▁금 봉
▁금 야
▁처 결
▁북 산
▁용 흥사
▁집 요
▁박 애
▁입 방
▁점 찰
▁매 끄럽
▁변 전
▁충 고
▁충 전
▁약 관
▁약 포
▁태 항아리
▁승 반
▁승 중
▁병 동
▁병 보석
▁심 봉
▁달 거리
▁파 발
▁파 지
▁교육 구국
▁참 살
▁참 혹
▁절 인
▁절 일
▁묘 법
▁향 년
▁송 근수
▁근 린
▁총 파업
▁연구 개
▁순 금
▁사회 체육
▁치 란
▁홍 복
▁살 수
▁다시 마
▁윤 길
▁윤 명
▁윤 문
▁축 귀
▁시작 품
▁육 바라밀
▁옥 석
▁옥 수
▁옥 편
▁끝 났
▁걸 터
▁피 역
▁허 조
▁악 법
▁스 프
▁제도 사
▁능 이
▁궁 체
▁친 우
▁친 하
▁야 말로
▁갈 무리
▁난 대성
▁밀 리
▁투 겁
▁투 조
▁조각 사
▁25 1
▁30 3
▁30 7
▁국민 투표
▁밑 그림
▁애 원
▁훈 춘
▁막 아내
▁염 세
▁염 초
▁춘 일
▁첨 삭
▁섬 약
▁익 찬
▁옛 말
▁느 라고
▁망 령
▁울 림
▁꽃 피
▁돌아 다
▁눈 길
▁눈 부
▁터 키
▁부사 어
▁토지 개혁
▁전쟁 터
▁잠 저
▁율 리
▁굴 산사
▁착 각
▁패 림
여래 삼불좌상
▁전주 부
▁26 9
▁공업 화학
▁벼 룩
▁휴 교
▁족 도
▁목조 지장보살
▁맹 선
▁29 5
▁한글 학회
▁동지 의금부사
▁31 6
▁지냈 으나
▁괴 수
▁든 다는
▁35 6
▁미륵 상
▁인사 동
▁인쇄 물
▁김정 국
▁활약 상
▁의학 서
▁뽑 혔
▁갈라 서
▁흉 하
▁중대 백로
▁바라 밀
▁바라 춤
▁국방 력
▁사우 디아
▁일원 상
▁였음 은
대사 헌
▁기도 회
▁보조 사
▁백자 청화
▁ᄀ 자집
▁올렸 으나
▁묶 음
▁향사 당
▁기자 조선
▁지석 영
▁사헌부 대사헌
▁산림 청
▁→ ,
▁방위 산업
▁52 5
▁날개 집
▁독일 인
▁135 8
▁교정 청
▁김제 남
▁182 7
▁굳 세
▁한림 대학교
▁소매 점
▁158 2
▁금산 전투
▁156 4
▁인공 위성
▁151 5
▁151 7
▁김기 진
▁불타 발타라
▁들여 와
▁늘어 서
리지 석묘군
▁전문대학 원
▁전서 체
▁살림 살이
▁153 6
▁하위 지
▁106 8
▁육상 궁
▁우정 승
▁대종 사
▁영흥 만
▁목욕 재계
▁곁들 인
▁존경 각
▁부전 강
▁행진 곡
▁송정 동
▁충적 지
▁독성 각
▁선전관 청
▁앵 두
▁어지 러운
▁鄕 校
▁보일 러
▁송이 버섯
▁뚝 섬
▁중모리 장단
▁신구 서림
▁김소 월
▁천관 사
▁한족 회
▁정대업 지악
▁홍명 희
▁잠재 력
▁조선문학 가동맹
▁펜 싱
▁구세 군
▁십육나한 도
▁증광 시
▁김극 기
▁헤이 그
▁관절 염
▁백낙 준
▁수증 기
▁월광 보살
▁판상 서
▁노상 직
▁렌 즈
▁활인 서
▁철광 석
▁봉림 대군
▁김회 련
▁법집 별행록절요
▁일성 록
▁비형 랑
▁광진 구
▁관공 서
▁사바 세계
▁까치구멍 집
▁도단 련사
▁소교 목
▁몽금 포
▁아수 라
▁판옥 선
▁접두 사
▁광주학생 운동
▁잔나비 띠
▁동국사 략
▁교육구국 운동
3 8
4 0
5 0
q u
ᄂ ᆞᆫ
▁ ±
▁ ᄁ
▁ ᅢ
▁ 牛
▁ 異
▁ 資
▁ 軍
▁ 頂
▁ 뵈
▁ 뷰
▁ 삯
▁ 쑨
▁ 쳇
羅 尼
陀 羅尼
결 연
고 니
고 서
공 론
공 회
교 동
구 스
기 록
기 소리
나 간
대 가
동 문
루 기
모 당
무 쌍
변 호사
사 목
상 속
설 직
술 원
습 지
신 선
심 서
안 목
엄 구
외 교
요 절
용 지
운 전
은 옥
의 문
잔 치
잡 고
잡 영
존 성
중 탕
철 교
철 자법
체 요절
친 척
코 토
팔 이
▁의 가
▁다 자
▁고 례
▁고 베
▁고 삼
▁한 려
▁가 나
▁지 간
▁지 설
▁지 탄
▁지 의금부사
▁기 면
▁기 방
▁기 폭
▁기 장군
▁어 다가
▁여 대
▁여 염
▁여 훈
▁여 배우
▁도 학자
▁인 멸
▁수 본
▁수 설
▁수 유
▁수 탁
▁수 합
▁수 산리
▁조 미
▁전 축
▁일 과
▁일 군
▁적 유
▁부 쳐
▁정 개
▁정 북
▁정 무원
▁보 처
▁중 거
▁서 옥
▁서 왕
▁주 박
▁주 유
▁위 봉
▁위 위
▁유 응
▁신 각
▁신 모
▁신 원사
▁문 음
▁상 변
▁게 시
▁동 공
▁동 산리
▁개 운
▁면 부
▁연 거
▁연 병
▁연 오
▁소 슬
▁구 룡사
▁공 직자
▁장 무
▁장 희
▁세 이
▁국 혼
▁권 연
▁권 우
▁명 찰
▁후 릉
▁화 청
▁호 락
▁무 회
▁무 후
▁원 좌
▁우 담
▁우 서
▁우 중
▁선 보이
▁마 립간
▁김 국
▁김 귀
▁설 기
▁오 른다
▁단 념
▁단 상
▁통 론
▁통 리아문
▁양 세
▁양 신
▁안 질
▁각 목
▁각 운
▁방 류
▁군 약
▁본 회
▁초 모
▁초 복
▁초 혼
▁행 로
▁행 호
▁재 는
▁재 와
▁석 대
▁임 호
▁목 릉
▁노 공
▁노 도
▁노 화
▁창 도
▁창 성군
▁민 응
▁민 첩
▁예 송
▁천 녀
▁천 일
▁추 관
▁추 배
▁왕 태
▁반 계
▁반 민족행위
▁운 계
▁광 이
▁광 포
▁광 희
▁백 고
▁금 빛
▁금 환
▁금 천군
▁용 봉
▁표 범
▁표 해
▁봉 두
▁봉 착
▁최 사
▁최 준
▁박 양
▁감 춘
▁외 집
▁물 종
▁변 두리
▁속 아문
▁태 형
▁직 봉
▁병 창
▁병 폐
▁독 사
▁독 활
▁복 전
▁파 면
▁교육 대학
▁절 박
▁요 목
▁요 해
▁묘 광
▁묘 기
▁향 좌
▁체 가
▁체 중
▁신라 토기
▁채 만식
▁송 문
▁송 세
▁송 익
▁송 축
▁포 사
▁포 치
▁총 무부
▁서울 신문
▁서울 아시아경기대회
▁담 청색
▁순 결
▁더 덕
▁합 록
▁귀 여
▁번 철
▁다시 금
▁죽 일
▁윤 승
▁윤 언
▁윤 장
▁윤 주
▁윤 흥
▁축 재
▁손 발
▁항 라
▁논 저
▁효 성왕
▁온 수
▁머 문
▁친 한
▁형식 담
▁야 장
▁민족 사
▁갈 판
▁난 관
▁난 립
▁25 9
▁사업 소
▁30 8
▁국민 운동
▁낙 장
▁견 당
▁자리 매김
▁숙 정
▁갑 계
▁갑 곶
▁인간 상
▁희 문
▁희 소
▁폭 격
▁읍 내리
▁익 힌다
▁느 슨
▁응 접
▁얼 레
▁꽃 자루
▁비교 문학
▁눈 금
▁눈 치
▁보살 형
▁대구 부
▁척 결
▁24 1
▁잠 자
▁깨 지
▁깨 뜨려
▁빈 터
▁빈 공과
▁가사 체
▁제자 백가
▁개인 주의
▁찾아 왔
▁29 1
▁휘 감
▁몰 골
▁곤 봉
▁동물 원
▁교통 수단
산군 읍지
▁상업 주의
▁섞 이
▁올려 진
▁36 9
▁혈 전
▁동양 사
▁겨울 새
▁자격 루
▁제일 은행
▁금속 공예
▁이정 표
▁언론 계
▁서사 민요
▁전신 상
▁콩 과
▁김종 수
▁슬 프
▁슬 레이트
▁순수 비
▁떡 갈나무
▁프랑스 인
▁서정 쇄신
▁66 5
▁방위 세
▁보리 타작
▁쥐 라기
▁주사 위
▁135 4
▁56 2
▁여서 도
▁67 3
▁겉 옷
▁김창 룡
▁181 5
▁꾀 한
▁아우 르
▁62 0
▁당선 자
▁147 9
▁68 1
▁신선 도
독립 단
▁한림 별곡
▁진보 당
▁기호 학파
▁三 十
▁어사 중승
▁보였 으며
▁피난 지
▁온천 수
▁김진 호
▁군현 제
▁엔 지
▁156 0
▁117 8
▁명예 직
▁쾌 락
▁도화 원
▁사도 시
▁단오 굿
is t
대성 전
▁보안 법
▁검찰 관
▁고무 신
▁꿰 뚫
▁김재 로
▁상층 부
▁장시 간
▁청량 리
▁이태 원
텔레 스
▁일가 친척
▁두려 움
▁자매 결연
▁창업 자
▁통례 문
▁서간 문
▁마구 간
▁자아 낸다
▁상상 력
▁수공업 자
▁광무 대
▁홍익 한
▁데려 가
▁데려 다
▁성악 가
▁중립 국
▁금정 산
▁무오 정변
▁익혀 서
▁훔 치
▁승선 원
▁남서 부
▁스러 우
▁간신 히
▁광개토 왕릉비
▁갇 혔
▁구산 선문
▁의용 군
약사 여래입상
▁진휼 청
▁군자감 정
극락 회상도
▁안강 읍
▁불러일으 켰
▁남려 궁
▁야마 토
▁중남 미
▁파사 이사금
▁이슬 람
▁찌르 개
▁황국 협회
▁송치 규
지심 체요절
▁집게 손가락
▁부석 면
스레 피나무
▁월드 컵
▁효공 왕
▁월인 석보
▁아관 파천
▁맞물 려
▁유마 경
▁절첩 본
▁아뢴 다
▁춘당 대
▁타블로이드 판
▁사온 서
▁흑단 령
▁감탕 나무
▁육주 비전
▁아리스토 텔레스
▁사우디아 라비아
i o
ᄒ ᆞ
▁ ᅲ
▁ 乾
▁ 備
▁ 功
▁ 加
▁ 吏
▁ 呈
▁ 多
▁ 彌
▁ 校
▁ 橫
▁ 筆
▁ 羅
▁ 諺
▁ 뽀
▁ 옌
▁ 팠
了 義
강 개
고 래
금 도
낙 새
대 록
대 의
도 관
도 요지
딸 기
령 산
롱 뇽
막 염
모 수
방 리
버 트
법 어
봉 도
석 의
성 학교
시 옷
씨 삼
아 기
애 국단
야 도
오 카
유 원지
이 로
입 석
자 의
장 기
전 놀이
정 려
정 화
조 상
주 구
죽 교
지 광
진 도
창 단
총 림
출 척사
쿠 라
통 해
투 사
풍 루
필 경
학 전문학교
화 전
환 자
회 상
▁이 초
▁의 법
▁은 의
▁은 파
▁고 갯
▁지 귀
▁지 짐
▁기 라
▁기 백
▁어 이
▁어 정
▁로 봇
▁사 스레피나무
▁대 계
▁대 팻
▁대 곡사
▁여 양
▁여 연
▁여 준다
▁도 괴
▁도 쿠
▁인 색
▁그 레
▁시 술
▁시 시
▁수 승
▁조 만식
▁전 야
▁전 열
▁전 탁
▁자 만
▁자 순
▁자 우
▁자 배기
▁중 양
▁중 주
▁서 례
▁서 실
▁서 애
▁서 언
▁경 설
▁경 양
▁나 니
▁위 헌
▁관 덕
▁관 안
▁유 청
▁신 돌
▁신 반
▁신 평
▁신 세계
▁문 고리
▁상 덕
▁상 림
▁동 침
▁동 녕부
▁개 두
▁개 안
▁개 산조
▁해 모수
▁연 광
▁구 진
▁만 발
▁세 악
▁세 검정
▁모 필
▁교 남
▁비 싸
▁명 치
▁후 당
▁남 작
▁불 각
▁우 람
▁우 간의대부
▁선 불
▁선 죽교
▁마 귀
▁김 범
▁김 삿갓
▁현 리
▁현 묘
▁영 단
▁설 암
▁당 명
▁거 품
▁오 룡
▁오 연
▁강 민
▁강 소
▁강 철
▁계 피
▁계 해
▁양 순
▁두 뇌
▁각 양각
▁종 국
▁종 탑
▁삼 교
▁삼 원
▁삼 봉집
▁본 심
▁본 종
▁특 급
▁바 칠
▁석 계
▁석 두
▁청 전
▁청 제
▁평 신도
▁임 치
▁목 부
▁노 린
▁노 은
▁예 명
▁천 강
▁천 총
▁책 장
▁추 분
▁따라 다니
▁반 모음
▁백 기
▁백 악
▁백 희
▁금 와
▁북 지
▁용 장사
▁용 연사
▁차 정
▁차 조
▁봉 심
▁최 계
▁박 근
▁입 궐
▁감 인
▁감 천
▁감 합
▁매 창
▁외 아들
▁물 동
▁변 의
▁태 허
▁승 습
▁한국 방송
▁병 고
▁병 명
▁독 단
▁독 본
▁심 소
▁심 음
▁판 판
▁증 정
▁요 세
▁요 철
▁일본 서기
▁향 미
▁향 원
▁체 격
▁송 충
▁송 산면
▁황 구
▁잡 병
▁총 대
▁총 화
▁좌 간의대부
▁순 체
▁합 심
▁홍 준
▁식 학
▁별 관
▁별 동
▁별 신제
▁철 당간
▁윤 일
▁손 순
▁손 재
▁항 우
▁언 기
▁옥 새
▁끝 낸
▁허 령
▁준 법
▁폐 모
▁불교 도
▁딸 려
▁타 자
▁머 루
▁극 본
▁발전 함
▁범 법
▁기술 사
▁대표 부
▁혼 춘
▁침 선
▁검 속
▁덕 분
▁25 2
▁30 4
▁낙 시조
▁이어 주
▁막 중
▁숙 환
▁숙 지황
▁왔 으므로
▁춘 면
▁익 랑
▁응 상
▁망 실
▁산업 공학
▁산업 기지
▁평양 신학교
▁내려 갔
▁버 릴
▁자유 민주주의
▁뒷 발
▁징 벌
▁징 병
▁혜 통
▁조정 관
▁땅 콩
▁메 타
▁정원 용
▁올라 온
▁잔 당
▁고등 어
▁족 좌
▁세로 띠
▁인천 시
▁인천 안목
▁대장 장이
▁드러 냈
▁대통 력
▁31 7
▁휘 날리
▁몰 랐
▁괴 리
▁도로 는
▁동국 문헌비고
▁성장 기
▁구멍 무늬토기
▁32 2
▁수용 자
▁횡 령
▁혈 암
▁극락 정토
▁테 마
▁금동 여래좌상
▁안방 준
▁A P
▁39 4
▁사라 진다
▁끓 일
▁국문 연구소
▁태평 가
▁슬 로
▁남한 산
▁64 0
▁떡 국
▁화엄경 소
▁53 2
▁장애 자
▁고성 읍
▁구축 함
▁냉 면
▁김수 장
과학 원
▁135 0
▁101 4
▁예방 법
▁S t
▁144 6
▁흩 어졌
▁펼쳐 진다
▁평생 교육
▁곱 돌
▁금성 면
▁연평 도
▁석유 파동
▁저지 르
▁러서 야
▁세워졌 으며
▁알려졌 으나
체육 관
▁참모 부
▁객관 적으로
▁관동 팔경
▁젖 혀
▁유희 요
▁석굴 사원
▁매달 려
▁수혈 주거
▁소상 팔경
▁잊 혀
▁만일 회
▁촬 요
▁해운 대
▁감로 탱화
▁대종교 인
▁이준 경
▁볶 음
▁國 朝
▁락 지
▁F M
▁곁들 이
▁성황 신
▁르 네
▁송준 필
▁뭉 툭
▁초계 문신
▁진위 대
▁외환 위기
▁뉘 우
▁수녀 원
▁감탄 사
▁광개토 대왕
▁도피 안사
▁오주 서
▁맞아들 여
▁아사 달
▁장미 과
▁아카 시아
▁위사 공신
▁연자 매
▁변산 반도
▁위안 부
▁이몽 학
▁인목 대비
▁교황 청
▁김득 신
▁침엽수 림
▁권문 해
▁끌어들 여
▁끌어들 이
▁행방 불명
▁시발 점
▁한사 군
▁이앙 법
▁점성 술
▁스크 린
▁추풍 령
▁회동 서관
▁도란 형
▁지광 국사
▁마신 다
▁시헌 력
▁모화 관
▁지에 밥
▁현진 건
▁표선 면
▁극소 수
▁대동단 결
▁간화 선
▁실향 민
▁트랙 터
▁이시애 의
▁망부 석
호적 대장
▁수채 화
▁후견 인
▁비분 강개
▁輿 地
▁익재 난고
▁최언 위
▁금합 자보
▁역옹 패설
▁공휴 일
▁각양각 색
3 2
n g
▁ 品
▁ 存
▁ 密
▁ 度
▁ 張
▁ 界
▁ 養
▁ 쏜
▁ 톨
가 톨릭
과 학회
구 불
군 인
금 융
기 독
내 각제
다 경
두 덩
랜 턴
렉 스
만 리
명 창
무 대
문 적
민 회
박 달
부 채
북 동
사 론
속 선
수 사
언 론
얼 굴
열 사
예 산
추 진회
카 와
태 영
텐 츠
토 막
틀 랜드
하 키
학 리
호 어목
회 복
▁이 륜
▁이 열
▁이 율
▁이 합
▁이 라도
▁이 벌찬
▁의 소
▁의 승
▁의 영
▁의 왕
▁다 변
▁다 든지
▁다 닌다
▁하 전
▁하 조
▁은 봉
▁고 석
▁고 진
▁고 양군
▁한 효
▁한 흥
▁한 해서
▁가 단
▁가 성
▁가 식
▁가 언
▁어 허
▁사 욕
▁사 한
▁과 원
▁대 척
▁대 풍
▁대 오리
▁여 동생
▁도 대
▁도 석
▁시 군
▁수 촌
▁조 려
▁전 군
▁전 식
▁전 처
▁일 소
▁적 리
▁부 본
▁부 직
▁자 이다
▁정 탐
▁아 성
▁아 악기
▁보 릿
▁경 하
▁나 복
▁관 고
▁유 백
▁유 불
▁유 척
▁유 편
▁신 곡
▁문 갑
▁문 후
▁문 천군
▁문 얼굴
▁상 월
▁상 청
▁월 보
▁동 규
▁동 춘
▁개 암사
▁면 면
▁면 앙
▁성 찬
▁성 한
▁연 산면
▁소 연
▁소 쩍
▁소 공동
▁구 려
▁장 건
▁장 적
▁장 책
▁장 암리
▁조선 광
▁조선 정
▁모 름
▁모 문
▁교 보
▁교 향악
▁권 덕
▁권 성
▁화 락
▁화 통
▁무 부
▁원 승
▁우 점
▁우 탁
▁선 기
▁선 량
▁마 호
▁던 진
▁김 돈
▁현 문
▁당 후
▁당 악기
▁거 시
▁통 판
▁양 간
▁양 백
▁양 촌
▁양 부인
▁양 귀비
▁진 충
▁방 탕
▁종 부
▁삼 덕
▁함 남
▁군 전
▁본 궁
▁본 회의
▁행 처
▁분 간
▁분 회
▁말 굽
▁실 망
▁석 공
▁청 부
▁청 옥
▁청 음
▁임 동면
▁임 꺽정
▁민 공
▁민 관
▁추 어
▁회 당
▁반 목
▁반 봉
▁반 쪽
▁광 평대군
▁금 패
▁처 제
▁북 악
▁용 은
▁차 마
▁봉 한
▁봉 성사
▁박 초
▁박 혀
▁입 찰
▁감 신
▁감 해
▁외 이
▁외 청
▁물 욕
▁결 락
▁결 연
▁속 자
▁태 서
▁직 할
▁직 학사
▁저 촉
▁심 계
▁심 곡사
▁판 하
▁파 문
▁토 란
▁향 화
▁채 보
▁채 전
▁잡 화
▁잡 희
▁총 집
▁필 화
▁더 러운
▁홍 국
▁구성 군
▁철 전
▁윤 락
▁윤 수
▁윤 호
▁손 창
▁논 할
▁언 도
▁옥 순
▁허 성
▁환 가
▁환 난
▁도서 실
▁악 무
▁악 센트
▁암 초
▁온 상
▁맞 붙
▁존 귀
▁야 은
▁민족 문화
▁이용 도
▁난 호어목
▁검 단
▁자연 사
▁질 정
▁드 높
▁낙 타
▁편집 자
▁흥 리
▁흥 성
▁국립 공주
▁막 힌
▁졌 으므로
▁숙 천
▁격 군
▁격 목
▁격 심
▁찬 조
▁춘 방
▁익 실
▁녹 이
▁탄 강
▁눈 초리
▁눈 두덩
▁걸쳐 져
▁° ∼
▁부인 병
▁민속 음악
▁혜 숙
▁패 퇴
▁패 한
▁과학 관
▁엄 한
▁습 자
▁흑 립
▁흑 수
▁땅 속
▁지대 장
▁문헌 비고
▁메 웠
▁대동 미
▁압 량
▁가르 칠
▁다리 밟기
▁족 제
▁끼 운다
▁맹 산
▁잎 갈나무
▁국어 사전
▁이사 금
▁부정 굿
▁31 3
▁휘 발
▁한성 사범학교
▁괴 원
▁지장 신앙
▁반대 파
▁둘러 보
▁둘러 쌓
▁32 8
▁미륵 암
▁33 2
▁의원 내각제
▁부대 시설
▁웅 덩이
▁택 한
▁흉 노
▁멸 시
▁물리 칠
▁해결 책
▁금속 공학
▁이정 은
▁136 7
▁신학 자
▁빗 장
▁생물 체
▁52 4
▁공공 시설
▁145 4
▁135 2
▁남산 동
▁소작 지
▁연못 가
▁여진 정벌
▁173 3
▁68 6
▁음운 학
▁시정 책
▁김동 환
▁오언 시
▁증보 판
▁석회 석
▁잉 크
ha r
▁비서 실
▁저항 력
▁158 1
▁보였 으나
▁입법 부
▁154 5
▁플 로
▁불가 침
▁84 0
▁문묘 제례악
▁서예 가
▁강령 탈춤
▁력 사
▁연원 록
▁요동 성
▁토끼 띠
▁149 0
ic us
▁평탄 지
▁그물 추
▁민족주의 자
▁예비 군
선거 법
▁안양 사
▁유연 탄
▁정제 두
▁송병 준
▁황금 색
▁보문 품
▁초록 색
▁152 0
▁조그 맣
▁동리 산
▁ᄋ ᆞ
▁단기 간
▁초서 체
▁계림 유사
▁위성 공신
▁여유 당
▁금오 위
▁숯 불
▁홍예 교
▁가전 체
▁숙위 학생
▁솟아 오르
▁구두 쇠
▁계원 필경
▁혈연 관계
▁우도 농악
▁도순 찰사
▁노령 산맥
▁경판 본
▁복숭아 나무
▁대주 주
▁하수 오
▁막내 아들
▁김철 수
▁후삼 국시대
▁통속 소설
▁지켰 으며
▁참찬 관
국제 학교
▁신미 양요
▁구양 수
▁잿 빛
▁벤 처
▁고로 쇠
▁복각 본
▁기축 옥사
▁수산업 협동조합
▁독주 곡
▁영고 탑
▁일광 보살
▁이안 눌
반야바라밀 다경
▁적상 산
자유 당
▁세모 꼴
▁성암 고서
▁스크 랜턴
▁땔 감
▁윤용 구
▁공증 인
▁사개 치부법
▁육자배기 토리
▁아난 존자
▁민종 식
▁내한 성
▁은근 히
▁사심 관
▁수류 탄
▁구불 구불
▁조호 익
▁무찔 렀
▁병충 해
▁집어 넣
▁베네 딕
▁대릉 원
▁정범 조
▁방각 본
▁백담 사
▁비슬 산
▁현제 명
▁경성방송 국
변호사 협회
▁민족문화 추진회
▁난호어목 지
▁성암고서 박물관
E C
S C
S O
o w
ᄅ ᆞ
▁ ^
▁ ᄲ
▁ 交
▁ 伊
▁ 封
▁ 第
▁ 精
▁ 芝
▁ 醫
▁ 鏡
▁ 首
▁ 뎐
▁ 뎨
▁ 윈
간 호
개 나무
건 국
검 무
겨 드
계 정
고 름
교 지
군 가
권 씨
귀 굿
금 제
꽃 나무
내 편
녕 군
노 조
니 시
단 구
대 좌
동 화
뜨 린다
먹 이
물 고
민 당
반 자
번 기
벌 국
병 부사
산 타령
삼 군부
생 가지
소 경
소 매
소 주
수 림
시 스
악 보
애 기
업 주식회사
오 름
재 그
제 례
직 원
천 일
충 류
팽 이
합 창단
해 성
혜 원
▁이 고
▁이 금
▁이 입
▁이 출목
▁의 석
▁의 이
▁다 과
▁하 교
▁하 빈
▁고 함
▁가 노
▁가 발
▁가 양
▁가 통
▁지 운
▁기 진
▁사 토
▁대 복
▁대 요
▁대 은
▁대 광대
▁대 검찰청
▁여 준
▁도 무
▁도 하
▁도 림사
▁인 진
▁그 은
▁시 실
▁시 차
▁수 변
▁수 생
▁수 타
▁조 생
▁전 몽
▁전 천
▁일 람
▁일 조각
▁적 시
▁자 임
▁자 성군
▁정 량
▁정 업원
▁아 테
▁아 스카
▁보 합
▁보 석사
▁서 력
▁서 클
▁경 안
▁주 점
▁위 직
▁위 진
▁관 록
▁신 맛
▁신 백
▁상 충
▁라 식
▁동 두
▁동 령
▁개 재
▁성 임
▁연 복
▁소 맥
▁구 웠
▁공 면
▁장 종
▁장 토
▁장 파
▁세 배
▁세 인
▁세 벌대
▁조선 어사전
▁교 술
▁비 술
▁권 이
▁내 과
▁내 어
▁발 복
▁명 구
▁후 군
▁후 실
▁후 쿠
▁남 가
▁학 감
▁화 복
▁불 살
▁불 좌
▁불 황
▁무 로
▁무 에
▁무 천
▁무 환자나무
▁원 론
▁우 각
▁선 례
▁선 릉
▁현 석
▁현 혹
▁영 귀
▁당 직
▁오 신
▁단 호
▁단 천군
▁단 모음
▁강 했
▁통 절
▁계 미자
▁각 료
▁본 고
▁건 수
▁건 재
▁초 량
▁초 암
▁초 종
▁행 시
▁행 지
▁분 견
▁작 별
▁미 라
▁청 황
▁목 질
▁노 포
▁민 기
▁민 제
▁음 량
▁천 간
▁천 당
▁추 첨
▁회 기
▁회 벽
▁법 왕
▁법 운
▁왕 창
▁반 려
▁반 룡사
▁대한 매일
▁운 부
▁운 판
▁금 도
▁금 방
▁북 사
▁용 골
▁용 식
▁용 산리
▁봉 덕사
▁최 공
▁최 봉
▁최 숙
▁박 격
▁박 의
▁박 힌
▁알 갱이
▁감 목
▁매 부
▁결 세
▁속 할
▁약 과
▁높 다란
▁승 단
▁직 기
▁독 백
▁복 천사
▁심 체
▁판 적사
▁증 오
▁새 문안
▁농 번기
▁파 울
▁파 천
▁참 구
▁참 담
▁절 묘
▁절 풍
▁토 혈
▁향 관
▁향 부자
▁체 전
▁황 용
▁총 구
▁총 본부
▁연구 사
▁좌 산기
▁순 식
▁순 오지
▁치 세
▁풍 족
▁나타 남
▁귀 가
▁귀 두
▁윤 창
▁항 간
▁항 생
▁논 지
▁품 성
▁육 례
▁옥 봉
▁옥 인
▁피 안
▁허 봉
▁온 릉
▁온 실
▁볼 기
▁능 형
▁급 박
▁야 심
▁검 출
▁나무 토막
▁밀 림
▁밀 어
▁밀 주
▁밀 폐
▁자연 호
▁30 1
▁생산 직
▁견 룡
▁견 습
▁헌 기
▁훈 신
▁염 수
▁너 구리
▁옛 길
▁망 우
▁산업 훈장
▁리 본
▁퇴 비
▁퇴 위
▁대구 면
▁신문 관
▁신문 학
▁골 동
▁잠 겨
▁50 1
▁50 4
▁안동 군
▁28 3
▁28 9
▁문화재 청
▁문인 협회
▁농업 협동조합
▁근대 국어
▁결정 짓
▁메 추
▁예술 단
▁27 7
▁대전 시
▁화엄 일승
▁29 7
▁잎 겨드
▁록 과
▁국회 도서관
▁묵 객
▁고대 인
▁작성 자
▁뿌 린다
▁35 3
▁유명 하
▁궁중 무
▁곽 지
▁창작 극
▁창작 단
▁이기 호
▁횡 행
▁웅 변
▁청자 상감
▁집행 부
▁택 시
▁공산 품
▁38 4
▁멸 실
▁깃 든
▁국방 위원회
▁검사 국
▁기도 문
▁이원 화
▁이제 신
▁연기 자
▁수군 만호
▁41 0
▁김유 정
▁번식 기
▁빙 상
▁49 5
▁북부 여
▁145 8
과학 관
▁복식 금제
▁99 3
▁김제 군
▁문수 산
▁문예 운동
▁이경 직
▁태자 태
▁정지 상
▁사유 지
▁의성 어
▁돌출 부
▁바닷 길
▁三 國
▁회계 학
▁나타났 으며
▁총무 처
▁동정 직
▁원수 부
삼존 불좌상
▁한산 이씨
▁사후 선
▁154 3
▁기상 학
▁文 集
▁디자 이너
국어 문법
▁젓 국
▁이웃 집
▁수성 구
▁예문관 대제학
▁폐쇄 음
▁평조 회상
▁늘어 뜨린
리지 석묘
▁사간원 헌납
▁들어온 다
▁검찰 청
▁토목 공학
▁박문 국
▁김준 연
▁운문 면
▁무인 석
▁가톨릭 교회
▁132 0
▁동반 자
▁중소기업 청
▁만수 위
▁도솔 산
▁동성 촌락
▁유식 사상
▁창업 주
▁광업 소
▁조운 선
▁콜 럼
▁정무 직
▁집사 부
▁김형 직
▁최남 단
▁박인 로
▁기다 린다
벽화 고분
▁여객 선
▁개천 절
▁수월 관음
▁각성 촌락
▁국자감 시
▁밀려 나
▁대교 구
▁이호 민
▁이운 룡
▁조현 명
▁채워 져
▁공명 첩
▁조천 읍
▁퉁 구스
▁공모 전
▁삼남 지방
▁법성 포
▁구개 음
▁미추 왕
▁변성 암
▁황태자 비
▁조왕 신
▁하반 부
약사 여래좌상
▁의흥 삼군부
▁최저 임금
▁박춘 재
▁재조 명
▁이무 기
▁도진 무
▁하남 시
▁안국 사지
▁신무 왕
삼매 경
▁외조 부
▁당사 국
▁오구 굿
▁훈구 파
▁떠돌 아
▁눌지 마립간
▁유니 버
▁경기체 가
▁황윤 석
▁마르크스 주의
▁歲 時
▁지그 재그
▁끈질 긴
▁해왔 으며
▁칠정산 내편
▁향신 료
▁희로 애락
▁흑치 상지
▁뮈 텔
▁발자 취
▁산비 탈
▁계루 부
▁기삼 연
▁흑요 석
▁도저 히
▁걸터 앉
▁눈부 신
▁신돌 석
▁춘면 곡
▁대한매일 신보
▁좌산기 상시
▁잎겨드 랑이
3 9
7 5
o k
▁ 冊
▁ 庚
▁ 抄
▁ 沙
▁ 火
▁ 用
▁ 祠
▁ 祭
▁ 臣
▁ 處
▁ 賜
▁ 鑛
▁ 頌
▁ 뎡
▁ 멤
▁ 졍
가 래
가 죽
경 험
공 학회
광 주박물관
교 론
구 름
극 사
극 영
급 사
기 상시
나 식
낭 자전
도 록
독 떼기
동 패총
막 신
만 상
맥 상
문 감
백 서
법 수
부 처
불 리
비 키
비 평
삼 사
삼 천
삼 청
상 륙
성 쇠
아 찌
안 민
약 조
양 기
어 제
예 부
의 약
접 종
주 체
죽 리
줏 빛
지 문
지 왕
집 략
처 녀
커 우
키 스탄
통 기
통 론
포 집
해 협
호 구
흥 리
▁이 겸
▁이 임
▁다 나
▁다 사
▁다 홍색
▁하 엽
▁은 가
▁은 병
▁한 길
▁한 당
▁한 소
▁가 함
▁지 닐
▁지 종
▁어 모
▁어 세
▁사 스
▁사 대문
▁여 닫
▁도 도
▁도 보
▁도 야
▁인 프라
▁시 료
▁수 강
▁수 륜
▁수 안군
▁조 곡
▁조 물
▁전 작
▁전 조선
▁일 경
▁일 자리
▁적 처
▁부 교수
▁자 나
▁자 대
▁자 줏빛
▁정 록
▁정 물
▁아 오
▁아 크
▁보 스
▁중 권
▁중 현
▁서 곡
▁서 불
▁서 하
▁들 쥐
▁유 곡
▁유 숭
▁신 물
▁신 실
▁신 표
▁신 홍
▁상 직
▁월 주
▁동 갑
▁동 본
▁동 봉
▁동 위
▁동 하
▁개 천사
▁개 나리
▁해 법
▁연 파
▁소 다
▁구 륵
▁구 활자
▁공 교
▁공 박
▁공 보부
▁장 담
▁장 량
▁장 의사
▁세 찬
▁조선 성악
▁모 조
▁비 통
▁권 호
▁내 단
▁명 원
▁한다 든지
▁남 학
▁화 하
▁화 장사
▁불 가사리
▁호 계
▁호 원
▁무 착
▁원 선
▁원 임
▁원 체
▁우 시
▁우 치
▁선 린
▁선 희
▁던 진다
▁현 곡
▁현 미경
▁영 좌
▁설 채
▁산 돌
▁거 물
▁거 유
▁단 신
▁통 유
▁계 고
▁계 봉
▁계 상
▁양 당
▁양 동리
▁두 정
▁안 사
▁안 덕면
▁진 퇴
▁각 궁
▁종 무
▁종 양
▁삼 절
▁삼 출목
▁역 역
▁본 뜻
▁본 업
▁없 앴
▁바 구니
▁작 지
▁재 이
▁말 안장
▁미 년
▁미 늘
▁청 리
▁청 평사
▁음 정
▁천 령
▁천 읍
▁출 항
▁추 궁
▁배 연
▁회 경
▁회 회
▁왕 재산
▁백 질
▁백 운사
▁금 루
▁금 성사
▁차 질
▁집 주
▁최 일
▁박 과
▁입 동
▁입 속
▁감 계
▁감 별
▁매 번
▁물 매
▁약 목
▁돌 궐
▁돌 난간
▁복 병
▁심 했
▁달 아내
▁증 장
▁증 심사
▁파 고
▁파 출
▁절 부
▁요 도
▁요 식
▁길 지
▁길 잡이
▁토 방
▁향 락
▁체 측
▁송 제
▁근 위
▁황 영
▁치 지
▁홍 귀
▁크 라
▁풍 채
▁철 채
▁열 조
▁윤 극영
▁육 효
▁완 판본
▁피 라미
▁줄 인
▁볼 셰
▁뜻 대로
▁맞 히
▁궁 문
▁기술 직
▁곡 창
▁급 성
▁야 담집
▁민족 자
▁민족 혁명당
▁갈 퀴
▁검 상
▁밀 성
▁덕 명
▁벽 산
▁드 린다
▁- -
▁투 석
▁밑 거름
▁편집 장
▁흥 학
▁국립 광주박물관
▁숙 달
▁갑 문
▁춘 경
▁춘 풍
▁읍 치
▁탄 금대
▁응 이
▁망 가
▁망 이
▁망 주
▁리 식
▁색 이
▁힘 껏
▁술 수
▁내려 앉
▁뒷 마당
▁굴 원
▁착 복
▁50 5
▁징 병제
▁징 비록
▁빈 혈
▁흑 각
▁흑 피
▁지나 간
▁대동 청년단
▁늘 렸
▁늘 씬
▁진주 검무
▁태조 왕
▁고등 기술
▁꾸 려
▁맹 호
▁답 례
▁국어 순화
▁아미타 삼존도
▁어린 잎
▁괴 상
▁곤 여
▁건너 방
▁탁 발
▁동국 지도
▁이수 일
▁34 8
▁읽 혔
▁38 5
▁액 정서
▁태종 대
▁꼬 챙이
▁학과 목
▁다듬 이
▁귀중 본
▁바깥 마당
▁大 乘
▁카 누
▁이중 모음
▁장기 영
▁39 9
▁136 8
▁삼성 전자
▁이원 수
▁김종 한
▁다스 린
▁빚 어진
▁공무원 교육원
▁66 4
▁오르 도
▁섭 리
▁51 3
▁소금 강
문화 협회
▁화폐 단위
▁167 1
▁모래 층
▁끈 기
▁탕 진
▁건조 물
스트 라
▁함흥 부
▁소작 쟁의
▁수양 론
▁ᄃ ᆞᆯ
▁예방 접종
▁임원 진
▁상례 비요
▁147 7
▁68 5
▁해양 수산부
▁행랑 방
▁서낭 제
▁서낭 나무
▁원시 불교
▁중서 부
▁천문 동
▁동화 집
▁조개 류
▁보상 당초문
▁158 5
▁148 6
▁범죄 인
▁저지 른
▁156 2
▁잡혀 갔
▁L A
▁151 2
▁신흥 군
▁이장 곤
▁김기 림
▁수종 사
▁김천 택
▁창의 문
▁단오 날
▁관동 지방
▁진료 소
▁김병 로
▁권위 주의
▁시무 책
문하 평장사
바라 기
▁어두 워
발전 소
▁자장 가
▁법화 삼매
▁132 5
개발 은행
▁김응 하
▁암반 층
▁수레 바퀴
▁배수 구
▁우산 기상시
▁경신 학교
▁진해 구
▁표고 버섯
▁짠 다
▁쫓겨 났
▁이단 하
▁이두 문
▁김만 기
▁원경 왕후
▁중동 학교
▁박동 진
▁접속 사
▁어지 러워
▁호흡 기
▁감지 금니
▁자물 통
▁신유 한
▁웅진 도독부
▁잉어 과
▁두터 웠
▁사복시 정
▁박공 지붕
▁자양 면
▁휴양 소
▁이극 로
▁남종 화
▁기전 체
▁사나 이
▁노랑 부리
▁이효 석
▁김흥 락
▁귀면 문
▁기발 이승
▁서봉 총
▁최인 규
▁봉서 사
▁和 尙
▁김헌 창
▁파랑 새
▁琴 譜
▁반신 상
▁정두 경
▁송덕 비
▁한국전력 공사
▁철쭉 나무
의용 대
▁합자 회사
▁팔달 구
▁장호 원
▁놓아 두
▁삽교 천
▁혜민 서
▁형산 강
▁해심 밀
▁조선연극 사
▁비망 기
▁세창 서관
▁각설 이
▁핸드 볼
▁권연 하
▁반봉 건
▁아테 네
▁구활자 본
▁조선성악 연구회
▁고등기술 학교
2 5
▁ 出
▁ 參
▁ 敬
▁ 爾
▁ 而
▁ 補
▁ 見
▁ 鎭
▁ 둠
▁ 떴
▁ 룸
▁ 묄
▁ 쉴
가 례
고 승전
급 회담
닥 거리
덕 션
따 로
라 우치
렌 도르프
루 비
모 범
몰 이
법 계도
부 지
북 리
뽕 나무
사 촌
생 전
서 간
스 럽
스 텐
양 리
유 곡
이 정
제 지
진 무소
짇 날
집 해
창 방
채 나무
천 주
폭 력
표 준
필 지
하 마
행 상
형 법
흥 암
▁의 조
▁하 직
▁은 선
▁고 매
▁고 역
▁고 화
▁한 껏
▁한 암
▁가 경
▁가 액
▁가 업
▁가 첩
▁가 탁
▁지 루
▁지 망
▁지 져
▁어 명
▁어 중
▁사 감
▁사 르
▁사 별
▁사 봉
▁사 손
▁사 청
▁과 료
▁대 재
▁여 물
▁었 었
▁수 도사
▁전 율
▁전 했
▁일 전
▁제 분
▁제 설
▁제 위
▁부 내
▁부 림
▁부 일
▁자 꾸
▁자 복
▁자 존
▁정 격
▁정 발
▁아 목
▁아 욱
▁아 으
▁보 군
▁보 학
▁중 궁
▁중 덕
▁서 직
▁경 방
▁경 일
▁경 차
▁경 행
▁경 아전
▁주 련
▁관 망
▁관 변
▁관 향
▁신 말
▁신 빈
▁신 계사
▁문 밖
▁문 배
▁상 근
▁상 비
▁라 마
▁월 사
▁게 양
▁성 냥
▁연 월
▁소 갈
▁소 림
▁소 만
▁소 보
▁구 묘
▁구 언
▁구 부리
▁구 천동
▁공 도
▁장 보
▁세 정
▁모 라
▁교 와
▁비 나
▁비 룡
▁비 송
▁비 틀
▁비 화
▁내 벽
▁내 승
▁남 변
▁남 재
▁남 형
▁남 획
▁남 연군
▁화 이
▁불 심
▁불 회사
▁무 례
▁선 제
▁선 혈
▁선 흘리
▁마 두
▁마 병
▁마 셔
▁마 크
▁김 행
▁김 대문
▁현 경
▁영 경
▁영 본
▁영 가지
▁설 시
▁당 고
▁간 평
▁간 헐
▁산 당
▁거 역
▁오 달
▁오 돌
▁오 식
▁오 준
▁강 용
▁통 식
▁계 본
▁계 족
▁양 립
▁양 택
▁두 운
▁안 덕
▁안 명
▁진 북
▁진 일
▁각 산
▁방 납
▁종 요
▁삼 불
▁삼 짇날
▁역 성
▁군 용
▁군 이
▁본 분
▁건 괘
▁분 도
▁재 명
▁재 출
▁말 법
▁말 씨
▁실 마리
▁미 꾸
▁청 간
▁임 장
▁임 파
▁목 깃
▁노 스
▁창 우
▁뒤 꽂이
▁민 태
▁천 둥
▁천 선
▁책 립
▁배 알
▁회 칙
▁왕 손
▁반 딧
▁광 동
▁광 둥
▁백 하
▁백 흥암
▁처 참
▁북 수
▁용 병
▁표 층
▁최 운
▁박 력
▁알 천
▁알 현
▁입 전
▁규 수
▁감 군
▁매 산
▁매 음
▁충 순위
▁속 속
▁승 속
▁병 방
▁병 오
▁병 학
▁사람 됨
▁심 미
▁판 밀직사사
▁새 타령
▁농 협
▁파 총
▁참 변
▁요 서
▁요 트
▁묘 전
▁토 단
▁토 해
▁칸 막이
▁채 봉
▁송 심
▁송 어
▁송 창
▁황 혼
▁총 책
▁총 탄
▁서울 특별
▁순 무사
▁합 해서
▁크 낙새
▁귀 리
▁식 혜
▁윤 우
▁손 위
▁취 두
▁전기 공학
▁육 두품
▁옥 상
▁옥 추
▁독립 투사
▁환 총
▁줄 포
▁암 줄
▁표현 주의
▁친 국
▁날 렵
▁곡 산군
▁급 대
▁밀 물
▁기념 탑
▁자연 지세
▁덕 문
▁덕 치
▁질 책
▁탑 리
▁행정 자치
▁사업 비
▁30 2
▁애 착
▁헌 사
▁의식 주
▁숙 여
▁숙 향
▁희 령
▁익 룡
▁느 꼈
▁녹 읍
▁망 각
▁망 개나무
▁리 치
▁꽃 대
▁보살 펴
▁광복 회
▁내려 간
▁퇴 진
▁떨 쳐
▁대사 자
▁척 독
▁신앙 생활
▁민속 춤
▁석조 여래삼존입상
▁현대 사
▁쇠 못
▁엄 벌
▁넘 긴
▁그린 다
▁문헌 정보
▁예술 제
▁상대 등
▁빠 진다
▁족 친
▁맹 수
▁휘 말
▁... ..
▁즐 긴다
▁시집 간
▁연화 산
▁32 7
▁활용 형
산리 고분군
▁뿌리 깊
▁혁명 군
▁감사 관
▁농촌 활동
▁쌀 알
▁쌀 가루
▁동남 방언
▁이황 은
▁금동 보살좌상
▁밭 농사
▁헤 어지
▁프로 세서
▁프로 덕션
▁39 6
▁136 4
▁산지 기
▁여인 상
▁인민 대중
▁생명 공학
▁강제 집행
▁군인 전
▁41 8
▁사직 서
▁김상 옥
▁섭 사
▁47 8
▁이종 기
▁정주 군
▁M BC
▁영양 소
▁이경 여
▁명부 시왕
▁합쳐 져서
▁68 7
▁보현 산
▁정선 아리랑
▁한림 읍
▁넘어 선
▁장승 택
▁157 9
▁추녀 마루
▁비서 성
▁남겼 으며
▁88 0
▁정토 사
▁92 2
▁92 6
▁부흥 부
▁생겼 으나
▁상고 대
▁접근 성
▁봉산 동
아미타 불
▁불가 분
▁결혼 식
▁구원 관
▁총재 관
▁심경 부주
▁꾸며 졌
▁강사 포
▁천인 합일
▁이방 실
▁병부 령
▁나비 춤
▁김우 진
▁완도 읍
한국 국제학교
▁영등 신
▁구부 린
▁부원 장
▁재령 강
▁영흥 군
문헌 총록
▁박태 선
▁양념 장
▁학도 병
▁경도 잡지
▁최상 수
▁수식 어
▁몰려 들
▁겹쳐 서
▁청진 시
▁뜬 창방
▁반공 법
▁說 話
▁상반 부
▁鄕 藥
▁끌어 내
▁무제 한
▁적석 총
▁끌려 간
석조 여래입상
▁방풍 판
▁단성 면
▁부딪 치
▁갇 히
▁성학 집요
▁법신 불
▁雜 記
▁최유 청
▁전생 서
르트 르
▁경운 궁
묘지 명
제일 교회
▁양현 고
▁미비 점
▁승병 장
▁굶주 리
▁치러 졌
▁처해 졌
▁유심 춘
▁마하 연
▁북극 성
▁내물 왕
▁안병 찬
▁경재 소
▁紀 元
▁방호 별감
▁국민정신 총동원
▁남병 길
▁아나 키
▁파라 과이
▁지녀 야
▁쉬우 므로
▁연석 회의
▁윌 리
▁윤순 거
▁농수 산물
▁어랑 천
▁북풍 회
▁떠받 치
▁스피 드
▁강북 구
▁윤원 형
▁부가가치 세
▁변강 쇠
▁조면 암
▁등고 선
▁총생 산
▁논공 행상
▁앉은 굿
▁목호 룡
▁외거 노비
▁반교 문
▁이스 라
▁엔지 니어
▁강민 첨
▁멤 버
▁볼셰 비키
▁행정자치 부
▁문헌정보 학
E M
N G
a g
m a
r e
t er
y s
▁ 問
▁ 尸
▁ 尺
▁ 梅
▁ 條
▁ 燕
▁ 還
▁ 閣
▁ 齊
▁ 떵
▁ 륭
▁ 뻘
▁ 쿨
▁ 텔
▁ 텬
▁ 陀羅尼
가 도
견 례
공 양
공 파
공 히
궁 주
극 렴
녹 사
다 랗
단 오제
대 책
돋 움
들 노래
르 몬
르 타
리 스트
명 현
민 중
병 좌상
보 육
사 례
시 보
시 나무
신 경
심 의회
악 사
안 왕
양 행
양 세시기
어 산
열 전
열 차
운 대
유 격대
윤 음
일 리
자 위
주 아
지 주
차 리
철 광
촌 유고
타 운
태 권
판 문
하 생경
학 술원
허 가
협 약
호 제
▁이 겼
▁이 원군
▁은 적사
▁고 강
▁고 바
▁고 여
▁한 광
▁한 교
▁지 발
▁지 본
▁지 윤
▁지 초
▁기 쁘
▁기 절
▁어 쩌
▁로 구나
▁과 언
▁대 묘
▁대 병
▁대 토
▁여 로
▁시 금
▁시 첩
▁수 금
▁수 청
▁수 택
▁조 과
▁조 남
▁조 민
▁조 열
▁전 심
▁제 찬
▁제 포
▁적 법
▁부 판
▁부 천시
▁자 미
▁정 거
▁정 론
▁정 목
▁정 평군
▁보 본
▁중 합
▁서 녀
▁서 브
▁서 형
▁주 나
▁주 혈
▁주 간지
▁된 소리
▁나 경
▁위 봉사
▁유 업
▁문 암
▁상 책
▁월 선
▁월 천
▁월 평
▁동 락
▁동 진강
▁해 월
▁해 바라기
▁성 담
▁성 회
▁연 군
▁연 륙
▁연 미
▁연 시
▁소 릉
▁소 세
▁만 법
▁만 언
▁공 대
▁장 일
▁세 사
▁세 선
▁국 을
▁국 주
▁모 내
▁모 스
▁비 빈
▁비 워
▁권 준
▁발 맞추
▁발 돋움
▁명 품
▁후 두
▁남 수
▁남 호
▁화 방
▁화 용
▁화 지
▁화 피
▁화 조화
▁불 운
▁불 하
▁원 어
▁원 증
▁원 행
▁우 렁
▁우 뢰
▁우 무
▁우 신
▁우 천
▁선 근
▁선 본
▁마 리아
▁김 립
▁김 활
▁현 액
▁당 계
▁산 미
▁산 상
▁산 체
▁거 늘
▁거 무
▁거 수
▁오 선
▁오 응
▁오 존
▁강 양
▁강 응
▁양 악
▁양 우
▁두 형
▁안 조
▁안 호
▁안 희
▁진 교
▁진 우
▁진 잠
▁방 죽
▁종 리
▁역 부
▁역 인
▁함 수
▁군 포시
▁본 청
▁초 학
▁석 산
▁미 감
▁청 현
▁평 온
▁임 해군
▁까 투리
▁노 트
▁창 궐
▁창 동
▁창 영
▁창 진
▁민 무
▁예 덕
▁배 송
▁배 판
▁회 재
▁회 정
▁법 지
▁반 정부
▁대한 변호사협회
▁운 강
▁운 석
▁광 록
▁백 영
▁백 복령
▁북 새
▁북 성회
▁용 광
▁용 부
▁용 아
▁용 원
▁차 상
▁표 식
▁표 의
▁봉 장
▁최 중
▁박 길
▁박 남
▁박 목
▁박 원종
▁감 칠
▁외 딴
▁외 다리
▁물 상
▁변 태
▁결 한
▁속 일
▁약 기
▁약 리
▁태 기
▁태 초
▁태 호
▁병 전
▁병 참
▁독 고
▁복 관
▁복 인
▁달 이
▁새 싹
▁절 리
▁절 연
▁묘 년
▁토 역
▁향 소
▁향 학
▁체 의
▁채 종
▁송 구
▁송 별
▁근 검
▁황 문
▁잡 무
▁총 람
▁총 량
▁총 영사관
▁필 집
▁필 획
▁지역 사회
▁좌 경
▁순 문사
▁순 전히
▁치 포
▁홍 관
▁데 라우치
▁살 핀
▁별 검
▁철 부
▁철 정
▁철 주
▁열 양세시기
▁윤 시
▁윤 유
▁윤 재
▁윤 채
▁윤 허
▁윤 이상
▁취 성
▁육 질
▁대학 신문
▁옥 원
▁걸 사
▁피 고
▁피 서
▁효 가
▁효 정
▁허 천강
▁허 덕이
▁독립 문
▁환 정
▁온 역
▁들어 올리
▁친 숙
▁급 전
▁갈 고
▁마을 신
▁난 입
▁침 향
▁검 서관
▁문제 삼
▁칠 현
▁- ----
▁행정 심판
▁보인다 고
▁25 7
▁백제 인
▁낙 인
▁낙 조
▁흥 주
▁견 사
▁애 민
▁헌 공
▁헌 안왕
▁사찰 령
▁염 거
▁염 습
▁제주 대학교
▁너 그
▁격 동
▁춘 하추
▁지도 층
▁벌 판
▁음악 제
▁응 석
▁국제 올림픽위원회
▁리 회
▁색 다른
▁술 년
▁내려 간다
▁퇴 로
▁퇴 조
▁골 패
▁율 려
▁소설 사
▁착 색
▁신앙 심
▁론 가
▁함경 선
▁새겨 서
▁습 소
▁습 니까
▁양성 면
▁흑 운모
▁교회 사
▁영화 인
▁대청 도
▁촌 수
▁27 1
▁흐 려
▁휴 지
▁교수 법
▁아미타 구
▁가까 웠
▁번역 문
▁어깨 선
▁촉 발
▁대한민국 학술원
▁객 성
▁성주 사지
▁우물 물
▁쉽 사리
▁횡 적
▁고인돌 군
▁혈 맥
▁동양 학
▁무용 단
▁여겨 져
▁34 2
▁택 견
▁가구 재
▁해외 취업
▁벼슬 살이
▁뻗 치
▁아이 스
▁흉 례
▁철학 박사
▁흡 연
▁서북 방
▁이황 의
▁유치 환
▁大 典
▁명령 형
▁봉사 자
▁항일 유격대
▁쳐 다보
▁52 9
▁54 5
▁54 8
▁짝 수
▁보리 심
▁정주 간
▁정주 학
▁65 5
▁영양 사
▁제석 굿
▁지켜 보
사자 놀음
▁147 5
▁순조 실록
▁142 1
▁화산 암
▁원통 암
▁계약 서
▁138 1
▁138 5
▁기름 진
▁이관 하
▁웃 방
▁비상 시
▁110 2
▁110 6
▁110 9
▁벽돌 무덤
▁88 6
▁정토 사상
▁82 2
▁148 0
▁이시 방
▁전도 부인
▁76 0
▁생겼 으며
▁정읍 사
▁포도 주
▁진정 서
▁151 8
▁이지 함
▁일으켜 서
▁지방관 제
▁조영 석
▁전화 기
▁김치 인
▁신광 수
▁121 9
▁149 8
▁97 0
▁뱃 사공
▁브라 운
▁대변 인
▁북청 사자놀음
▁냐 고
▁김응 조
▁더러 움
관리 법
▁짜여 졌
▁원예 학
▁복음 주의
▁완산 주
▁강동 구
▁다년 초
▁늘어났 으며
▁미륵보살 상
▁소고 춤
▁탐라 국
▁허튼 타령
▁폴 란드
▁내림 굿
▁레이 스
▁꾸민 다
▁콧 등
▁날아 와
▁가래 나무
▁소승 불교
▁불어 오
▁군국 주의
▁김소 희
▁주청 사
▁구형 왕
▁웅천 주
▁하반 기
▁권선 문
▁엄밀 히
▁이채 롭
▁흥덕 구
▁싸리 나무
▁굴도리 집
▁거미 줄
▁튀어나 오
▁말라 리아
▁명실 공히
▁영종 도
▁도회 소
▁동음 어
▁관악 구
▁아가 미
▁멜 로드
▁보라 색
▁목민 심서
▁삼청 동
▁조선중앙 일보
▁회맹 록
▁화회 문기
▁땔 나무
▁실사 구시
▁돛 대
▁국민대표 회의
▁낙질 본
▁북조선 노동당
▁후발 해
▁발진 티푸스
▁개구 부
▁취발 이
▁오명 항
▁직파 법
▁맥아 더
▁目 錄
▁가릉 빈가
▁거류민 단
▁康 熙
▁송설 체
▁안규 홍
▁제삼 자
▁겹겹 이
▁달서 구
▁돌하 르방
공무원 법
▁초승 달
▁국립공주 박물관
▁여유당 전서
▁떠돌아 다니
▁묄 렌도르프
▁이스라 엘
▁멜로드 라마
i v
▁ ᅦ
▁ 于
▁ 化
▁ 各
▁ 律
▁ 朱
▁ 樓
▁ 歸
▁ 癸
▁ 禁
▁ 等
▁ 者
▁ 軒
▁ 閑
▁ 附
▁ 꿋
▁ 팝
業 )
가 단
개 시
건 물
걸 음
권 공
기 연
나 방
낙 도
다 락
도 치
동 본
동 우회
랑 가
루 왕
마 성
매 리
면 체
문 초
미 디
반 죽
백 희
부 장
부 패
불 문학
사 학회
살 림
상 스
성 법
시 다
식 산
안 지곡
어 두
여 관
연 서원
염 료
영 양
영 가집
옹 유고
요 간
원 자
인 구
일 동
자 비
장 산
정 도감
정 벌레
존 도
주 해
증 손
지 신
집 람
창 리
초 목
타 미
틈 이
프 로
하 늘
한 사전
해 살이
협 상
▁이 애
▁이 위
▁의 업
▁다 인
▁하 진
▁고 락
▁고 랭
▁고 막
▁고 충
▁고 학생
▁한 응
▁가 석
▁가 연
▁가 오리
▁지 론
▁지 참
▁지 밀직
▁기 서
▁기 중
▁기 창
▁기 천
▁어 르
▁사 탑
▁대 는
▁대 미
▁대 반야경
▁여 드
▁도 맥
▁도 예
▁도 응
▁도 판
▁시 댁
▁시 지
▁시 누이
▁수 룡
▁수 액
▁조 역
▁조 혼
▁전 어
▁전 왕
▁전 질
▁적 소
▁적 천사
▁부 금
▁부 주석
▁정 반대
▁아 바
▁서 궁
▁서 빙고
▁경 교
▁경 박
▁주 계
▁주 곡
▁위 의
▁관 란
▁유 당
▁유 송
▁유 운
▁신 필
▁신 후
▁문 설
▁문 항
▁문 질러
▁상 간
▁월 급
▁동 티
▁동 학교
▁동 유록
▁개 똥
▁개 비
▁성 급
▁성 윤
▁연 로
▁연 약
▁소 강
▁구 태
▁만 담
▁만 종
▁모 곡
▁모 도
▁모 지
▁모 조리
▁비 싼
▁비 편
▁비 품
▁비 동맹
▁권 극
▁권 람
▁권 시
▁권 마성
▁내 건
▁내 고
▁내 막
▁내 서
▁내 신
▁내 아
▁발 로
▁남 감
▁남 복
▁학 록
▁학 우
▁화 성군
▁불 림
▁불 통
▁호 반
▁선 남
▁현 격
▁현 동
▁현 채
▁영 숙
▁영 운
▁영 탑
▁설 축
▁당 골
▁당 숙
▁당 함
▁간 연
▁산 개
▁산 역
▁산 음
▁산 다는
▁거 위
▁오 형
▁오 천면
▁오 누이
▁단 야
▁단 파
▁강 은
▁통 념
▁통 의부
▁계 인
▁양 리
▁양 시
▁안 겨
▁안 공
▁안 구
▁각 고
▁각 연
▁방 군
▁방 략
▁삼 색
▁삼 제
▁삼 헌
▁군 담
▁군 마
▁건 천
▁특 용
▁시대 일보
▁초 구
▁초 려
▁행 도
▁행 은
▁재 구
▁재 향
▁말 나식
▁석 곡
▁석 연
▁미 련
▁미 코토
▁청 군
▁청 빈
▁임 중
▁노 가
▁출 원
▁출 중
▁책 훈
▁배 워서
▁회 록
▁회 주
▁회 진
▁회 혼
▁법 치
▁왕 계
▁왕 립
▁대한 항공
▁운 당
▁운 자
▁백 범
▁백 포
▁금 분
▁금 연
▁용 제
▁용 천사
▁집 산지
▁봉 남
▁봉 정
▁최 학
▁박 현
▁규 암면
▁점 막
▁점 선
▁그러 다가
▁감 미료
▁외 각
▁외 증
▁변 고
▁속 박
▁승 의
▁직 렬
▁직 부
▁저 인
▁병 존
▁병 중
▁독 보
▁심 진
▁농 우
▁참 빗
▁요 는
▁묘 주
▁지방 도
▁향 역
▁향 풍
▁향 합
▁송 라
▁송 우
▁송 응
▁송 재
▁근 수
▁포 류
▁포 시
▁포 악
▁포 현
▁총 격
▁필 원
▁연구 비
▁좌 장
▁좌 담회
▁치 맛
▁치 른다
▁치 러진
▁홍 어
▁풍 격
▁풍 도
▁풍 유
▁풍 산군
▁식 해
▁윤 도
▁윤 심
▁윤 응
▁국가 관
▁품 일
▁품 평
▁큰 상
▁완 간
▁옥 외
▁사이 클
▁사이 시옷
▁피 정
▁피 휘
▁피 어나
▁협 업
▁협 찬
▁허 술
▁환 급
▁환 약
▁환 성사
▁스 튜
▁암 나무
▁기술 진
▁곡 리
▁생활 지도
▁갈 족
▁소장 파
▁덕 솔
▁덕 주사
▁백제 부흥운동
▁흥 덕사
▁견 대
▁견 록
▁견 인
▁고구려 어
▁막 료
▁염 치
▁춘 성
▁희 릉
▁졸 라
▁섬 겼
▁옛 부터
▁산업 은행
▁십 시오
▁부산 물
▁보통 교육
▁쌍 두령
▁척 후
▁세워 야
▁자유 형
▁율 조
▁50 2
▁징 후
▁혜 장
▁혜 철
▁석조 대좌
▁과학 사
▁금강 문
▁대동 회
▁세종 대왕
▁경성 일보
▁흐 른
▁농민 문학
▁코 미디
▁29 3
▁부정 부패
▁몰 입
▁괴 뢰
▁60 2
▁사당 리
▁지장 탱화
▁동물 학
▁교통 망
▁관음 신앙
▁선거 인
▁신도 시
▁32 6
▁성균관 전
▁창작 과
▁굽 이
▁사자 관
▁고사 촬요
▁무용 총
▁의학 입문
▁해외 문학
▁테 이프
▁욕 계
▁빼 어나
▁레 퍼
▁액 면
▁개국 공
▁사천 대
▁근무 일
▁융 희
▁진흥 회
▁동학 란
▁大 全
▁일체 감
▁39 3
▁산수 유
▁경험 방
▁약사 사
▁서사 관
▁득 표
▁I T
▁48 6
▁학부 대신
▁종묘 제례
▁41 2
어사 대사
▁경비 사
▁보리 사
▁공민 학교
▁빙 빙
▁선종 영가집
▁신민 주
▁군정 장관
▁99 2
▁모래 밭
▁56 8
▁항공 사
▁계산 법
▁이규 환
▁고령 지
▁집권 당
▁멀리 서
▁소지 왕
▁소지 자
▁82 6
▁동방 삭
▁혁신 단
▁국경 선
▁155 4
▁감찰 대부
▁정규 군
▁부상 자
▁동구 릉
▁정약 전
▁불신 임
▁틈 틈이
▁축원 문
▁김광 섭
▁수심 방
▁최영 경
▁검찰 소
▁우승 선
▁149 2
▁149 3
▁97 5
▁대도 호부사
▁썰 물
▁시상 식
▁놋 그릇
▁똑 바로
▁워 크
▁천왕 봉
▁상여 소리
▁세련 미
▁생성 물
▁조인 규
▁청산 별곡
▁동성 동본
▁113 5
▁도가 사상
▁뛰어났 으며
▁풀려 난
▁태안 반도
▁을지 로
▁놀라 운
▁소아 과
▁보림사 사천왕상
▁주어 진다
▁길상 면
▁단속 사
▁유격 전
▁숭실 학교
▁숭실 대학교
▁솟아 난
▁솟아 오른
▁단골 판
▁우사 간
▁성북 동
▁행주 산성
▁부응 교
▁손꼽 힌다
▁이왕 가
▁구운 몽
▁철조 여래좌상
고인 돌
▁수렴 청정
▁불어 불문학
▁기세 배
▁용호 영
▁동호 인
도회 군
---- --
▁감수 국사
▁와룡 면
▁누에 고치
▁장마 철
▁백일 장
▁신덕 왕후
▁좌사 간
▁숙박 업
▁성덕 대왕신
▁장용 영
▁장복 추
▁귓 불
상업 은행
▁인목 왕후
▁백인 걸
▁등사 판
▁백장 암
반대 운동
▁선보 였
▁유유 자적
▁문간 방
▁설문 해자
▁벅 구
▁매향 비
▁총목 록
▁辨 證
▁십이지 상
▁동그 란
▁서악 동
▁임병 찬
▁靈 山
▁이맹 전
▁위화 도회군
▁열하 일기
▁북돋 우
▁박두 진
▁초충 도
▁수다 사
▁쇄국 정책
▁암괴 류
▁성거 산
▁금위 대장
▁스티 븐
▁식화 지
▁무임 소
▁금귀 걸이
▁모밀 잣밤나무
▁모름 지기
▁수타 사
▁미꾸 라지
▁김활 란
▁박목 월
▁춘하추 동
▁보림사사천왕상 복
▁성덕대왕신 종
4 3
▁ 任
▁ 來
▁ 列
▁ 必
▁ 救
▁ 此
▁ 泰
▁ 翁
▁ 英
▁ 莊
▁ 藥
▁ 規
▁ 象
▁ 送
▁ 郎
▁ 鑑
▁ 雪
▁ 鮮
▁ 넌
▁ 땡
▁ 맘
▁ 숱
▁ 챔
▁ 헹
如 來
나 와
농 가
다 식
대 승
덜 이
동 계
동 무
등 면
똥 나무
라 이트
럼 비아
레 기
린 내
무 보
문 호
배 원
법 화
변 두
변 무
비 녀
빔 밥
산 수도
살 풀이
상 군
소 총
쇄 본
슬 리
습 소
신 라
연 석
영 총
왜 변
용 원
음 사
응 보
일 주
절 구
제 부
준 경
준 비
줄 풍류
중 돈
중 생
지 가
직 성
창 극단
천 대
추 진
케 팅
테 르
팔 양
회 전
효 사
▁이 긍
▁의 발
▁의 생활
▁하 복
▁고 질
▁한 류
▁가 배
▁지 노
▁지 이
▁사 궁
▁사 괴석
▁대 반
▁대 시
▁대 저
▁도 광
▁도 침
▁도 탄
▁인 극
▁인 면
▁시 령
▁시 우
▁수 배
▁수 옥
▁수 력발전
▁조 끼
▁조 택
▁조 학
▁전 안
▁전 출
▁전 법사
▁제 릉
▁제 역
▁적 격
▁적 재
▁적 중
▁부 루
▁부 승지
▁자 화
▁정 분
▁정 총
▁정 향
▁정 교회
▁아 쉽
▁보 드
▁보 어
▁중 미
▁서 각
▁서 창
▁경 봉
▁주 오
▁주 음
▁주 황색
▁들 여서
▁나 노
▁나 침
▁관 건
▁유 나
▁유 어
▁신 량
▁신 촌리
▁신 한국당
▁문 견
▁문 복
▁상 심
▁상 존
▁동 철
▁면 목
▁면 접
▁성 달
▁연 면
▁연 철
▁소 미
▁만 하
▁공 목
▁공 재
▁장 위
▁장 준
▁조선 노농
▁국 구
▁국 리
▁국 새
▁국 시
▁편 락
▁편 력
▁편 향
▁모 노
▁모 략
▁모 토
▁모 판
▁교 임
▁비 부
▁비 친
▁권 역
▁권 일
▁권 재
▁내 취
▁명 재
▁명 조
▁명 활
▁남 고
▁남 국
▁남 김없이
▁화 중
▁화 척
▁불 응
▁불 충
▁호 국사
▁무 덕
▁무 망
▁원 간
▁원 손
▁원 안
▁원 음
▁원 충
▁선 업
▁선 하
▁김 균
▁현 현
▁당 번
▁거 죽
▁거 타
▁단 검
▁단 비
▁강 왕
▁강 판
▁통 기
▁계 경
▁계 체
▁양 토
▁안 축
▁진 계
▁진 채
▁방 명
▁방 바닥
▁삼 밀
▁삼 법
▁역 술
▁건 네
▁바 우
▁분 만
▁분 방
▁작 시
▁재 독
▁재 량
▁재 자
▁말 채나무
▁석 보
▁청 남
▁청 련
▁청 우
▁평 전
▁평 천
▁평 측
▁임 방
▁목 항아리
▁노 어
▁음 장
▁천 초
▁출 격
▁추 붕
▁왕 청
▁반 설음
▁운 선
▁백 강
▁금 과
▁집 서
▁집 장
▁표 결
▁최 지
▁박 운
▁박 천군
▁활 판본
▁알 영
▁알 린다
▁입 성
▁입 암
▁점 액
▁감 주
▁매 가
▁충 사
▁약 어
▁직 성
▁저 버리
▁독 법
▁돌 장
▁복 록
▁심 온
▁달 한
▁농 수산부
▁교육 사
▁참 성단
▁절 파
▁요 록
▁신라 촌락
▁송 명
▁송 부
▁황 재
▁황 백색
▁잡 찬
▁잡 아들
▁서울 역
▁담 박
▁순 직
▁사회 봉사
▁풍 겨
▁귀 산
▁귀 기둥
▁번 데기
▁별 영
▁철 봉
▁열 등
▁윤 규
▁윤 익
▁손 탁
▁손 중돈
▁논 사
▁학교 명
▁중앙 선
▁중앙 선거
▁중앙 인민위원회
▁육 가
▁육 당
▁완 본
▁완 상
▁악 마
▁악 수
▁악 정
▁스 물
▁불교 미술
▁딸 기
▁온 통
▁온 다는
▁이상 히
▁타 성
인다 는
▁존 비
▁곡 사
▁곡 주
▁급 부
▁기관 총
▁생활 필수
▁야 유
▁누 른
▁통일 주체
▁혼 잡
▁검 안
▁밀 본
▁밀 산
▁붙 일
▁벽 송사
▁질 량
▁탑 승
▁행정 안전
▁백제 토기
▁k l
▁견 본
▁훈 육
▁막 사
▁접 장
▁전문 의
▁염 사
▁염 정
▁겸 병
▁머리 모양
▁격 치
▁격 자문
▁찬 기
▁찬 품
▁춘 계
▁희 구
▁첨 서
▁널 뛰기
▁익 지
▁문학 회
▁탄 원
▁망 신
▁리 조
▁부르 주아
▁꽃 게
▁보살 사
▁긴 염불
▁쌍 영총
▁퇴 간
▁전쟁 시
▁굴 하
▁유학 승
▁더욱 더
▁석조 보살좌상
▁28 1
▁28 7
▁깨 끼
▁문화재 보호법
▁종교 운동
▁공업 국
▁대동 계
▁숭 문
▁외국 문학
▁태조 실록
▁흐 린
▁임시 수도
▁맹 산군
▁벗 긴
▁29 9
▁군수 품
▁덮 이
▁정상 기
▁부정 자
▁부정 합
▁국회 의장
▁식물 상
▁짧 아
▁장단 군
▁선정 비
▁객 지
▁곽 란
▁70 3
공업 지구
▁가락 덜이
▁33 7
▁빌 미
▁극락 세계
▁맺 힌
▁방어 진
▁다루 가치
▁34 7
▁택 호
▁38 6
▁나타난다 고
▁획 관
▁가져 올
▁물리 쳐
▁아랫 배
▁주자 서절요
▁이정 암
▁퍼 내
▁잇 꽃
▁엽 서
▁보조 원
▁55 7
▁인과 응보
▁향사 례
▁66 2
▁기울 인
▁52 3
▁얼마 간
▁143 9
▁해동 문헌총록
▁날개 깃
▁49 9
▁기획 처
▁달라 진
▁이건 명
▁65 4
▁쫓 기
▁67 7
▁합리 주의
▁국악 사
▁주의 자
▁변천 사
▁꽂 혀
▁명사 형
▁신경 행
▁사관 생
▁밀접 히
▁김동 원
▁부지 런
▁92 8
▁82 7
▁69 0
▁학년 도
▁61 0
▁148 3
▁밝혔 으며
▁연수 구
▁154 7
▁단정 히
▁文 獻
▁151 4
▁명명 덕
▁가시 나무
▁고창 읍
▁구원 병
▁89 1
▁해졌 으며
▁아라 가야
▁김광 수
▁을사 오
▁끼워 서
▁무너 뜨리
▁이희 조
▁조선어 문법
▁사마 방목
▁유아 기
▁131 3
▁티 끌
▁중성 자
▁산사 태
▁평행 선
▁채용 신
▁팥 죽
▁나뭇 결
▁이날 치
▁신정 왕후
▁국문학 사
▁152 2
▁사계 축
▁적응 증
▁어우 야담
▁범패 승
▁신한 민주당
▁시화 총림
▁신상 옥
▁폐기 장
▁박동 량
▁손님 굿
▁태사 국
▁농상 공
▁여지 승람
▁회고 록
▁장학 금
▁멥쌀 가루
▁좌정 언
▁납세 자
▁최경 회
▁납도리 집
▁구지 봉
▁김복 진
▁내수 사
▁재봉 틀
▁장진 호
▁보태평 지악
▁간절 히
▁안강 망
▁시용 무보
▁조선문 단
▁계수 관
▁아치 형
자문 회의
▁능가 경
▁굶주 린
▁도매 상
▁나당 전쟁
▁경명 왕
▁고니 시
▁위항 문학
▁우월 성
▁한배 검
▁관형사 형
▁박유 전
▁홍영 식
▁활주 로
▁만리 장성
▁조두 순
▁조선청년 총동맹
▁총무원 장
▁하마 비
▁암술 대
▁생년 월일
민주주의 전선
▁움츠 린
▁오일 영
▁산둥 반도
▁회례 연
▁흘러나 오
▁메나리 토리
▁삼일 포
▁백설 기
연수 원
▁텅 스텐
▁고희 동
▁버금 가
▁동치 미
▁japon ica
어물 전
▁삼부 경
▁스미 스
▁지중 해
▁조국통일 민주주의전선
▁홍길동 전
▁황순 원
▁최북 단
▁내려올 수록
▁閨 閤
에관한 법률
▁한백 겸
▁오양 선
▁홍두 깨
정상 회담
▁아록 전
▁각세 도
▁르네 상스
▁鑛 山
상륙 작전
▁감칠 맛
▁꿋 꿋
▁조선노농 총동맹
▁신라촌락 문서
▁중앙선거 관리위원회
▁생활필수 품
▁통일주체 국민회의
▁행정안전 부
▁ ‚
▁ 勿
▁ 基
▁ 引
▁ 憲
▁ 指
▁ 昭
▁ 村
▁ 步
▁ 牧
▁ 益
▁ 矣
▁ 科
▁ 藁
▁ 表
▁ 請
▁ 깻
▁ 뵙
▁ 쉼
계 엄
관 묘
귀 신
기 호
노 리
닉 스
당 일고
델 리
동 고분
라 만상
류 왕
리 기
머 님
미 래
백 선
백 호
베 이
병 입
부 원군
불 감
비 명
삼 성
삼 신
석 부
선 수
성 비
손 익
수 영
순 보
숫 대
심 설
양 명
어 낸
에 스
여 행
연 대
예 비
오 가해
옷 날
완 전
유 전
의 총
이 기
일 관
자 흐
전 국
정 본
제 문
죽 문
죽 나무
증 도가
직 제학
첨 사
측 정법
코 스
통 제
투 갈
파 도
한 족
행 기
호 국단
화 인
▁은 장
▁고 간
▁고 스
▁고 왕
▁고 문관
▁가 첨
▁지 으며
▁기 제사
▁어 변
▁어 혈
▁사 굴
▁사 극
▁사 운
▁사 거리
▁대 망
▁대 졸
▁대 퇴
▁여 경
▁여 세
▁도 곡
▁도 방
▁도 현
▁도 편수
▁였 으면
▁인 만
▁인 흥
▁인 화기법
▁그 칠
▁시 양
▁시 준
▁조 분
▁조 여
▁전 입
▁전 책
▁일 인
▁일 탈
▁제 회
▁정 송
▁아 랍
▁보 한집
▁서 국
▁서 려
▁서 에
▁주 왕산
▁나 자
▁위 례
▁관 류
▁유 료
▁신 승
▁문 풍
▁상 규
▁상 악
▁상 판
▁동 각
▁동 냥
▁동 명사
▁성 법
▁성 저
▁연 교
▁연 달
▁연 패
▁연 나라
▁소 간
▁소 묘
▁소 소
▁소 은
▁소 성왕
▁소 쿠리
▁구 한다
▁구 워서
▁만 송
▁공 석
▁공 암
▁공 학회
▁공 무역
▁장 길
▁장 봉
▁세 견
▁세 발
▁세 차
▁국 휼
▁모 세
▁비 갈
▁비 목
▁비 무장
▁권 5
▁내 설
▁후 덕
▁한다 든가
▁남 무
▁화 루
▁불 미
▁불 완전
▁호 경
▁호 에
▁무 념
▁무 순
▁무 차
▁원 력
▁원 흥
▁원 거리
▁우 안
▁마 일
▁마 패
▁김 직
▁김 휘
▁현 삼
▁영 공
▁영 봉
▁설 중
▁당 실
▁간 년
▁산 랑
▁산 로
▁산 장
▁산 행
▁오 프
▁단 음
▁단 옷날
▁강 복
▁강 심
▁통 공
▁통 분
▁계 천
▁양 병
▁두 말
▁안 세
▁진 덕
▁진 접
▁삼 막
▁삼 화사
▁삼 라만상
▁역 암
▁함 주군
▁군 진
▁초 입
▁초 전
▁초 제공
▁재 림
▁재 우
▁재 첩
▁석 지
▁미 개
▁미 끈
▁미 동
▁미 미
▁미 투리
▁청 규
▁청 보
▁청 유
▁청 절
▁청 한다
▁평 복
▁목 침
▁노 랗
▁민 립
▁민 백
▁민 선
▁예 민
▁출 강
▁출 어
▁추 문
▁배 천군
▁회 남
▁회 헌
▁왕 토
▁반 인
▁반 혁명
▁대한 천일
▁광 공업
▁백 룡
▁백 세
▁했 으니
▁처 부
▁처 절
▁북 포
▁차 천
▁봉 과
▁최 무선
▁감 미
▁외 종
▁외 판
▁약 서
▁높 일
▁승 소
▁병 식
▁병 탄
▁돌 격대
▁복 거
▁달 기
▁농 포
▁파 충류
▁요 패
▁길 사
▁체 온
▁신라 어
▁채 석
▁송 인수
▁황 우
▁황 천
▁잡 업
▁포 덕
▁좌 고
▁순 라
▁사회 당
▁사회 교육
▁합 산
▁홍 여
▁홍 포
▁홍 희
▁앞 둔
▁풍 각
▁풍 우
▁풍 혈
▁구성 비
▁번 민
▁철 변두
▁열 렬
▁열 림
▁죽 창
▁죽 림사
▁윤 성
▁윤 의
▁축 연
▁중심 가
▁항 저우
▁육 근
▁육 운
▁옥 루
▁끝 낸다
▁준 회원
▁팔 조
▁타 향
▁궁 장
▁궁 합
▁친 권자
▁범 접
▁역사 책
▁민족 진영
▁누 군가
▁칠 장
▁덕 주
▁덕 화
▁행정 처분
▁k V
▁밑 바탕
▁흥 녕
▁견 딜
▁애 수
▁헌 선도
▁격 주
▁찬 시
▁희 랑
▁희 우
▁희 강왕
▁망 향
▁풀 밭
▁뒷 소리
▁율 자보
▁발행 자
▁패 러
▁금강 삼매경
▁깨 진
▁깨 치
▁떠 도
▁흑 산면
▁민주 자유당
▁현상 계
▁숭 정전
▁늘 여
▁촌 리
▁공동 생활
▁27 9
▁잔 액
▁잔 칫
▁흐 리
▁짐 대
▁가정 과
▁천연 가스
▁개성 상인
▁국회 법
▁한성 기
▁한성 순보
▁연합 기업소
▁죄 명
▁도로 공사
▁35 7
▁국사 봉
▁전후 퇴
▁장수 산
▁신체 시
▁첩 지
▁32 1
▁성주 풀이
▁조상 경
▁33 5
▁부대 장
▁금융 업
▁김정 문
▁34 4
▁34 6
▁자격 법
▁써 레
▁이성 구
▁유리 이사금
▁명륜 동
▁아무 것
▁중추 부사
▁장서 인
▁동래 야류
▁철도 원
▁아랫 입술
▁수정 봉
▁출입 국
▁大 師
▁카 자흐
▁였음 에도
▁42 4
▁42 8
▁지형 도
▁산수 인물화
▁원효 사
▁염불 당
▁원주 형
▁불러 들여
▁빗 대
▁푸 닥거리
▁솔 거
▁맨 손
▁41 6
▁64 3
▁트 랜
▁43 5
▁t he
▁54 1
▁이종 일
▁51 0
▁51 6
▁51 8
▁46 3
▁복합 체
▁동자 석
▁산천 초목
▁문수 암
▁김창 숙
▁62 5
▁58 9
▁성문 법
▁126 8
▁비유 법
▁화석 산지
▁진상 품
▁부드 러우
▁홈 자귀
▁정토 왕생
▁92 0
▁용암 류
▁용암 대지
▁도망 치
▁69 3
▁69 8
▁관상 수
▁158 4
▁곱 은옥
▁148 9
▁정재 규
▁83 0
▁띄 운
▁한산 도
▁부동 사
▁아기 장수
▁라면 서
▁유전 학
▁다룬 다
▁ᄅ ᆞᆯ
▁김기 창
▁수문 전
▁평지 성
▁성안 의
▁들여 온
▁폐쇄 성
▁창의 록
▁81 0
▁어긋 난
▁이리 저리
▁늘어 남
▁일으켰 으며
▁잡아 매
▁153 9
▁상원 암
▁131 4
▁살아 갈
▁진흥왕 순수비
▁용두 산
▁미륵불 상
▁충효 동
▁딱 정벌레
▁자경 전
진흥 원
▁학도 호국단
▁호기 심
(주)( 三
(주)( 韓
▁내려온 다
▁H L
선도 로
▁태안 읍
▁특산 품
▁즙 액
▁삼강 오륜
▁서상 일
▁사미 니
▁여객 기
▁이창 배
▁데려 오
▁정혜 공주
▁남조선 과도
▁농어 민
▁콧 날
▁성읍 국가
▁병인 박해
▁박진 감
▁눌러 서
▁고신 왕지
▁낙안 읍성
▁세탁 기
▁사가 독서
▁실존 주의
▁천제 연
▁농기 계
시험 장
▁대연 림
▁대승기신론 소
▁北 道
▁속기 사
▁정태 화
▁홍문 록
▁달마 산
▁주방 문
▁거름 기
▁史 記
▁상훈 법
▁변호 인
▁화개 면
▁재인 청
▁가맹 국
▁친근 감
▁우러 러
국가 산업단지
▁양덕 군
▁원순 모음화
▁가파 르
▁비탈 면
▁本 草
▁컬 럼비아
▁목민 관
▁홍문관부 수찬
▁동몽 교관
▁청문 회
▁別 曲
▁휘모리 잡가
▁ᄯ ᅡ
▁유순 정
▁영희 전
▁원양 어업
▁불순 물
▁성석 린
▁교자 상
▁사불 산
▁얽매 이
▁전영 택
▁뒤섞 여
▁온조 왕
▁낚싯 대
▁좌승 상
상공 회의소
▁수이 전
▁중력 식
▁대롱 옥
▁원세 훈
십육 지
▁석창 포
▁조록 나무
▁패강 진
▁김가 기
▁삼년 상
▁조선물산 장려
▁송자 대전
▁짊 어지
▁청실 배나무
▁갑각 류
▁교향 곡
▁포르 투갈
비리 국
▁살충 제
처벌 법
▁유라 시아
▁우림 위
▁미풍 양속
▁송익 필
▁呈 才
▁고로쇠 나무
▁특용 작물
▁레퍼 토리
병입 사기
▁대한천일 은행
1 차
▁ 勸
▁ 及
▁ 塔
▁ 工
▁ 恩
▁ 支
▁ 故
▁ 烏
▁ 發
▁ 若
▁ 題
▁ 꽈
▁ 뤄
▁ 쟈
▁ 줏
가 을
강 병
게 임
경 록
계 회도
관 식
구 이
궁 이
금 자리
기 단
기 문
기 언
당 리
도 기
동 석
란 히
련 전
막 집
명 왕
명 제
무 상
바 른
방 문
버 님
부 대
분 야
사 스
상 사
설 법
설 헌
성 신
속 고
스 피
실 명제
아 궁이
애 문집
얏 고
양 서원
어 른
여 음
오 계
오 스
온 방
요 초
운 략
월 간
육 부
의 서
자 갈
자 산성
장 애
져 야
종 개
좌 씨전
중 석
지 름
직 업
진 읍
질 소리
척 면
천 뢰
청 소년
체 자
초 록
타 르
통 례
팔 각
팔 상
푸 른
한 지
할 미
행 일기
홍 련전
화 학교
황 제
▁의 부
▁의 박사
▁고 작
▁고 재
▁으 라는
▁한 북
▁한 필
▁가 변
▁가 짐
▁가 피
▁가 얏고
▁기 별
▁기 함
▁어 대
▁과 태
▁대 업
▁대 피
▁여 근
▁여 리
▁여 보
▁여 주군
▁도 유사
▁인 절
▁인 편
▁시 외
▁시 혜
▁수 권
▁수 모
▁수 어사
▁조 흘
▁전 택
▁제 1차
▁적 립
▁적 임자
▁부 감
▁부 견
▁부 음
▁자 애
▁자 판
▁정 춘
▁아 막
▁아 일
▁보 덕사
▁보 금자리
▁중 병
▁중 천
▁경 단
▁경 면
▁경 애왕
▁주 실
▁주 약
▁나 귀
▁위 짝
▁관 설
▁관 역
▁관 욕
▁유 옥
▁유 위
▁유 백색
▁신 산
▁신 광사
▁문 살
▁문 현
▁문 효
▁동 예
▁동 토
▁동 환
▁개 종
▁해 주시
▁면 민
▁성 민
▁성 변
▁연 엽
▁연 창
▁소 곡
▁소 렴
▁소 축
▁구 단
▁구 령
▁구 루
▁구 씨
▁구 종
▁구 산리
▁만 가
▁만 파
▁만 덕산
▁공 릉
▁세 오
▁편 익
▁모 터
▁비 탄
▁비 현
▁권 보
▁내 탁
▁내 다보
▁발 신
▁후 릿
▁남 화
▁화 국
▁화 왕산
▁호 당
▁호 제
▁무 석
▁무 쳐
▁무 치
▁선 용
▁마 천면
▁현 일
▁현 정
▁형 명
▁형 장
▁설 대
▁간 의대부
▁거 르
▁오 미
▁오 독떼기
▁강 무
▁계 초
▁양 개
▁양 란
▁두 량
▁안 유
▁안 주군
▁각 관
▁각 명
▁각 연사
▁방 경
▁방 곡
▁방 애
▁종 축
▁삼 업
▁삼 전
▁역 조
▁역 박사
▁군 부사
▁본 선
▁특 화
▁초 적
▁바 른다
▁분 제
▁분 조
▁석 우
▁미 식
▁미 제
▁청 단
▁청 림
▁청 통
▁평 일
▁임 창
▁노 르
▁노 문
▁창 군
▁천 곡
▁천 막
▁천 서
▁천 첩
▁천 희
▁천 수경
▁배 극렴
▁회 심곡
▁왕 모
▁반 암
▁백 목
▁백 유
▁금 모
▁차 수
▁차 나무
▁집 념
▁집 설
▁봉 축
▁봉 제사
▁최 한
▁박 화
▁규 슈
▁규 중
▁점 술
▁감 부
▁감 식
▁감 투
▁감 잡이
▁매 단
▁변 체
▁태 능
▁태 대
▁태 워서
▁승 적
▁한국 청년
▁직 주
▁병 주
▁독 감
▁심 동
▁심 순
▁심 종
▁심 훈
▁달 팽이
▁판 주
▁교육 평가
▁참 호
▁절 강
▁요 술
▁다가 오
▁토 건
▁토 용
▁체 기
▁체 납
▁채 반
▁송 담
▁송 동
▁송 흥록
▁합 명
▁홍 구
▁앞 산
▁앞 사람
▁풍 신
▁풍 차
▁귀 진
▁귀 화인
▁13 00
▁별 고
▁철 성
▁철 야
▁열 주
▁쓰 시마
▁죽 지
▁윤 해
▁축 복
▁손 우
▁손 아래
▁논 죄
▁논 함
▁즉 결
▁취 조
▁놓 치
▁언 지
▁언 진
▁육 갑
▁육 추
▁옥 관
▁악 성
▁능 수
▁극 우
▁곡 우
▁급 보
▁혼 탁
▁침 방
▁정치 국
▁질 곡
▁투 시
▁밑 변
▁애 틋
▁왔 었
보살 계
▁격 음
▁노래 기
▁춘 궁
▁지도 력
▁희 양산
▁졸 본
▁익 조
▁녹 도
▁망 대
▁망 어
▁얼 핏
▁쓴 다는
▁십 정
▁술 병
▁터 리
▁보살 피
▁척 수
▁보호 구
▁율 곡사
▁옷 차림
▁옷 고름
▁착 실
▁신앙 인
▁신앙 촌
▁건설 부
▁넘 친다
▁새겨 지
▁띠 고리
▁빈 한
▁지붕 면
▁공사 장
▁짓 밟
▁흑 유
▁납 일
▁교회 당
▁공업 지구
▁메 달
▁숭 록대부
▁잔 여
교육 학회
▁족 당
▁끼 니
▁코 드
▁벗 삼
▁개정 판
▁31 4
▁동경 잡기
▁휘 어져
거리 나무
▁한성 재판소
▁고대 소설
▁괴 로운
▁탁 한
▁짜 인
▁동국 여지
▁커 진
▁미륵 하생경
▁강릉 단오제
▁나이 다
▁웅 치
▁깔 끔
▁개교 식
▁흙 바닥
▁맛 보
▁45 1
▁45 5
▁주제 가
▁찍 개
▁디 아
▁이승 상
▁서경 별곡
▁바라 지
▁개선 책
▁동학 운동
▁A l
▁이정 영
▁끊 어졌
▁김영 기
▁55 2
▁48 8
▁T H
▁다스 린다
▁사헌 대
▁동부 여
▁개화 정책
▁김상 덕
▁김상 현
▁도덕 경
▁공공 연
청년 총동맹
▁실업 자
▁49 8
▁돌려 보냈
▁중종 실록
▁127 3
▁기획 부
▁56 9
▁음성 기호
▁67 8
▁뉴 델리
▁굳 어진
▁봉화 대
▁대대 감
▁제례 악
▁정문 부
▁음운 변화
▁138 2
▁138 7
▁서낭 굿
▁절대 자
▁고취 악
▁생원 진사
▁뜨 겁
▁92 1
▁92 5
▁69 5
▁전원 생활
▁83 8
▁구속 력
삼존 불상
▁117 6
▁샘 굿
▁154 9
▁87 2
▁고금 도
▁신당 동
▁김대 성
▁고흥 반도
▁어긋 난다
▁풍류 객
▁일월 성신
▁자비 심
▁D NA
▁김병 기
▁당산 굿
▁동백 꽃
▁108 7
▁축성 법
▁궐 문
▁상원 계
▁圖 說
▁클 로
▁클 리
▁서도 잡가
▁세련 되
▁五 禮
▁월남 사지
▁천상 계
▁우정 언
▁금석 학
▁임신 부
▁해금 강
▁매월 당
▁임하 면
▁남사 고
리석 불입상
▁경학 원
▁사시 나무
▁충무 무공훈장
▁선무 랑
▁石 槨
▁김세 종
▁시공 관
▁기로 회
▁구두 점
▁윤치 영
미륵 불
▁호법 선신
▁실증 주의
▁끌어 올
▁군의 관
▁기해 박해
▁북서 부
▁영창 서관
▁낙안 면
▁서호 수
▁엘 리트
▁창부 타령
▁주먹 코
▁평강 군
▁오지 호
▁가상 히
▁삼지 창
▁대출 금
▁이휘 령
▁대야 성
영산회 상
▁찐 다
▁정양 사
▁둥그 스름
▁창수 면
▁잃어버 렸
▁라이 온
▁과학기술 부
▁안종 화
▁mg ,
▁叢 話
▁경자 자
▁박중 빈
▁부끄 럽
▁당내 친
▁장화 홍련전
▁보제 루
▁국가보 위
▁도드리 장단
▁정난 종
▁군법 무관
▁도봉 구
▁정응 민
▁박봉 술
대첩 비
▁흥망 성쇠
▁강태 공
▁강태 홍
▁매스 게임
▁까다 로운
▁무찌 른
▁도연 명
▁조선노동 공제회
▁성선 설
▁벽동 군
스테 르
▁송석 하
▁김흠 운
▁우란분 재
▁우미 량
▁포백 척
▁한국과학기술 원
▁오윤 겸
▁힌 두
▁분무 공신
▁한국교육 개발원
▁의림 지
▁부국 강병
▁일변 도
▁전태 일
스티 벌
▁왕검 성
▁문극 겸
▁안빈 낙도
▁태의 감
▁해라 체
▁얘 기
▁가급 적
▁대팻 날
▁순식 간
▁선희 궁
▁오달 제
▁계족 산
▁국민정신총동원 조선연맹
보육 학교
▁아미타구 존도
▁고랭 지
▁내설 악
▁뤄 양
▁생원진사 시
- 〉
3 5
E L
I C
~ 4
▁ ;
▁ ᅬ
▁ 今
▁ 受
▁ 奎
▁ 寒
▁ 帖
▁ 得
▁ 性
▁ 戒
▁ 承
▁ 散
▁ 數
▁ 每
▁ 洛
▁ 聞
▁ 訣
▁ 賢
▁ 部
▁ 鐵
▁ 香
▁ 鶴
▁ 닐
▁ 댕
▁ 떳
▁ 웹
▁ 췌
▁ 템
▁ 펀
그 러진
기 이
능 력
다 오
달 이
당 의
덩 어리
딱 따구리
레 코드
말 라
무 진
묵 서
범 종
부 용
빙 기
사 당
삼 품
상 어
시 관
쌍 수
쏘 가리
양 전
역 전
연 집
왜 가리
우 록
우 사
운 서
의 복
의 어
일 월
적 비
전 교
제 과
조 절
중 개
지 컬
지 석묘군
진 보
진 성
집 주
초 경
침 박달
쿠 르
키 아
탄 강
합 부
해 져
현 궁
화 가
화 비
효 방
▁이 약
▁의 현
▁의 군부
▁하 윤
▁은 공
▁고 담
▁고 층
▁고 평
▁한 라
▁한 증
▁한 청
▁한 희
▁가 릴
▁지 두
▁지 움
▁기 식
▁기 요
▁기 훤
▁어 희
▁사 녀
▁대 백
▁대 할
▁여 량
▁여 묘
▁여 상
▁도 남
▁도 작
▁도 항리
▁인 걸
▁인 봉
▁인 승
▁인 영
▁인 행
▁그 친
▁시 들
▁시 에
▁시 추
▁시 한
▁수 방
▁수 와
▁조 근
▁전 멸
▁전 습
▁전 첨
▁전 교회
▁제 경
▁제 령
▁제 마
▁제 치
▁부 결
▁부 회
▁부 병제
▁부 엉이
▁자 긍
▁자 조
▁자 표
▁정 척
▁정 표
▁정 우회
▁아 령
▁아 종
▁아 청
▁보 당
▁보 례
▁보 림
▁보 협
▁중 여음
▁와 가
▁서 른
▁서 항
▁서 보장
▁경 량
▁경 배
▁경 찬
▁경 훈
▁주 객
▁주 옥
▁나 반
▁나 포
▁위 독
▁관 령
▁유 밀
▁유 윤
▁유 헌
▁유 휴
▁신 월
▁신 포
▁문 권
▁문 일
▁문 진
▁상 무사
▁상 약국
▁월 영
▁월 파
▁동 량
▁동 맥
▁동 묘
▁동 오
▁해 악
▁해 파리
▁면 소
▁면 수
▁면 화
▁성 절
▁성 혈
▁연 민
▁소 농
▁소 택
▁구 덕
▁구 선
▁구 서당
▁구 층탑
▁공 거
▁공 봉
▁장 두
▁조선 식산
▁국 비
▁모 역
▁교 살
▁교 착
▁교 합
▁비 고
▁비 국
▁비 와
▁비 즈
▁비 양도
▁권 돈
▁권 행
▁내 보
▁내 사령
▁발 흥
▁후 록
▁남 남
▁남 접
▁학 봉
▁학 실
▁화 선
▁불 령
▁불 허
▁호 민
▁호 아
▁무 변
▁무 영
▁원 곡면
▁우 역
▁우 영
▁선 덕
▁선 위사
▁마 삭
▁김 맹
▁현 욱
▁영 달
▁영 통
▁설 월
▁당 금
▁당 률
▁당 색
▁당 지
▁간 옹
▁간 음
▁산 송
▁오 광
▁단 심
▁강 단
▁통 째
▁양 산면
▁양 북면
▁두 락
▁두 석
▁안 광
▁진 각
▁진 덕수
▁각 섬
▁각 장
▁각 재
▁방 심
▁6 매
▁삼 관
▁삼 키
▁삼 환
▁삼 거리
▁역 변
▁역 장
▁군 가
▁건 릉
▁초 행
▁바 뀜
▁행 과
▁행 악
▁행 했
▁분 정
▁분 투
▁작 약
▁작 황
▁실 연
▁석 련
▁석 진
▁미 얄
▁청 개구리
▁목 공예
▁목 둘레
▁창 덕
▁뒤 바
▁뒤 쫓
▁음 나무
학교 육
▁고려 시대
▁예 보
▁예 쁜
▁예 주
▁예 화
▁천 년
▁천 원
▁천 전
▁천 행
▁법 구
▁왕 문
▁대한 상공회의소
▁운 운
▁운 집
▁광 군
▁광 탄면
▁백 민
▁백 악산
▁금 시
▁금 한다
▁용 림
▁용 학
▁봉 오동
▁박 송
▁박 우
▁활 옷
▁알 렌
▁입 무
▁입 타령
▁입 문서
▁매 어
▁물 화
▁결 별
▁약 조
▁태 의원
▁승 양
▁승 차
▁한국 노
▁심 술
▁판 중추원사
▁농 화학
▁파 멸
▁파 조
▁요 한다
▁지방 사
▁향 장
▁채 란
▁채 찍
▁송 석원
▁근 화
▁황 포
▁황 쏘가리
▁잡 의
▁필 첩
▁서울 신문사
▁담 회
▁확 연
▁순 과
▁순 릉
▁순 이
▁순 탄
▁순 천군
▁사회 규범
▁치 술
▁홍 법
▁앞 소리
▁앞 가슴
▁식 설
▁철 편
▁철 불좌상
▁올 챙이
▁죽 헌
▁층 수
▁허 헌
▁허 생전
▁환 퇴
▁폐 습
▁암 문
▁암 회색
▁이상 향
▁이상 호
▁정도 전
▁타 결
▁타 전
▁범 해
▁범 행
▁곡 진
▁급 습
▁민족 독립운동
▁업 사
▁갈 도
▁갈 리
▁난 정
▁통일 정책
▁혼 기
▁침 잠
▁검 험
▁투 여
▁씩 씩
▁밝 힘
▁헌 작
▁군사 정전
▁갑 작
▁니 다
▁규정 집
▁격 어
▁경주 동
▁찬 반
▁찬 영
▁춘 삼
▁읍 장
▁익 성
▁녹 화
▁응 모
▁망 태
▁리 스
▁부르 짖
▁임진 록
▁꽃 병
▁술 상
▁미국 식
▁퇴 거
▁잠 명
▁율 문
▁굴 립
▁굴 불사
▁바탕 색
▁혜 정
시아 드
▁40 5
▁가로 지
▁가로 무늬
▁흑 비둘기
▁현상 윤
▁몽 환
▁대동 문화연구원
▁대동 시선
▁숭 릉
▁둘레 돌
▁세종 로
▁대성 암
▁압 착
▁정원 수
▁청동 은입사
▁벼 과
▁낭 천
▁맹 사성
▁코 리안
▁가정 대부
▁동물 상
▁교통 사고
▁영조 척
▁영산 면
기념 사업
▁35 4
▁님 의
▁와서 야
▁32 9
▁무역 항
▁밝혀 내
▁따로 따로
▁덧 입
공업 지역
▁뿌리 줄기
▁흰 빛
▁무용 극
▁루 기
▁천주 가사
▁34 3
▁택 정
▁택 리지
▁건국 기
▁부른다 고
▁38 7
▁유리 창
▁여름 새
▁추가 령
▁연안 항
▁생존 자
▁멸 악산
▁37 4
▁네모 지
▁시위 군
▁상해 한인
▁병마 절제사
▁大 旗
▁카 페
▁장기 면
▁42 3
▁소비 재
▁득 남
▁득 오
▁엽 병
▁이원 론
▁150 5
▁I SO
▁가곡 집
▁솔 개
▁쟁 송
▁성인 병
▁산림 경제
▁달려 들
▁오르 내
▁이주 해
▁47 7
▁련 대
▁쉬 워
▁44 8
▁해동 고승전
▁쥐 똥나무
▁냉 정
▁태양 력
▁56 5
▁영양 학
▁맞이 굿
연합 기업소
▁137 5
▁겉 표지
▁130 9
▁고시 관
▁청구 야담
▁임원 십육지
▁브 리
▁147 3
▁대방 군
▁72 7
▁주지 주의
▁공작 대
▁장승 업
▁고용 주
▁징역 형
▁비상 계엄
▁쇄 마
▁82 8
▁미래 불
▁여행 기
▁아악 서
▁95 8
▁148 7
▁이시 발
▁83 9
▁155 1
▁P r
▁꼽 혔
an t
▁잡혀 간
▁플 라이
▁87 0
▁김원 룡
▁128 0
▁128 1
▁연령 층
▁84 1
▁비행 사
▁꿀 물
▁81 8
▁묘비 명
▁상속 인
▁조영 하
▁왕세자 빈
▁이만 수
▁장안 면
▁위반 자
▁수료 자
▁향해 서
바라 지
▁의리 선
▁구상 권
▁받아들여 졌
▁106 1
▁변이 형
▁원만 히
▁104 7
▁희망 자
▁배수 로
▁백관 수
al is
▁임하 댐
▁사과 나무
▁광복군 사령부
▁김지 남
▁대강 면
▁덩굴 무늬
▁공보 실
▁충적 토
▁장연 군
▁수교 훈장
▁南 道
▁앵 무
▁고속 버스
▁서운 암
▁보국 안민
미륵 보살반
▁오경 석
▁도통 사
▁샤 머니즘
▁봉래 산
▁끌려 갔
▁최경 식
▁헝 가리
▁비파 형동검
▁양화 진
▁삼수 군
▁이대 봉
▁상지 은니
▁m3 ,
▁이헌 구
▁동호 회
▁예빈 성
▁비류 왕
▁주악 상
▁웨 슬리
▁열람 실
▁마천 령산맥
▁서흥 군
▁충정 왕
▁오량 집
▁가져다 주
▁고의 로
▁오페라 단
▁도회 지
종합 대학
▁구기 자
전보 총국
▁최정 식
▁이숭 녕
▁덕진 구
▁줄어 드
▁만경대 구역
▁송학 동
▁수림 대
▁스테 인
▁관경 변상도
▁개국원종공신 녹권
▁전악 서
▁문한 서
▁사포 서
▁수락 산
▁쟁탈 전
▁까다 롭
▁무르 익
▁오영 진
▁더듬 이
▁역어 유해
▁진감 선사
▁복신 미륵
▁가물 치
▁모과 나무
▁스카 우트
▁경포 대
▁家 禮
▁신소 재
▁급사 중
▁만전 춘
▁난중 일기
▁세마치 장단
▁부벽 루
▁오케 스트라
▁최덕 지
▁오태 석
▁용양 위
▁승록 사
▁오군 영
▁비열 홀
▁보리밥 나무
▁몽산화상 법어
▁사축 서
▁조맹 부
▁아함 경
▁차가 운
감리 회
▁내려갈 수록
▁관훈 동
▁내알 사
▁한준 겸
▁삼원 보
▁송충 이
▁유척 기
▁항생 제
▁화엄일승 법계도
▁유니버 시아드
▁여드 렛당
▁챔 피
▁조택 원
▁진접 읍
▁차천 로
▁과태 료
▁후릿 그물
▁조선식산 은행
▁군사정전 위원회
기념사업 회
( 大
i k
y a
▁ 云
▁ 命
▁ 咸
▁ 夜
▁ 守
▁ 慢
▁ 曆
▁ 獻
▁ 祕
▁ 羽
▁ 職
▁ 許
▁ 詳
▁ 鐘
▁ 隋
▁ 鷄
▁ 긷
▁ 똬
▁ 뭍
▁ 므
▁ 섹
▁ 잼
▁ 퀴
▁ 홰
가 면
각 층
갖 춤
겨 레
겨 울
고 물
교 과서
구 미
국 악단
군 국사
그 루
그 러지
노 걸대
논 쟁
대 혁명
도 모
도 위
드 로
레 인
롱 이
마 라
명 신
반 공
반 찬
법 학전문학교
불 성
불 퉁
비 평사
삼 봉
상 정소
새 끼
성 휘
수 첩
승 회
승 자총통
시 인
신 여
어 든
역 대
연 표
영 어학교
오 페라
용 호
우 지
유 가
의 상
이 도
이 불
이 하
일 집
자 동
작 통
저 수지
적 색
정 자
조 복
증 식
질 의
쩌 귀
찰 출척사
천 문집
천 견록
총 각
촬 영
축 전
치 성
타 인
테 스
통 록
투 명
퉁 불퉁
행 장
황 전
흥 면
▁이 즈음
▁의 송
▁다 구
▁다 색
▁하 야
▁하 대로
▁은 정
▁고 미술
▁으 랴
▁한 구
▁가 거
▁가 택
▁가 필
▁지 고
▁지 비
▁지 척
▁지 촌
▁지 군사
▁기 학
▁어 감
▁로 드
▁사 륙
▁사 탁
▁사 파
▁사 르트르
▁과 오
▁대 암산
▁도 료
▁도 용
▁도 울
▁인 석
▁시 교
▁시 동
▁수 거
▁수 오
▁수 줄
▁수 참
▁수 풍
▁조 감
▁조 력
▁조 숙
▁조 탑
▁전 홍
▁부 부인
▁부 러져
▁자 망
▁자 토
▁아 다
▁아 취
▁아 다가
▁보 응
▁중 연
▁서 린
▁서 증
▁경 풍
▁주 금
▁주 행
▁나 만
▁나 암
▁나 카
▁위 산
▁관 각
▁관 력
▁관 은
▁유 임
▁신 개
▁신 본
▁신 할
▁상 락
▁3 대혁명
▁동 촌
▁해 낼
▁해 란
▁성 고
▁성 어
▁성 여
▁성 준
▁성 첩
▁성 내리
▁연 악
▁연 복사
▁소 영
▁구 동
▁구 르
▁구 박
▁구 설
▁구 순
▁만 곡
▁만 폭
▁만 항
▁만 흥
▁만 복사지
▁공 여
▁공 저
▁모 나
▁교 배
▁교 상
▁비 껴
▁비 조
▁비 철
▁비 암사
▁비 금속
▁내 산
▁내 조
▁내 무아문
▁한다 거나
▁남 곡
▁남 치
▁학 질
▁학 우회
▁화 본
▁불 갑
▁불 빛
▁불 임
▁무 재
▁선 술
▁선 국사
▁김 흔
▁현 의
▁영 명사
▁영 진군
▁산 본
▁산 전
▁산 시성
▁오 니
▁오 물
▁오 심
▁오 산리
▁단 언
▁계 조
▁계 간지
▁양 발
▁양 친
▁두 곡
▁두 도
▁두 벌
▁안 남
▁안 집
▁진 광
▁진 문
▁진 적
▁방 불
▁방 일
▁생 의
▁삼 미
▁삼 우
▁역 산
▁역 습
▁건 다
▁건 하
▁특 종
▁초 동
▁초 자
▁초 저
▁바 야
▁행 문
▁작 과
▁재 도
▁말 장
▁실 형
▁석 쇠
▁석 투
▁미 행
▁미 화
▁청 호
▁청 천면
▁평 년
▁임 서
▁임 소
▁임 주
▁임 산물
▁노 경
▁민 여
▁민 촌
▁민 들레
▁예 당
▁천 봉
▁천 세
▁출 소
▁출 하
▁추 복
▁추 파
▁배 교
▁회 견
▁법 요
▁반 납
▁반 비
▁반 증
▁반 향
▁대한 국
▁대한 올림픽위원회
▁운 혜
▁광 신
▁백 월
▁금 일
▁금 학
▁북 악산
▁용 정리
▁차 곡
▁차 인
▁차 령산맥
▁표 피
▁봉 대
▁봉 암
▁봉 녕사
▁박 산
▁박 안
▁박 통사
▁알 렉
▁알 력
▁알 린
▁입 실
▁입 하
▁점 잖
▁감 필
▁외 공장
▁외 여닫이
▁결 백
▁충 직
▁태 원
▁승 조
▁한국 농
▁직 절
▁저 급
▁병 농
▁독 축
▁사용 료
▁심 적사
▁심 덕부
▁파 스
▁절 수
▁요 정
▁길 복
▁토 담
▁토 층
▁향 덕
▁향 발
▁신라 고분
▁송 운
▁포 보
▁포 산
▁총 록
▁좌 씨전
▁확 연히
▁순 상
▁순 변사
▁치 솟
▁치 질
▁홍 철
▁풍 금
▁풍 파
▁여러 해살이
▁식 염
▁별 선
▁열 무
▁윤 방
▁언 간
▁언 락
▁허 로
▁준 천사
▁준 호구
▁줄 일
▁폐 과
▁불교 인
▁불교 설화
▁암 각
▁온 다고
▁팔 조목
▁타 사
▁타 운
▁타 제
▁타 출
▁타 오르
▁존 치
▁극 력
▁범 중
▁야 광
▁업 장
▁갈 망
▁세계 보건
▁난 삼
▁침 술
▁침 착
▁갖 춰
▁밀 기
▁탑 호
▁목적 지
▁만든 다고
▁보물 고
▁헌 금
▁훈 독
▁훈 호
▁접 지
▁염 류
▁염 이
▁격 증
▁찬 수
▁희 천군
▁섬 돌
▁익 위
▁벌 어진다
▁탄 층
▁응 종
▁응 지
▁응 집
▁망 루
▁망 와
▁망 종
▁리 우
▁얼 른
▁울 퉁불퉁
▁류 인
▁술 밥
▁부산 대학교박물관
▁대사 례
▁뒷 동산
▁전해 온
▁안동 도호부
▁민속 학회
▁탈 옥
▁탈 자
▁계획 법
▁패 도
▁패 사
▁패 인
▁100 9
▁40 8
▁엄 수
▁엄 흥
▁엄 히
▁가리 켰
▁처리 장
▁습 한
▁습 독관
▁떠 올
▁흑 화
▁돈 화
▁돈 나무
▁공업 진흥청
▁결정 체
▁영화 관
▁세종 문화
▁대성 구역
▁경성 법학전문학교
▁진주 사
▁올라 왔
▁잔 인
▁낭 군
▁낭 지
▁휴 의
▁환경 청
▁인천 부
▁인천 상륙작전
▁가정 집
▁공주 대학교
▁동서 쪽
▁동지 춘추관사
▁부정 행위
▁묵 중
▁시험 소
▁그려 진다
▁경사 져
▁죄 악
▁35 8
▁경상도 속찬
▁경계 인
아가 리
▁미륵 리
▁정자 형
▁붉 가시나무
▁조상 굿
▁조상 기
▁덧 대
▁이룬 다는
▁33 3
▁36 1
▁36 8
▁혈 서
▁루 터
조선 노동
▁수원 부
▁그래 픽
▁45 8
▁철학 사
▁흡 곡
▁아무 르
▁꼬 임
▁가져 다가
▁아랫 사람
▁금속 기
▁A r
▁136 0
▁42 5
▁퍼 져서
▁생긴 다고
대장 군
▁떠나 가
▁엽 맥
▁농사 철
▁태극 도
▁염불 회
▁주조 법
▁양주 군
▁빗 천장
▁푸 념
▁솔 기
▁90 6
▁키 네마
▁연장 체
▁66 7
▁행해 져
▁43 6
▁놓여 진
▁예산 회계
▁53 6
▁52 2
▁냉 이
▁권력 자
▁유기 음
▁영동 읍
▁붓 대
▁방문 단
▁대리 점
▁58 7
▁연속 극
▁63 4
▁넘어 간다
▁예수 재
▁부지 밀직사사
▁보험 업
▁나갔 으며
▁三 月
▁가진다 는
▁김용 준
▁갓 끈
▁향로 봉
▁두드러 져
▁82 0
▁직장 인
▁권상 로
▁71 9
▁합성 수지
▁띄 운다
▁일단 락
▁김진 규
▁가죽 신
▁117 4
▁페 이지
▁호적 부
▁文 學
▁내렸 으며
▁합동 통신
▁돼지 머리
▁고금 소총
▁지신 풀이
▁주둔 지
▁89 2
▁반포 면
▁대금 산조
▁단오 절
▁조영 복
▁늘어 뜨렸
▁당산 나무
▁장안 구
▁149 4
▁109 4
▁외국어 교육
▁산악 숭배
▁콘 텐츠
▁불려 왔
▁불려 진
▁점토 질
▁장경 왕후
▁금강경 오가해
▁부안 읍
▁김태 준
▁신정 회
▁134 3
▁양양 가
▁김도 연
▁황종 척
▁國 師
▁天 衣
▁약수 암
▁용화 회
▁포위 망
▁이석 용
▁석장 리
▁조수 삼
▁연금 법
▁예안 면
▁남겨 진
바위 보
▁뜬 다
▁반달 형
▁접속 문
▁닥 치
▁왕궁 리
▁가해 진
▁오경 박사
▁오가 작통
▁도관 찰출척사
▁선화 공주
▁고요 히
▁공익 사업
▁마름 모
▁청춘 좌
▁명동 성당
▁통리 군국사
▁남서 향
▁성전 암
▁가위 바위보
▁겨루 기
▁전중 성
▁선가 귀감
▁경고 문
▁도첨 의부
▁임영 신
▁음료 수
▁휴양 지
▁이회 영
▁나선 다
▁월령 체
▁우동 주
▁백암 군
▁고달 사
▁윤기 섭
▁근친 혼
▁되돌아 오
▁유복 자
▁동음 집
▁꾸밈 새
노동조합 연맹
▁아미 노
▁주원 장
▁각계 각층
▁보라 매
▁랴 오
▁홍제 동
▁기왓 장
▁상교 정본
▁장영 실
▁현도 군
▁북벌 계획
▁조선청년 연합회
▁수라 상
▁계축 옥사
▁인내 천
▁백광 훈
▁숙빈 최씨
▁사리장 엄구
▁정감록 신앙
▁신불 출
▁동그 라미
▁성소 부부
▁함실 아궁이
▁깨우 쳐
▁선농 단
▁눌지 왕
▁엑 스포
▁임산 부
▁비벼 서
▁윤세 복
▁김숙 자
▁위정척사 사상
▁ᄅᆞ ᆷ
▁히로 시마
▁감지은니 묘법연화경
▁돌이 켜
▁숙영 낭자전
▁칠원 성군
▁인선 왕후
▁저마 다
▁급기 야
▁대범 천
▁법기 보살
▁빈틈 없이
▁불발 기
▁만안 구
▁목멱 산
▁서왕 모
▁도쿠 가와
▁북지 장사
▁슬로 건
▁반려 암
▁윌리 엄
▁엔지니어 링
▁가석 방
▁영탑 사
▁창작과 비평사
▁나침 반
▁성달 생
▁농상공 학교
▁고스 란히
▁가첨 석
▁꽈 리
▁즉결 심판
▁가로지 른
▁챔피 언
▁똬 리
▁세계보건 기구
▁경상도속찬 지리지
▁예산회계 법
▁통리군국사 무아문
▁성소부부 고
2 2
4 8
6 7
a b
a d
e w
▁ Ω
▁ ᅱ
▁ 徐
▁ 慵
▁ 戶
▁ 河
▁ 父
▁ 笏
▁ 臨
▁ 謄
▁ 讀
▁ 輯
▁ 덫
▁ 뮌
▁ 뷔
간 첩
갈 퀴
고 궁
곡 곡
교 회사
그 믐
기 리
기 물
낚 시
니 즈
도 보통
동 새
동 삼층석탑
둔 다
루 스
문 수
백 중
범 죄
병 사
불 수
사 직
산 유적
상 규
서 례
서 목
서 울
성 산
세 존
솔 리
신 방
심 결
엽 충
온 공주
요 시
용 어
이 산
자 경
재 일
접 사
좌 위
중 흥
초 기
춘 다
토 미
통 공
파 진
풀 과
풍 아
프 스
프 스크
프 리카
행 진
현 경
▁이 축
▁의 당
▁의 동
▁의 취
▁다 로
▁하 당
▁하 석
▁하 바로
▁고 실
▁고 약
▁고 모음
▁으 라
▁한 금
▁한 숙
▁한 확
▁한 학자
▁가 터
▁가 침박달
▁지 났
▁지 치주의
▁기 솔리
▁어 포
▁어 해
▁어 말어미
▁로 군
▁사 노
▁사 석
▁사 요
▁사 칭
▁사 혼
▁과 천시
▁대 납
▁대 란
▁대 송
▁대 쪽
▁도 법
▁도 세
▁도 품
▁인 감
▁인 빈
▁인 전
▁시 격
▁시 즌
▁시 생대
▁조 엄
▁조 철
▁조 어업
▁전 광
▁일 견
▁일 색
▁제 금
▁제 택
▁적 문
▁부 곽
▁부 등
▁부 심
▁부 러진
▁부 러지
▁자 규
▁자 책
▁정 담
▁정 판
▁정 학교
▁아 병
▁중 책
▁중 철
▁서 선
▁서 제
▁서 현
▁경 가
▁경 한
▁주 만
▁나 흗날
▁위 자료
▁관 시
▁유 양
▁유 준
▁유 철
▁신 과
▁신 권
▁신 회
▁신 지도
▁문 우
▁상 박
▁상 작
▁월 담
▁월 일
▁동 변
▁동 식
▁동 우
▁개 건
▁해 경
▁해 골
▁해 령
▁해 초
▁면 해
▁성 녀
▁성 론
▁성 패
▁성 해
▁성 매매
▁연 리
▁연 나부
▁소 군
▁소 일
▁구 계
▁구 렁
▁구 변
▁만 개
▁만 어산
▁장 발
▁편 도
▁편 포
▁비 면
▁비 양
▁비 오
▁비 웃
▁권 곡
▁권 구
▁권 동
▁내 치
▁발 광
▁발 끝
▁발 림
▁발 제
▁발 치
▁발 호
▁명 과
▁명 반
▁명 일
▁남 관
▁남 록
▁남 은
▁남 주
▁학 재
▁화 곡
▁화 집
▁화 력발전
▁불 석
▁불 입
▁호 대
▁무 라
▁무 숙
▁무 전
▁원 귀
▁원 불
▁원 접사
▁우 루
▁선 약
▁선 바위
▁마 로
▁마 케팅
▁김 몽
▁현 량
▁현 서
▁현 원
▁영 환
▁할 까
▁설 렁
▁설 부
▁당 근
▁당 세
▁당 재
▁간 공
▁산 채
▁산 나물
▁거 병
▁오 소
▁오 제
▁오 페
▁오 수리
▁단 목
▁단 삼
▁단 역
▁단 월
▁강 위
▁강 이
▁통 발
▁통 서
▁계 리
▁계 위
▁계 응
▁계 행
▁양 영
▁두 서
▁두 원
▁안 길
▁안 분
▁안 응
▁진 례
▁진 황
▁각 화사
▁생 칠
▁생 필
▁종 적
▁종 향
▁종 남산
▁삼 봉산
▁역 정
▁함 의
▁함 인
▁군 서면
▁본 지
▁초 이
▁초 출
▁초 화
▁초 산군
▁바 짝
▁분 황
▁재 적
▁재 행
▁석 마
▁석 편
▁청 병
▁평 삼
▁평 천장
▁임 규
▁목 은집
▁노 기
▁노 박
▁노 점
▁노 젓
▁창 곡
▁민 인
▁민 통
▁음 미
▁음 인
▁고려 기
▁고려 악
▁예 선
▁예 총
▁천 교
▁천 학
▁출 상
▁책 무
▁책 보
▁추 동
▁추 화
▁배 관
▁배 동
▁회 개
▁회 춘
▁회 화사
▁왕 고
▁운 산군
▁광 량
▁백 반
▁백 병
▁금 원
▁북 태평양
▁용 고
▁용 력
▁표 신
▁표 적
▁표 형
▁봉 모당
▁입 멸
▁입 암산
▁규 봉
▁매 곡
▁외 재
▁물 림
▁결 박
▁충 재
▁충 민사
▁속 여
▁속 미인곡
▁한국 수
▁직 숙
▁직 이
▁저 령
▁병 해
▁독 역
▁복 분자
▁달 도
▁판 다
▁농 군
▁파 보
▁파 서
▁교육 국
▁절 하
▁요 결
▁요 와
▁토 적
▁향 낭
▁체 이
▁체 직
▁송 내
▁송 일
▁송 풍
▁포 루
▁순 주
▁순 지
▁치 산
▁치 정
▁치 종
▁홍 자
▁앞 잡이
▁풍 작
▁풍 주
▁풍 헌
▁살 문
▁살 판
▁식 고
▁열 풍
▁열 린다
▁윤 임
▁윤 제
▁윤 진
▁손 칼
▁전라 우도
▁가운 뎃
▁취 산
▁품 의
▁언 동
▁완 연
▁완 제
▁지정 사
▁관계 사
▁걸 림
▁효 유
▁효 장
▁일반 직
▁문화 체육
▁스 무
▁스 틱
▁암 울
▁암 태도
▁온 대성
▁팔 모
▁존 대
▁존 스
▁존 무사
▁궁 구
▁궁 지
▁경제 학자
▁곡 장
▁곡 지
▁급 주
▁갈 천
▁갈 고리
▁혼 연
▁혼 혈
▁검 약
▁밀 개
▁밀 화
▁칠 봉
▁자연 관
▁자연 재해
▁덕 현
▁벽 성군
▁질 녀
▁흥 청
▁애 련
▁애 족
▁국립 고궁
▁이어 짓기
▁접 동새
▁겸 영
▁이루어 짐
▁격 일
▁격 쟁
▁먹 중
▁찬 장
▁생각 나
▁희 경
▁희 화
▁읍 사례
▁옛 집
▁문학 자
▁녹 갈색
▁국제 간
▁국제 선
▁리 터
▁울 거미
▁좌우 위
▁보살 행
▁버 마
▁쌍 사자
▁쌍 화점
▁신문 화
▁신문 소설
▁보호 자
▁뒷 간
▁뒷 길
▁뒷 머리
▁윗 대
▁혜 초
▁혜 민국
▁엄 나무
▁가로 수
▁프 레
▁공립 협회
▁납 공
▁납 폐
▁몽 수
▁몽 중
▁숭 선군
▁빠 질
▁휴 업
▁족 하
▁찾아 간다
▁끼 여
▁화엄 신중
▁맹 원
▁맹 장지
▁벗 어났
▁가정 교육
▁장군 봉
▁가까 울
공신 교서
▁법률 안
▁괴 정동
▁지장 경
▁복원 궁
▁살펴 서
▁70 5
▁인쇄 인
▁빌 린
▁흰 옷
▁웅 크
▁금융 기관
▁여겨 서
▁테 제
향교 대성전
▁동북 아
▁사천 감
▁75 5
▁다듬 기
▁돋 아나
▁철도 청
▁금동 미륵보살반
▁헤 어져
▁바깥 벽
▁이정 규
▁이중 섭
▁투자 자
▁42 9
▁천장 부
▁금지 령
▁소비 세
▁무기 질
▁명령 법
▁약사 암
▁보고 회
▁48 1
▁빗 금
▁대승 경
▁솔 가지
▁종묘 서
▁재단 법
▁소년 회
▁천지 인
▁성행 위
▁47 9
▁53 8
▁공양 전
▁52 6
▁52 7
▁문법 형태소
▁46 9
▁49 2
▁가문 소설
동맹 단
▁127 7
▁99 4
▁135 5
▁궤 짝
▁음양 설
▁세손 빈
▁동사 록
▁선원 보
▁예방 의학
▁대리 암
▁굳 어지
▁142 7
▁72 3
▁도교 서
▁상감 모란문
▁이규 영
▁63 6
▁넘어 오
▁대화 체
▁조리 사
▁서화 연구회
▁탄생 지
▁마애불 상군
▁110 4
▁85 8
▁이병 도
▁쇄 환
▁93 4
▁어휘 형태소
▁풍경 화
▁중화 전
▁74 0
▁74 7
an g
▁73 0
▁73 7
▁홍수 조절
▁쾌 윤
▁정약 종
▁기지 촌
▁도화 선
▁동명 성왕
▁희귀 종
▁전염 성
▁이마 니시
▁남동 부
▁늘어 선
▁강계 시
▁매화 타령
▁쏘 가리
▁신광 한
▁잡아 맨
▁노사 협의회
▁친목 도모
▁예천 읍
▁153 7
▁양지 머리
▁혐 오
▁124 3
▁124 5
▁살아 간다
▁화전 놀이
▁천리 교
▁뿔 잔
식물 원
▁인동 문
▁광명 시
▁회령 군
▁무예 도보통
▁인왕 경
▁풍요 속선
▁열녀 전
▁허물 어져
(주)( 大
▁산화 철
▁유진 산
▁우거 지
▁원천 석
▁홍경 모
▁신한 촌
▁묘향 산맥
▁김명 원
▁수묵 화
▁물결 무늬
▁쏟 아지
▁김두 종
▁삼한 공신
▁삼강 령
조직 지심체요절
▁진작 의궤
관음보살 입상
▁다름 없이
▁심양 왕
▁내사 문하성
▁박용 철
▁벗겨 지
▁장가 든
▁양수 장
▁우대 언
▁자진모리 장단
▁담가 서
▁남용 익
▁겁 탈
▁찔 레
▁김복 한
▁외무 성
▁차용 어
▁수질 오염
▁도동 서원
▁버려 진
▁연쇄 극
▁해평 면
▁세무 서
▁박연 폭포
▁양장 본
▁흥해 읍
▁튀어나 와
▁덕흥 군
▁서연 관
상업 학교
▁보신 각
▁목조석가 여래삼불좌상
▁방추 형
▁낙양 춘
▁섣달 그믐
▁각별 히
▁원제 목
▁오구 라
십이 장경
▁차사 원
▁夫 人
▁매사 냥
▁몬 트리
▁천경 자
▁만취 당
▁일민 주의
▁영명 학교
▁드리워 져
▁夢 遊
▁특례 법
▁뮤 지컬
▁통문관 지
▁사뇌 가
▁럭 키
▁감지은니 대방광불화엄경
▁대이 리
요리 제법
▁불이 문
▁두타 산
▁방방 곡곡
▁세라 믹
열반 경
▁수제 천
▁불쌍 히
감독 원
▁호랑 가시나무
▁마이크 로
▁신윤 복
▁양통 집
▁하소 연
▁알파 벳
▁탄신 일
▁적초 의
▁綱 目
▁뗀 석기
복지사 업
▁교태 전
▁방종 현
▁금와 왕
▁면면 히
▁본고 장
▁비송 사건
▁보림사사천왕상복 장
▁거타 지
▁삼막 사
▁五禮 儀
▁慵 齋
▁笏 記
▁하바로 프스크
▁문화체육 관광부
▁국립고궁 박물관
▁금동미륵보살반 가사유상
▁무예도보통 지
▁몬트리 올
A L
H O
s i
y m
▁ _
▁ ᆲ
▁ の
▁ 俗
▁ 僧
▁ 呂
▁ 因
▁ 妙
▁ 帝
▁ 改
▁ 氣
▁ 船
▁ 選
▁ 놉
▁ 멩
▁ 챙
가 산
견 미
견 사
경 쟁
공 영
구 연
구 품
군 자
군 주
그 레
그 리
글 씨
노 사
대 금
대 동
대 작
데 라
데 이
도 심설
동 요
따 라기
또 기
랑 카
래 나무
략 장군
립 국악단
매 장
물 림
반 듯
별 신제
분 방
불 변
사 귀
사 찰
산 신
삼 산
색 조
서 사건
성 결
성 서
소 작
솟 음
수 교
안 주
어 붙
억 령
여 도
오 사
요 해
울 타리
원 왕후
월 보
유 묵
음 집
일 면
일 무
장 나무
재 정부
절 교위
청 동
촌 문집
총 목
춘 선
치 과
태 종
항 섭
현 호적대장
훈 처
휘 사
힐 부
▁이 빈
▁하 림
▁하 물
▁하 우스
▁은 천
▁고 읍
▁고 품
▁한 석
▁가 고
▁가 용
▁되 새
▁지 피
▁지 성사
▁기 덕
▁기 청
▁사 근
▁사 순
▁사 율
▁사 잇
▁과 열
▁대 발
▁대 삼
▁여 며
▁도 영
▁인 촌
▁그 라
▁시 납
▁시 형
▁조 당
▁조 묘
▁조 폐
▁전 가사
▁일 로
▁일 석
▁제 너
▁제 웅
▁적 몰
▁적 서
▁부 랑
▁부 론
▁자 실
▁자 현
▁정 말
▁정 생
▁정 업
▁정 헌대부
▁아 단
▁아 방
▁아 인
▁보 간
▁보 검
▁보 디
▁보 약
▁보 운
▁보 익
▁중 탕
▁와 질토기
▁서 록
▁서 릉
▁서 숙
▁서 봉사
▁서 어나무
▁경 개
▁경 역
▁경 칩
▁경 패
▁경 원군
▁주 이
▁주 어져
▁들 으면
▁나 솔
▁나 제
▁위 나
▁위 덕왕
▁신 언
▁문 보
▁상 노
▁상 쾌
▁라 로
▁동 탁
▁개 당
▁개 모
▁개 자
▁개 원사
▁개 고기
▁면 지
▁면 치
▁성 골
▁성 광
▁성 업
▁성 월
▁성 탄
▁성 천강
▁성 진회
▁연 귀
▁소 굴
▁소 암
▁소 한
▁구 읍
▁구 의
▁만 공
▁만 듦
▁공 생
▁장 검
▁장 번
▁장 음
▁장 포
▁장 풍
▁장 홍
▁장 백산
▁세 무사
▁국 행
▁편 구
▁모 관
▁모 윤숙
▁교 룡
▁비 격
▁비 금
▁비 래
▁내 상
▁발 지
▁명 연
▁남 소
▁남 초
▁학 적
▁불 거
▁불 굴
▁불 식
▁불 지
▁무 직
▁무 더기
▁원 방
▁원 뿔
▁원 영
▁원 폭
▁원 혜
▁우 단
▁우 파
▁선 소
▁김 채
▁김 통
▁현 달
▁현 생
▁현 준
▁영 녕
▁영 령
▁설 공
▁당 피리
▁간 식
▁간 엽
▁산 뜻
▁산 산
▁산 식
▁산 예
▁산 이
▁산 부인
▁오 적
▁단 각
▁단 방
▁강 간
▁강 노
▁강 반
▁강 병
▁강 증
▁강 토
▁계 종
▁두 둔
▁두 른다
▁안 계
▁안 성군
▁진 릉
▁진 병
▁진 재
▁각 황전
▁방 건
▁방 전
▁따 오기
▁삼 면
▁역 군
▁건 도
▁건 져서
▁건 더기
▁초 소
▁초 한
▁바 꿈
▁바 름
▁바 친다
▁분 책
▁재 시
▁말 타기
▁평 기
▁평 촌리
▁임 광
▁임 박
▁임 견미
▁창 빈
▁민 찬
▁천 생
▁천 심
▁천 혜
▁출 륙
▁출 타
▁회 칠
▁반 년
▁광 수
▁광 자
▁백 년
▁백 면
▁백 이
▁백 치
▁백 통
▁백 저포
▁용 액
▁차 전놀이
▁집 수
▁집 자
▁봉 도
▁최 산
▁최 옥
▁알 콜
▁감 모
▁감 음
▁감 저
▁매 상
▁매 죽
▁외 용
▁물 새
▁속 환
▁약 호
▁태 만
▁승 가사
▁한국 독립운동
▁직 언
▁직 통
▁병 세
▁병 작
▁돌 상
▁복 날
▁복 룡
▁복 술
▁심 왕
▁심 전
▁증 폭
▁참 법
▁참 패
▁참 동계
▁요 산
▁향 인
▁향 축
▁향 한다
▁향 현사
▁채 이
▁근 저
▁근 현대
▁황 군
▁황 덕
▁황 자
▁잡 술
▁포 전
▁총 령
▁좌 위
▁담 홍색
▁순 명
▁순 인
▁순 원왕후
▁치 워
▁합 보
▁홍 단
▁홍 연
▁데 쳐
▁귀 당
▁귀 래
▁살 릴
▁식 혀
▁식 영정
▁별 정
▁철 륭
▁못 해서
▁열 량
▁열 행
▁죽 사
▁윤 비
▁항 행
▁즉 석
▁취 구
▁품 삯
▁품 행
▁완 사면
▁효 의
▁효 창
▁협 성회
▁허 진
▁조직 법
▁환 주
▁악 산
▁스 커
▁온 성군
▁팔 려
▁타 력
▁타 율
▁맞 잡
▁존 망
▁친 화
▁생활 비
▁야 스
▁갈 림
▁갈 항사
▁혼 작
▁검 도
▁검 붉
▁검 술
▁갖 출
▁국민 주
▁낙 방
▁흥 정
▁애 써
▁남북 적십자
▁남북 정상회담
▁연대 기
▁격 동기
▁찬 불
▁강원 대학교
▁강원 감영
▁첨 설직
▁읍 선생
▁벌 거
▁녹 청
▁탄 일
▁탄 현
▁노동 관계
▁망 념
▁망 덕사
▁산업 대학
▁리 원
▁색 장
▁구분 전
▁얻 어먹
▁십 념
▁주장 군
▁긴 박
▁버 릇
▁도서관 학
▁자유 분방
▁마음 껏
▁굴 피
▁착 금
▁안동 현
▁윗 목
▁유학 사
▁혜 산군
▁40 9
▁쇠 도끼
▁가리 킬
▁깨 져
▁깨 어나
▁지붕 마루
▁돈 황
문학 사
▁정보 원
▁문헌 학
▁메 모리
▁숭 정대부
▁압 연
▁잔 영산
▁나타난 다는
▁낭 송
▁고등 검찰청
교육 대학
▁묘지 기
▁맹 렬
▁맹 렬히
▁옹 성
▁잎 사귀
▁묵 암
▁31 9
공신 녹권
▁문장 력
▁곤 괘
▁전투 력
▁전투 함
▁좌상 시
▁탐 독
▁지구 대
▁지식 경제부
▁우물 가
▁상량 대
▁사립 학교
공업 전문학교
▁택 할
▁수출 품
▁칼 리
▁삭 주군
▁37 6
▁융 릉
▁바라 문
▁깃 들여
▁자금 우
▁헤 어졌
▁영남 학파
▁大 佛
▁이정 신
▁통제 력
▁이중 환
▁39 5
▁대지 주
▁48 4
▁찰 리사
▁춘추 좌씨전
▁41 3
▁km2 .
▁하사 품
▁트 임
▁밥 알
▁김성 진
▁원산 노동
▁43 3
▁이른다 고
▁이순 지
▁이종 상
▁44 5
▁나타낸 다고
▁대조 사
▁46 2
▁냉 장고
▁거래 법
▁가례 도감
▁가례 원류
▁127 9
▁기획 재정부
▁태양 년
▁애국 정신
▁달라 붙
▁65 8
학생 회
▁부자 유
통일 원
▁여진 학
▁이재 명
노동 요
▁신석 정
▁국악 기
▁깎 이
▁굳 혔
▁58 8
▁늦 추
▁물러 갔
▁합의 서
▁정유 길
▁국토 통일원
지방 회
▁음운 체계
▁모셔 졌
▁63 0
▁총무 국
▁92 9
▁저항 권
▁82 1
▁어휘 집
▁98 0
▁61 2
▁봉황 문
▁영업 전
▁명성 왕후
▁직선 거리
▁유수 사
▁유전 체
▁151 6
▁신흥 우
▁ᄒᆞ ᆯ
▁ᄒᆞ 니
▁ᄒᆞ 야
▁86 8
▁가시 리
▁값 진
▁창의 사
▁79 0
▁풍류 방
▁교섭 단체
▁꾸며 서
▁부활 절
▁김병 학
▁102 2
▁102 9
▁잡아 당기
▁장안 성
조사 위원회
▁희곡 집
▁109 5
▁유람 단
▁사마 광
▁사성 통해
▁오리 나무
▁운송 업
▁똑 똑
▁잣 가루
▁인심 도심설
▁성산 읍
텔레 비전
▁가려 내
▁소방 상
▁자경 문
▁신비 주의
▁ᄋ ᆡ
▁허물 어진
▁書 院
▁133 9
▁간석 기
▁서간 도
▁ᄌ ᆡ
▁냈 으며
▁오방 진
▁결부 법
▁이학 규
▁탁지 아문
▁앞장 선
▁박인 량
▁발라 서
▁첨사 부
▁위계 질서
▁사미 계
▁유영 경
▁영수 사
▁관현 방
다지 소리
▁으뜸 가
▁가벼 워
▁자갈 돌
▁보국 훈장
▁용강 군
▁00 5
▁시흥 시
▁古 今
▁끌어 올리
▁두터 워
▁김계 휘
▁영모 재
▁박수 근
▁시급 히
▁송화 강
▁관람 객
▁고상 주거
▁거쳤 으며
▁순경 음
도총 제부
el l
▁모티 브
▁호화 선
▁제련 소
▁거느 렸
▁사나 운
▁정남 희
▁목곽 분
▁삼군 도총제부
▁寶 鑑
▁중서시 랑
▁계량 기
▁둥그 렇
▁노원 리
▁강대 국
▁백석 산
▁부끄 러워
대도 호부
▁周 禮
▁다보 사
▁도계 읍
▁영춘 면
▁春 秋
▁국가보 훈처
▁적상 산성
▁정홍 명
▁이가 원
▁이가 환
▁육전 조례
▁증여 세
▁목련 경
조치 법
▁계성 학교
▁조윤 제
▁백동 화
▁문덕 전
▁베르 뇌
▁자하 문
▁추기 경
▁내영 도
▁평시 서
▁최진 립
▁방송통신 대학
▁포고 문
수호 통상조약
▁평성 시
▁동짓 달
▁공백 기
▁미닫이 문
▁원적 산
▁금부 도사
▁정환 직
▁덧뵈기 춤
▁소맷 부리
▁都 監
▁의연 금
▁심산 유곡
▁도참 사상
▁성희 안
▁청연 각
▁껴 묻
▁능지 처
▁대무 신왕
▁불기 소
▁보리수 나무
▁부이 사관
보살반 가상
▁어여 머리
▁정극 인
▁매염 제
외국어 대학교
▁허난 설헌
▁스리 랑카
▁농지개량 조합
▁환두 대도
▁골품 제
▁기독교대한 감리회
▁하공 진
▁고두 밥
▁연체 동물
▁조선문인 협회
▁의태 어
▁불규칙 용언
▁격변 기
▁잊어버 리
지질 도
▁법집별행록절요 병입사기
▁여염 집
▁연오 랑
▁비술 나무
▁청황 종
▁박격 포
▁새문안 교회
▁메추 라기
▁망가 니즈
▁스티븐 스
▁세견 선
▁청통 면
▁합명 회사
▁한청 문감
▁자긍 심
촬영 소
▁아미노 산
▁생필 품
▁산부인 과
▁남북적십자 회담
▁원산노동 연합회
I T
u b
ᄉ ᆞ
▁ ᆰ
▁ ・
▁ 亂
▁ 其
▁ 副
▁ 去
▁ 只
▁ 右
▁ 園
▁ 完
▁ 淨
▁ 穴
▁ 緣
▁ 譯
▁ 遣
▁ 궂
▁ 끗
▁ 웰
▁ 쯔
▁ 킬
▁ 탤
▁ 팩
▁ 펌
▁ 펑
가 공
가 곡집
갓 집
거 부
공 관
관 현
교 린
군 경
굿 둑
궤 도
낭 청
내 동
넘 기
덕 원
도 론
도 연맹
두 식
등 산
뜨 릴
래 담
리 삼층석탑
릴 라
막 리지
매 도
매 병
메 트
멸 죄
미 리
베 이스
별 전
보 문
보 현
부 수
부 적
부 조
부 엉이
불 회
비 구
비 소리
사 변
산 법
서 까래
성 룡
세 무사
소 포
속 집
야 면
약 록
어 짐
여 갑당
연 꽃
왕 경
운 학
원 왕
유 래담
윽 고
이 나
이 부
이 성
이 용
이 중탕
인 정
입 국
장 승
저 씨
전 의
정 이
중 도
중 보
중 선
참 모
챗 살
철 화
치 인
클 리
키 노
태 우기
티 즘
팔 찌
팔 트
폴 리
프 롤레타리아
필 원
필 적
해 송
해 저
행 궁
효 전
후 생
후 서
흐 로
▁이 류
▁이 판
▁이 혁
▁이 윽고
▁에 밀
▁다 도면
▁하 슬
▁고 송
▁고 순
▁고 우
▁고 원군
▁한 낱
▁가 냘
▁가 달
▁지 가
▁지 감
▁지 직
▁기 림
▁기 비
▁어 머님
▁사 려
▁사 슬
▁사 열
▁사 음
▁사 저
▁사 문학
▁사 들여
▁대 궁
▁대 밭
▁여 구
▁여 학
▁인 역
▁인 텔
▁그 야
▁시 덕
▁시 묘
▁시 봉
▁수 풀
▁조 승
▁조 휘
▁조 대비
▁전 존
▁일 쑤
▁일 맥상
▁제 삿
▁제 행
▁적 관
▁적 송
▁부 레
▁부 어
▁부 푼
▁부 봉사
▁부 챗살
▁정 빈
▁아 베
▁아 하
▁아 저씨
▁보 가
▁보 스토크
▁보 스턴
▁중 어
▁와 기
▁와 도
▁서 축
▁경 례
▁경 민
▁주 말
▁주 암
▁주 촌면
▁나 남
▁위 차
▁위 턱
▁관 봉
▁관 천대
▁유 규
▁유 령
▁유 미
▁유 습
▁신 득
▁신 철
▁신 항
▁신 생활
▁신 평리
▁신 북면
▁문 민
▁문 백
▁상 천
▁게 이오
▁동 곡
▁동 떨
▁동 미
▁동 축
▁동 천왕
▁개 전
▁해 년
▁해 직
▁면 담
▁성 글
▁성 만
▁성 직
▁연 골
▁소 운
▁소 채
▁소 출
▁소 치
▁소 타
▁구 야
▁구 폐
▁만 과
▁공 한
▁장 육
▁장 혼
▁조선 프롤레타리아
▁편 모
▁모 녀
▁모 락
▁교 잡
▁비 뚤
▁비 시
▁비 족
▁발 굽
▁명 고
▁명 곡
▁명 회
▁학 맥
▁화 명
▁화 식
▁무 뢰
▁무 풍
▁우 소
▁우 지
▁마 는
▁마 선
▁마 취
▁김 단
▁김 붕
▁김 알
▁형 정
▁형 이하
▁영 설
▁영 직
▁영 합
▁설 씨
▁당 목
▁간 만
▁산 초
▁거 질
▁거 서간
▁강 박
▁강 현면
▁통 명
▁계 관
▁계 금
▁계 라
▁계 의
▁계 정사
▁양 록
▁양 쯔
▁양 푼
▁각 류
▁종 점
▁종 착
▁종 횡
▁삼 합
▁삼 황
▁군 파
▁군 학
▁본 영산
▁초 선
▁바 싹
▁바 윗
▁행 색
▁실 에
▁석 명
▁석 현
▁미 나
▁청 심
▁청 죽
▁평 석
▁평 장
▁임 질
▁임 회
▁임 해전
▁목 인
▁목 향
▁목 제품
▁노 쇠
▁민 구
▁민 의
▁민 유지
▁예 념
▁예 림
▁천 내
▁천 흥
▁출 국
▁출 근
▁책 략
▁책 실
▁추 일
▁배 명
▁배 식
▁배 주
▁배 현경
▁회 명
▁회 계사
▁법 언
▁법 학자
▁왕 규
▁반 직
▁대한 기독교
▁대한 광복회
▁운 다
▁운 현궁
▁광 정원
▁백 곡
▁백 봉
▁백 부
▁금 물
▁금 유
▁금 조
▁금 했
▁처 했
▁북 해
▁차 년
▁표 충
▁봉 진
▁봉 영사
▁최 효
▁박 약
▁입 궁
▁입 북
▁규 문
▁점 친다
▁감 명
▁감 악산
▁외 제
▁외 로움
▁변 설
▁변 했
▁속 격
▁속 수
▁약 탕
▁태 연
▁태 천군
▁직 녀
▁직 사관
▁병 환
▁독 살
▁돌 린다
▁복 토
▁달 달
▁달 력
▁판 병부사
▁증 주
▁파 루
▁파 벌
▁파 일
▁참 서
▁참 장
▁내용 물
▁요 부
▁묘 하
▁지방 산
▁토 가
▁토 마스
▁잡 령
▁총 계
▁총 후
▁필 통
▁경상 대학교
▁담 금
▁담 연
▁합 섬
▁합 좌
▁합 죽
▁홍 원군
▁데 쳐서
▁풍 문
▁풍 암
▁귀 경
▁살 렸
▁식 례
▁식 히
▁철 통
▁철 퇴
▁죽 책
▁윤 충
▁윤 하
▁항 주
▁언 부
▁육 탄
▁육 회
▁완 숙
▁완 호
▁층 계
▁대학 로
▁옥 련
▁옥 정
▁경기 자
▁경기 잡가
▁피 륙
▁피 막
▁허 훈
▁악 용
▁악 질
▁폐 업
▁이상 주의
▁능 금
▁친 가
▁친 소
▁경제 인
▁발전 사
▁날 라
▁곡 령
▁급 재
▁야 음
▁야 채
▁갈 명
▁이용 후생
▁누 렇
▁난 세
▁난 점
▁밀 성군
▁몸 매
▁칠 조
▁질 긴
▁드 렁
▁투 탁
▁보인다 는
▁국민 보
▁국민 장
▁목적 의식
▁만든 다
▁흥 기
▁흥 화진
▁견 줄
▁애 쓰
▁막 간
▁접 안
▁접 종
▁염 법
▁염 흥
▁겸 할
▁규정 지
▁격 고
▁인간 사
▁경주 황
▁경주 남산
▁찬 가
▁벌 일
▁음악 사
▁녹 각
▁녹 패
▁탄 닌
▁응 화
▁산업 재해
▁리 강
▁리 더
▁리 부
▁곧 잘
▁국내 법
▁돌아 앉
▁십 경
▁술 맛
▁술 지
▁좌우 익
▁보통 명사
▁임명 장
▁척 식
▁척 족
▁척 주
▁평안 계
중앙 박물관
▁뒷 목
▁잠 두
▁잠 종
▁착 상
▁50 9
▁둥 덩
▁혁 혁
▁탈 속
▁40 7
▁엄 형
▁넘 겼
▁땅 바닥
▁몽 진
▁메 아리
▁숭 늉
▁숭 모
▁늘 어졌
▁대성 산성
▁경영 진
▁경성 고등
▁정원 본
▁청동 방울
▁무신 정변
▁집단 생활
▁족 부
▁답 교
▁인천 국제공항
▁하늘 색
▁묵 직
▁흘 렀
▁칭 해
▁60 4
▁지름 길
국사 비
▁이하 윤
▁서양 사
▁촉 지인
▁관음 굴
▁회사 채
▁짜 여지
▁35 1
▁은행 법
▁은행 장
▁경향 신문사
▁상주 권공
▁괘 릉
▁괘 불화
▁커 져
▁감독 관
▁궁중 음식
▁80 4
▁70 2
▁70 6
▁대비 심
▁정의 현
▁수원 성
▁전사 본
▁아름다 워서
▁기와 밟기
▁38 1
▁인구 어
▁동해 시
▁욕 지
▁공급 자
▁흉 작
▁흉 한
▁레 지
▁획 책
▁75 1
▁서북 구
▁악기 조성
▁령 사
▁A c
▁大 方
▁김해 식
▁연세 대
대사 간
대사 전
▁김영 일
▁I n
▁수산 제
▁양주 방
▁솔 성
▁64 4
▁키 웠
▁소년 단
▁당대 척
▁가공 품
▁원산 항
▁신중 히
▁43 8
▁단군 교
▁섭 이
▁52 8
▁보리 암
▁51 5
▁유성 원
▁46 6
▁감정 인
▁신민 요
▁김수 증
▁드리 웠
과학 대학교
▁135 7
▁M L
▁56 1
▁시민 운동
▁맞이 해
▁주재 자
▁제석 거리
▁경연 강의
선사 유적
▁사천왕 문
▁나한 재
▁구절 초
▁홑 집
▁사서 인
▁불렸 으나
독립 당
▁신경 향
▁향토 색
▁안치 한
▁63 5
▁63 9
▁설계 도
▁석회 질
▁대응 책
▁기호 흥학회
▁웃 옷
▁동인 제
▁88 7
▁쇄 설
▁장자 못
▁93 9
▁도망 갔
▁머무 를
예술 동맹
▁우조 가락도드리
▁부서 지
▁봉황 음
▁거북 바위
▁83 5
▁갈색 토
▁155 7
▁155 8
▁상고 사
▁아기 씨
▁74 8
회장 저고리
▁헛 된
▁신의 주시
▁86 0
or a
▁이덕 수
▁이의 현
▁79 4
정리 유적
▁남동 생
is s
▁東 醫
▁사간원 대사간
▁보안 림
▁보안 면
▁내포 제
단체 협의회
▁수기 치인
▁주최 자
▁소양 면
ic al
▁사마 천
▁썰 매
▁삼신 산
▁벌였 으며
▁벌였 으나
▁성경 학교
▁圖 書
▁정계 비
▁후진 국
▁의종 손익
▁자인 면
▁134 4
▁113 6
▁석곽 분
산대 첩
▁박승 종
▁용화 산
▁휴전 회담
▁도가 니
▁서간 집
민요 집
▁우거 왕
▁덩굴 성
▁전임 자
▁몰려 가
▁보증 금
▁보증 인
▁공수 전
▁경무 국
▁R OM
▁관현 맹
▁예문 지
▁닥 쳐
▁기로 연
▁정희 량
▁최승 로
▁콧 구멍
▁수렵 도
▁O SS
▁청계 산
▁봉상시 정
▁가두 시위
▁구룡 포
▁고국 원왕
▁조천 록
▁박기 홍
▁수안 보
▁물리학 자
▁佛 說
▁경리 청
▁삼사 좌
▁살풀이 장단
▁영모 화
▁중개 인
▁적십자 병원
19 8
▁오지 그릇
▁출세 간
▁마천 목
▁정안 국
▁동창 회
▁혜성 가
▁연예 인
▁군웅 굿
▁육영 공원
▁최윤 덕
상업 고등학교
▁상평 청
▁만포 선
▁주리 론
▁상동 교회
▁넉넉 히
▁목조석가 여래삼존좌상
▁멍석 말이
▁유후 조
▁휩 싸
▁노년 기
▁도요 토미
▁한상 경
▁십장생 도
▁명지 대학교
▁오장 환
▁판심 제
▁공감 대
▁관구 검
▁삼포 왜란
지장보살 좌상
▁화수 분
▁삼량 집
▁경현 당
▁선광 장
▁조한 영
▁삼론 종
▁미터 법
▁박효 관
▁저기 압
▁머릿 기름
▁산경 표
조성 도감
▁함석 헌
▁돈독 히
▁태일 전
▁월등 히
▁부단 히
▁심광 세
▁쇳 물
▁아스 팔트
재의 찬요
▁권응 수
▁형지 안
▁주차 장
▁시냇 가
▁황칠 나무
▁경각 심
▁점필 재
▁저당 권
▁요코 하마
유일 당
▁네모뿔 대
▁기효 신서
▁등신 대
▁아열 대
▁윤행 임
▁뜻밖 에
▁스프 링
▁목조지장보살 삼존상
▁유응 부
▁諺 解
▁관덕 정
가톨릭 대학교
▁의영 고
▁면앙 정
▁감목 관
▁다나 카
▁한소 끔
▁서불 한
▁유숭 조
▁민족자 주
▁신말 주
▁오돌 또기
▁원증 국사
▁조선물산장려 회
▁떳 떳
왜가리 번식지
▁서항 석
▁몽산화상법어 약록
▁隋 書
자동 차
▁송내 희
관현 악단
▁일맥상 통
▁조선프롤레타리아 예술동맹
▁경성고등 상업학교
▁상주권공 재
▁악기조성 청
2 3
4 9
7 2
D P
▁ 動
▁ 可
▁ 吟
▁ 攷
▁ 板
▁ 紅
▁ 美
▁ 軌
▁ 達
▁ 銘
▁ 굼
▁ 샬
▁ 킹
▁ 톡
▁ 툭
개 론
개 서
곶 면
광 록대부
교 의
구 려
국 도
귀 일
금 문
낭 중
농 서
능 선
도 비
동 정
두 레
뜨 기
뜨 물
령 시
로 바
론 고적기
릴 사위
만 금
모 전
바 리
밟 이
방 전
법 주사
별 기
본 말
부 르크
불 망
사 진
사 철
사 항
사 이트
산 제
생 지
서 포
선 열
설 기
성 공회
셔 널
신 곡
실 총
씻 이
아 악
양 목
언 행록
에 트
열 도
영 도
오 세
외 면
용 천부
유 씨
윤 리학
음 증
이 십
인 문
자 음
자 동맹
전 면
전 신선
정 난
제 석
조 정
지 천
진 천뢰
차 곡
청 각
테 이너
토 쿠
통 문
퇴 직
파 람
평 원
평 의회
합 루
해 관
해 부
향 제
형 토기
홍 보
훈 랑
휘 집
▁이 각
▁이 로
▁이 욱
▁이 칙
▁이 포
▁의 위
▁다 례
▁다 마
▁다 와
▁하 악
▁고 된
▁고 압
▁으 깨
▁한 설
▁가 렸
▁가 봉
▁가 새
▁가 솔
▁지 는
▁지 재
▁지 춘추관사
▁기 표
▁어 산
▁로 울
▁로 웠
▁사 곡
▁사 권
▁사 곡면
▁과 로
▁대 고
▁대 입
▁대 혜
▁대 산면
▁대 완구
▁여 계
▁여 비
▁여 척
▁수 졸
▁수 충
▁수 칙
▁수 나무
▁조 법
▁조 아
▁조 온
▁조 통
▁조 파
▁전 칭
▁전 객사
▁일 만
▁일 우
▁제 2
▁제 초
▁적 셔
▁부 교
▁부 질
▁부 총장
▁자 술
▁자 심
▁자 족
▁정 갈
▁정 고
▁정 득
▁정 류
▁정 편
▁아 키
▁보 명
▁보 소
▁보 쌈
▁보 포
▁보 원사
▁보 은사
▁중 론
▁중 승
▁중 암
▁중 윤
▁중 궁전
▁서 교
▁서 임
▁서 조
▁주 단
▁주 왕
▁주 월
▁들 노래
▁위 덕
▁위 신
▁위 증
▁관 물
▁관 유
▁관 창
▁유 항
▁유 운룡
▁신 족
▁문 곡
▁문 조
▁상 온
▁라 산
▁월 상
▁동 글
▁동 로
▁동 불
▁동 운
▁개 각
▁개 기
▁개 평
▁해 간
▁해 장국
▁성 성
▁성 순
▁성 철
▁성 동리
▁연 청
▁소 노부
▁구 담
▁구 민
▁구 충
▁구 층석탑
▁만 복사
▁공 히
▁공 음전
▁장 림
▁장 염
▁장 응
▁장 타령
▁장 아찌
▁세 벌
▁조선 의용대
▁국 신
▁국 창
▁편 서
▁모 독
▁교 첩
▁비 뇨
▁비 소
▁권 법
▁권 철
▁내 간
▁내 급사
▁내 삼청
▁후 쇄본
▁화 태
▁화 암서원
▁불 쾌
▁불 어나
▁호 걸
▁호 곡
▁호 르몬
▁우 공
▁우 등
▁우 발
▁우 언
▁우 즈
▁선 목
▁선 파
▁현 시
▁현 충사
▁형 량
▁영 림
▁설 산
▁설 상
▁당 항
▁간 악
▁간 정
▁산 위
▁산 자락
▁거 구
▁거 침
▁오 강
▁오 승
▁오 학
▁오 례의
▁단 궁
▁강 익
▁강 전
▁강 천
▁계 측
▁양 규
▁양 말
▁양 익
▁두 릅
▁두 엄
▁두 릅나무
▁안 배
▁안 함
▁안 협
▁안 홍
▁안 회
▁진 량
▁진 홍
▁방 술
▁생 인
▁생 후
▁따 먹
▁삼 대
▁삼 석
▁삼 익
▁삼 패
▁함 박
▁군 조
▁초 유
▁초 효
▁분 권
▁분 대장
▁재 갈
▁석 권
▁청 령
▁청 태
▁청 난공신
▁청 미래
▁평 단
▁평 롱
▁임 재
▁임 당동
▁노 구
▁노 군
▁노 옹
▁창 암
▁창 연
▁민 암
▁음 고
▁음 즙
▁천 공
▁천 단
▁천 적
▁따라 갔
▁배 전
▁배 중
▁배 지
▁배 뱅이
▁법 대
▁왕 안
▁왕 전
▁왕 십리
▁반 변
▁반 남면
▁운 림
▁백 현
▁금 잔
▁북 반
▁북 접
▁봉 부
▁봉 한다
[...]
